{
  "0": "<PAD>",
  "1": "<MASK_TOKEN>",
  "2": "<BOS_TOKEN>",
  "3": "<EOS_TOKEN>",
  "4": "<UNK>",
  "5": "<|START_OF_TURN_TOKEN|>",
  "6": "<|END_OF_TURN_TOKEN|>",
  "7": "<|USER_TOKEN|>",
  "8": "<|CHATBOT_TOKEN|>",
  "9": "<|SYSTEM_TOKEN|>",
  "10": "<|NEW_FILE|>",
  "11": "<|BEGINNING_OF_PREFIX_FIM_TOKEN|>",
  "12": "<|BEGINNING_OF_MIDDLE_FIM_TOKEN|>",
  "13": "<|BEGINNING_OF_SUFFIX_FIM_TOKEN|>",
  "14": "<|END_OF_MIDDLE_FIM_TOKEN|>",
  "15": "!",
  "16": "\"",
  "17": "#",
  "18": "$",
  "19": "%",
  "20": "&",
  "21": "'",
  "22": "(",
  "23": ")",
  "24": "*",
  "25": "+",
  "26": ",",
  "27": "-",
  "28": ".",
  "29": "/",
  "30": "0",
  "31": "1",
  "32": "2",
  "33": "3",
  "34": "4",
  "35": "5",
  "36": "6",
  "37": "7",
  "38": "8",
  "39": "9",
  "40": ":",
  "41": ";",
  "42": "<",
  "43": "=",
  "44": ">",
  "45": "?",
  "46": "@",
  "47": "A",
  "48": "B",
  "49": "C",
  "50": "D",
  "51": "E",
  "52": "F",
  "53": "G",
  "54": "H",
  "55": "I",
  "56": "J",
  "57": "K",
  "58": "L",
  "59": "M",
  "60": "N",
  "61": "O",
  "62": "P",
  "63": "Q",
  "64": "R",
  "65": "S",
  "66": "T",
  "67": "U",
  "68": "V",
  "69": "W",
  "70": "X",
  "71": "Y",
  "72": "Z",
  "73": "[",
  "74": "\\",
  "75": "]",
  "76": "^",
  "77": "_",
  "78": "`",
  "79": "a",
  "80": "b",
  "81": "c",
  "82": "d",
  "83": "e",
  "84": "f",
  "85": "g",
  "86": "h",
  "87": "i",
  "88": "j",
  "89": "k",
  "90": "l",
  "91": "m",
  "92": "n",
  "93": "o",
  "94": "p",
  "95": "q",
  "96": "r",
  "97": "s",
  "98": "t",
  "99": "u",
  "100": "v",
  "101": "w",
  "102": "x",
  "103": "y",
  "104": "z",
  "105": "{",
  "106": "|",
  "107": "}",
  "108": "~",
  "109": "�",
  "110": "�",
  "111": "�",
  "112": "�",
  "113": "�",
  "114": "�",
  "115": "�",
  "116": "�",
  "117": "�",
  "118": "�",
  "119": "�",
  "120": "�",
  "121": "�",
  "122": "�",
  "123": "�",
  "124": "�",
  "125": "�",
  "126": "�",
  "127": "�",
  "128": "�",
  "129": "�",
  "130": "�",
  "131": "�",
  "132": "�",
  "133": "�",
  "134": "�",
  "135": "�",
  "136": "�",
  "137": "�",
  "138": "�",
  "139": "�",
  "140": "�",
  "141": "�",
  "142": "�",
  "143": "�",
  "144": "�",
  "145": "�",
  "146": "�",
  "147": "�",
  "148": "�",
  "149": "�",
  "150": "�",
  "151": "�",
  "152": "�",
  "153": "�",
  "154": "�",
  "155": "�",
  "156": "�",
  "157": "�",
  "158": "�",
  "159": "�",
  "160": "�",
  "161": "�",
  "162": "�",
  "163": "�",
  "164": "�",
  "165": "�",
  "166": "�",
  "167": "�",
  "168": "�",
  "169": "�",
  "170": "�",
  "171": "�",
  "172": "�",
  "173": "�",
  "174": "�",
  "175": "�",
  "176": "�",
  "177": "�",
  "178": "�",
  "179": "�",
  "180": "�",
  "181": "�",
  "182": "�",
  "183": "�",
  "184": "�",
  "185": "�",
  "186": "�",
  "187": "�",
  "188": "�",
  "189": "�",
  "190": "�",
  "191": "�",
  "192": "�",
  "193": "�",
  "194": "�",
  "195": "�",
  "196": "�",
  "197": "�",
  "198": "�",
  "199": "�",
  "200": "�",
  "201": "�",
  "202": "�",
  "203": "\u0000",
  "204": "\u0001",
  "205": "\u0002",
  "206": "\u0003",
  "207": "\u0004",
  "208": "\u0005",
  "209": "\u0006",
  "210": "\u0007",
  "211": "\b",
  "212": "\t",
  "213": "\n",
  "214": "\u000b",
  "215": "\f",
  "216": "\r",
  "217": "\u000e",
  "218": "\u000f",
  "219": "\u0010",
  "220": "\u0011",
  "221": "\u0012",
  "222": "\u0013",
  "223": "\u0014",
  "224": "\u0015",
  "225": "\u0016",
  "226": "\u0017",
  "227": "\u0018",
  "228": "\u0019",
  "229": "\u001a",
  "230": "\u001b",
  "231": "\u001c",
  "232": "\u001d",
  "233": "\u001e",
  "234": "\u001f",
  "235": " ",
  "236": "",
  "237": "�",
  "238": "�",
  "239": "�",
  "240": "�",
  "241": "�",
  "242": "�",
  "243": "�",
  "244": "�",
  "245": "�",
  "246": "�",
  "247": "�",
  "248": "�",
  "249": "�",
  "250": "�",
  "251": "�",
  "252": "�",
  "253": "�",
  "254": "�",
  "255": "�",
  "256": "�",
  "257": "�",
  "258": "�",
  "259": "�",
  "260": "�",
  "261": "�",
  "262": "�",
  "263": "�",
  "264": "�",
  "265": "�",
  "266": "�",
  "267": "�",
  "268": "�",
  "269": "�",
  "270": "�",
  "271": "  ",
  "272": "�",
  "273": " t",
  "274": "er",
  "275": "in",
  "276": " a",
  "277": "en",
  "278": "on",
  "279": " s",
  "280": "an",
  "281": " d",
  "282": "es",
  "283": "at",
  "284": "    ",
  "285": "or",
  "286": " p",
  "287": " c",
  "288": "he",
  "289": "ar",
  "290": "is",
  "291": "al",
  "292": "re",
  "293": " m",
  "294": "it",
  "295": "�",
  "296": "�",
  "297": "ا",
  "298": "�",
  "299": " o",
  "300": " b",
  "301": " the",
  "302": "as",
  "303": "le",
  "304": " f",
  "305": "�",
  "306": " �",
  "307": " n",
  "308": " w",
  "309": "ro",
  "310": "�",
  "311": "ic",
  "312": " �",
  "313": "ed",
  "314": " l",
  "315": "el",
  "316": "ing",
  "317": "ion",
  "318": "ent",
  "319": " in",
  "320": "nd",
  "321": "ل",
  "322": "et",
  "323": ".\n",
  "324": " h",
  "325": " �",
  "326": "ou",
  "327": "il",
  "328": "о",
  "329": "om",
  "330": " v",
  "331": "am",
  "332": " of",
  "333": "st",
  "334": " e",
  "335": " �",
  "336": "а",
  "337": " to",
  "338": "ac",
  "339": "ad",
  "340": "id",
  "341": " u",
  "342": "е",
  "343": "im",
  "344": " and",
  "345": " de",
  "346": "        ",
  "347": " k",
  "348": " g",
  "349": "�",
  "350": " th",
  "351": "ol",
  "352": "\n\n",
  "353": " �",
  "354": "os",
  "355": "�",
  "356": "ur",
  "357": "ut",
  "358": "и",
  "359": "   ",
  "360": "�",
  "361": "т",
  "362": "ي",
  "363": "ig",
  "364": "em",
  "365": " S",
  "366": "ن",
  "367": " T",
  "368": "ec",
  "369": "ot",
  "370": "iv",
  "371": "ा",
  "372": "qu",
  "373": "ر",
  "374": "н",
  "375": " A",
  "376": "�",
  "377": " re",
  "378": " y",
  "379": "ال",
  "380": "ch",
  "381": " �",
  "382": "ag",
  "383": "ir",
  "384": "un",
  "385": " r",
  "386": " is",
  "387": "ul",
  "388": "�",
  "389": " (",
  "390": "و",
  "391": "م",
  "392": "us",
  "393": "с",
  "394": "р",
  "395": " C",
  "396": "�",
  "397": "é",
  "398": "est",
  "399": " I",
  "400": "�",
  "401": "о�",
  "402": "�",
  "403": "ak",
  "404": "ه",
  "405": "ation",
  "406": " P",
  "407": " con",
  "408": "od",
  "409": " M",
  "410": "ay",
  "411": "ت",
  "412": "�",
  "413": "�",
  "414": " ال",
  "415": "ab",
  "416": "ow",
  "417": "ा�",
  "418": " $",
  "419": " st",
  "420": " for",
  "421": "um",
  "422": "�",
  "423": "�",
  "424": "े",
  "425": "ter",
  "426": "ie",
  "427": "ap",
  "428": " �",
  "429": "�",
  "430": " |",
  "431": " pro",
  "432": "ang",
  "433": "á",
  "434": "if",
  "435": "te",
  "436": " �",
  "437": " B",
  "438": "د",
  "439": "�",
  "440": "्",
  "441": " D",
  "442": " an",
  "443": "av",
  "444": "्�",
  "445": "ce",
  "446": "ct",
  "447": " on",
  "448": "ers",
  "449": "ess",
  "450": " �",
  "451": " al",
  "452": "ik",
  "453": " se",
  "454": "ly",
  "455": "�",
  "456": "ist",
  "457": " j",
  "458": ".\n\n",
  "459": "்",
  "460": "and",
  "461": " be",
  "462": "ate",
  "463": "th",
  "464": "ia",
  "465": " qu",
  "466": "ht",
  "467": "ا�",
  "468": " com",
  "469": "..",
  "470": "л",
  "471": " E",
  "472": " en",
  "473": " \\",
  "474": "ng",
  "475": " tr",
  "476": " F",
  "477": "у",
  "478": " R",
  "479": ";\n",
  "480": "oc",
  "481": "َ",
  "482": "ith",
  "483": "ort",
  "484": " L",
  "485": " \"",
  "486": "00",
  "487": " un",
  "488": "       ",
  "489": " as",
  "490": "ant",
  "491": "ि",
  "492": "í",
  "493": "ere",
  "494": "ov",
  "495": "end",
  "496": "se",
  "497": "�",
  "498": " H",
  "499": "र",
  "500": " N",
  "501": " ch",
  "502": "�",
  "503": " that",
  "504": "op",
  "505": " wh",
  "506": "ri",
  "507": "к",
  "508": "ו",
  "509": " =",
  "510": "ी",
  "511": " م",
  "512": "י",
  "513": "ect",
  "514": "в",
  "515": "α",
  "516": "ی",
  "517": " �",
  "518": "�",
  "519": "ass",
  "520": "ب",
  "521": " {",
  "522": "og",
  "523": "ó",
  "524": " su",
  "525": " و",
  "526": "à",
  "527": "�",
  "528": " la",
  "529": " क",
  "530": "pl",
  "531": " di",
  "532": "ain",
  "533": "τ",
  "534": "our",
  "535": " it",
  "536": " at",
  "537": " �",
  "538": " W",
  "539": "ä",
  "540": "--",
  "541": " or",
  "542": " �",
  "543": " le",
  "544": " G",
  "545": "ah",
  "546": "art",
  "547": "ع",
  "548": "iz",
  "549": "ud",
  "550": " with",
  "551": "া",
  "552": "ि�",
  "553": " z",
  "554": "�",
  "555": " ex",
  "556": "ο",
  "557": "ine",
  "558": " pr",
  "559": "ment",
  "560": "ة",
  "561": "س",
  "562": "ver",
  "563": "்�",
  "564": "ι",
  "565": " <",
  "566": "。",
  "567": " The",
  "568": "=\"",
  "569": " are",
  "570": "rom",
  "571": " i",
  "572": "я",
  "573": "、",
  "574": "ill",
  "575": "ial",
  "576": "ra",
  "577": "�",
  "578": " he",
  "579": "м",
  "580": "ell",
  "581": "ו�",
  "582": " ne",
  "583": ">\n",
  "584": "ib",
  "585": "ost",
  "586": "া�",
  "587": " п",
  "588": "ok",
  "589": " đ",
  "590": "の",
  "591": "ে",
  "592": " by",
  "593": "ity",
  "594": " K",
  "595": " ب",
  "596": "ो",
  "597": " cl",
  "598": "�",
  "599": "ame",
  "600": "ं",
  "601": "д",
  "602": "ق",
  "603": "age",
  "604": "                ",
  "605": "per",
  "606": "י�",
  "607": "ı",
  "608": "的",
  "609": "न",
  "610": " O",
  "611": "ip",
  "612": "ε",
  "613": " -",
  "614": "ight",
  "615": "ans",
  "616": "ive",
  "617": "ν",
  "618": " per",
  "619": "า",
  "620": "ub",
  "621": "port",
  "622": "tr",
  "623": "//",
  "624": " с",
  "625": "ich",
  "626": "ind",
  "627": "for",
  "628": " �",
  "629": "ف",
  "630": "^{",
  "631": "क",
  "632": "ue",
  "633": "ك",
  "634": "�",
  "635": " V",
  "636": "�",
  "637": "act",
  "638": " J",
  "639": "pr",
  "640": "ح",
  "641": "01",
  "642": "ь",
  "643": "ure",
  "644": " }",
  "645": "ont",
  "646": "pt",
  "647": "int",
  "648": "ne",
  "649": "น",
  "650": "ies",
  "651": " do",
  "652": " x",
  "653": "ld",
  "654": "ust",
  "655": " par",
  "656": " you",
  "657": " U",
  "658": "і",
  "659": " from",
  "660": "�",
  "661": "ath",
  "662": "ч",
  "663": "ast",
  "664": "�",
  "665": "ens",
  "666": " im",
  "667": " в",
  "668": " que",
  "669": "ug",
  "670": "eng",
  "671": "ide",
  "672": "ber",
  "673": "all",
  "674": "ard",
  "675": "র",
  "676": "uk",
  "677": " ad",
  "678": "up",
  "679": "ْ",
  "680": "ு",
  "681": "্",
  "682": " not",
  "683": "ி",
  "684": " we",
  "685": "ex",
  "686": "'s",
  "687": "า�",
  "688": "σ",
  "689": "ü",
  "690": ",\n",
  "691": "ff",
  "692": "ai",
  "693": "pe",
  "694": "�",
  "695": "able",
  "696": " н",
  "697": "ان",
  "698": "ore",
  "699": "ave",
  "700": "이",
  "701": "い",
  "702": "io",
  "703": "ρ",
  "704": "to",
  "705": " pl",
  "706": ":\n",
  "707": "ст",
  "708": "�",
  "709": "�",
  "710": "are",
  "711": "ung",
  "712": "\t\t",
  "713": ")\n",
  "714": " �",
  "715": "다",
  "716": "eg",
  "717": " �",
  "718": " na",
  "719": "ult",
  "720": " sh",
  "721": "ি",
  "722": "li",
  "723": "ob",
  "724": "**",
  "725": " des",
  "726": " स",
  "727": "ы",
  "728": "ions",
  "729": "ta",
  "730": "ி�",
  "731": " this",
  "732": "่",
  "733": "ong",
  "734": " was",
  "735": "ek",
  "736": "ata",
  "737": "，",
  "738": "ord",
  "739": " ع",
  "740": " In",
  "741": "�",
  "742": "�",
  "743": " el",
  "744": "त",
  "745": "com",
  "746": "�",
  "747": " {\n",
  "748": " can",
  "749": " �",
  "750": ");\n",
  "751": "�",
  "752": "ep",
  "753": "で",
  "754": "cl",
  "755": "�",
  "756": " sa",
  "757": " sp",
  "758": "gr",
  "759": "ен",
  "760": " ت",
  "761": " '",
  "762": " res",
  "763": " ar",
  "764": "π",
  "765": "ö",
  "766": " Th",
  "767": " ف",
  "768": " ap",
  "769": "ach",
  "770": "ِ",
  "771": " us",
  "772": "に",
  "773": " es",
  "774": "ile",
  "775": "10",
  "776": "fr",
  "777": "du",
  "778": "ư",
  "779": "ma",
  "780": " �",
  "781": "ра",
  "782": " comp",
  "783": "ج",
  "784": " :",
  "785": "und",
  "786": "_{",
  "787": "ite",
  "788": "ack",
  "789": "ime",
  "790": "্�",
  "791": " ab",
  "792": "��",
  "793": "�",
  "794": "ल",
  "795": "ft",
  "796": " cont",
  "797": "з",
  "798": "는",
  "799": " أ",
  "800": "out",
  "801": "</",
  "802": "し",
  "803": "cc",
  "804": "อ",
  "805": "           ",
  "806": "ond",
  "807": "η",
  "808": " me",
  "809": " ह",
  "810": "ς",
  "811": "�",
  "812": " et",
  "813": "ari",
  "814": "ice",
  "815": " ل",
  "816": "ase",
  "817": "เ",
  "818": "ç",
  "819": "�",
  "820": " class",
  "821": "ve",
  "822": "स",
  "823": "ace",
  "824": "š",
  "825": " have",
  "826": "nt",
  "827": "ction",
  "828": "�",
  "829": " dis",
  "830": "ã",
  "831": " ال�",
  "832": "ien",
  "833": " प",
  "834": "て",
  "835": "##",
  "836": "ous",
  "837": " all",
  "838": "�",
  "839": " pre",
  "840": "de",
  "841": " о",
  "842": "υ",
  "843": " er",
  "844": "fer",
  "845": "�",
  "846": "ک",
  "847": "ار",
  "848": "form",
  "849": "az",
  "850": "ов",
  "851": " म",
  "852": "��",
  "853": "ical",
  "854": " gr",
  "855": "と",
  "856": "��",
  "857": "เ�",
  "858": "�",
  "859": "�",
  "860": " und",
  "861": "。\n",
  "862": "}$",
  "863": "å",
  "864": "ert",
  "865": " *",
  "866": "ual",
  "867": "�",
  "868": "에",
  "869": "х",
  "870": "ign",
  "871": "ु",
  "872": "ated",
  "873": "ork",
  "874": "る",
  "875": " и",
  "876": "す",
  "877": " est",
  "878": "ll",
  "879": "one",
  "880": "な",
  "881": " /",
  "882": "     ",
  "883": ").",
  "884": "20",
  "885": "��",
  "886": "ge",
  "887": "��",
  "888": "ance",
  "889": "ு�",
  "890": " ro",
  "891": " .",
  "892": "pro",
  "893": " $\\",
  "894": "ি�",
  "895": " д",
  "896": "ru",
  "897": "ire",
  "898": "を",
  "899": " ي",
  "900": "을",
  "901": " em",
  "902": "้",
  "903": " no",
  "904": " man",
  "905": "ž",
  "906": "น�",
  "907": "п",
  "908": "ould",
  "909": "ations",
  "910": "ents",
  "911": "xt",
  "912": "म",
  "913": " ser",
  "914": "た",
  "915": "ya",
  "916": "్",
  "917": "so",
  "918": "aj",
  "919": "}{",
  "920": " к",
  "921": "urn",
  "922": "が",
  "923": "erm",
  "924": "ci",
  "925": "ह",
  "926": "б",
  "927": " ng",
  "928": "하",
  "929": "ص",
  "930": " τ",
  "931": "lic",
  "932": "ada",
  "933": "�",
  "934": "は",
  "935": " if",
  "936": " der",
  "937": "��",
  "938": "ary",
  "939": "ै",
  "940": "��",
  "941": "।",
  "942": "ни",
  "943": "ى",
  "944": "�",
  "945": "ome",
  "946": " �",
  "947": " da",
  "948": "The",
  "949": "amp",
  "950": "�",
  "951": " so",
  "952": "ê",
  "953": "ّ",
  "954": " your",
  "955": "ش",
  "956": "ier",
  "957": " �",
  "958": "อ�",
  "959": "oll",
  "960": "no",
  "961": " ph",
  "962": "ات",
  "963": "math",
  "964": "ear",
  "965": " del",
  "966": "div",
  "967": " ob",
  "968": "�",
  "969": "λ",
  "970": "ón",
  "971": "्य",
  "972": "��",
  "973": "ま",
  "974": "i�",
  "975": "ther",
  "976": "au",
  "977": "�",
  "978": "ão",
  "979": "12",
  "980": " nh",
  "981": " inter",
  "982": "ре",
  "983": "й",
  "984": " has",
  "985": "ian",
  "986": "č",
  "987": " am",
  "988": "we",
  "989": "�",
  "990": " po",
  "991": " ה�",
  "992": "ُ",
  "993": "ா",
  "994": "ose",
  "995": "kan",
  "996": "ij",
  "997": "ence",
  "998": "frac",
  "999": "�다",
  "1000": " yang",
  "1001": "�",
  "1002": "),",
  "1003": "ー",
  "1004": "्र",
  "1005": "ke",
  "1006": "ps",
  "1007": "ô",
  "1008": "ί",
  "1009": " will",
  "1010": " |\n",
  "1011": " �",
  "1012": "ition",
  "1013": "ে�",
  "1014": "의",
  "1015": "ors",
  "1016": "ade",
  "1017": "г",
  "1018": "్�",
  "1019": " ..",
  "1020": "ి",
  "1021": " т",
  "1022": "ư�",
  "1023": ";\n\n",
  "1024": "��",
  "1025": " –",
  "1026": "ink",
  "1027": "ake",
  "1028": " out",
  "1029": " part",
  "1030": "�",
  "1031": "get",
  "1032": "μ",
  "1033": "der",
  "1034": " men",
  "1035": "ार",
  "1036": "ు",
  "1037": "lo",
  "1038": "sp",
  "1039": "ா�",
  "1040": "con",
  "1041": "�",
  "1042": "고",
  "1043": "��",
  "1044": "κ",
  "1045": " St",
  "1046": " up",
  "1047": "ц",
  "1048": "eb",
  "1049": "ા",
  "1050": "ат",
  "1051": "�",
  "1052": " м",
  "1053": "ام",
  "1054": "،",
  "1055": "ш",
  "1056": "In",
  "1057": "로",
  "1058": "ạ",
  "1059": "प",
  "1060": "ente",
  "1061": "me",
  "1062": "�",
  "1063": "ю",
  "1064": "nh",
  "1065": " на",
  "1066": "�",
  "1067": " Ch",
  "1068": "vel",
  "1069": " which",
  "1070": "ом",
  "1071": "�",
  "1072": "ory",
  "1073": "ế",
  "1074": "�",
  "1075": " por",
  "1076": "ern",
  "1077": "一",
  "1078": "res",
  "1079": " para",
  "1080": " but",
  "1081": "��",
  "1082": "ific",
  "1083": " من",
  "1084": "ها",
  "1085": "ет",
  "1086": "�",
  "1087": "�",
  "1088": "ka",
  "1089": " kh",
  "1090": "ри",
  "1091": "bf",
  "1092": "anc",
  "1093": " في",
  "1094": "한",
  "1095": "ry",
  "1096": "��",
  "1097": "11",
  "1098": "ό",
  "1099": "ú",
  "1100": "�",
  "1101": " د",
  "1102": " з",
  "1103": " dan",
  "1104": "ject",
  "1105": "----",
  "1106": "ли",
  "1107": "iss",
  "1108": "led",
  "1109": "��",
  "1110": "но",
  "1111": "enc",
  "1112": " mod",
  "1113": "ط",
  "1114": "�",
  "1115": "               ",
  "1116": " س",
  "1117": " ک",
  "1118": "na",
  "1119": "text",
  "1120": "ين",
  "1121": " val",
  "1122": " &",
  "1123": " é",
  "1124": "人",
  "1125": "ater",
  "1126": " ver",
  "1127": "==",
  "1128": " �",
  "1129": "ook",
  "1130": " Y",
  "1131": " ح",
  "1132": " mem",
  "1133": "ж",
  "1134": "ese",
  "1135": "�",
  "1136": " [",
  "1137": " ev",
  "1138": "ks",
  "1139": "خ",
  "1140": "ă",
  "1141": "�",
  "1142": " te",
  "1143": "her",
  "1144": "ale",
  "1145": "()",
  "1146": " one",
  "1147": " go",
  "1148": "\">",
  "1149": "aus",
  "1150": "ys",
  "1151": "ype",
  "1152": "own",
  "1153": " met",
  "1154": "ог",
  "1155": "�",
  "1156": "ement",
  "1157": "ara",
  "1158": "mathbf",
  "1159": " av",
  "1160": "ss",
  "1161": "ز",
  "1162": " sc",
  "1163": "ол",
  "1164": " ret",
  "1165": " il",
  "1166": " die",
  "1167": " ا�",
  "1168": "�",
  "1169": "ech",
  "1170": " الم",
  "1171": " det",
  "1172": " op",
  "1173": " che",
  "1174": " str",
  "1175": "ా",
  "1176": "....",
  "1177": " pos",
  "1178": " pe",
  "1179": "je",
  "1180": "lect",
  "1181": " ر",
  "1182": "?\n",
  "1183": "15",
  "1184": "ten",
  "1185": " ब",
  "1186": "row",
  "1187": " more",
  "1188": "=\\",
  "1189": " med",
  "1190": "ión",
  "1191": "ş",
  "1192": " rel",
  "1193": "ado",
  "1194": " ma",
  "1195": "�",
  "1196": "на",
  "1197": "�",
  "1198": "ons",
  "1199": " si",
  "1200": "02",
  "1201": "ph",
  "1202": "ild",
  "1203": " ag",
  "1204": "ン",
  "1205": "়",
  "1206": " they",
  "1207": " their",
  "1208": "ά",
  "1209": "가",
  "1210": "ية",
  "1211": " ke",
  "1212": "�",
  "1213": "ี",
  "1214": " đ�",
  "1215": "か",
  "1216": "}\n",
  "1217": "que",
  "1218": "ely",
  "1219": "ail",
  "1220": "hat",
  "1221": "iel",
  "1222": "ener",
  "1223": "aw",
  "1224": "ew",
  "1225": "par",
  "1226": " +",
  "1227": "ें",
  "1228": "let",
  "1229": "ings",
  "1230": "mer",
  "1231": "ý",
  "1232": "े�",
  "1233": " col",
  "1234": " ه",
  "1235": " set",
  "1236": "ull",
  "1237": "rit",
  "1238": "ode",
  "1239": " ent",
  "1240": "ит",
  "1241": "ient",
  "1242": "지",
  "1243": " अ",
  "1244": " ac",
  "1245": "\",",
  "1246": "�",
  "1247": " ش",
  "1248": "yst",
  "1249": "ree",
  "1250": "ர",
  "1251": "ả",
  "1252": " ज",
  "1253": "$.",
  "1254": "�",
  "1255": "put",
  "1256": "ấ",
  "1257": "은",
  "1258": " न",
  "1259": " au",
  "1260": " fun",
  "1261": "од",
  "1262": "ہ",
  "1263": "ου",
  "1264": "red",
  "1265": "ark",
  "1266": " ن",
  "1267": "ě",
  "1268": "서",
  "1269": "irst",
  "1270": "も",
  "1271": "ti",
  "1272": "ser",
  "1273": "olog",
  "1274": "ø",
  "1275": "ા�",
  "1276": " �",
  "1277": " आ",
  "1278": "ating",
  "1279": "ount",
  "1280": " du",
  "1281": " �",
  "1282": "ور",
  "1283": "்க",
  "1284": "�",
  "1285": "�",
  "1286": "30",
  "1287": "iew",
  "1288": "16",
  "1289": "les",
  "1290": "right",
  "1291": "ays",
  "1292": "��",
  "1293": " à",
  "1294": "ock",
  "1295": "ick",
  "1296": "che",
  "1297": "ica",
  "1298": " ter",
  "1299": "�",
  "1300": "기",
  "1301": "り",
  "1302": "ann",
  "1303": " new",
  "1304": " के",
  "1305": "ho",
  "1306": " dif",
  "1307": "ublic",
  "1308": "ied",
  "1309": "amb",
  "1310": " ass",
  "1311": " je",
  "1312": " }\n",
  "1313": " bet",
  "1314": "â",
  "1315": "ва",
  "1316": "�",
  "1317": " </",
  "1318": "ja",
  "1319": "the",
  "1320": " const",
  "1321": "�",
  "1322": "ike",
  "1323": " है",
  "1324": " б",
  "1325": "ish",
  "1326": "ck",
  "1327": "れ",
  "1328": "�়",
  "1329": "ise",
  "1330": " get",
  "1331": "ض",
  "1332": "ор",
  "1333": "��",
  "1334": "ef",
  "1335": "�",
  "1336": "是",
  "1337": "니다",
  "1338": " ind",
  "1339": "��",
  "1340": " sur",
  "1341": "ন",
  "1342": " sol",
  "1343": " व",
  "1344": "��",
  "1345": "�",
  "1346": "'t",
  "1347": " �",
  "1348": "를",
  "1349": "line",
  "1350": " π",
  "1351": "orm",
  "1352": " les",
  "1353": "ग",
  "1354": " los",
  "1355": "pos",
  "1356": "ை",
  "1357": "ា",
  "1358": " It",
  "1359": "ా�",
  "1360": "�",
  "1361": "è",
  "1362": "ير",
  "1363": " ל�",
  "1364": "っ",
  "1365": "ize",
  "1366": "000",
  "1367": "่�",
  "1368": " ב�",
  "1369": "}\\",
  "1370": "ates",
  "1371": " work",
  "1372": "ih",
  "1373": "rib",
  "1374": " cons",
  "1375": "inal",
  "1376": "لى",
  "1377": "sh",
  "1378": "្�",
  "1379": "ọ",
  "1380": "wo",
  "1381": "う",
  "1382": " also",
  "1383": "sk",
  "1384": "elf",
  "1385": "�",
  "1386": ".com",
  "1387": "ి�",
  "1388": "la",
  "1389": "�",
  "1390": "έ",
  "1391": "��",
  "1392": " acc",
  "1393": "த",
  "1394": "�",
  "1395": " sec",
  "1396": " �",
  "1397": "rt",
  "1398": " time",
  "1399": " �",
  "1400": " trans",
  "1401": "்த",
  "1402": " mu",
  "1403": "ે",
  "1404": " form",
  "1405": "cre",
  "1406": "أ",
  "1407": "ू",
  "1408": " ल",
  "1409": " aut",
  "1410": " any",
  "1411": " ك",
  "1412": "clud",
  "1413": "tt",
  "1414": " bu",
  "1415": "द",
  "1416": "arg",
  "1417": "�",
  "1418": " use",
  "1419": " his",
  "1420": "99",
  "1421": "ā",
  "1422": " द",
  "1423": " reg",
  "1424": "�",
  "1425": " �",
  "1426": "str",
  "1427": " min",
  "1428": "ার",
  "1429": "za",
  "1430": "14",
  "1431": "ول",
  "1432": "ional",
  "1433": "ے",
  "1434": " when",
  "1435": "��",
  "1436": "ble",
  "1437": " σ",
  "1438": "ina",
  "1439": "ze",
  "1440": " sub",
  "1441": " र",
  "1442": " inv",
  "1443": "ер",
  "1444": "ative",
  "1445": "ា�",
  "1446": "ym",
  "1447": " other",
  "1448": " bl",
  "1449": " Pro",
  "1450": " were",
  "1451": " over",
  "1452": " prov",
  "1453": "해",
  "1454": "itu",
  "1455": " Z",
  "1456": "ên",
  "1457": " about",
  "1458": "oy",
  "1459": "�",
  "1460": " ber",
  "1461": "ange",
  "1462": " una",
  "1463": "ون",
  "1464": "�",
  "1465": " ا",
  "1466": " return",
  "1467": "13",
  "1468": "र्�",
  "1469": "és",
  "1470": "�",
  "1471": "://",
  "1472": "��",
  "1473": "25",
  "1474": " co",
  "1475": "不",
  "1476": " may",
  "1477": " �",
  "1478": "ान",
  "1479": " int",
  "1480": "ank",
  "1481": "�",
  "1482": " κ",
  "1483": "ذ",
  "1484": " af",
  "1485": "ות",
  "1486": " α",
  "1487": "도",
  "1488": "po",
  "1489": "ati",
  "1490": " def",
  "1491": " act",
  "1492": "19",
  "1493": "ev",
  "1494": "�",
  "1495": "こ",
  "1496": "व",
  "1497": "ound",
  "1498": " num",
  "1499": "18",
  "1500": " og",
  "1501": "ら",
  "1502": "its",
  "1503": " ש�",
  "1504": "�",
  "1505": "ref",
  "1506": "St",
  "1507": " pol",
  "1508": " comm",
  "1509": " den",
  "1510": "cess",
  "1511": "import",
  "1512": "ω",
  "1513": " ve",
  "1514": "�",
  "1515": " pers",
  "1516": "lement",
  "1517": " br",
  "1518": "ato",
  "1519": "ator",
  "1520": " produ",
  "1521": " there",
  "1522": "�",
  "1523": " its",
  "1524": "်",
  "1525": " //",
  "1526": " first",
  "1527": "be",
  "1528": "ка",
  "1529": "ove",
  "1530": "ollow",
  "1531": "itt",
  "1532": "�",
  "1533": "ione",
  "1534": "ER",
  "1535": "lu",
  "1536": "ు�",
  "1537": "ą",
  "1538": "ular",
  "1539": " Un",
  "1540": "ner",
  "1541": "大",
  "1542": " sex",
  "1543": "\"\n",
  "1544": " fr",
  "1545": ".,",
  "1546": "�",
  "1547": "app",
  "1548": " у",
  "1549": "ict",
  "1550": "��",
  "1551": "(x",
  "1552": "�",
  "1553": "ins",
  "1554": "ana",
  "1555": " rec",
  "1556": " ו",
  "1557": "��",
  "1558": " не",
  "1559": "��",
  "1560": "리",
  "1561": "ret",
  "1562": "ama",
  "1563": "ла",
  "1564": "在",
  "1565": "den",
  "1566": "��",
  "1567": " who",
  "1568": " id",
  "1569": "plic",
  "1570": " my",
  "1571": "Th",
  "1572": "�",
  "1573": " This",
  "1574": "ủ",
  "1575": "pon",
  "1576": " had",
  "1577": "ນ",
  "1578": " cor",
  "1579": " ed",
  "1580": " than",
  "1581": " מ�",
  "1582": "ים",
  "1583": " kn",
  "1584": "ww",
  "1585": "ler",
  "1586": "ộ",
  "1587": " cur",
  "1588": "ext",
  "1589": " add",
  "1590": " her",
  "1591": " �",
  "1592": "χ",
  "1593": "igh",
  "1594": "ř",
  "1595": " Com",
  "1596": "ystem",
  "1597": " sl",
  "1598": " và",
  "1599": "wa",
  "1600": " data",
  "1601": "(\"",
  "1602": "有",
  "1603": " vo",
  "1604": ")$",
  "1605": " pres",
  "1606": ")\n\n",
  "1607": " ق",
  "1608": "�",
  "1609": " An",
  "1610": "ố",
  "1611": "left",
  "1612": "yn",
  "1613": "ento",
  "1614": " tem",
  "1615": "ু",
  "1616": "ки",
  "1617": "َّ",
  "1618": "ны",
  "1619": " إ",
  "1620": "от",
  "1621": "αι",
  "1622": " त",
  "1623": "ή",
  "1624": "ł",
  "1625": "}+",
  "1626": "ute",
  "1627": "50",
  "1628": "ス",
  "1629": "old",
  "1630": "als",
  "1631": "24",
  "1632": " equ",
  "1633": "�",
  "1634": "17",
  "1635": "γ",
  "1636": " �",
  "1637": "\">\n",
  "1638": "ção",
  "1639": " some",
  "1640": "ino",
  "1641": "ட",
  "1642": "tern",
  "1643": " them",
  "1644": "य",
  "1645": "لي",
  "1646": "中",
  "1647": "اب",
  "1648": " sk",
  "1649": " ε",
  "1650": "cont",
  "1651": "abil",
  "1652": "sc",
  "1653": "ider",
  "1654": "-b",
  "1655": "ni",
  "1656": " into",
  "1657": "fo",
  "1658": " Q",
  "1659": "ren",
  "1660": "��",
  "1661": " --",
  "1662": "으",
  "1663": "ible",
  "1664": "�",
  "1665": " som",
  "1666": " bec",
  "1667": "ics",
  "1668": "ga",
  "1669": "hod",
  "1670": " ו�",
  "1671": "co",
  "1672": " ج",
  "1673": "ugh",
  "1674": " Al",
  "1675": "ning",
  "1676": "�",
  "1677": "ன",
  "1678": "ì",
  "1679": "ầ",
  "1680": "ся",
  "1681": "val",
  "1682": "ร�",
  "1683": " �",
  "1684": " ч",
  "1685": " att",
  "1686": "く",
  "1687": "�",
  "1688": "ел",
  "1689": " lo",
  "1690": " ang",
  "1691": "$$",
  "1692": " за",
  "1693": "າ",
  "1694": "원",
  "1695": "ậ",
  "1696": " স",
  "1697": " unt",
  "1698": "atur",
  "1699": " under",
  "1700": "pi",
  "1701": "ę",
  "1702": "اا",
  "1703": "ğ",
  "1704": "icht",
  "1705": "ás",
  "1706": "aut",
  "1707": "iệ",
  "1708": "ní",
  "1709": "ts",
  "1710": "ación",
  "1711": " ক",
  "1712": " been",
  "1713": "�i",
  "1714": "asi",
  "1715": "ita",
  "1716": "年",
  "1717": "ث",
  "1718": " real",
  "1719": "::",
  "1720": "ico",
  "1721": "gan",
  "1722": "idad",
  "1723": " car",
  "1724": " v�",
  "1725": "�",
  "1726": "ger",
  "1727": " �",
  "1728": "了",
  "1729": "ava",
  "1730": "iet",
  "1731": "!\n",
  "1732": " cal",
  "1733": "ando",
  "1734": "�",
  "1735": " fe",
  "1736": "any",
  "1737": "�",
  "1738": " ग",
  "1739": " stud",
  "1740": "ause",
  "1741": " 있",
  "1742": "ー�",
  "1743": "�",
  "1744": "�",
  "1745": "__",
  "1746": "round",
  "1747": " year",
  "1748": "ui",
  "1749": "イ",
  "1750": "�",
  "1751": "اد",
  "1752": " bo",
  "1753": "ages",
  "1754": " cre",
  "1755": "pect",
  "1756": "over",
  "1757": " eff",
  "1758": "��",
  "1759": " dr",
  "1760": "oth",
  "1761": " �",
  "1762": "ativ",
  "1763": "ไ�",
  "1764": "้�",
  "1765": " Re",
  "1766": "��",
  "1767": " like",
  "1768": " two",
  "1769": " में",
  "1770": "name",
  "1771": "cept",
  "1772": "                   ",
  "1773": "ivers",
  "1774": "Pro",
  "1775": "100",
  "1776": "ane",
  "1777": "�",
  "1778": " ein",
  "1779": "�்",
  "1780": "ection",
  "1781": "��",
  "1782": " कर",
  "1783": "ông",
  "1784": "22",
  "1785": "htt",
  "1786": "်�",
  "1787": " Tr",
  "1788": " public",
  "1789": "oug",
  "1790": " mat",
  "1791": "щ",
  "1792": "گ",
  "1793": "}=",
  "1794": " differ",
  "1795": " خ",
  "1796": "ने",
  "1797": "IN",
  "1798": "ON",
  "1799": "gram",
  "1800": "�",
  "1801": "��",
  "1802": "च",
  "1803": "ের",
  "1804": " sm",
  "1805": " א�",
  "1806": "장",
  "1807": "き",
  "1808": "��",
  "1809": "ution",
  "1810": "  \n\n",
  "1811": " our",
  "1812": "bo",
  "1813": "ан",
  "1814": "vice",
  "1815": "له",
  "1816": " just",
  "1817": " requ",
  "1818": " os",
  "1819": " where",
  "1820": "ali",
  "1821": "-s",
  "1822": " how",
  "1823": "emb",
  "1824": "인",
  "1825": " spec",
  "1826": " las",
  "1827": " need",
  "1828": "ito",
  "1829": " only",
  "1830": " um",
  "1831": "att",
  "1832": "��",
  "1833": " �",
  "1834": "ix",
  "1835": " dur",
  "1836": " hel",
  "1837": "ます",
  "1838": " dist",
  "1839": "ক",
  "1840": "els",
  "1841": " rem",
  "1842": " inst",
  "1843": " would",
  "1844": "�",
  "1845": " inform",
  "1846": "�",
  "1847": " meng",
  "1848": " sim",
  "1849": "ени",
  "1850": "�",
  "1851": "ой",
  "1852": "adi",
  "1853": " what",
  "1854": " μ",
  "1855": "스",
  "1856": " point",
  "1857": "rol",
  "1858": "ż",
  "1859": " vari",
  "1860": "ür",
  "1861": "ty",
  "1862": "اس",
  "1863": " وال",
  "1864": "cent",
  "1865": "��",
  "1866": "生",
  "1867": "ism",
  "1868": "แ�",
  "1869": "ower",
  "1870": "자",
  "1871": "то",
  "1872": "�",
  "1873": "об",
  "1874": "go",
  "1875": " ব",
  "1876": "uy",
  "1877": "�",
  "1878": "ड",
  "1879": "시",
  "1880": "vent",
  "1881": "ces",
  "1882": " And",
  "1883": " sup",
  "1884": "ん",
  "1885": "Name",
  "1886": " là",
  "1887": " ut",
  "1888": "�",
  "1889": " fil",
  "1890": "õ",
  "1891": "ua",
  "1892": "40",
  "1893": "isk",
  "1894": "和",
  "1895": " dire",
  "1896": "hor",
  "1897": "�",
  "1898": "ơ",
  "1899": " dem",
  "1900": " import",
  "1901": "��",
  "1902": "ween",
  "1903": "して",
  "1904": ":\n\n",
  "1905": "col",
  "1906": "ाल",
  "1907": "ene",
  "1908": " भ",
  "1909": "用",
  "1910": " �",
  "1911": "urs",
  "1912": "aph",
  "1913": " includ",
  "1914": "ого",
  "1915": "�",
  "1916": "ini",
  "1917": "ES",
  "1918": "æ",
  "1919": " mass",
  "1920": "ities",
  "1921": "上",
  "1922": "****",
  "1923": " function",
  "1924": "',",
  "1925": ".\"",
  "1926": "��",
  "1927": "engan",
  "1928": " �",
  "1929": " ப",
  "1930": "�",
  "1931": " th�",
  "1932": "uss",
  "1933": " bel",
  "1934": "ante",
  "1935": "ਾ",
  "1936": "あ",
  "1937": "ল",
  "1938": " cas",
  "1939": "uc",
  "1940": "ác",
  "1941": " end",
  "1942": " على",
  "1943": "air",
  "1944": "ote",
  "1945": " such",
  "1946": "ield",
  "1947": "��",
  "1948": "ople",
  "1949": "さ",
  "1950": " г",
  "1951": "vo",
  "1952": "min",
  "1953": " প",
  "1954": "ει",
  "1955": "�",
  "1956": "日",
  "1957": "िय",
  "1958": "்ப",
  "1959": " don",
  "1960": "ள",
  "1961": "ύ",
  "1962": " We",
  "1963": " bas",
  "1964": " có",
  "1965": " gi",
  "1966": " को",
  "1967": "ικ",
  "1968": "ем",
  "1969": "��",
  "1970": " person",
  "1971": "reat",
  "1972": "rough",
  "1973": "िक",
  "1974": " non",
  "1975": " used",
  "1976": "�",
  "1977": " cho",
  "1978": "ror",
  "1979": " Se",
  "1980": "23",
  "1981": "sin",
  "1982": " \n",
  "1983": "ত",
  "1984": "ब",
  "1985": "ок",
  "1986": "},",
  "1987": "ù",
  "1988": "uro",
  "1989": "akan",
  "1990": "uh",
  "1991": "EN",
  "1992": "َا",
  "1993": "br",
  "1994": "ી",
  "1995": "ved",
  "1996": "men",
  "1997": " href",
  "1998": "으로",
  "1999": " find",
  "2000": "lar",
  "2001": "arr",
  "2002": " य",
  "2003": " son",
  "2004": "part",
  "2005": " mas",
  "2006": " الت",
  "2007": "ти",
  "2008": "غ",
  "2009": "AT",
  "2010": "ใ",
  "2011": "set",
  "2012": " #",
  "2013": "ব",
  "2014": " ما",
  "2015": "ों",
  "2016": "roup",
  "2017": "ella",
  "2018": "rent",
  "2019": "່",
  "2020": "사",
  "2021": "ript",
  "2022": "of",
  "2023": "ton",
  "2024": " off",
  "2025": " �",
  "2026": "fore",
  "2027": " between",
  "2028": " art",
  "2029": "行",
  "2030": "nya",
  "2031": "ś",
  "2032": "}\n\n",
  "2033": " sch",
  "2034": "�",
  "2035": "以",
  "2036": "作",
  "2037": " sign",
  "2038": " most",
  "2039": " gener",
  "2040": "da",
  "2041": "ụ",
  "2042": "ज",
  "2043": "cul",
  "2044": "�",
  "2045": "oh",
  "2046": " For",
  "2047": "ateg",
  "2048": " उ",
  "2049": " He",
  "2050": "kt",
  "2051": "wer",
  "2052": "hed",
  "2053": "         ",
  "2054": "met",
  "2055": "ices",
  "2056": "ट",
  "2057": "্র",
  "2058": "--------",
  "2059": " की",
  "2060": "alam",
  "2061": "ily",
  "2062": "�",
  "2063": "erg",
  "2064": " vis",
  "2065": "ku",
  "2066": "iế",
  "2067": "ns",
  "2068": " these",
  "2069": " Ar",
  "2070": "very",
  "2071": " ..\n",
  "2072": "��",
  "2073": " inte",
  "2074": " 사",
  "2075": "…",
  "2076": " tak",
  "2077": "></",
  "2078": "�",
  "2079": " loc",
  "2080": " ini",
  "2081": "ody",
  "2082": "ple",
  "2083": "arm",
  "2084": "ima",
  "2085": "–",
  "2086": " 수",
  "2087": " result",
  "2088": "\t\t\t\t",
  "2089": " said",
  "2090": "net",
  "2091": " på",
  "2092": " 이",
  "2093": "Con",
  "2094": " fl",
  "2095": "�்க",
  "2096": "�",
  "2097": " пр",
  "2098": "ool",
  "2099": "δ",
  "2100": " Le",
  "2101": "ika",
  "2102": " fin",
  "2103": " De",
  "2104": "出",
  "2105": "��",
  "2106": "он",
  "2107": " van",
  "2108": "ruct",
  "2109": "-d",
  "2110": "cos",
  "2111": " cent",
  "2112": "「",
  "2113": " dec",
  "2114": "要",
  "2115": "AR",
  "2116": "ण",
  "2117": "ượ",
  "2118": " sem",
  "2119": " then",
  "2120": "」",
  "2121": "velop",
  "2122": " process",
  "2123": "��",
  "2124": "ো",
  "2125": "ト",
  "2126": "��",
  "2127": " �",
  "2128": " show",
  "2129": " củ",
  "2130": " people",
  "2131": "ör",
  "2132": "ல",
  "2133": "ines",
  "2134": "atis",
  "2135": "ın",
  "2136": "ven",
  "2137": "read",
  "2138": "�",
  "2139": "_t",
  "2140": "�",
  "2141": "ational",
  "2142": " dengan",
  "2143": " }\n\n",
  "2144": "ル",
  "2145": " back",
  "2146": " prof",
  "2147": "습",
  "2148": "####",
  "2149": "ại",
  "2150": "وو",
  "2151": " @",
  "2152": "ッ",
  "2153": " untuk",
  "2154": " của",
  "2155": "org",
  "2156": " ext",
  "2157": "ny",
  "2158": "ember",
  "2159": "��",
  "2160": " should",
  "2161": "ca",
  "2162": " ---",
  "2163": "work",
  "2164": "��",
  "2165": " inf",
  "2166": "��",
  "2167": "��",
  "2168": "ị",
  "2169": "ात",
  "2170": "્�",
  "2171": "ues",
  "2172": "ất",
  "2173": "->",
  "2174": "ম",
  "2175": "ala",
  "2176": " ou",
  "2177": " If",
  "2178": " τη",
  "2179": "Re",
  "2180": "ér",
  "2181": " term",
  "2182": " �",
  "2183": "-t",
  "2184": "�",
  "2185": " प्र",
  "2186": "ole",
  "2187": " das",
  "2188": "{\\",
  "2189": " quest",
  "2190": "vi",
  "2191": "blem",
  "2192": "yp",
  "2193": " she",
  "2194": "Com",
  "2195": "�",
  "2196": "ак",
  "2197": "ments",
  "2198": " mak",
  "2199": "ida",
  "2200": " أن",
  "2201": "்ட",
  "2202": "('",
  "2203": " exper",
  "2204": "�",
  "2205": "�",
  "2206": " عن",
  "2207": " stat",
  "2208": "26",
  "2209": "ample",
  "2210": "pres",
  "2211": " through",
  "2212": " soc",
  "2213": " system",
  "2214": "ful",
  "2215": " е",
  "2216": "分",
  "2217": "atch",
  "2218": " make",
  "2219": " mon",
  "2220": "�",
  "2221": " test",
  "2222": "ست",
  "2223": "ced",
  "2224": "です",
  "2225": " Wh",
  "2226": "ò",
  "2227": " Pr",
  "2228": "\":",
  "2229": "�",
  "2230": " по",
  "2231": " gu",
  "2232": "........",
  "2233": "98",
  "2234": "ъ",
  "2235": " ان",
  "2236": "�ี",
  "2237": "ido",
  "2238": "న",
  "2239": "ру",
  "2240": "学",
  "2241": "과",
  "2242": "bl",
  "2243": " X",
  "2244": "�",
  "2245": "ை�",
  "2246": "https",
  "2247": "会",
  "2248": "�",
  "2249": " second",
  "2250": " name",
  "2251": "्त",
  "2252": "tring",
  "2253": "って",
  "2254": " cu",
  "2255": "য়",
  "2256": "ож",
  "2257": ".p",
  "2258": " sin",
  "2259": "ano",
  "2260": " ist",
  "2261": " line",
  "2262": "ici",
  "2263": "ć",
  "2264": " ir",
  "2265": "><",
  "2266": " pod",
  "2267": " conf",
  "2268": "ml",
  "2269": "{\n",
  "2270": "よ",
  "2271": "方",
  "2272": "ນ�",
  "2273": "dd",
  "2274": " л",
  "2275": "ન",
  "2276": " اس",
  "2277": " program",
  "2278": "들",
  "2279": "ele",
  "2280": "した",
  "2281": " til",
  "2282": "28",
  "2283": "item",
  "2284": " 기",
  "2285": "af",
  "2286": " ins",
  "2287": "�",
  "2288": "ero",
  "2289": "ores",
  "2290": " number",
  "2291": " post",
  "2292": "ants",
  "2293": "�",
  "2294": "�",
  "2295": "ura",
  "2296": "�",
  "2297": "aya",
  "2298": "اء",
  "2299": "är",
  "2300": "ां",
  "2301": " well",
  "2302": " ja",
  "2303": "ument",
  "2304": " value",
  "2305": "ba",
  "2306": "era",
  "2307": "hr",
  "2308": "�i",
  "2309": "imes",
  "2310": "为",
  "2311": "ili",
  "2312": "ци",
  "2313": " а",
  "2314": " poss",
  "2315": " pot",
  "2316": "�",
  "2317": "ми",
  "2318": "man",
  "2319": " type",
  "2320": "Id",
  "2321": "어",
  "2322": "60",
  "2323": " வ",
  "2324": " è",
  "2325": "φ",
  "2326": " க",
  "2327": "�",
  "2328": "iti",
  "2329": "ري",
  "2330": " know",
  "2331": "ал",
  "2332": " الأ",
  "2333": "theta",
  "2334": "vis",
  "2335": "��",
  "2336": "�",
  "2337": "21",
  "2338": "ule",
  "2339": " 지",
  "2340": "�",
  "2341": " t�",
  "2342": "yl",
  "2343": "ax",
  "2344": "bu",
  "2345": "업",
  "2346": "ots",
  "2347": " esc",
  "2348": "에서",
  "2349": "It",
  "2350": "お",
  "2351": " imp",
  "2352": "-l",
  "2353": " 대",
  "2354": " vol",
  "2355": " ص",
  "2356": ".get",
  "2357": "�",
  "2358": "ott",
  "2359": "ados",
  "2360": "�",
  "2361": "alth",
  "2362": "وم",
  "2363": ",\"",
  "2364": "LE",
  "2365": "ha",
  "2366": " after",
  "2367": "-\n",
  "2368": "ital",
  "2369": "国",
  "2370": "va",
  "2371": " does",
  "2372": "ī",
  "2373": "্য",
  "2374": "게",
  "2375": " follow",
  "2376": "amente",
  "2377": "습니다",
  "2378": " ha",
  "2379": "27",
  "2380": "�",
  "2381": "ित",
  "2382": "lt",
  "2383": " pi",
  "2384": "�",
  "2385": " pour",
  "2386": " var",
  "2387": "wn",
  "2388": "�",
  "2389": "ally",
  "2390": " long",
  "2391": "ature",
  "2392": " pas",
  "2393": " Ex",
  "2394": "�",
  "2395": " using",
  "2396": "だ",
  "2397": "�",
  "2398": "vers",
  "2399": "iver",
  "2400": "ώ",
  "2401": " same",
  "2402": "?\n\n",
  "2403": "face",
  "2404": "ros",
  "2405": "�",
  "2406": "roll",
  "2407": "�",
  "2408": "�",
  "2409": "lex",
  "2410": "||",
  "2411": " each",
  "2412": "能",
  "2413": "।\n",
  "2414": "land",
  "2415": "라",
  "2416": "(\\",
  "2417": "echn",
  "2418": "unt",
  "2419": "                       ",
  "2420": "ward",
  "2421": " help",
  "2422": " cap",
  "2423": "oun",
  "2424": "ク",
  "2425": "====",
  "2426": "ko",
  "2427": "yt",
  "2428": " �",
  "2429": " high",
  "2430": "요",
  "2431": "ais",
  "2432": " ра",
  "2433": "por",
  "2434": " Con",
  "2435": "ာ",
  "2436": "ια",
  "2437": " start",
  "2438": " pu",
  "2439": "AN",
  "2440": "bib",
  "2441": "�",
  "2442": "ای",
  "2443": "け",
  "2444": "θ",
  "2445": "مد",
  "2446": "irc",
  "2447": "orld",
  "2448": "rem",
  "2449": "97",
  "2450": "lich",
  "2451": "ife",
  "2452": " hand",
  "2453": "inc",
  "2454": " औ",
  "2455": "ric",
  "2456": "�",
  "2457": " every",
  "2458": " ya",
  "2459": "45",
  "2460": "ក",
  "2461": "�",
  "2462": " sal",
  "2463": "arch",
  "2464": " cr",
  "2465": " appro",
  "2466": "ena",
  "2467": "ste",
  "2468": "ु�",
  "2469": "ля",
  "2470": " Fr",
  "2471": "ائ",
  "2472": " dans",
  "2473": "ود",
  "2474": " partic",
  "2475": " pass",
  "2476": " method",
  "2477": "成",
  "2478": "τα",
  "2479": "ਾ�",
  "2480": " ge",
  "2481": "press",
  "2482": ");\n\n",
  "2483": "�",
  "2484": "во",
  "2485": " vi",
  "2486": "ం�",
  "2487": " fact",
  "2488": " pel",
  "2489": "та",
  "2490": "90",
  "2491": "ough",
  "2492": "do",
  "2493": " kom",
  "2494": " और",
  "2495": "ில",
  "2496": "يد",
  "2497": "自",
  "2498": " different",
  "2499": "来",
  "2500": "OR",
  "2501": "zi",
  "2502": "ets",
  "2503": "�",
  "2504": "事",
  "2505": "�",
  "2506": " har",
  "2507": "-m",
  "2508": " could",
  "2509": " como",
  "2510": "();\n",
  "2511": "ars",
  "2512": " Ph",
  "2513": "�",
  "2514": " opt",
  "2515": "ird",
  "2516": " oper",
  "2517": "ں",
  "2518": "ј",
  "2519": "个",
  "2520": " Gr",
  "2521": "ined",
  "2522": "정",
  "2523": "ength",
  "2524": "ting",
  "2525": "ė",
  "2526": "ở",
  "2527": "án",
  "2528": "�",
  "2529": "pre",
  "2530": "ী",
  "2531": "ů",
  "2532": "ood",
  "2533": " الع",
  "2534": "ান",
  "2535": "高",
  "2536": "ash",
  "2537": " ए",
  "2538": "合",
  "2539": " read",
  "2540": "적",
  "2541": " от",
  "2542": "ñ",
  "2543": "ân",
  "2544": " Sch",
  "2545": " online",
  "2546": " od",
  "2547": "ắ",
  "2548": "cz",
  "2549": "ો",
  "2550": " om",
  "2551": " dé",
  "2552": "enn",
  "2553": "atu",
  "2554": "�า�",
  "2555": " श",
  "2556": " इ",
  "2557": "可",
  "2558": "ideo",
  "2559": "ited",
  "2560": "هم",
  "2561": "そ",
  "2562": " qual",
  "2563": " !",
  "2564": "ume",
  "2565": "ki",
  "2566": "ats",
  "2567": " الْ",
  "2568": " because",
  "2569": "not",
  "2570": "iness",
  "2571": "...",
  "2572": "apat",
  "2573": " way",
  "2574": "��",
  "2575": " giv",
  "2576": "át",
  "2577": "ora",
  "2578": "add",
  "2579": "وا",
  "2580": "play",
  "2581": " ho",
  "2582": "itle",
  "2583": " seg",
  "2584": " gl",
  "2585": "ே",
  "2586": " many",
  "2587": "ST",
  "2588": "ye",
  "2589": "={",
  "2590": " mer",
  "2591": "や",
  "2592": "$,",
  "2593": " main",
  "2594": "ً",
  "2595": "�",
  "2596": "定",
  "2597": " об",
  "2598": "}^{",
  "2599": " ni",
  "2600": "ior",
  "2601": "33",
  "2602": " च",
  "2603": "’",
  "2604": " δ",
  "2605": "AL",
  "2606": "��",
  "2607": "ters",
  "2608": " এ",
  "2609": " look",
  "2610": "ర",
  "2611": "gen",
  "2612": "용",
  "2613": "�",
  "2614": " von",
  "2615": "Ex",
  "2616": " lim",
  "2617": "ress",
  "2618": "ply",
  "2619": " ম",
  "2620": "வ",
  "2621": "بي",
  "2622": "ột",
  "2623": " при",
  "2624": " see",
  "2625": "ige",
  "2626": "リ",
  "2627": "ures",
  "2628": "use",
  "2629": " integr",
  "2630": " port",
  "2631": "une",
  "2632": "да",
  "2633": ")=",
  "2634": "ani",
  "2635": " dat",
  "2636": "ames",
  "2637": " right",
  "2638": "대",
  "2639": " �",
  "2640": " let",
  "2641": " zu",
  "2642": ").\n",
  "2643": " ம",
  "2644": "elta",
  "2645": " product",
  "2646": " से",
  "2647": " ہ",
  "2648": " organ",
  "2649": "ever",
  "2650": "ically",
  "2651": "ર",
  "2652": "ア",
  "2653": " anal",
  "2654": " za",
  "2655": "�",
  "2656": " pop",
  "2657": "ес",
  "2658": " الس",
  "2659": "າ�",
  "2660": "abel",
  "2661": "する",
  "2662": " list",
  "2663": "view",
  "2664": " him",
  "2665": " και",
  "2666": "ji",
  "2667": " best",
  "2668": "earch",
  "2669": "span",
  "2670": "��",
  "2671": "quad",
  "2672": "اع",
  "2673": " une",
  "2674": "../",
  "2675": "本",
  "2676": " web",
  "2677": "fl",
  "2678": "uest",
  "2679": " li",
  "2680": "AM",
  "2681": "px",
  "2682": "ux",
  "2683": "List",
  "2684": " আ",
  "2685": "ाम",
  "2686": " पर",
  "2687": "ین",
  "2688": "ron",
  "2689": " الح",
  "2690": "��",
  "2691": " now",
  "2692": "ral",
  "2693": " down",
  "2694": "ender",
  "2695": " much",
  "2696": "ides",
  "2697": " mit",
  "2698": "ρο",
  "2699": "ும்",
  "2700": "�",
  "2701": "ать",
  "2702": " 가",
  "2703": "ential",
  "2704": "�",
  "2705": "��",
  "2706": " incre",
  "2707": " pen",
  "2708": " good",
  "2709": ".s",
  "2710": "�",
  "2711": "29",
  "2712": "iment",
  "2713": " ச",
  "2714": "iề",
  "2715": " در",
  "2716": "-\\",
  "2717": "RE",
  "2718": "mi",
  "2719": " آ",
  "2720": "ラ",
  "2721": " fam",
  "2722": "لم",
  "2723": "�",
  "2724": "}}",
  "2725": " even",
  "2726": "ende",
  "2727": " ant",
  "2728": "log",
  "2729": "لا",
  "2730": "我",
  "2731": "iones",
  "2732": "到",
  "2733": "公",
  "2734": " ,",
  "2735": "ett",
  "2736": ".S",
  "2737": "��",
  "2738": " Ind",
  "2739": "ource",
  "2740": " அ",
  "2741": "地",
  "2742": " develop",
  "2743": " information",
  "2744": "\n\n\n",
  "2745": "n't",
  "2746": "�",
  "2747": " mot",
  "2748": "제",
  "2749": "工",
  "2750": "ध",
  "2751": "             ",
  "2752": "64",
  "2753": " �",
  "2754": "ploy",
  "2755": "ience",
  "2756": " pat",
  "2757": " =>",
  "2758": "τε",
  "2759": " did",
  "2760": " mo",
  "2761": " כ�",
  "2762": "ID",
  "2763": " Pl",
  "2764": " sel",
  "2765": " «",
  "2766": "aim",
  "2767": "�",
  "2768": "ify",
  "2769": "partial",
  "2770": "ే",
  "2771": "�",
  "2772": "ន",
  "2773": " come",
  "2774": "يه",
  "2775": " En",
  "2776": " bus",
  "2777": "์",
  "2778": "ин",
  "2779": "user",
  "2780": "-f",
  "2781": "�",
  "2782": "akt",
  "2783": " Ap",
  "2784": " �",
  "2785": "////",
  "2786": "ē",
  "2787": "80",
  "2788": " What",
  "2789": "��",
  "2790": "ía",
  "2791": "ிய",
  "2792": "aterial",
  "2793": "ာ�",
  "2794": "isa",
  "2795": "ique",
  "2796": " priv",
  "2797": " As",
  "2798": "�",
  "2799": " ж",
  "2800": " த",
  "2801": "�",
  "2802": "ос",
  "2803": "اش",
  "2804": ".m",
  "2805": "alah",
  "2806": " area",
  "2807": "�",
  "2808": "�",
  "2809": "�",
  "2810": " �",
  "2811": " effect",
  "2812": "né",
  "2813": "़",
  "2814": "oto",
  "2815": "ược",
  "2816": "法",
  "2817": " een",
  "2818": "ữ",
  "2819": "ized",
  "2820": "상",
  "2821": "স",
  "2822": "ault",
  "2823": " very",
  "2824": "yd",
  "2825": "το",
  "2826": " �",
  "2827": "时",
  "2828": " contin",
  "2829": "성",
  "2830": "rm",
  "2831": " years",
  "2832": "면",
  "2833": " text",
  "2834": " ע�",
  "2835": "ự",
  "2836": "ρα",
  "2837": "angan",
  "2838": "这",
  "2839": " ben",
  "2840": "子",
  "2841": "|\n",
  "2842": "�",
  "2843": "—",
  "2844": "``",
  "2845": "ظ",
  "2846": "�",
  "2847": " problem",
  "2848": "나",
  "2849": " không",
  "2850": "月",
  "2851": "%%",
  "2852": "��",
  "2853": "�",
  "2854": "ų",
  "2855": "�",
  "2856": "arn",
  "2857": "duct",
  "2858": "ology",
  "2859": "ల",
  "2860": " mil",
  "2861": " resp",
  "2862": "ど",
  "2863": "ть",
  "2864": "め",
  "2865": "ใ�",
  "2866": "cript",
  "2867": "ves",
  "2868": "_d",
  "2869": " cond",
  "2870": "ले",
  "2871": " aw",
  "2872": "ви",
  "2873": "ี�",
  "2874": " 하",
  "2875": "ben",
  "2876": "्ट",
  "2877": "下",
  "2878": " ess",
  "2879": "��",
  "2880": " het",
  "2881": "້",
  "2882": "vir",
  "2883": "�",
  "2884": " ž",
  "2885": " those",
  "2886": "  \n",
  "2887": "rop",
  "2888": "Ch",
  "2889": "�",
  "2890": "ques",
  "2891": "िल",
  "2892": " το",
  "2893": "hing",
  "2894": "35",
  "2895": "理",
  "2896": " present",
  "2897": "elle",
  "2898": " Sh",
  "2899": " ü",
  "2900": " �",
  "2901": "他",
  "2902": "si",
  "2903": " ka",
  "2904": "يل",
  "2905": "�",
  "2906": "・",
  "2907": " La",
  "2908": "عد",
  "2909": "сти",
  "2910": "ista",
  "2911": "sq",
  "2912": "��",
  "2913": "eter",
  "2914": " You",
  "2915": "ju",
  "2916": " both",
  "2917": "zy",
  "2918": ".c",
  "2919": "iter",
  "2920": " Sp",
  "2921": "istr",
  "2922": " हो",
  "2923": " prot",
  "2924": " ন",
  "2925": "ually",
  "2926": "ission",
  "2927": "yle",
  "2928": "reg",
  "2929": "ей",
  "2930": "36",
  "2931": "رف",
  "2932": "bar",
  "2933": " پ",
  "2934": "هر",
  "2935": "ో",
  "2936": " disc",
  "2937": "font",
  "2938": "िए",
  "2939": "inn",
  "2940": "�்ப",
  "2941": "quest",
  "2942": "아",
  "2943": " một",
  "2944": " gen",
  "2945": "uch",
  "2946": "�",
  "2947": "को",
  "2948": " cour",
  "2949": "ما",
  "2950": "AC",
  "2951": "��",
  "2952": "cd",
  "2953": "�",
  "2954": "fe",
  "2955": "gi",
  "2956": " self",
  "2957": "ெ",
  "2958": "oci",
  "2959": " log",
  "2960": "ند",
  "2961": "ő",
  "2962": " being",
  "2963": "Tr",
  "2964": " conn",
  "2965": "ker",
  "2966": " case",
  "2967": " bir",
  "2968": "idth",
  "2969": " kan",
  "2970": "ains",
  "2971": "��",
  "2972": "ង",
  "2973": " 것",
  "2974": " care",
  "2975": " want",
  "2976": "业",
  "2977": " dalam",
  "2978": " mar",
  "2979": "ility",
  "2980": " tot",
  "2981": "ता",
  "2982": "こと",
  "2983": "ikan",
  "2984": " pada",
  "2985": " י",
  "2986": "ector",
  "2987": " rest",
  "2988": "32",
  "2989": " 전",
  "2990": " consider",
  "2991": "sl",
  "2992": " mal",
  "2993": " level",
  "2994": "оз",
  "2995": "ед",
  "2996": "]\n",
  "2997": "cia",
  "2998": "ased",
  "2999": " vers",
  "3000": "def",
  "3001": " می",
  "3002": " وَ",
  "3003": " tid",
  "3004": "多",
  "3005": "ု",
  "3006": "ends",
  "3007": " chang",
  "3008": "τη",
  "3009": "aan",
  "3010": " ide",
  "3011": "�",
  "3012": " leg",
  "3013": " model",
  "3014": "ired",
  "3015": " 시",
  "3016": " div",
  "3017": " হ",
  "3018": "ross",
  "3019": "ास",
  "3020": "性",
  "3021": "ait",
  "3022": " esp",
  "3023": " play",
  "3024": "ken",
  "3025": "�",
  "3026": "ula",
  "3027": " massage",
  "3028": "igure",
  "3029": "��",
  "3030": " )",
  "3031": " group",
  "3032": "-c",
  "3033": "发",
  "3034": "atic",
  "3035": " 위",
  "3036": " To",
  "3037": "ना",
  "3038": "ared",
  "3039": " ν",
  "3040": "ami",
  "3041": " ст",
  "3042": "ader",
  "3043": "ading",
  "3044": "ф",
  "3045": "other",
  "3046": " được",
  "3047": "일",
  "3048": "med",
  "3049": "rc",
  "3050": "家",
  "3051": " ط",
  "3052": "πο",
  "3053": "uf",
  "3054": "vol",
  "3055": "�",
  "3056": "}=\\",
  "3057": "IT",
  "3058": "essage",
  "3059": "اف",
  "3060": ">>",
  "3061": "اح",
  "3062": "新",
  "3063": "对",
  "3064": "ét",
  "3065": "�",
  "3066": " control",
  "3067": " mag",
  "3068": "ede",
  "3069": "ない",
  "3070": "�",
  "3071": " mark",
  "3072": "wh",
  "3073": " char",
  "3074": " before",
  "3075": "ope",
  "3076": "prime",
  "3077": "ко",
  "3078": "할",
  "3079": "sqrt",
  "3080": "��",
  "3081": " nicht",
  "3082": "ém",
  "3083": ".j",
  "3084": "isi",
  "3085": "ੀ",
  "3086": "xim",
  "3087": "إ",
  "3088": "�",
  "3089": "่า�",
  "3090": " support",
  "3091": " \n\n",
  "3092": " ik",
  "3093": "/\n",
  "3094": "ité",
  "3095": "<<",
  "3096": "�",
  "3097": " pa",
  "3098": "chen",
  "3099": "}$.",
  "3100": "만",
  "3101": "Delta",
  "3102": "ß",
  "3103": "alse",
  "3104": "ams",
  "3105": "え",
  "3106": " activ",
  "3107": "��",
  "3108": "än",
  "3109": "37",
  "3110": " mel",
  "3111": "200",
  "3112": "\r\n",
  "3113": "raw",
  "3114": "ece",
  "3115": "�்த",
  "3116": " prost",
  "3117": " last",
  "3118": " ans",
  "3119": "this",
  "3120": "zen",
  "3121": " ה",
  "3122": "IS",
  "3123": "ided",
  "3124": "én",
  "3125": " Res",
  "3126": " του",
  "3127": "96",
  "3128": "ao",
  "3129": "ky",
  "3130": ".t",
  "3131": " New",
  "3132": "ред",
  "3133": " �",
  "3134": " mult",
  "3135": " state",
  "3136": "ít",
  "3137": "��",
  "3138": "ori",
  "3139": "array",
  "3140": "aining",
  "3141": "kl",
  "3142": "��",
  "3143": " pag",
  "3144": " How",
  "3145": "부",
  "3146": " ol",
  "3147": "html",
  "3148": "�",
  "3149": "�",
  "3150": " å",
  "3151": "ona",
  "3152": "icle",
  "3153": "This",
  "3154": " ti",
  "3155": "orn",
  "3156": "度",
  "3157": "前",
  "3158": "タ",
  "3159": "ї",
  "3160": "�",
  "3161": "श",
  "3162": "تر",
  "3163": "action",
  "3164": "�",
  "3165": "ouse",
  "3166": "^{\\",
  "3167": "ified",
  "3168": "34",
  "3169": "��",
  "3170": "ery",
  "3171": " made",
  "3172": " pri",
  "3173": " must",
  "3174": " lang",
  "3175": "$$\n\n",
  "3176": ".d",
  "3177": "ée",
  "3178": "ness",
  "3179": "ister",
  "3180": " দ",
  "3181": " again",
  "3182": "�",
  "3183": " tar",
  "3184": " cost",
  "3185": " Ad",
  "3186": "ày",
  "3187": "ເ",
  "3188": " dep",
  "3189": "31",
  "3190": " р",
  "3191": "ần",
  "3192": "En",
  "3193": " think",
  "3194": "μα",
  "3195": "lass",
  "3196": " top",
  "3197": "�",
  "3198": "anya",
  "3199": "化",
  "3200": "ình",
  "3201": " dos",
  "3202": " Man",
  "3203": " current",
  "3204": "من",
  "3205": "��",
  "3206": "alk",
  "3207": " arr",
  "3208": "िन",
  "3209": "ape",
  "3210": " US",
  "3211": " sing",
  "3212": " š",
  "3213": " sv",
  "3214": " Be",
  "3215": " But",
  "3216": " 경",
  "3217": " important",
  "3218": "��",
  "3219": "ál",
  "3220": "部",
  "3221": " cert",
  "3222": " trong",
  "3223": " while",
  "3224": "hi",
  "3225": "ament",
  "3226": " இ",
  "3227": "να",
  "3228": "ponse",
  "3229": " contr",
  "3230": "ку",
  "3231": " direct",
  "3232": "stand",
  "3233": "ງ",
  "3234": " orig",
  "3235": "体",
  "3236": "力",
  "3237": " với",
  "3238": "つ",
  "3239": "�",
  "3240": " fac",
  "3241": "िस",
  "3242": " به",
  "3243": "$$\n",
  "3244": " Ser",
  "3245": "전",
  "3246": "��",
  "3247": "ention",
  "3248": "ाव",
  "3249": "ль",
  "3250": "by",
  "3251": "�",
  "3252": "atus",
  "3253": "所",
  "3254": "入",
  "3255": "ầu",
  "3256": " Im",
  "3257": "ση",
  "3258": " memb",
  "3259": " util",
  "3260": " і",
  "3261": "mente",
  "3262": " social",
  "3263": " ?",
  "3264": " found",
  "3265": "就",
  "3266": " mus",
  "3267": "ற",
  "3268": " ο",
  "3269": "alt",
  "3270": "ability",
  "3271": " ko",
  "3272": "트",
  "3273": " expl",
  "3274": " della",
  "3275": "elt",
  "3276": " —",
  "3277": " हैं",
  "3278": ")^{",
  "3279": "った",
  "3280": "$.\n\n",
  "3281": "�",
  "3282": "leg",
  "3283": " dari",
  "3284": "ira",
  "3285": " On",
  "3286": " tu",
  "3287": "ering",
  "3288": " dig",
  "3289": "ाय",
  "3290": "95",
  "3291": " spe",
  "3292": "ေ",
  "3293": "小",
  "3294": "ိ",
  "3295": "ັ",
  "3296": " gratis",
  "3297": " sum",
  "3298": " qui",
  "3299": "�",
  "3300": " sam",
  "3301": "نا",
  "3302": " nec",
  "3303": "oss",
  "3304": " �",
  "3305": "ੇ",
  "3306": "ận",
  "3307": " কর",
  "3308": "lev",
  "3309": " ra",
  "3310": "ows",
  "3311": "75",
  "3312": "”",
  "3313": "RO",
  "3314": "シ",
  "3315": "�",
  "3316": "38",
  "3317": " iz",
  "3318": "bi",
  "3319": " techn",
  "3320": " perform",
  "3321": "ukan",
  "3322": "ເ�",
  "3323": "�",
  "3324": "»",
  "3325": "018",
  "3326": "Cont",
  "3327": "؟",
  "3328": "�",
  "3329": "から",
  "3330": " here",
  "3331": "使",
  "3332": " का",
  "3333": "同",
  "3334": "))",
  "3335": " alt",
  "3336": "ία",
  "3337": " small",
  "3338": "self",
  "3339": "�",
  "3340": " take",
  "3341": " mov",
  "3342": "்ற",
  "3343": " applic",
  "3344": " ré",
  "3345": "uz",
  "3346": "بر",
  "3347": "odel",
  "3348": "ня",
  "3349": "amin",
  "3350": "amento",
  "3351": " ay",
  "3352": "�",
  "3353": "्या",
  "3354": "irm",
  "3355": "Res",
  "3356": "ural",
  "3357": "ု�",
  "3358": "ists",
  "3359": " El",
  "3360": "ाह",
  "3361": " э",
  "3362": "화",
  "3363": "To",
  "3364": "ras",
  "3365": "せ",
  "3366": "ccess",
  "3367": "อง�",
  "3368": "Data",
  "3369": " bi",
  "3370": " hist",
  "3371": " �",
  "3372": " design",
  "3373": " step",
  "3374": " 아",
  "3375": " word",
  "3376": " occ",
  "3377": "ма",
  "3378": "ey",
  "3379": "ਿ",
  "3380": " �",
  "3381": "500",
  "3382": "ION",
  "3383": "ев",
  "3384": " tre",
  "3385": "ặ",
  "3386": "দ",
  "3387": " child",
  "3388": " 제",
  "3389": "ئ",
  "3390": " ú",
  "3391": " الش",
  "3392": "vices",
  "3393": "�",
  "3394": "ம",
  "3395": " Par",
  "3396": "ization",
  "3397": " There",
  "3398": "lease",
  "3399": "}(",
  "3400": " .\n",
  "3401": " three",
  "3402": " ந",
  "3403": "্ত",
  "3404": "ency",
  "3405": " sen",
  "3406": " bar",
  "3407": " се",
  "3408": "ream",
  "3409": " auf",
  "3410": "beg",
  "3411": "ille",
  "3412": " din",
  "3413": " độ",
  "3414": "AS",
  "3415": "чи",
  "3416": "48",
  "3417": "็",
  "3418": " ident",
  "3419": "follow",
  "3420": " Reg",
  "3421": "ason",
  "3422": "endo",
  "3423": "sch",
  "3424": " Or",
  "3425": " č",
  "3426": "Val",
  "3427": " kon",
  "3428": " commun",
  "3429": "day",
  "3430": "ост",
  "3431": "િ",
  "3432": " stand",
  "3433": " mais",
  "3434": " order",
  "3435": " plus",
  "3436": "new",
  "3437": "ண",
  "3438": "ோ",
  "3439": "pat",
  "3440": " liv",
  "3441": "70",
  "3442": "igen",
  "3443": "面",
  "3444": "_l",
  "3445": " elect",
  "3446": "后",
  "3447": "\".",
  "3448": "mo",
  "3449": " lib",
  "3450": " don't",
  "3451": "cer",
  "3452": " world",
  "3453": ".l",
  "3454": "zt",
  "3455": "于",
  "3456": " است",
  "3457": " �",
  "3458": "те",
  "3459": "order",
  "3460": "প",
  "3461": "(t",
  "3462": " file",
  "3463": "vert",
  "3464": "uj",
  "3465": " ce",
  "3466": " own",
  "3467": "�ี่�",
  "3468": "者",
  "3469": "td",
  "3470": "ident",
  "3471": " sob",
  "3472": "ប",
  "3473": "ె",
  "3474": " prim",
  "3475": " ;",
  "3476": "eder",
  "3477": " I'",
  "3478": "得",
  "3479": "ario",
  "3480": "ete",
  "3481": "ар",
  "3482": "àn",
  "3483": "IG",
  "3484": " dom",
  "3485": " bre",
  "3486": " các",
  "3487": "ười",
  "3488": "ில்",
  "3489": " doc",
  "3490": " П",
  "3491": "ogr",
  "3492": "ứ",
  "3493": "وي",
  "3494": "inter",
  "3495": " proper",
  "3496": " neg",
  "3497": "드",
  "3498": "Wh",
  "3499": "_s",
  "3500": "ustom",
  "3501": "iten",
  "3502": " hum",
  "3503": " uma",
  "3504": " الن",
  "3505": " health",
  "3506": "�",
  "3507": " ö",
  "3508": "क्�",
  "3509": "itions",
  "3510": " life",
  "3511": "load",
  "3512": "\",\n",
  "3513": "ત",
  "3514": "ples",
  "3515": " ta",
  "3516": " Col",
  "3517": " eng",
  "3518": "II",
  "3519": " object",
  "3520": " ur",
  "3521": "ivo",
  "3522": "全",
  "3523": "ware",
  "3524": " fre",
  "3525": " final",
  "3526": "='",
  "3527": "�",
  "3528": "ask",
  "3529": "ios",
  "3530": "�",
  "3531": "ones",
  "3532": "ager",
  "3533": "اج",
  "3534": "합",
  "3535": "ુ",
  "3536": "nal",
  "3537": "ស",
  "3538": " say",
  "3539": " change",
  "3540": " ने",
  "3541": "िया",
  "3542": "ດ",
  "3543": " place",
  "3544": " kas",
  "3545": "\"><",
  "3546": "ør",
  "3547": "pen",
  "3548": " free",
  "3549": "క",
  "3550": " Eng",
  "3551": " wer",
  "3552": "ee",
  "3553": "lish",
  "3554": " old",
  "3555": " Pol",
  "3556": "Type",
  "3557": "�",
  "3558": "exas",
  "3559": "}-",
  "3560": "return",
  "3561": " redu",
  "3562": " да",
  "3563": " during",
  "3564": "プ",
  "3565": "ungen",
  "3566": " determ",
  "3567": "국",
  "3568": "ち",
  "3569": "最",
  "3570": "ھ",
  "3571": "alu",
  "3572": " \\\\",
  "3573": "ected",
  "3574": "acter",
  "3575": " entre",
  "3576": " %",
  "3577": " ত",
  "3578": " mga",
  "3579": "ট",
  "3580": " ख",
  "3581": "وق",
  "3582": " بال",
  "3583": "ів",
  "3584": "info",
  "3585": " 보",
  "3586": "ີ",
  "3587": " να",
  "3588": "itor",
  "3589": "ems",
  "3590": "心",
  "3591": "보",
  "3592": "pa",
  "3593": " around",
  "3594": " tidak",
  "3595": "We",
  "3596": " desc",
  "3597": "ità",
  "3598": "ador",
  "3599": "divid",
  "3600": "String",
  "3601": "AP",
  "3602": " Is",
  "3603": "ته",
  "3604": " else",
  "3605": "ū",
  "3606": "ila",
  "3607": " έ",
  "3608": "\t\t\t",
  "3609": " it's",
  "3610": "ät",
  "3611": "��",
  "3612": " sich",
  "3613": "하고",
  "3614": " Mar",
  "3615": "主",
  "3616": "nofollow",
  "3617": "viron",
  "3618": " cle",
  "3619": "از",
  "3620": "েন",
  "3621": "46",
  "3622": "Al",
  "3623": "mit",
  "3624": " В",
  "3625": " ear",
  "3626": " invest",
  "3627": "ôi",
  "3628": " nov",
  "3629": " mom",
  "3630": " meas",
  "3631": " př",
  "3632": " aff",
  "3633": " video",
  "3634": "하는",
  "3635": "ải",
  "3636": " vir",
  "3637": "ອ",
  "3638": " như",
  "3639": "eri",
  "3640": " א",
  "3641": "mail",
  "3642": "jo",
  "3643": " No",
  "3644": "019",
  "3645": " 그�",
  "3646": "소",
  "3647": "begin",
  "3648": " Д",
  "3649": " seb",
  "3650": "********",
  "3651": "lin",
  "3652": " kar",
  "3653": "మ",
  "3654": " rece",
  "3655": " still",
  "3656": " hal",
  "3657": "CO",
  "3658": "ling",
  "3659": "ów",
  "3660": " rad",
  "3661": "present",
  "3662": " power",
  "3663": "itive",
  "3664": "يع",
  "3665": "ते",
  "3666": " **",
  "3667": " day",
  "3668": " deriv",
  "3669": "nen",
  "3670": " sus",
  "3671": " 다",
  "3672": "fil",
  "3673": "www",
  "3674": " example",
  "3675": " circ",
  "3676": " side",
  "3677": "内",
  "3678": " individ",
  "3679": "ਰ",
  "3680": "구",
  "3681": "оп",
  "3682": "What",
  "3683": "date",
  "3684": "gg",
  "3685": "��",
  "3686": "�",
  "3687": "}+\\",
  "3688": "apt",
  "3689": " بر",
  "3690": "ạn",
  "3691": "�י�",
  "3692": " ris",
  "3693": "ẹ",
  "3694": "ather",
  "3695": "��",
  "3696": " 주",
  "3697": "uga",
  "3698": "ference",
  "3699": "ही",
  "3700": " All",
  "3701": " 그",
  "3702": "/s",
  "3703": " я",
  "3704": "لك",
  "3705": "ession",
  "3706": " key",
  "3707": "ων",
  "3708": "lection",
  "3709": " norm",
  "3710": "/m",
  "3711": "�",
  "3712": "ENT",
  "3713": " $(",
  "3714": "api",
  "3715": "ões",
  "3716": "iều",
  "3717": " ing",
  "3718": " ref",
  "3719": "class",
  "3720": " open",
  "3721": " typ",
  "3722": "ales",
  "3723": " bes",
  "3724": "ॉ",
  "3725": "过",
  "3726": "ences",
  "3727": " following",
  "3728": "ulation",
  "3729": "asa",
  "3730": " enc",
  "3731": " из",
  "3732": " Qu",
  "3733": ".\"\n\n",
  "3734": "020",
  "3735": " एक",
  "3736": "�",
  "3737": "με",
  "3738": "hip",
  "3739": "comm",
  "3740": "jet",
  "3741": "コ",
  "3742": "ં",
  "3743": " مع",
  "3744": "ahan",
  "3745": "وب",
  "3746": "ites",
  "3747": "ances",
  "3748": "�",
  "3749": "주",
  "3750": " फ",
  "3751": " für",
  "3752": "テ",
  "3753": "�",
  "3754": "�",
  "3755": " dest",
  "3756": " report",
  "3757": " beh",
  "3758": "់",
  "3759": " γ",
  "3760": "ır",
  "3761": " �",
  "3762": "ова",
  "3763": "var",
  "3764": " hab",
  "3765": "ະ",
  "3766": "ained",
  "3767": "レ",
  "3768": "gy",
  "3769": "ए",
  "3770": " akan",
  "3771": "க",
  "3772": "ude",
  "3773": " business",
  "3774": "'re",
  "3775": "rist",
  "3776": "�",
  "3777": "ướ",
  "3778": "Par",
  "3779": "+\\",
  "3780": "lig",
  "3781": " î",
  "3782": "와",
  "3783": "री",
  "3784": "zer",
  "3785": " ре",
  "3786": "им",
  "3787": "ump",
  "3788": "目",
  "3789": " ba",
  "3790": " Sc",
  "3791": "ម",
  "3792": "ល",
  "3793": "好",
  "3794": " ak",
  "3795": " null",
  "3796": "신",
  "3797": "021",
  "3798": "word",
  "3799": "입",
  "3800": "оль",
  "3801": "ذا",
  "3802": " pal",
  "3803": " net",
  "3804": "const",
  "3805": " plan",
  "3806": "ід",
  "3807": "进",
  "3808": "ிர",
  "3809": "ે�",
  "3810": "less",
  "3811": " tut",
  "3812": " más",
  "3813": " So",
  "3814": "ీ",
  "3815": "等",
  "3816": " י�",
  "3817": "्व",
  "3818": "ș",
  "3819": "โ�",
  "3820": " och",
  "3821": "eld",
  "3822": "ils",
  "3823": " 자",
  "3824": "ững",
  "3825": " war",
  "3826": " ز",
  "3827": "For",
  "3828": " fo",
  "3829": "த்த",
  "3830": "aff",
  "3831": " _",
  "3832": " build",
  "3833": ".html",
  "3834": " �",
  "3835": "clus",
  "3836": "bol",
  "3837": " without",
  "3838": "いる",
  "3839": "�",
  "3840": "わ",
  "3841": "ela",
  "3842": "ам",
  "3843": "oper",
  "3844": " Ver",
  "3845": " */\n",
  "3846": " material",
  "3847": "து",
  "3848": "ms",
  "3849": "ainer",
  "3850": "го",
  "3851": " study",
  "3852": " inc",
  "3853": "']",
  "3854": ".g",
  "3855": "iri",
  "3856": "iể",
  "3857": "市",
  "3858": "터",
  "3859": " book",
  "3860": "уд",
  "3861": "َل",
  "3862": " true",
  "3863": "加",
  "3864": "َن",
  "3865": "수",
  "3866": " bro",
  "3867": " С",
  "3868": "                                ",
  "3869": " Ab",
  "3870": " escort",
  "3871": "adas",
  "3872": "zo",
  "3873": "情",
  "3874": "As",
  "3875": "iversity",
  "3876": " sens",
  "3877": "aire",
  "3878": "文",
  "3879": "�",
  "3880": "भ",
  "3881": "try",
  "3882": " người",
  "3883": "회",
  "3884": " dapat",
  "3885": "не",
  "3886": " They",
  "3887": "Col",
  "3888": " �",
  "3889": " الد",
  "3890": "ording",
  "3891": "hol",
  "3892": "ych",
  "3893": " run",
  "3894": " project",
  "3895": " sent",
  "3896": " light",
  "3897": "ча",
  "3898": "�",
  "3899": "      ",
  "3900": "み",
  "3901": " Per",
  "3902": "39",
  "3903": " mes",
  "3904": "ств",
  "3905": "mathrm",
  "3906": " थ",
  "3907": "^{-",
  "3908": "umn",
  "3909": "{array",
  "3910": " вы",
  "3911": " body",
  "3912": "leh",
  "3913": " view",
  "3914": "ành",
  "3915": "动",
  "3916": "abor",
  "3917": " struct",
  "3918": "ách",
  "3919": "天",
  "3920": "azione",
  "3921": "비",
  "3922": "之",
  "3923": "isc",
  "3924": "agen",
  "3925": " الله",
  "3926": " void",
  "3927": "時",
  "3928": "atan",
  "3929": " At",
  "3930": "实",
  "3931": " eas",
  "3932": "رو",
  "3933": " 한",
  "3934": "aving",
  "3935": " try",
  "3936": "017",
  "3937": "ρι",
  "3938": "tre",
  "3939": "44",
  "3940": "�",
  "3941": "制",
  "3942": "重",
  "3943": ").\n\n",
  "3944": " tro",
  "3945": " mi",
  "3946": " وي",
  "3947": " total",
  "3948": "..\n",
  "3949": "['",
  "3950": "omen",
  "3951": "idade",
  "3952": " �",
  "3953": "år",
  "3954": " >",
  "3955": " Er",
  "3956": "通",
  "3957": "reen",
  "3958": " জ",
  "3959": "문",
  "3960": "니",
  "3961": "IM",
  "3962": " х",
  "3963": " Br",
  "3964": "ogle",
  "3965": "カ",
  "3966": "手",
  "3967": "�",
  "3968": " wr",
  "3969": "()\n",
  "3970": ".h",
  "3971": " گ",
  "3972": "utton",
  "3973": " prop",
  "3974": " Euro",
  "3975": " 중",
  "3976": " within",
  "3977": "-p",
  "3978": "08",
  "3979": "201",
  "3980": "ні",
  "3981": " অ",
  "3982": "ours",
  "3983": "AD",
  "3984": "ξ",
  "3985": "imal",
  "3986": "empl",
  "3987": "็�",
  "3988": "05",
  "3989": "�",
  "3990": "름",
  "3991": "éd",
  "3992": " comput",
  "3993": "lik",
  "3994": " 정",
  "3995": "img",
  "3996": "ables",
  "3997": "τι",
  "3998": " az",
  "3999": "overn",
  "4000": "ification",
  "4001": " corre",
  "4002": " pur",
  "4003": " put",
  "4004": " too",
  "4005": "�",
  "4006": "ель",
  "4007": " με",
  "4008": " water",
  "4009": " Bl",
  "4010": "016",
  "4011": "เป",
  "4012": "ET",
  "4013": "_p",
  "4014": "esso",
  "4015": " energ",
  "4016": " super",
  "4017": "ision",
  "4018": " ç",
  "4019": " school",
  "4020": "ways",
  "4021": "ம்",
  "4022": " eine",
  "4023": "ação",
  "4024": "etr",
  "4025": " element",
  "4026": " 인",
  "4027": " غ",
  "4028": "ロ",
  "4029": "ially",
  "4030": "conom",
  "4031": "arrow",
  "4032": "ного",
  "4033": " alg",
  "4034": "品",
  "4035": "stit",
  "4036": " grow",
  "4037": " auch",
  "4038": "_{\\",
  "4039": "By",
  "4040": "�",
  "4041": " Texas",
  "4042": "erc",
  "4043": "ette",
  "4044": " itu",
  "4045": " thể",
  "4046": " ku",
  "4047": "уж",
  "4048": " signific",
  "4049": " local",
  "4050": "igur",
  "4051": " لا",
  "4052": " इस",
  "4053": "β",
  "4054": "동",
  "4055": "back",
  "4056": "ium",
  "4057": "vin",
  "4058": "roid",
  "4059": "lim",
  "4060": "ished",
  "4061": " maj",
  "4062": "file",
  "4063": " comb",
  "4064": "ster",
  "4065": "ិ",
  "4066": " đã",
  "4067": " علي",
  "4068": " pred",
  "4069": " great",
  "4070": "ción",
  "4071": "fter",
  "4072": " peng",
  "4073": "hem",
  "4074": "epend",
  "4075": "�",
  "4076": "ொ",
  "4077": "�าร�",
  "4078": "ார",
  "4079": "ande",
  "4080": "ries",
  "4081": " वि�",
  "4082": "IC",
  "4083": "}{\\",
  "4084": " pay",
  "4085": "تم",
  "4086": "ệ",
  "4087": "ief",
  "4088": "ек",
  "4089": " 상",
  "4090": "们",
  "4091": " الب",
  "4092": " week",
  "4093": "ить",
  "4094": "nost",
  "4095": "cur",
  "4096": " आप",
  "4097": "明",
  "4098": "�",
  "4099": " iss",
  "4100": " another",
  "4101": "013",
  "4102": "son",
  "4103": " htt",
  "4104": "ache",
  "4105": "也",
  "4106": " ở",
  "4107": " khi",
  "4108": " nu",
  "4109": " este",
  "4110": "ेश",
  "4111": "'\n",
  "4112": "omb",
  "4113": " �",
  "4114": "ED",
  "4115": "La",
  "4116": "eli",
  "4117": "्ह",
  "4118": " might",
  "4119": "ав",
  "4120": "сть",
  "4121": "fun",
  "4122": " less",
  "4123": "acy",
  "4124": "ám",
  "4125": "014",
  "4126": "يره",
  "4127": "ases",
  "4128": "ived",
  "4129": " field",
  "4130": "意",
  "4131": "):",
  "4132": " site",
  "4133": " dar",
  "4134": " Am",
  "4135": " những",
  "4136": "ii",
  "4137": "�",
  "4138": "anto",
  "4139": " calcul",
  "4140": "atives",
  "4141": " Med",
  "4142": " எ",
  "4143": " ક",
  "4144": " `",
  "4145": " call",
  "4146": " jo",
  "4147": " app",
  "4148": "物",
  "4149": " display",
  "4150": " pap",
  "4151": " wa",
  "4152": " string",
  "4153": "uto",
  "4154": " Des",
  "4155": " ==",
  "4156": " Comm",
  "4157": "88",
  "4158": "Im",
  "4159": "વ",
  "4160": " لل",
  "4161": "�",
  "4162": " als",
  "4163": " ви",
  "4164": "اه",
  "4165": "여",
  "4166": "ination",
  "4167": " prod",
  "4168": "�",
  "4169": "�ו�",
  "4170": "τικ",
  "4171": "数",
  "4172": "第",
  "4173": "ाद",
  "4174": " prom",
  "4175": "àng",
  "4176": "ension",
  "4177": " vel",
  "4178": " كان",
  "4179": "ilder",
  "4180": "olo",
  "4181": " Amer",
  "4182": "No",
  "4183": "aps",
  "4184": "65",
  "4185": "Se",
  "4186": " autom",
  "4187": "�",
  "4188": " ann",
  "4189": "47",
  "4190": " bag",
  "4191": " next",
  "4192": " 이�",
  "4193": "una",
  "4194": "012",
  "4195": " ф",
  "4196": " της",
  "4197": " pan",
  "4198": " não",
  "4199": " exp",
  "4200": "道",
  "4201": "iod",
  "4202": " مح",
  "4203": " color",
  "4204": "----------------",
  "4205": "ť",
  "4206": "...\n",
  "4207": "িক",
  "4208": " dim",
  "4209": " writ",
  "4210": "ươ",
  "4211": "_m",
  "4212": "anz",
  "4213": " impro",
  "4214": "진",
  "4215": "当",
  "4216": " turn",
  "4217": " natur",
  "4218": " �",
  "4219": " somet",
  "4220": "�",
  "4221": " prob",
  "4222": "ய",
  "4223": "icon",
  "4224": "grid",
  "4225": "022",
  "4226": "ைய",
  "4227": "ox",
  "4228": "�",
  "4229": " cell",
  "4230": " va",
  "4231": "اااا",
  "4232": " link",
  "4233": " hat",
  "4234": " press",
  "4235": "美",
  "4236": " �",
  "4237": " Ste",
  "4238": "াল",
  "4239": "்கள",
  "4240": "ũ",
  "4241": "چ",
  "4242": "َة",
  "4243": "ram",
  "4244": " arg",
  "4245": "相",
  "4246": "cel",
  "4247": " از",
  "4248": " addition",
  "4249": "amo",
  "4250": " Me",
  "4251": "के",
  "4252": "安",
  "4253": " research",
  "4254": "ailable",
  "4255": " When",
  "4256": "].",
  "4257": "�",
  "4258": "iden",
  "4259": "��",
  "4260": " aus",
  "4261": "tu",
  "4262": "ती",
  "4263": "Er",
  "4264": " ell",
  "4265": "رب",
  "4266": " situ",
  "4267": " count",
  "4268": "社",
  "4269": "Ar",
  "4270": "Un",
  "4271": " juga",
  "4272": " ",
  "4273": "ाज",
  "4274": "हे",
  "4275": "ln",
  "4276": "外",
  "4277": " home",
  "4278": "هُ",
  "4279": "नी",
  "4280": "lı",
  "4281": " ό",
  "4282": "orth",
  "4283": " base",
  "4284": "###",
  "4285": "�่",
  "4286": "�",
  "4287": " times",
  "4288": "apa",
  "4289": "�า�",
  "4290": "010",
  "4291": "iento",
  "4292": "................",
  "4293": " path",
  "4294": "arge",
  "4295": " risk",
  "4296": " including",
  "4297": " size",
  "4298": "iva",
  "4299": "rid",
  "4300": ".C",
  "4301": "OS",
  "4302": "ges",
  "4303": "UR",
  "4304": "년",
  "4305": "015",
  "4306": " surface",
  "4307": "ently",
  "4308": " �",
  "4309": "aging",
  "4310": "果",
  "4311": "ước",
  "4312": " beg",
  "4313": " Est",
  "4314": "vironment",
  "4315": "치",
  "4316": "ately",
  "4317": "aka",
  "4318": " stor",
  "4319": "ある",
  "4320": "imo",
  "4321": "ின",
  "4322": "ids",
  "4323": "金",
  "4324": "水",
  "4325": "55",
  "4326": "িয়",
  "4327": " sw",
  "4328": "ẽ",
  "4329": " सम",
  "4330": "اشد",
  "4331": " 등",
  "4332": "iga",
  "4333": "umm",
  "4334": "공",
  "4335": "場",
  "4336": "산",
  "4337": " á",
  "4338": "eta",
  "4339": "aga",
  "4340": " Cont",
  "4341": "ায়",
  "4342": " सं",
  "4343": "πό",
  "4344": " user",
  "4345": " porno",
  "4346": "اق",
  "4347": " happ",
  "4348": " month",
  "4349": "င",
  "4350": "obal",
  "4351": "content",
  "4352": "An",
  "4353": " employ",
  "4354": "023",
  "4355": "fic",
  "4356": " ...",
  "4357": "ン�",
  "4358": "フ",
  "4359": " menj",
  "4360": " better",
  "4361": "(\n",
  "4362": "NA",
  "4363": "�",
  "4364": " cou",
  "4365": "św",
  "4366": "incip",
  "4367": "ono",
  "4368": " kw",
  "4369": "len",
  "4370": "都",
  "4371": " ot",
  "4372": "bt",
  "4373": " due",
  "4374": " fut",
  "4375": "رد",
  "4376": " atau",
  "4377": ".org",
  "4378": "atter",
  "4379": "icy",
  "4380": "iện",
  "4381": "PL",
  "4382": "マ",
  "4383": "State",
  "4384": "../../",
  "4385": " private",
  "4386": "pose",
  "4387": "CH",
  "4388": "lete",
  "4389": " whe",
  "4390": "保",
  "4391": "ौ",
  "4392": "مل",
  "4393": " CO",
  "4394": " left",
  "4395": "ક",
  "4396": "경",
  "4397": " possible",
  "4398": "ًا",
  "4399": "ocal",
  "4400": "49",
  "4401": "ilar",
  "4402": " },\n",
  "4403": " graph",
  "4404": " interest",
  "4405": "代",
  "4406": "�",
  "4407": "우",
  "4408": " mill",
  "4409": " alle",
  "4410": " height",
  "4411": " adalah",
  "4412": "开",
  "4413": " dam",
  "4414": " ،",
  "4415": "ema",
  "4416": " given",
  "4417": "ola",
  "4418": " Đ",
  "4419": " ప",
  "4420": "表",
  "4421": "ட்ட",
  "4422": " deg",
  "4423": "ບ",
  "4424": " để",
  "4425": "ाच",
  "4426": " abs",
  "4427": "';\n",
  "4428": "He",
  "4429": "Le",
  "4430": "ioni",
  "4431": "agement",
  "4432": "Ob",
  "4433": "Value",
  "4434": " ten",
  "4435": "期",
  "4436": "িন",
  "4437": " Anda",
  "4438": " prostitu",
  "4439": "�ו",
  "4440": " give",
  "4441": "νο",
  "4442": "经",
  "4443": "·",
  "4444": " vous",
  "4445": "ត",
  "4446": " event",
  "4447": "�",
  "4448": " sou",
  "4449": " �",
  "4450": "ез",
  "4451": "ých",
  "4452": "jen",
  "4453": " law",
  "4454": "aran",
  "4455": " lay",
  "4456": "�",
  "4457": " कि",
  "4458": " respect",
  "4459": ");",
  "4460": " ट",
  "4461": "“",
  "4462": " market",
  "4463": "aft",
  "4464": "_P",
  "4465": "aria",
  "4466": "ြ",
  "4467": "ید",
  "4468": "trans",
  "4469": "oney",
  "4470": "され",
  "4471": "提",
  "4472": " espec",
  "4473": " width",
  "4474": " red",
  "4475": "ako",
  "4476": "간",
  "4477": "ுத",
  "4478": " लिए",
  "4479": "ения",
  "4480": "�ા�",
  "4481": "pris",
  "4482": " continu",
  "4483": "금",
  "4484": "includ",
  "4485": " www",
  "4486": "回",
  "4487": " �",
  "4488": " sobre",
  "4489": "とい",
  "4490": "View",
  "4491": "](",
  "4492": "่า",
  "4493": "\");\n",
  "4494": " ц",
  "4495": "aks",
  "4496": "ran",
  "4497": " mor",
  "4498": "come",
  "4499": "ுக்க",
  "4500": " State",
  "4501": " بس",
  "4502": " claim",
  "4503": " indic",
  "4504": " إلى",
  "4505": " coun",
  "4506": "оч",
  "4507": "كن",
  "4508": " mean",
  "4509": " means",
  "4510": "-h",
  "4511": "이름",
  "4512": "acht",
  "4513": " original",
  "4514": "ald",
  "4515": " Н",
  "4516": "ין",
  "4517": " 부",
  "4518": "-w",
  "4519": "aces",
  "4520": "هه",
  "4521": "•",
  "4522": " প্র",
  "4523": "pp",
  "4524": "ので",
  "4525": " emb",
  "4526": "encia",
  "4527": " defin",
  "4528": " של",
  "4529": "います",
  "4530": "ют",
  "4531": "며",
  "4532": "\tif",
  "4533": "utes",
  "4534": " την",
  "4535": "�",
  "4536": "mes",
  "4537": "��",
  "4538": " الل",
  "4539": " error",
  "4540": " pract",
  "4541": "param",
  "4542": " Dr",
  "4543": "位",
  "4544": " based",
  "4545": " changes",
  "4546": "',\n",
  "4547": "78",
  "4548": "iki",
  "4549": "avor",
  "4550": "ended",
  "4551": "का",
  "4552": "data",
  "4553": " associ",
  "4554": "umb",
  "4555": "ön",
  "4556": " �",
  "4557": "ได",
  "4558": "ương",
  "4559": " going",
  "4560": "icro",
  "4561": "imento",
  "4562": "与",
  "4563": "є",
  "4564": "ads",
  "4565": "ements",
  "4566": " 있습니다",
  "4567": " special",
  "4568": "cription",
  "4569": "rio",
  "4570": "ْن",
  "4571": "EX",
  "4572": " tip",
  "4573": " far",
  "4574": "λλ",
  "4575": "ây",
  "4576": "nes",
  "4577": " meg",
  "4578": "而",
  "4579": "uer",
  "4580": "�",
  "4581": " nos",
  "4582": "сь",
  "4583": "持",
  "4584": "間",
  "4585": "�า�",
  "4586": " θ",
  "4587": "次",
  "4588": " נ�",
  "4589": "ception",
  "4590": " này",
  "4591": " hard",
  "4592": "其",
  "4593": "్ర",
  "4594": " common",
  "4595": " भी",
  "4596": "ំ",
  "4597": "point",
  "4598": " create",
  "4599": "ई",
  "4600": " fur",
  "4601": "osp",
  "4602": " std",
  "4603": " four",
  "4604": "ाई",
  "4605": "ár",
  "4606": "개",
  "4607": "명",
  "4608": " hor",
  "4609": "قد",
  "4610": "ாக",
  "4611": "ến",
  "4612": "女",
  "4613": " \\\\\n",
  "4614": " appe",
  "4615": "मा",
  "4616": " educ",
  "4617": "rix",
  "4618": "zn",
  "4619": "้า�",
  "4620": "했다",
  "4621": "되",
  "4622": " org",
  "4623": "계",
  "4624": " för",
  "4625": " под",
  "4626": "까",
  "4627": "关",
  "4628": " keep",
  "4629": "\\end",
  "4630": "ysis",
  "4631": " voor",
  "4632": "opt",
  "4633": "ِي",
  "4634": " pack",
  "4635": "oud",
  "4636": "ota",
  "4637": " 공",
  "4638": "活",
  "4639": "):\n",
  "4640": " caus",
  "4641": " الف",
  "4642": "ungs",
  "4643": " પ",
  "4644": "########",
  "4645": " table",
  "4646": "011",
  "4647": " check",
  "4648": "感",
  "4649": "ending",
  "4650": "ções",
  "4651": " position",
  "4652": "\"\n\n",
  "4653": "ctions",
  "4654": "产",
  "4655": "ordin",
  "4656": "ün",
  "4657": "atures",
  "4658": "建",
  "4659": "से",
  "4660": "lock",
  "4661": " dou",
  "4662": " input",
  "4663": "agai",
  "4664": " amb",
  "4665": "说",
  "4666": " equation",
  "4667": "\".\n",
  "4668": "LL",
  "4669": "iy",
  "4670": " Ass",
  "4671": "ши",
  "4672": " really",
  "4673": " раз",
  "4674": " ی",
  "4675": "ас",
  "4676": "ồ",
  "4677": "ush",
  "4678": " expect",
  "4679": " member",
  "4680": " trad",
  "4681": "�",
  "4682": " tou",
  "4683": "aring",
  "4684": "{d",
  "4685": "త",
  "4686": "利",
  "4687": "ारी",
  "4688": "\\u",
  "4689": " lu",
  "4690": " conc",
  "4691": "Ind",
  "4692": "kr",
  "4693": " sym",
  "4694": "وع",
  "4695": " period",
  "4696": " adv",
  "4697": "○",
  "4698": " เ�",
  "4699": " что",
  "4700": " în",
  "4701": " Il",
  "4702": " param",
  "4703": "ْت",
  "4704": " compon",
  "4705": "ше",
  "4706": "ès",
  "4707": "现",
  "4708": "$\n\n",
  "4709": " above",
  "4710": "ought",
  "4711": " points",
  "4712": "مان",
  "4713": "iến",
  "4714": " individual",
  "4715": ".st",
  "4716": " �",
  "4717": " tur",
  "4718": " sind",
  "4719": " cult",
  "4720": "het",
  "4721": "ules",
  "4722": "ably",
  "4723": " క",
  "4724": "点",
  "4725": "aa",
  "4726": "eh",
  "4727": "ич",
  "4728": " {\\",
  "4729": "ınd",
  "4730": " since",
  "4731": "如",
  "4732": "데",
  "4733": " tel",
  "4734": " Ag",
  "4735": "រ�",
  "4736": "maz",
  "4737": "off",
  "4738": "ந்த",
  "4739": " Su",
  "4740": " print",
  "4741": "でき",
  "4742": " particular",
  "4743": "omet",
  "4744": "ົ",
  "4745": " 모",
  "4746": "��",
  "4747": " Dep",
  "4748": " benef",
  "4749": "ograph",
  "4750": "Bu",
  "4751": "On",
  "4752": "��",
  "4753": "取",
  "4754": "77",
  "4755": "�י",
  "4756": " pub",
  "4757": " bon",
  "4758": " false",
  "4759": "ires",
  "4760": " الص",
  "4761": "ர்",
  "4762": "66",
  "4763": "نت",
  "4764": "ني",
  "4765": " র",
  "4766": " exist",
  "4767": "র্�",
  "4768": "��",
  "4769": "�",
  "4770": "raz",
  "4771": "ίν",
  "4772": "��",
  "4773": "amos",
  "4774": "ocus",
  "4775": " princip",
  "4776": "**\n",
  "4777": " approach",
  "4778": "工作",
  "4779": "aman",
  "4780": "ут",
  "4781": "�",
  "4782": "ార",
  "4783": "よう",
  "4784": "�",
  "4785": " bah",
  "4786": "ebut",
  "4787": " indust",
  "4788": "Text",
  "4789": " few",
  "4790": "ジ",
  "4791": " avec",
  "4792": " include",
  "4793": "US",
  "4794": "�",
  "4795": "eren",
  "4796": "ift",
  "4797": "ết",
  "4798": "ск",
  "4799": "เป็",
  "4800": "yr",
  "4801": "ekt",
  "4802": " date",
  "4803": "ican",
  "4804": "umber",
  "4805": "ää",
  "4806": "ました",
  "4807": "aster",
  "4808": " вс",
  "4809": "icas",
  "4810": "机",
  "4811": "ản",
  "4812": "�",
  "4813": "�",
  "4814": "lem",
  "4815": " always",
  "4816": "rodu",
  "4817": " obser",
  "4818": " range",
  "4819": "にな",
  "4820": " 있는",
  "4821": " werden",
  "4822": " cop",
  "4823": " land",
  "4824": " sono",
  "4825": " từ",
  "4826": " छ",
  "4827": " К",
  "4828": " That",
  "4829": "체",
  "4830": " limit",
  "4831": "lor",
  "4832": "�",
  "4833": " String",
  "4834": " వ",
  "4835": " output",
  "4836": "正",
  "4837": "�",
  "4838": " kur",
  "4839": "ieve",
  "4840": "ुर",
  "4841": "ப்ப",
  "4842": "ద",
  "4843": " May",
  "4844": " сп",
  "4845": "েছ",
  "4846": "平",
  "4847": ".f",
  "4848": "ious",
  "4849": " pun",
  "4850": " service",
  "4851": " उन",
  "4852": "管",
  "4853": " polit",
  "4854": "์�",
  "4855": "If",
  "4856": "uring",
  "4857": " мож",
  "4858": "常",
  "4859": "행",
  "4860": "��",
  "4861": " ث",
  "4862": " أو",
  "4863": "ườ",
  "4864": "_c",
  "4865": " past",
  "4866": " ens",
  "4867": "َي",
  "4868": " الإ",
  "4869": "eden",
  "4870": "-item",
  "4871": "��",
  "4872": "                           ",
  "4873": "-se",
  "4874": " length",
  "4875": " rate",
  "4876": "مر",
  "4877": " content",
  "4878": " 및",
  "4879": " necess",
  "4880": "వ",
  "4881": " represent",
  "4882": "ources",
  "4883": "ipe",
  "4884": "300",
  "4885": " understand",
  "4886": " anda",
  "4887": " ker",
  "4888": "ça",
  "4889": "iro",
  "4890": " title",
  "4891": " aver",
  "4892": "デ",
  "4893": " access",
  "4894": "Ser",
  "4895": "П",
  "4896": "ाइ",
  "4897": "ẩ",
  "4898": " 통",
  "4899": " provide",
  "4900": "政",
  "4901": "nap",
  "4902": "۔",
  "4903": " ao",
  "4904": " Car",
  "4905": " perm",
  "4906": " сл",
  "4907": "DE",
  "4908": " mis",
  "4909": " job",
  "4910": "public",
  "4911": "ят",
  "4912": "),\n",
  "4913": "03",
  "4914": " Em",
  "4915": "εί",
  "4916": "ிற",
  "4917": " �",
  "4918": "ਿ�",
  "4919": " sie",
  "4920": " lot",
  "4921": "utions",
  "4922": "三",
  "4923": " soft",
  "4924": "見",
  "4925": "່�",
  "4926": "知",
  "4927": "ို�",
  "4928": "サ",
  "4929": "ដ",
  "4930": "یں",
  "4931": "42",
  "4932": "OT",
  "4933": "ban",
  "4934": "orte",
  "4935": " larg",
  "4936": " đó",
  "4937": "____",
  "4938": " results",
  "4939": "nav",
  "4940": "sa",
  "4941": "ving",
  "4942": "�",
  "4943": " sẽ",
  "4944": "キ",
  "4945": "ég",
  "4946": " sau",
  "4947": "Class",
  "4948": "াম",
  "4949": " κα",
  "4950": "41",
  "4951": " О",
  "4952": " Cent",
  "4953": " Ne",
  "4954": "formation",
  "4955": "rat",
  "4956": "ите",
  "4957": "هره",
  "4958": "ường",
  "4959": "ives",
  "4960": " complet",
  "4961": " allow",
  "4962": " vào",
  "4963": " mut",
  "4964": "اط",
  "4965": "ně",
  "4966": " الك",
  "4967": " 개",
  "4968": "cdot",
  "4969": "iger",
  "4970": " Do",
  "4971": " మ",
  "4972": " המ�",
  "4973": "Qu",
  "4974": "メ",
  "4975": "iej",
  "4976": "��",
  "4977": "raf",
  "4978": "量",
  "4979": "特",
  "4980": " על",
  "4981": "You",
  "4982": " low",
  "4983": " 일",
  "4984": " available",
  "4985": "起",
  "4986": "ère",
  "4987": "比",
  "4988": " bạn",
  "4989": "ной",
  "4990": "thing",
  "4991": " 거",
  "4992": "解",
  "4993": "vious",
  "4994": "este",
  "4995": "java",
  "4996": "َر",
  "4997": "思",
  "4998": " 신",
  "4999": "amm",
  "5000": "ags",
  "5001": "سب",
  "5002": "aux",
  "5003": " han",
  "5004": "ור",
  "5005": " bisa",
  "5006": " �",
  "5007": " Min",
  "5008": " Dec",
  "5009": "namefont",
  "5010": " ci",
  "5011": " sek",
  "5012": " più",
  "5013": " nak",
  "5014": " game",
  "5015": "名",
  "5016": "posit",
  "5017": "\treturn",
  "5018": "위",
  "5019": " distrib",
  "5020": "着",
  "5021": "/c",
  "5022": "asing",
  "5023": "001",
  "5024": "ız",
  "5025": "แล�",
  "5026": " measure",
  "5027": "ades",
  "5028": " device",
  "5029": "unic",
  "5030": "ọn",
  "5031": "inen",
  "5032": "及",
  "5033": "ड़",
  "5034": " answer",
  "5035": "book",
  "5036": "크",
  "5037": "iste",
  "5038": "ova",
  "5039": "ון",
  "5040": "ground",
  "5041": " ste",
  "5042": " series",
  "5043": "ches",
  "5044": " require",
  "5045": "분",
  "5046": " �",
  "5047": " tod",
  "5048": "ester",
  "5049": "ích",
  "5050": "然",
  "5051": "User",
  "5052": " Cl",
  "5053": "才",
  "5054": "ails",
  "5055": " University",
  "5056": "Sh",
  "5057": " sist",
  "5058": " full",
  "5059": "amu",
  "5060": "ере",
  "5061": " وت",
  "5062": "oz",
  "5063": "atal",
  "5064": "ury",
  "5065": "aking",
  "5066": " �",
  "5067": " अप",
  "5068": "信",
  "5069": "anti",
  "5070": "dr",
  "5071": "پ",
  "5072": "anh",
  "5073": "ச",
  "5074": "            ",
  "5075": "야",
  "5076": "aling",
  "5077": "igt",
  "5078": "ού",
  "5079": "ْر",
  "5080": "�",
  "5081": " sang",
  "5082": " litt",
  "5083": "务",
  "5084": " الق",
  "5085": " trav",
  "5086": "ży",
  "5087": "ງ�",
  "5088": "!!",
  "5089": " য",
  "5090": " sz",
  "5091": " along",
  "5092": " Then",
  "5093": "ynam",
  "5094": " Bu",
  "5095": " bez",
  "5096": " err",
  "5097": " tele",
  "5098": "ategory",
  "5099": " respons",
  "5100": "क्ष",
  "5101": "CT",
  "5102": "_id",
  "5103": "�",
  "5104": "গ",
  "5105": " Det",
  "5106": "حمد",
  "5107": " terms",
  "5108": "'est",
  "5109": "�",
  "5110": " 해",
  "5111": " tal",
  "5112": " page",
  "5113": " fund",
  "5114": " ذ",
  "5115": "وف",
  "5116": " solution",
  "5117": " 나",
  "5118": " contrib",
  "5119": "ăng",
  "5120": "idades",
  "5121": "\";\n",
  "5122": " kun",
  "5123": " η",
  "5124": " near",
  "5125": "де",
  "5126": "ແ�",
  "5127": "().",
  "5128": "-x",
  "5129": "cle",
  "5130": "pond",
  "5131": " days",
  "5132": " things",
  "5133": "string",
  "5134": "gu",
  "5135": " large",
  "5136": "ello",
  "5137": " 연",
  "5138": "立",
  "5139": " certain",
  "5140": " cer",
  "5141": "abe",
  "5142": "صه",
  "5143": " profess",
  "5144": "출",
  "5145": "입니다",
  "5146": ".A",
  "5147": "ped",
  "5148": "site",
  "5149": " số",
  "5150": " rap",
  "5151": "因",
  "5152": " الر",
  "5153": " normal",
  "5154": "조",
  "5155": " họ",
  "5156": " author",
  "5157": " !=",
  "5158": "ival",
  "5159": "्थ",
  "5160": " для",
  "5161": " personal",
  "5162": " target",
  "5163": "�י�",
  "5164": "hel",
  "5165": " lik",
  "5166": "eme",
  "5167": "িত",
  "5168": "UT",
  "5169": "di",
  "5170": " camp",
  "5171": " govern",
  "5172": " never",
  "5173": "อง",
  "5174": "ные",
  "5175": " tamb",
  "5176": "्री",
  "5177": " cos",
  "5178": "chi",
  "5179": "ées",
  "5180": " With",
  "5181": "ministr",
  "5182": "관",
  "5183": " kl",
  "5184": "స",
  "5185": " code",
  "5186": " select",
  "5187": "ím",
  "5188": "िं",
  "5189": "Item",
  "5190": "ither",
  "5191": " Go",
  "5192": " feel",
  "5193": "وج",
  "5194": " why",
  "5195": " strateg",
  "5196": "안",
  "5197": " ters",
  "5198": " Bar",
  "5199": "今",
  "5200": "्ल",
  "5201": "Context",
  "5202": "aci",
  "5203": "ỉ",
  "5204": "irl",
  "5205": " Cal",
  "5206": "86",
  "5207": " font",
  "5208": "=-",
  "5209": "link",
  "5210": "民",
  "5211": "�ี่",
  "5212": "ば",
  "5213": "ую",
  "5214": "Info",
  "5215": " human",
  "5216": " treat",
  "5217": "input",
  "5218": "长",
  "5219": "°",
  "5220": "�",
  "5221": "ூ",
  "5222": " Bo",
  "5223": "ands",
  "5224": "更",
  "5225": " describ",
  "5226": "という",
  "5227": "-st",
  "5228": "��",
  "5229": "�",
  "5230": "ợ",
  "5231": "ổ",
  "5232": ")$.",
  "5233": "bih",
  "5234": " শ",
  "5235": " Die",
  "5236": " Intern",
  "5237": "ение",
  "5238": " film",
  "5239": " general",
  "5240": "label",
  "5241": "হ",
  "5242": "entes",
  "5243": "ீ",
  "5244": " sever",
  "5245": "ley",
  "5246": " utiliz",
  "5247": "Pr",
  "5248": " dal",
  "5249": " invol",
  "5250": " ///",
  "5251": " 유",
  "5252": "uje",
  "5253": "eth",
  "5254": " often",
  "5255": " �",
  "5256": " prote",
  "5257": " success",
  "5258": " ત",
  "5259": "េ",
  "5260": "ுக",
  "5261": "author",
  "5262": "�",
  "5263": " ام",
  "5264": " fa",
  "5265": "iding",
  "5266": "؟\n",
  "5267": "합니다",
  "5268": "kin",
  "5269": " så",
  "5270": "ங",
  "5271": "ín",
  "5272": "body",
  "5273": " Te",
  "5274": "ド",
  "5275": "ards",
  "5276": " న",
  "5277": " These",
  "5278": " distance",
  "5279": "’s",
  "5280": "系",
  "5281": "sub",
  "5282": "《",
  "5283": "artment",
  "5284": "udi",
  "5285": "นเ�",
  "5286": "ому",
  "5287": "�า�",
  "5288": "�",
  "5289": " cy",
  "5290": " mere",
  "5291": "itas",
  "5292": "िर",
  "5293": "あり",
  "5294": " question",
  "5295": "�",
  "5296": " air",
  "5297": " mai",
  "5298": " الج",
  "5299": "aint",
  "5300": " ਦ",
  "5301": "gt",
  "5302": "~~",
  "5303": "erade",
  "5304": "ارب",
  "5305": " provided",
  "5306": " document",
  "5307": " wird",
  "5308": " 관",
  "5309": "include",
  "5310": "AB",
  "5311": "رك",
  "5312": "ِن",
  "5313": "ING",
  "5314": " below",
  "5315": " children",
  "5316": "Is",
  "5317": "Pl",
  "5318": "мен",
  "5319": "身",
  "5320": "Ph",
  "5321": "fect",
  "5322": "�",
  "5323": " aj",
  "5324": " cũ",
  "5325": " تع",
  "5326": " так",
  "5327": "程",
  "5328": "All",
  "5329": " mid",
  "5330": "ilt",
  "5331": "ໃ",
  "5332": " against",
  "5333": "�",
  "5334": " via",
  "5335": "urg",
  "5336": "تي",
  "5337": " �",
  "5338": "세",
  "5339": " default",
  "5340": " mob",
  "5341": " nur",
  "5342": "óng",
  "5343": "ме",
  "5344": "iene",
  "5345": "\")",
  "5346": "\\left",
  "5347": "ài",
  "5348": " đến",
  "5349": "tract",
  "5350": " про",
  "5351": " something",
  "5352": "ț",
  "5353": " pou",
  "5354": " nie",
  "5355": "си",
  "5356": " sure",
  "5357": " الخ",
  "5358": "向",
  "5359": " 있다",
  "5360": "bibinfo",
  "5361": " single",
  "5362": " cam",
  "5363": "itar",
  "5364": " meny",
  "5365": "技",
  "5366": "oma",
  "5367": "aciones",
  "5368": "ahr",
  "5369": " zero",
  "5370": " image",
  "5371": "post",
  "5372": "idos",
  "5373": " IN",
  "5374": " Ge",
  "5375": "ùng",
  "5376": "Quest",
  "5377": "�",
  "5378": "资",
  "5379": "war",
  "5380": "》",
  "5381": " least",
  "5382": "司",
  "5383": " specific",
  "5384": " econom",
  "5385": " review",
  "5386": "ithub",
  "5387": "ਤ",
  "5388": "�บ�",
  "5389": "%%%%",
  "5390": "ijn",
  "5391": " values",
  "5392": " account",
  "5393": "�ה",
  "5394": "ım",
  "5395": "言",
  "5396": " further",
  "5397": "�",
  "5398": "بل",
  "5399": " స",
  "5400": "PS",
  "5401": " ड",
  "5402": " ele",
  "5403": "실",
  "5404": "្រ�",
  "5405": "-in",
  "5406": "uan",
  "5407": " vot",
  "5408": "ecut",
  "5409": "気",
  "5410": " crit",
  "5411": " offer",
  "5412": "ες",
  "5413": " та",
  "5414": "07",
  "5415": " má",
  "5416": "لام",
  "5417": "éc",
  "5418": " erot",
  "5419": "irect",
  "5420": "ці",
  "5421": " és",
  "5422": " required",
  "5423": "ony",
  "5424": " bal",
  "5425": " dei",
  "5426": "いて",
  "5427": " prec",
  "5428": " constru",
  "5429": "ottom",
  "5430": "43",
  "5431": "err",
  "5432": " �",
  "5433": "ុ",
  "5434": "िव",
  "5435": "考",
  "5436": " known",
  "5437": "TR",
  "5438": " refer",
  "5439": "단",
  "5440": " head",
  "5441": " students",
  "5442": "�",
  "5443": " χ",
  "5444": "itial",
  "5445": "ата",
  "5446": " called",
  "5447": "科",
  "5448": " 소",
  "5449": "�",
  "5450": "ই",
  "5451": " By",
  "5452": "َو",
  "5453": "ibil",
  "5454": "حد",
  "5455": "key",
  "5456": "式",
  "5457": "mas",
  "5458": "{x",
  "5459": "�",
  "5460": " big",
  "5461": " lại",
  "5462": "还",
  "5463": "(f",
  "5464": "ws",
  "5465": " nas",
  "5466": "ाग",
  "5467": " Ed",
  "5468": "יה",
  "5469": "少",
  "5470": "85",
  "5471": "�",
  "5472": " dev",
  "5473": "ोग",
  "5474": "atients",
  "5475": "接",
  "5476": "09",
  "5477": "sen",
  "5478": " ale",
  "5479": " sil",
  "5480": " However",
  "5481": "06",
  "5482": "�",
  "5483": "ismo",
  "5484": " integral",
  "5485": " bis",
  "5486": " Find",
  "5487": " development",
  "5488": " św",
  "5489": "াক",
  "5490": "http",
  "5491": "二",
  "5492": " fri",
  "5493": "ارة",
  "5494": "\"></",
  "5495": " این",
  "5496": "ؤ",
  "5497": "�",
  "5498": "ison",
  "5499": " focus",
  "5500": " М",
  "5501": "eters",
  "5502": "thers",
  "5503": "ibr",
  "5504": "ిం�",
  "5505": "Fr",
  "5506": "PI",
  "5507": "leq",
  "5508": "idence",
  "5509": "из",
  "5510": "료",
  "5511": "pet",
  "5512": "сп",
  "5513": " από",
  "5514": "ప",
  "5515": " Α",
  "5516": " significant",
  "5517": "De",
  "5518": " dating",
  "5519": "اي",
  "5520": " sua",
  "5521": " Jul",
  "5522": " ка",
  "5523": "想",
  "5524": "imm",
  "5525": " gar",
  "5526": "ively",
  "5527": "αν",
  "5528": " flu",
  "5529": " wie",
  "5530": "owe",
  "5531": "anda",
  "5532": "ான",
  "5533": "ារ�",
  "5534": "(c",
  "5535": "Key",
  "5536": " ki",
  "5537": " Po",
  "5538": "ffic",
  "5539": "lick",
  "5540": "========",
  "5541": " particip",
  "5542": "С",
  "5543": " hot",
  "5544": " Sol",
  "5545": "バ",
  "5546": " energy",
  "5547": "-a",
  "5548": "way",
  "5549": "फ",
  "5550": " ul",
  "5551": "்ச",
  "5552": "awa",
  "5553": "value",
  "5554": " 여",
  "5555": "ไม",
  "5556": "영",
  "5557": "și",
  "5558": "nis",
  "5559": " oleh",
  "5560": " inn",
  "5561": " got",
  "5562": " request",
  "5563": "uv",
  "5564": "ंत",
  "5565": "では",
  "5566": "anu",
  "5567": "య",
  "5568": "erson",
  "5569": " Christ",
  "5570": "Die",
  "5571": "odes",
  "5572": "ega",
  "5573": " flo",
  "5574": " kind",
  "5575": " Art",
  "5576": " able",
  "5577": " rot",
  "5578": " cũng",
  "5579": ")\\",
  "5580": "ories",
  "5581": " clos",
  "5582": "щи",
  "5583": "аль",
  "5584": "\"�",
  "5585": "ket",
  "5586": " having",
  "5587": " I'm",
  "5588": "ses",
  "5589": "uage",
  "5590": " mind",
  "5591": "ford",
  "5592": " discuss",
  "5593": " src",
  "5594": " aux",
  "5595": "员",
  "5596": " whether",
  "5597": "Form",
  "5598": " ngh",
  "5599": "اص",
  "5600": " که",
  "5601": "展",
  "5602": ".M",
  "5603": "품",
  "5604": " uk",
  "5605": " gre",
  "5606": "يم",
  "5607": "emp",
  "5608": "재",
  "5609": "ấy",
  "5610": "ζ",
  "5611": "В",
  "5612": "ء",
  "5613": "لف",
  "5614": "imum",
  "5615": "いた",
  "5616": "ుల",
  "5617": "動",
  "5618": " thai",
  "5619": "aha",
  "5620": "bers",
  "5621": "�",
  "5622": "ाक",
  "5623": "ែ",
  "5624": " dise",
  "5625": " до",
  "5626": " phys",
  "5627": "식",
  "5628": "nik",
  "5629": " sud",
  "5630": " United",
  "5631": " Trans",
  "5632": " gives",
  "5633": " family",
  "5634": " reason",
  "5635": "apan",
  "5636": "按",
  "5637": " über",
  "5638": "ober",
  "5639": "igned",
  "5640": "λο",
  "5641": "一个",
  "5642": "��",
  "5643": "acc",
  "5644": "ле",
  "5645": " address",
  "5646": "/d",
  "5647": "জ",
  "5648": " food",
  "5649": " vor",
  "5650": " כ",
  "5651": "ला",
  "5652": "教",
  "5653": " �",
  "5654": " experience",
  "5655": "Table",
  "5656": "lished",
  "5657": "aca",
  "5658": "sole",
  "5659": " implement",
  "5660": " ax",
  "5661": "ania",
  "5662": "ety",
  "5663": " ih",
  "5664": " weight",
  "5665": "cy",
  "5666": " nam",
  "5667": "�น�",
  "5668": " ach",
  "5669": " System",
  "5670": "áv",
  "5671": " ét",
  "5672": "�ร�",
  "5673": " custom",
  "5674": " bin",
  "5675": "ाप",
  "5676": "ffer",
  "5677": " nhiều",
  "5678": " את",
  "5679": "间",
  "5680": " connect",
  "5681": "يعه",
  "5682": "हीं",
  "5683": " average",
  "5684": " hier",
  "5685": "urity",
  "5686": "وس",
  "5687": "ponent",
  "5688": "($",
  "5689": ">\n\n",
  "5690": "�",
  "5691": "rel",
  "5692": " repl",
  "5693": "009",
  "5694": " ask",
  "5695": " đầu",
  "5696": " percent",
  "5697": "index",
  "5698": " 고",
  "5699": "یر",
  "5700": "ube",
  "5701": "-r",
  "5702": "��",
  "5703": "�ו�",
  "5704": " sont",
  "5705": "angle",
  "5706": " imm",
  "5707": " intern",
  "5708": "�",
  "5709": " అ",
  "5710": "ली",
  "5711": " clear",
  "5712": " derivative",
  "5713": "ख",
  "5714": " চ",
  "5715": " <<",
  "5716": " �",
  "5717": "////////",
  "5718": "bit",
  "5719": "jer",
  "5720": "�n",
  "5721": " kr",
  "5722": "డ",
  "5723": "odo",
  "5724": "antes",
  "5725": "ေ�",
  "5726": "/l",
  "5727": "su",
  "5728": "ろ",
  "5729": "ustr",
  "5730": "га",
  "5731": " 구",
  "5732": " ok",
  "5733": "007",
  "5734": "ính",
  "5735": " συ",
  "5736": "ND",
  "5737": "medi",
  "5738": "�",
  "5739": "لی",
  "5740": "ウ",
  "5741": " ru",
  "5742": " amount",
  "5743": " q",
  "5744": " sed",
  "5745": "じ",
  "5746": "agi",
  "5747": "iko",
  "5748": "元",
  "5749": " application",
  "5750": "Or",
  "5751": " ।",
  "5752": " pin",
  "5753": " સ",
  "5754": " που",
  "5755": "ាន",
  "5756": "白",
  "5757": "ών",
  "5758": "�าร",
  "5759": "러",
  "5760": " nor",
  "5761": " 조",
  "5762": "util",
  "5763": " ada",
  "5764": " sit",
  "5765": "ators",
  "5766": "ality",
  "5767": " nel",
  "5768": "ols",
  "5769": " �",
  "5770": "ур",
  "5771": "ournal",
  "5772": "ibility",
  "5773": "ports",
  "5774": " bil",
  "5775": " estab",
  "5776": "ット",
  "5777": " 원",
  "5778": "hal",
  "5779": "cher",
  "5780": " />\n",
  "5781": "Error",
  "5782": " sn",
  "5783": "َم",
  "5784": " بعد",
  "5785": " »",
  "5786": " ş",
  "5787": "eni",
  "5788": "icos",
  "5789": " hy",
  "5790": " 비",
  "5791": " Gu",
  "5792": " về",
  "5793": " ses",
  "5794": "ẫ",
  "5795": "ใน�",
  "5796": " similar",
  "5797": " shows",
  "5798": "kat",
  "5799": " dit",
  "5800": "äl",
  "5801": "ди",
  "5802": "ных",
  "5803": "ready",
  "5804": "ને",
  "5805": "ን",
  "5806": " quality",
  "5807": " correct",
  "5808": "Object",
  "5809": "Ad",
  "5810": "�น",
  "5811": "��",
  "5812": "alan",
  "5813": "チ",
  "5814": "్న",
  "5815": " course",
  "5816": "page",
  "5817": " hom",
  "5818": "には",
  "5819": "ется",
  "5820": " static",
  "5821": " coll",
  "5822": "änd",
  "5823": "ıl",
  "5824": "你",
  "5825": " کی",
  "5826": " công",
  "5827": "ィ",
  "5828": "ισ",
  "5829": "rightarrow",
  "5830": "�",
  "5831": "��",
  "5832": "ried",
  "5833": "ills",
  "5834": "inde",
  "5835": "역",
  "5836": "ption",
  "5837": "么",
  "5838": "问",
  "5839": "cal",
  "5840": "from",
  "5841": "agn",
  "5842": "56",
  "5843": "Д",
  "5844": "�ו",
  "5845": " ment",
  "5846": " fra",
  "5847": " space",
  "5848": "ให",
  "5849": "xy",
  "5850": "ivity",
  "5851": " сво",
  "5852": " bed",
  "5853": " bak",
  "5854": "ाथ",
  "5855": " Nov",
  "5856": " chat",
  "5857": " Ob",
  "5858": " making",
  "5859": "oj",
  "5860": "�",
  "5861": " Not",
  "5862": "'un",
  "5863": "Def",
  "5864": "Map",
  "5865": "Time",
  "5866": "�",
  "5867": " 최",
  "5868": "ព",
  "5869": "ੋ",
  "5870": "里",
  "5871": " record",
  "5872": "ный",
  "5873": " little",
  "5874": "400",
  "5875": "asta",
  "5876": " &&",
  "5877": "看",
  "5878": "Question",
  "5879": "EM",
  "5880": "ٍ",
  "5881": "enza",
  "5882": " hig",
  "5883": "inder",
  "5884": "ிட",
  "5885": " 의",
  "5886": "redit",
  "5887": "区",
  "5888": " moment",
  "5889": "How",
  "5890": "�",
  "5891": " Rec",
  "5892": "008",
  "5893": "oph",
  "5894": " iç",
  "5895": " contact",
  "5896": "�วา�",
  "5897": "posed",
  "5898": "્ય",
  "5899": " major",
  "5900": " patients",
  "5901": " m�",
  "5902": " flex",
  "5903": " щ",
  "5904": "uy�",
  "5905": "-y",
  "5906": " tôi",
  "5907": " Aut",
  "5908": " ju",
  "5909": " пол",
  "5910": "color",
  "5911": " bit",
  "5912": "ử",
  "5913": "ித",
  "5914": "นี",
  "5915": "ơn",
  "5916": " away",
  "5917": "has",
  "5918": "ـ",
  "5919": "�",
  "5920": " nem",
  "5921": " Can",
  "5922": "ើ",
  "5923": " 않",
  "5924": "ohn",
  "5925": "El",
  "5926": " services",
  "5927": "将",
  "5928": "集",
  "5929": "iểm",
  "5930": "��",
  "5931": " hay",
  "5932": " đá",
  "5933": " shown",
  "5934": " تم",
  "5935": "ense",
  "5936": "oro",
  "5937": " gi�",
  "5938": " pert",
  "5939": "何",
  "5940": "并",
  "5941": " 발",
  "5942": "iết",
  "5943": " για",
  "5944": "히",
  "5945": "#include",
  "5946": "ং",
  "5947": " Part",
  "5948": " stop",
  "5949": " Di",
  "5950": "्म",
  "5951": "先",
  "5952": "�ר�",
  "5953": "же",
  "5954": "�ה",
  "5955": " tom",
  "5956": " bei",
  "5957": "pert",
  "5958": "where",
  "5959": " ca",
  "5960": "ulations",
  "5961": " jed",
  "5962": "াদ",
  "5963": "úng",
  "5964": "この",
  "5965": "마",
  "5966": ".set",
  "5967": " kv",
  "5968": "يس",
  "5969": "ວ",
  "5970": " св",
  "5971": " esk",
  "5972": "And",
  "5973": " pet",
  "5974": "eler",
  "5975": "oli",
  "5976": "ulu",
  "5977": " company",
  "5978": " etc",
  "5979": "�ר",
  "5980": "ές",
  "5981": " ہے",
  "5982": " increase",
  "5983": "```",
  "5984": "거",
  "5985": "َت",
  "5986": " مت",
  "5987": "äh",
  "5988": " parte",
  "5989": " until",
  "5990": "center",
  "5991": " network",
  "5992": "IV",
  "5993": "Rep",
  "5994": "dy",
  "5995": " face",
  "5996": " ny",
  "5997": "رت",
  "5998": " وس",
  "5999": "shot",
  "6000": "MM",
  "6001": " tim",
  "6002": " lower",
  "6003": "ằ",
  "6004": "ْل",
  "6005": " ਕ",
  "6006": " according",
  "6007": " equip",
  "6008": " various",
  "6009": "equ",
  "6010": "enz",
  "6011": " squ",
  "6012": "imate",
  "6013": " Let",
  "6014": " προ",
  "6015": " blog",
  "6016": " temper",
  "6017": " বি�",
  "6018": "�",
  "6019": " Add",
  "6020": "τά",
  "6021": "室",
  "6022": " internet",
  "6023": " επ",
  "6024": "Be",
  "6025": " și",
  "6026": "ाए",
  "6027": "006",
  "6028": "ney",
  "6029": "ukt",
  "6030": "صل",
  "6031": "ăm",
  "6032": "�ו�",
  "6033": " tin",
  "6034": "head",
  "6035": " style",
  "6036": " �",
  "6037": "ির",
  "6038": "应",
  "6039": ")(",
  "6040": "ulg",
  "6041": " tra",
  "6042": " بِ",
  "6043": " Val",
  "6044": " upon",
  "6045": " 예",
  "6046": " potential",
  "6047": "];\n",
  "6048": " ill",
  "6049": " घ",
  "6050": "inger",
  "6051": " kat",
  "6052": " Cor",
  "6053": "由",
  "6054": "iction",
  "6055": " simple",
  "6056": "ping",
  "6057": "Н",
  "6058": "�",
  "6059": "��",
  "6060": "យ",
  "6061": " box",
  "6062": "Man",
  "6063": "bed",
  "6064": "음",
  "6065": "oke",
  "6066": " …",
  "6067": "可以",
  "6068": "120",
  "6069": " kes",
  "6070": "ход",
  "6071": "print",
  "6072": "ुन",
  "6073": "్య",
  "6074": " center",
  "6075": "!\n\n",
  "6076": "(s",
  "6077": "_F",
  "6078": "oria",
  "6079": " hu",
  "6080": " exc",
  "6081": " short",
  "6082": " 바",
  "6083": "wit",
  "6084": "ħ",
  "6085": "�",
  "6086": " ^{",
  "6087": " pem",
  "6088": " move",
  "6089": " �",
  "6090": " গ",
  "6091": "万",
  "6092": "portun",
  "6093": "된",
  "6094": " analysis",
  "6095": "�",
  "6096": "�",
  "6097": " vy",
  "6098": "url",
  "6099": "يا",
  "6100": "္",
  "6101": " وع",
  "6102": " пред",
  "6103": "قة",
  "6104": " tek",
  "6105": "uri",
  "6106": "usi",
  "6107": " global",
  "6108": " Department",
  "6109": "��",
  "6110": "��",
  "6111": "يت",
  "6112": " dies",
  "6113": " �",
  "6114": "gress",
  "6115": "-g",
  "6116": "AG",
  "6117": " wsp",
  "6118": "任",
  "6119": "202",
  "6120": "صور",
  "6121": "�",
  "6122": "�",
  "6123": "��",
  "6124": "وت",
  "6125": " الط",
  "6126": " evalu",
  "6127": "code",
  "6128": "anyak",
  "6129": "シ�",
  "6130": "{i",
  "6131": " dia",
  "6132": "オ",
  "6133": "اخ",
  "6134": " learn",
  "6135": " response",
  "6136": " или",
  "6137": "్ల",
  "6138": "box",
  "6139": "ご",
  "6140": " live",
  "6141": " express",
  "6142": "ית",
  "6143": " One",
  "6144": "onde",
  "6145": "ાર",
  "6146": "研",
  "6147": "kel",
  "6148": " tax",
  "6149": "ис",
  "6150": "्क",
  "6151": "（",
  "6152": ".D",
  "6153": " tah",
  "6154": "лю",
  "6155": " lebih",
  "6156": "ixed",
  "6157": " structure",
  "6158": "OD",
  "6159": " ai",
  "6160": "ares",
  "6161": "icial",
  "6162": " kep",
  "6163": " rule",
  "6164": "elling",
  "6165": "εν",
  "6166": "）",
  "6167": " alla",
  "6168": " questions",
  "6169": "О",
  "6170": "�ີ",
  "6171": "aten",
  "6172": "ట",
  "6173": " item",
  "6174": " Int",
  "6175": " од",
  "6176": "无",
  "6177": " technology",
  "6178": "onom",
  "6179": " trab",
  "6180": " пре",
  "6181": "능",
  "6182": " obt",
  "6183": " coordin",
  "6184": "被",
  "6185": "04",
  "6186": "kn",
  "6187": "adem",
  "6188": "ميره",
  "6189": " कार",
  "6190": " با",
  "6191": "рав",
  "6192": "겠",
  "6193": "roller",
  "6194": " several",
  "6195": "nien",
  "6196": " thành",
  "6197": " Ber",
  "6198": "oi",
  "6199": "oms",
  "6200": " phải",
  "6201": "type",
  "6202": " cover",
  "6203": " Ant",
  "6204": "ກ�",
  "6205": "ogy",
  "6206": "آ",
  "6207": "�",
  "6208": " ek",
  "6209": " Je",
  "6210": "ੰ",
  "6211": "很",
  "6212": "slant",
  "6213": " software",
  "6214": "க்க",
  "6215": "esta",
  "6216": " role",
  "6217": " ш",
  "6218": " sugg",
  "6219": " lead",
  "6220": "이다",
  "6221": " variable",
  "6222": " toget",
  "6223": "iff",
  "6224": " comes",
  "6225": " unit",
  "6226": "题",
  "6227": "선",
  "6228": "\")\n",
  "6229": " message",
  "6230": "्प",
  "6231": " alm",
  "6232": " environment",
  "6233": "σει",
  "6234": "cient",
  "6235": "设",
  "6236": "وووو",
  "6237": ".png",
  "6238": "napshot",
  "6239": "OL",
  "6240": "�",
  "6241": "igr",
  "6242": " się",
  "6243": "ological",
  "6244": "]\n\n",
  "6245": " source",
  "6246": " hold",
  "6247": "原",
  "6248": " together",
  "6249": "~\\",
  "6250": "itos",
  "6251": " kont",
  "6252": " Ang",
  "6253": "ទ",
  "6254": " وه",
  "6255": " உ",
  "6256": " nhất",
  "6257": " among",
  "6258": "种",
  "6259": " impact",
  "6260": "호",
  "6261": "ો�",
  "6262": "求",
  "6263": "df",
  "6264": "anj",
  "6265": "rea",
  "6266": "istic",
  "6267": "াত",
  "6268": "록",
  "6269": "och",
  "6270": "��",
  "6271": " Т",
  "6272": "aki",
  "6273": " આ",
  "6274": "lient",
  "6275": " 방",
  "6276": "直",
  "6277": " tersebut",
  "6278": "وز",
  "6279": " Pa",
  "6280": " trên",
  "6281": " subject",
  "6282": " 마",
  "6283": " makes",
  "6284": "その",
  "6285": "_f",
  "6286": "�",
  "6287": "�",
  "6288": " dell",
  "6289": " Б",
  "6290": " ר�",
  "6291": "وان",
  "6292": "iek",
  "6293": "ας",
  "6294": "画",
  "6295": "76",
  "6296": "Get",
  "6297": "�",
  "6298": "ogn",
  "6299": "וא",
  "6300": "受",
  "6301": " 저",
  "6302": "ன்",
  "6303": "EL",
  "6304": " А",
  "6305": " �",
  "6306": " meet",
  "6307": "ால",
  "6308": "ன்ற",
  "6309": " лю",
  "6310": "-M",
  "6311": "�",
  "6312": " tan",
  "6313": "ণ",
  "6314": " She",
  "6315": " java",
  "6316": "ış",
  "6317": "ੱ",
  "6318": "유",
  "6319": " direction",
  "6320": "ơi",
  "6321": " suggest",
  "6322": "hold",
  "6323": "til",
  "6324": "zione",
  "6325": "�",
  "6326": " thủ",
  "6327": " rat",
  "6328": " seks",
  "6329": "كم",
  "6330": "ội",
  "6331": "{j",
  "6332": " card",
  "6333": "accom",
  "6334": " Τ",
  "6335": "ги",
  "6336": "respond",
  "6337": "ाने",
  "6338": " sy",
  "6339": " sav",
  "6340": " لِ",
  "6341": " حمد",
  "6342": " maxim",
  "6343": "function",
  "6344": "�়",
  "6345": "�",
  "6346": " spr",
  "6347": " mol",
  "6348": " bul",
  "6349": "ृ",
  "6350": "ест",
  "6351": "هَا",
  "6352": "áp",
  "6353": "்ள",
  "6354": "object",
  "6355": " буд",
  "6356": " satu",
  "6357": " ؟",
  "6358": "مع",
  "6359": " Na",
  "6360": " �",
  "6361": "ור�",
  "6362": "actions",
  "6363": "cias",
  "6364": "િ�",
  "6365": " menjadi",
  "6366": "ń",
  "6367": " کے",
  "6368": " 오",
  "6369": "59",
  "6370": "oot",
  "6371": " tas",
  "6372": "idi",
  "6373": "業",
  "6374": "(a",
  "6375": "IP",
  "6376": "_S",
  "6377": "arning",
  "6378": " already",
  "6379": "centr",
  "6380": "公司",
  "6381": " multip",
  "6382": ".)",
  "6383": "tual",
  "6384": " done",
  "6385": " others",
  "6386": "ро",
  "6387": " separ",
  "6388": " Gener",
  "6389": "ego",
  "6390": " functions",
  "6391": "\\right",
  "6392": "ム",
  "6393": "ី",
  "6394": "ahl",
  "6395": "ுவ",
  "6396": " become",
  "6397": " Europe",
  "6398": "uts",
  "6399": " ח�",
  "6400": " Co",
  "6401": " تح",
  "6402": "্ব",
  "6403": " как",
  "6404": " לה�",
  "6405": "òng",
  "6406": " products",
  "6407": " kt",
  "6408": " quant",
  "6409": " Form",
  "6410": "ρά",
  "6411": ".\"\n",
  "6412": "mission",
  "6413": "utt",
  "6414": "ло",
  "6415": " જ",
  "6416": " सक",
  "6417": "海",
  "6418": "bor",
  "6419": "hand",
  "6420": " divers",
  "6421": "}$,",
  "6422": "'é",
  "6423": "-S",
  "6424": "Not",
  "6425": " Sup",
  "6426": "مه",
  "6427": "عر",
  "6428": "料",
  "6429": "ານ�",
  "6430": "没",
  "6431": "(b",
  "6432": "58",
  "6433": "File",
  "6434": "],",
  "6435": " lat",
  "6436": "iler",
  "6437": " Si",
  "6438": "【",
  "6439": "ច",
  "6440": "andom",
  "6441": "за",
  "6442": "など",
  "6443": "ния",
  "6444": "ối",
  "6445": " difference",
  "6446": "去",
  "6447": "fig",
  "6448": " thought",
  "6449": "ague",
  "6450": "amework",
  "6451": " team",
  "6452": " sebagai",
  "6453": "_T",
  "6454": "bon",
  "6455": " house",
  "6456": "uti",
  "6457": " radi",
  "6458": " Met",
  "6459": "berg",
  "6460": "্ট",
  "6461": "ати",
  "6462": "ेट",
  "6463": "오",
  "6464": " character",
  "6465": " är",
  "6466": "لة",
  "6467": "ிக",
  "6468": " collect",
  "6469": " бы",
  "6470": "เป็น�",
  "6471": "】",
  "6472": "egen",
  "6473": " الذ",
  "6474": " grad",
  "6475": " नहीं",
  "6476": " 안",
  "6477": "山",
  "6478": "個",
  "6479": "fort",
  "6480": "pack",
  "6481": " akt",
  "6482": "outh",
  "6483": "ょ",
  "6484": "using",
  "6485": "াই",
  "6486": " đị",
  "6487": "أن",
  "6488": "생",
  "6489": " cả",
  "6490": " forma",
  "6491": "कर",
  "6492": "ambda",
  "6493": " transport",
  "6494": "ær",
  "6495": " natural",
  "6496": "rite",
  "6497": "�",
  "6498": " Р",
  "6499": " ikke",
  "6500": " country",
  "6501": "ince",
  "6502": "omm",
  "6503": " kal",
  "6504": "íc",
  "6505": "ρό",
  "6506": " đội",
  "6507": "So",
  "6508": " wur",
  "6509": "emos",
  "6510": "ກ",
  "6511": "зи",
  "6512": "ున",
  "6513": " email",
  "6514": "agg",
  "6515": "aged",
  "6516": " Mark",
  "6517": "ень",
  "6518": " provides",
  "6519": "ắng",
  "6520": " 우",
  "6521": "ண்ட",
  "6522": "down",
  "6523": "zz",
  "6524": "error",
  "6525": "esch",
  "6526": "ieved",
  "6527": " está",
  "6528": " English",
  "6529": "sec",
  "6530": "��",
  "6531": " oder",
  "6532": "oman",
  "6533": "』",
  "6534": " chi",
  "6535": "uda",
  "6536": " را",
  "6537": " ј",
  "6538": " command",
  "6539": "력",
  "6540": " prostituerade",
  "6541": "�",
  "6542": "�",
  "6543": " TH",
  "6544": "iven",
  "6545": " FIG",
  "6546": "ật",
  "6547": "EC",
  "6548": " pent",
  "6549": "وه",
  "6550": "『",
  "6551": "रे",
  "6552": "aine",
  "6553": " చ",
  "6554": "或",
  "6555": " media",
  "6556": " στο",
  "6557": "」\n",
  "6558": "sta",
  "6559": " Cre",
  "6560": "ື",
  "6561": "でも",
  "6562": " compet",
  "6563": "ebru",
  "6564": "=x",
  "6565": "cial",
  "6566": " ig",
  "6567": " l�",
  "6568": "uta",
  "6569": "002",
  "6570": "基",
  "6571": "ceed",
  "6572": " ஆ",
  "6573": " across",
  "6574": "ternal",
  "6575": " deb",
  "6576": "ungan",
  "6577": " στη",
  "6578": "流",
  "6579": " touch",
  "6580": " higher",
  "6581": "iner",
  "6582": " san",
  "6583": "ね",
  "6584": "ده",
  "6585": "plied",
  "6586": " God",
  "6587": "illa",
  "6588": "جر",
  "6589": "ुल",
  "6590": " sett",
  "6591": " veloc",
  "6592": " mach",
  "6593": " firm",
  "6594": "adr",
  "6595": " Sl",
  "6596": "但",
  "6597": "script",
  "6598": " التي",
  "6599": "han",
  "6600": "ți",
  "6601": " sự",
  "6602": " vector",
  "6603": "iving",
  "6604": " Pre",
  "6605": "abase",
  "6606": "rij",
  "6607": " areas",
  "6608": "ِّ",
  "6609": "št",
  "6610": "�ל",
  "6611": "引",
  "6612": " 진",
  "6613": "bibf",
  "6614": " website",
  "6615": "做",
  "6616": "|\\",
  "6617": " Sec",
  "6618": " اللي",
  "6619": " ze",
  "6620": " અ",
  "6621": "完",
  "6622": "ませ",
  "6623": " यह",
  "6624": "무",
  "6625": "{F",
  "6626": "াস",
  "6627": " Kr",
  "6628": " Inter",
  "6629": "že",
  "6630": " करने",
  "6631": "-n",
  "6632": "side",
  "6633": " fu",
  "6634": " nav",
  "6635": " models",
  "6636": "整",
  "6637": "育",
  "6638": "ẫn",
  "6639": " cir",
  "6640": "口",
  "6641": "/w",
  "6642": " tại",
  "6643": " love",
  "6644": "enta",
  "6645": " ger",
  "6646": " Acc",
  "6647": "ayer",
  "6648": " β",
  "6649": " ਹ",
  "6650": " working",
  "6651": " 내",
  "6652": "င်�",
  "6653": "lation",
  "6654": " 생",
  "6655": "：",
  "6656": "ledge",
  "6657": " status",
  "6658": " types",
  "6659": ".r",
  "6660": "fa",
  "6661": "mu",
  "6662": "통",
  "6663": "heck",
  "6664": "ád",
  "6665": "plo",
  "6666": " exam",
  "6667": " index",
  "6668": " 서",
  "6669": "機",
  "6670": "gun",
  "6671": "ride",
  "6672": "�ี�",
  "6673": "�",
  "6674": "ische",
  "6675": "apter",
  "6676": "ూ�",
  "6677": " esta",
  "6678": "ôn",
  "6679": "result",
  "6680": "ート",
  "6681": " portion",
  "6682": "flow",
  "6683": " idea",
  "6684": " হয়",
  "6685": "PLE",
  "6686": "ray",
  "6687": "edd",
  "6688": " later",
  "6689": "יו",
  "6690": "Over",
  "6691": "њ",
  "6692": " wind",
  "6693": "ту",
  "6694": "世",
  "6695": " те",
  "6696": " अन",
  "6697": " आहे",
  "6698": " 국",
  "6699": "(-",
  "6700": "mon",
  "6701": "يث",
  "6702": " City",
  "6703": " trận",
  "6704": "ొ",
  "6705": "ови",
  "6706": "itted",
  "6707": " effic",
  "6708": " 선",
  "6709": " financ",
  "6710": " break",
  "6711": " 스",
  "6712": " Fl",
  "6713": "件",
  "6714": "ija",
  "6715": "운",
  "6716": "út",
  "6717": "ून",
  "6718": "ummary",
  "6719": "nienie",
  "6720": "/\"",
  "6721": "�",
  "6722": " tor",
  "6723": " aber",
  "6724": "atory",
  "6725": "osa",
  "6726": "ikt",
  "6727": " seu",
  "6728": "alls",
  "6729": "从",
  "6730": "iệt",
  "6731": " needs",
  "6732": "真",
  "6733": "hib",
  "6734": " Ac",
  "6735": " chỉ",
  "6736": "                             ",
  "6737": " building",
  "6738": "Des",
  "6739": "las",
  "6740": " pes",
  "6741": " thing",
  "6742": "يي",
  "6743": "igation",
  "6744": " Str",
  "6745": " Ma",
  "6746": "्द",
  "6747": "                               ",
  "6748": "की",
  "6749": "كس",
  "6750": "Index",
  "6751": " sul",
  "6752": "ели",
  "6753": " store",
  "6754": "학",
  "6755": "ogen",
  "6756": "ured",
  "6757": "�א",
  "6758": " numbers",
  "6759": "指",
  "6760": "sum",
  "6761": "ischen",
  "6762": "itation",
  "6763": " gia",
  "6764": "urb",
  "6765": "νη",
  "6766": " plane",
  "6767": "�ר",
  "6768": "aysia",
  "6769": "ência",
  "6770": "òn",
  "6771": "��",
  "6772": "сли",
  "6773": " ও",
  "6774": "istance",
  "6775": "ਨ",
  "6776": "izz",
  "6777": " menu",
  "6778": "後",
  "6779": "월",
  "6780": " performance",
  "6781": " (\n",
  "6782": " anche",
  "6783": " plat",
  "6784": " હ",
  "6785": " arch",
  "6786": "ấu",
  "6787": " standard",
  "6788": " https",
  "6789": "��",
  "6790": "�",
  "6791": " fit",
  "6792": " ket",
  "6793": " Mal",
  "6794": "aba",
  "6795": "aven",
  "6796": " بن",
  "6797": " block",
  "6798": " methods",
  "6799": "ું",
  "6800": "bas",
  "6801": "mar",
  "6802": " ich",
  "6803": " sig",
  "6804": " cause",
  "6805": " My",
  "6806": " 때",
  "6807": "ிக்க",
  "6808": " constant",
  "6809": "ール",
  "6810": ".e",
  "6811": "sel",
  "6812": "ப",
  "6813": "idas",
  "6814": " enough",
  "6815": "েক",
  "6816": " wspom",
  "6817": " cross",
  "6818": " fem",
  "6819": " kem",
  "6820": "َع",
  "6821": "יי�",
  "6822": "交",
  "6823": "神",
  "6824": "'d",
  "6825": " چ",
  "6826": "cht",
  "6827": " conduct",
  "6828": " “",
  "6829": "ched",
  "6830": "There",
  "6831": "ập",
  "6832": "Mod",
  "6833": "With",
  "6834": " action",
  "6835": " nó",
  "6836": "imp",
  "6837": "ieg",
  "6838": " Der",
  "6839": "些",
  "6840": "াব",
  "6841": "قي",
  "6842": "iana",
  "6843": " 되",
  "6844": " computer",
  "6845": "iguration",
  "6846": "\\<",
  "6847": "ię",
  "6848": " section",
  "6849": " either",
  "6850": " |\n\n",
  "6851": "indi",
  "6852": " subst",
  "6853": " systems",
  "6854": " community",
  "6855": " nach",
  "6856": " altern",
  "6857": " complex",
  "6858": "�ાં",
  "6859": "�ו�",
  "6860": "erv",
  "6861": " dir",
  "6862": "isation",
  "6863": "ỏ",
  "6864": "ິ",
  "6865": "ذه",
  "6866": " whole",
  "6867": "格",
  "6868": " tech",
  "6869": "isp",
  "6870": " 분",
  "6871": "alleng",
  "6872": "ής",
  "6873": " 확",
  "6874": "示",
  "6875": "ません",
  "6876": "yes",
  "6877": "eno",
  "6878": " recomm",
  "6879": " yet",
  "6880": "005",
  "6881": " nhà",
  "6882": "μέ",
  "6883": " works",
  "6884": " region",
  "6885": " slope",
  "6886": " 사업",
  "6887": "려",
  "6888": " 도",
  "6889": " vert",
  "6890": "ビ",
  "6891": " ID",
  "6892": "ជ",
  "6893": "့",
  "6894": "izi",
  "6895": " هذا",
  "6896": " 같",
  "6897": " condition",
  "6898": "mm",
  "6899": "times",
  "6900": "}}{",
  "6901": "�",
  "6902": "raft",
  "6903": "电",
  "6904": "php",
  "6905": "项",
  "6906": "57",
  "6907": "_st",
  "6908": " פ�",
  "6909": "oco",
  "6910": "assage",
  "6911": "است",
  "6912": "gal",
  "6913": "��",
  "6914": "alar",
  "6915": " Apr",
  "6916": "्न",
  "6917": " Web",
  "6918": "ensive",
  "6919": "ugust",
  "6920": "ailed",
  "6921": "ран",
  "6922": " شو",
  "6923": " 없",
  "6924": "iệc",
  "6925": "……",
  "6926": "mall",
  "6927": " aud",
  "6928": " он",
  "6929": "ిన",
  "6930": " durch",
  "6931": "院",
  "6932": "形",
  "6933": " Cons",
  "6934": " seen",
  "6935": "oved",
  "6936": " Vol",
  "6937": " prevent",
  "6938": "rows",
  "6939": "ponents",
  "6940": " property",
  "6941": "ੱ�",
  "6942": " wspomnienie",
  "6943": "Ans",
  "6944": "erd",
  "6945": " dik",
  "6946": " �",
  "6947": "당",
  "6948": "อย",
  "6949": " αν",
  "6950": " செ",
  "6951": "IL",
  "6952": "ej",
  "6953": "�",
  "6954": " money",
  "6955": "imin",
  "6956": " Σ",
  "6957": "ολ",
  "6958": "ρί",
  "6959": "हा",
  "6960": "echan",
  "6961": "�",
  "6962": " sab",
  "6963": " fol",
  "6964": "adores",
  "6965": " Mon",
  "6966": "ái",
  "6967": "اض",
  "6968": "уч",
  "6969": " :\n\n",
  "6970": "های",
  "6971": "iety",
  "6972": " làm",
  "6973": " lab",
  "6974": "في",
  "6975": "ые",
  "6976": "ší",
  "6977": "��",
  "6978": " nil",
  "6979": " ep",
  "6980": " оп",
  "6981": " ко",
  "6982": " prior",
  "6983": "mod",
  "6984": "�",
  "6985": " ov",
  "6986": "edi",
  "6987": "pri",
  "6988": "��",
  "6989": " context",
  "6990": " উ",
  "6991": "τό",
  "6992": "服",
  "6993": " future",
  "6994": "lé",
  "6995": " ps",
  "6996": "aker",
  "6997": " teach",
  "6998": " correspond",
  "6999": " background",
  "7000": "wards",
  "7001": ")=\\",
  "7002": "UN",
  "7003": "لب",
  "7004": "ం",
  "7005": "గ",
  "7006": "unk",
  "7007": "uma",
  "7008": " Ε",
  "7009": " previous",
  "7010": "各",
  "7011": " 말",
  "7012": "들이",
  "7013": "ίναι",
  "7014": "^^",
  "7015": "�ו�",
  "7016": " border",
  "7017": "．",
  "7018": " introdu",
  "7019": " speed",
  "7020": " women",
  "7021": " voc",
  "7022": " girl",
  "7023": " delle",
  "7024": "必",
  "7025": "据",
  "7026": ".R",
  "7027": "SS",
  "7028": "dz",
  "7029": "lambda",
  "7030": " force",
  "7031": "ught",
  "7032": "台",
  "7033": "ias",
  "7034": "yon",
  "7035": "usiness",
  "7036": "님",
  "7037": "export",
  "7038": "支",
  "7039": "�",
  "7040": " sort",
  "7041": "iche",
  "7042": "ай",
  "7043": "esse",
  "7044": "**\n\n",
  "7045": "comp",
  "7046": "ống",
  "7047": "[i",
  "7048": " pemb",
  "7049": "enti",
  "7050": " kor",
  "7051": " ground",
  "7052": " zijn",
  "7053": "ights",
  "7054": " prefer",
  "7055": " मह",
  "7056": "িল",
  "7057": " يع",
  "7058": "్త",
  "7059": "已",
  "7060": " includes",
  "7061": " 영",
  "7062": " conditions",
  "7063": " telah",
  "7064": " mà",
  "7065": "ず",
  "7066": " ת�",
  "7067": " ren",
  "7068": " Mod",
  "7069": "ág",
  "7070": "rip",
  "7071": "十",
  "7072": "ック",
  "7073": "ការ�",
  "7074": " treatment",
  "7075": "�",
  "7076": "esis",
  "7077": "σε",
  "7078": "্ষ",
  "7079": "่ง�",
  "7080": "발",
  "7081": "ằng",
  "7082": "К",
  "7083": " bị",
  "7084": "uth",
  "7085": "វ",
  "7086": " وب",
  "7087": "alla",
  "7088": " consum",
  "7089": " cases",
  "7090": " options",
  "7091": "증",
  "7092": "bet",
  "7093": "des",
  "7094": "jem",
  "7095": "đ",
  "7096": " marg",
  "7097": " gö",
  "7098": " Act",
  "7099": "ums",
  "7100": "perty",
  "7101": "ptember",
  "7102": "}$.\n\n",
  "7103": " кот",
  "7104": "ాల",
  "7105": " flow",
  "7106": "Request",
  "7107": " American",
  "7108": "-B",
  "7109": " )\n",
  "7110": "cho",
  "7111": "က",
  "7112": " prepar",
  "7113": " ин",
  "7114": "či",
  "7115": "色",
  "7116": "프",
  "7117": "需",
  "7118": " все",
  "7119": "życz",
  "7120": "Ab",
  "7121": "Lo",
  "7122": "igo",
  "7123": " اور",
  "7124": " že",
  "7125": " government",
  "7126": "�",
  "7127": " tang",
  "7128": "imi",
  "7129": "エ",
  "7130": " ord",
  "7131": "arga",
  "7132": "ት",
  "7133": "600",
  "7134": "enter",
  "7135": " hàng",
  "7136": " Sub",
  "7137": "ání",
  "7138": "ोन",
  "7139": "grad",
  "7140": " phot",
  "7141": " अस",
  "7142": "my",
  "7143": " aan",
  "7144": "oni",
  "7145": " strong",
  "7146": "ως",
  "7147": " curve",
  "7148": "ında",
  "7149": "%\n",
  "7150": "bre",
  "7151": "��",
  "7152": "А",
  "7153": "elu",
  "7154": " dej",
  "7155": " third",
  "7156": "در",
  "7157": "enda",
  "7158": "ào",
  "7159": " OF",
  "7160": "會",
  "7161": "anced",
  "7162": "企",
  "7163": " 위원",
  "7164": "使用",
  "7165": " bonus",
  "7166": "�ו�",
  "7167": " send",
  "7168": " cart",
  "7169": " bill",
  "7170": "abet",
  "7171": "isten",
  "7172": " uns",
  "7173": " lain",
  "7174": " ही",
  "7175": "술",
  "7176": "型",
  "7177": "'ll",
  "7178": "mt",
  "7179": " hiện",
  "7180": " conver",
  "7181": " DE",
  "7182": " related",
  "7183": " 지원",
  "7184": "治",
  "7185": "cing",
  "7186": "�",
  "7187": "�อง�",
  "7188": "ís",
  "7189": " apply",
  "7190": "خر",
  "7191": " independ",
  "7192": " পর",
  "7193": "적으로",
  "7194": " levels",
  "7195": " half",
  "7196": " votre",
  "7197": "ľ",
  "7198": " bien",
  "7199": " exact",
  "7200": " goes",
  "7201": "�ง�",
  "7202": " actually",
  "7203": " 어�",
  "7204": "那",
  "7205": ",\n\n",
  "7206": "SP",
  "7207": " soll",
  "7208": " hv",
  "7209": " though",
  "7210": "ips",
  "7211": "aja",
  "7212": " modern",
  "7213": " map",
  "7214": " nap",
  "7215": "else",
  "7216": " March",
  "7217": "ेल",
  "7218": " RE",
  "7219": "izar",
  "7220": " ва",
  "7221": " cannot",
  "7222": "undo",
  "7223": "심",
  "7224": "ấn",
  "7225": " ले",
  "7226": " vez",
  "7227": "ได้",
  "7228": "pm",
  "7229": "��",
  "7230": "olution",
  "7231": " ос",
  "7232": "�ה",
  "7233": " professional",
  "7234": " gro",
  "7235": " you're",
  "7236": " history",
  "7237": "ະ�",
  "7238": "민",
  "7239": " months",
  "7240": "button",
  "7241": " farm",
  "7242": " favor",
  "7243": "uni",
  "7244": " Post",
  "7245": " management",
  "7246": " solo",
  "7247": "ిక",
  "7248": " concern",
  "7249": "leqslant",
  "7250": "')",
  "7251": " mend",
  "7252": " У",
  "7253": " Aust",
  "7254": "akukan",
  "7255": " ont",
  "7256": " administr",
  "7257": " �",
  "7258": "임",
  "7259": "azi",
  "7260": "λε",
  "7261": "iệu",
  "7262": "래",
  "7263": " factor",
  "7264": "ặt",
  "7265": "ynamic",
  "7266": "Met",
  "7267": "los",
  "7268": " concentr",
  "7269": "دم",
  "7270": "enden",
  "7271": "ον",
  "7272": "்வ",
  "7273": "कार",
  "7274": " 많",
  "7275": " 성",
  "7276": " mereka",
  "7277": "ham",
  "7278": "just",
  "7279": "anger",
  "7280": " once",
  "7281": "قول",
  "7282": " છ",
  "7283": "uhan",
  "7284": "{A",
  "7285": " till",
  "7286": " tiế",
  "7287": "quer",
  "7288": "ého",
  "7289": " Π",
  "7290": " مر",
  "7291": " किया",
  "7292": " close",
  "7293": "perti",
  "7294": "onder",
  "7295": "ため",
  "7296": "شر",
  "7297": "房",
  "7298": " خل",
  "7299": "적인",
  "7300": " 미",
  "7301": "西",
  "7302": "dis",
  "7303": "ழ",
  "7304": "ocation",
  "7305": "فر",
  "7306": "ោ",
  "7307": "人才",
  "7308": " đồ",
  "7309": " regard",
  "7310": " 만",
  "7311": " growth",
  "7312": "ened",
  "7313": "fty",
  "7314": " لم",
  "7315": " पह",
  "7316": "र्म",
  "7317": " Arch",
  "7318": " associated",
  "7319": " си",
  "7320": "êu",
  "7321": "ুর",
  "7322": " match",
  "7323": " paper",
  "7324": "67",
  "7325": " talk",
  "7326": "연",
  "7327": "ность",
  "7328": " 계",
  "7329": "'e",
  "7330": "<li",
  "7331": "Act",
  "7332": " vý",
  "7333": "uli",
  "7334": "้า",
  "7335": "ạo",
  "7336": "条",
  "7337": " Health",
  "7338": "ení",
  "7339": " bóng",
  "7340": " hai",
  "7341": "グ",
  "7342": "oles",
  "7343": "ldots",
  "7344": "iano",
  "7345": "ще",
  "7346": "และ�",
  "7347": ")-",
  "7348": "dle",
  "7349": " age",
  "7350": " ved",
  "7351": "aced",
  "7352": "ached",
  "7353": "image",
  "7354": " god",
  "7355": " thu",
  "7356": " II",
  "7357": " τα",
  "7358": " راشد",
  "7359": "�บ",
  "7360": "plication",
  "7361": "****************",
  "7362": " incont",
  "7363": "idget",
  "7364": "គ",
  "7365": " Dis",
  "7366": " Ret",
  "7367": " shall",
  "7368": "itting",
  "7369": " influ",
  "7370": "Art",
  "7371": "Model",
  "7372": "Node",
  "7373": "cu",
  "7374": "alo",
  "7375": "   \n\n",
  "7376": "یم",
  "7377": "해서",
  "7378": "ục",
  "7379": "');\n",
  "7380": "iting",
  "7381": " hours",
  "7382": "acional",
  "7383": " kann",
  "7384": "ਂ",
  "7385": "ık",
  "7386": "astic",
  "7387": " વ",
  "7388": "として",
  "7389": "ουν",
  "7390": " frequ",
  "7391": " kasino",
  "7392": "Element",
  "7393": "cion",
  "7394": "table",
  "7395": " tent",
  "7396": "inary",
  "7397": "ну",
  "7398": "ナ",
  "7399": " ভ",
  "7400": " Oct",
  "7401": "れる",
  "7402": "ounds",
  "7403": "ño",
  "7404": "차",
  "7405": "ভ",
  "7406": " bad",
  "7407": " ਵ",
  "7408": "ým",
  "7409": " puede",
  "7410": "车",
  "7411": "ょう",
  "7412": " φ",
  "7413": "infty",
  "7414": " nag",
  "7415": " vide",
  "7416": " Mat",
  "7417": "004",
  "7418": " World",
  "7419": " York",
  "7420": "改",
  "7421": "반",
  "7422": "ல்",
  "7423": "非",
  "7424": " activity",
  "7425": " için",
  "7426": "�",
  "7427": " tit",
  "7428": " dop",
  "7429": " blo",
  "7430": "パ",
  "7431": "یک",
  "7432": "்ல",
  "7433": " فر",
  "7434": "position",
  "7435": "block",
  "7436": "blic",
  "7437": " uz",
  "7438": " ×",
  "7439": "付",
  "7440": "ово",
  "7441": "ajo",
  "7442": " ком",
  "7443": "타",
  "7444": "Builder",
  "7445": "_name",
  "7446": " cut",
  "7447": "ブ",
  "7448": " quick",
  "7449": "老",
  "7450": "ின்",
  "7451": "$\n",
  "7452": ")+",
  "7453": "hl",
  "7454": "শ",
  "7455": " Sim",
  "7456": "ainen",
  "7457": "حصه",
  "7458": "只",
  "7459": "近",
  "7460": " added",
  "7461": "電",
  "7462": " sun",
  "7463": "quence",
  "7464": "ago",
  "7465": "uments",
  "7466": " साथ",
  "7467": "annya",
  "7468": " It's",
  "7469": "양",
  "7470": " τον",
  "7471": " version",
  "7472": " engine",
  "7473": "ດ�",
  "7474": "TD",
  "7475": "with",
  "7476": "�",
  "7477": " tell",
  "7478": " fast",
  "7479": "َق",
  "7480": "كل",
  "7481": " grand",
  "7482": "ாட",
  "7483": " looking",
  "7484": "Ed",
  "7485": "�י�",
  "7486": "alle",
  "7487": " пра",
  "7488": "직",
  "7489": " front",
  "7490": "ync",
  "7491": "ား�",
  "7492": "ực",
  "7493": "Sp",
  "7494": "TM",
  "7495": "ners",
  "7496": "yo",
  "7497": "orem",
  "7498": "aly",
  "7499": " kil",
  "7500": " reach",
  "7501": "قت",
  "7502": "実",
  "7503": "had",
  "7504": "��",
  "7505": " says",
  "7506": " dro",
  "7507": "ধ",
  "7508": " việc",
  "7509": " Pres",
  "7510": " conse",
  "7511": "ếu",
  "7512": " avo",
  "7513": "此",
  "7514": "<<<<",
  "7515": "Cre",
  "7516": "IR",
  "7517": "ћ",
  "7518": " search",
  "7519": "ór",
  "7520": "actory",
  "7521": " diffic",
  "7522": "ging",
  "7523": " λ",
  "7524": "太",
  "7525": "结",
  "7526": "ాన",
  "7527": " αυ",
  "7528": "board",
  "7529": "emplate",
  "7530": " pok",
  "7531": "ιο",
  "7532": "eks",
  "7533": " кон",
  "7534": "�ก�",
  "7535": " auto",
  "7536": "void",
  "7537": " experien",
  "7538": " http",
  "7539": "68",
  "7540": "OP",
  "7541": "bb",
  "7542": "န",
  "7543": " �",
  "7544": " πα",
  "7545": " كل",
  "7546": " عند",
  "7547": "++",
  "7548": "At",
  "7549": "],\n",
  "7550": "oo",
  "7551": "esi",
  "7552": "react",
  "7553": "urrent",
  "7554": "الي",
  "7555": "                 ",
  "7556": "ुक",
  "7557": "ות�",
  "7558": " thứ",
  "7559": "AMPLE",
  "7560": "PC",
  "7561": " dow",
  "7562": " banyak",
  "7563": " decre",
  "7564": "istics",
  "7565": " prz",
  "7566": " young",
  "7567": "ijk",
  "7568": " screen",
  "7569": " acqu",
  "7570": " einer",
  "7571": "Trans",
  "7572": " language",
  "7573": "�วาม�",
  "7574": "inu",
  "7575": " dok",
  "7576": " nous",
  "7577": " Her",
  "7578": " challeng",
  "7579": "创",
  "7580": "yor",
  "7581": "ingen",
  "7582": " kad",
  "7583": "avi",
  "7584": "יו�",
  "7585": "ोज",
  "7586": " medic",
  "7587": "ная",
  "7588": "َنَّ",
  "7589": " easy",
  "7590": "mark",
  "7591": "rar",
  "7592": "�",
  "7593": "ाध",
  "7594": " مس",
  "7595": "施",
  "7596": " positive",
  "7597": " accept",
  "7598": " είναι",
  "7599": " volume",
  "7600": "Exception",
  "7601": "inh",
  "7602": "alis",
  "7603": " oc",
  "7604": "edia",
  "7605": " ult",
  "7606": " בי�",
  "7607": " policy",
  "7608": " central",
  "7609": " inside",
  "7610": "ற்ற",
  "7611": ".[",
  "7612": " Rev",
  "7613": "ду",
  "7614": " Janu",
  "7615": " era",
  "7616": " तो",
  "7617": " article",
  "7618": "Button",
  "7619": "TER",
  "7620": "nie",
  "7621": "arroll",
  "7622": "ева",
  "7623": " муж",
  "7624": " black",
  "7625": "ượng",
  "7626": " doesn't",
  "7627": " 현",
  "7628": "tan",
  "7629": "wan",
  "7630": "yk",
  "7631": " dil",
  "7632": " bud",
  "7633": "elen",
  "7634": "ャ",
  "7635": " Don",
  "7636": "াজ",
  "7637": "容",
  "7638": "150",
  "7639": " members",
  "7640": " double",
  "7641": "mp",
  "7642": "�י�",
  "7643": "orith",
  "7644": "arak",
  "7645": " initial",
  "7646": "هِ",
  "7647": " 또",
  "7648": "áng",
  "7649": " training",
  "7650": "具",
  "7651": "ैं",
  "7652": " 실",
  "7653": "発",
  "7654": "iền",
  "7655": " የ",
  "7656": "器",
  "7657": "iem",
  "7658": "eria",
  "7659": " euro",
  "7660": " су",
  "7661": " від",
  "7662": "ρε",
  "7663": " complete",
  "7664": " :=",
  "7665": "�",
  "7666": "urch",
  "7667": "كون",
  "7668": "่น",
  "7669": " लग",
  "7670": " σε",
  "7671": "leri",
  "7672": " words",
  "7673": "itename",
  "7674": " pul",
  "7675": "еч",
  "7676": "الم",
  "7677": " raz",
  "7678": " Bank",
  "7679": "anta",
  "7680": " Us",
  "7681": "イン",
  "7682": "jon",
  "7683": "pg",
  "7684": "zk",
  "7685": "�",
  "7686": " hon",
  "7687": "999",
  "7688": " میں",
  "7689": " circle",
  "7690": "}},",
  "7691": "ļ",
  "7692": " bàn",
  "7693": " lan",
  "7694": " compr",
  "7695": "лу",
  "7696": "comment",
  "7697": "ức",
  "7698": "When",
  "7699": " July",
  "7700": "'ve",
  "7701": "citename",
  "7702": "pes",
  "7703": "imiento",
  "7704": " convers",
  "7705": "ovan",
  "7706": " relations",
  "7707": " Comp",
  "7708": "無",
  "7709": " 더",
  "7710": "citenamefont",
  "7711": "reet",
  "7712": " bij",
  "7713": "essa",
  "7714": " buy",
  "7715": "除",
  "7716": " early",
  "7717": "stitute",
  "7718": " todos",
  "7719": "Hand",
  "7720": "big",
  "7721": "note",
  "7722": "�",
  "7723": " saya",
  "7724": "itude",
  "7725": " wir",
  "7726": "empt",
  "7727": " ד�",
  "7728": "وں",
  "7729": " tri",
  "7730": " Les",
  "7731": "به",
  "7732": "参",
  "7733": " naj",
  "7734": " interface",
  "7735": " 대한",
  "7736": "Answer",
  "7737": "/t",
  "7738": "�",
  "7739": "aren",
  "7740": "rec",
  "7741": "iles",
  "7742": " ud",
  "7743": "អ",
  "7744": " proced",
  "7745": " quando",
  "7746": "しょう",
  "7747": "ности",
  "7748": "ेव",
  "7749": "医",
  "7750": " 추",
  "7751": "-A",
  "7752": "iques",
  "7753": "চ",
  "7754": "હ",
  "7755": " điểm",
  "7756": "erman",
  "7757": "ાન",
  "7758": "या",
  "7759": " population",
  "7760": " problems",
  "7761": " eller",
  "7762": "From",
  "7763": "though",
  "7764": " West",
  "7765": " heart",
  "7766": " пов",
  "7767": "pha",
  "7768": "ảo",
  "7769": " angle",
  "7770": "限",
  "7771": "ụng",
  "7772": " digital",
  "7773": "ော�",
  "7774": "食",
  "7775": " Google",
  "7776": "Page",
  "7777": "�",
  "7778": " ^",
  "7779": "ulo",
  "7780": "ander",
  "7781": " learning",
  "7782": "uge",
  "7783": "지만",
  "7784": " invention",
  "7785": "Α",
  "7786": " city",
  "7787": "aro",
  "7788": " Soc",
  "7789": " Dan",
  "7790": "íst",
  "7791": "place",
  "7792": " client",
  "7793": " compos",
  "7794": " ਨ",
  "7795": "weight",
  "7796": "ije",
  "7797": " opportun",
  "7798": " React",
  "7799": "界",
  "7800": " embod",
  "7801": "'une",
  "7802": "base",
  "7803": "itut",
  "7804": " З",
  "7805": " kwa",
  "7806": " Ter",
  "7807": "otal",
  "7808": " أي",
  "7809": "}$\n\n",
  "7810": "ких",
  "7811": "-k",
  "7812": ".w",
  "7813": "52",
  "7814": "PE",
  "7815": "лен",
  "7816": "رفيعه",
  "7817": "=$",
  "7818": "last",
  "7819": " Sel",
  "7820": "му",
  "7821": " share",
  "7822": " Stud",
  "7823": " viol",
  "7824": "'a",
  "7825": "CE",
  "7826": "Gr",
  "7827": "vest",
  "7828": " còn",
  "7829": " ei",
  "7830": "ュ",
  "7831": " থ",
  "7832": "یت",
  "7833": "upa",
  "7834": " appar",
  "7835": " porr",
  "7836": " לא",
  "7837": "计",
  "7838": "究",
  "7839": "ombre",
  "7840": "Sc",
  "7841": "ią",
  "7842": "Т",
  "7843": "�",
  "7844": " dog",
  "7845": "لع",
  "7846": "eces",
  "7847": "َب",
  "7848": "ections",
  "7849": "单",
  "7850": "że",
  "7851": " thời",
  "7852": " या",
  "7853": "েছে",
  "7854": "./",
  "7855": "lan",
  "7856": "�เ�",
  "7857": " tet",
  "7858": " mac",
  "7859": " decl",
  "7860": "umin",
  "7861": "geb",
  "7862": " begin",
  "7863": "/g",
  "7864": "�",
  "7865": "�า�",
  "7866": " sor",
  "7867": "asan",
  "7868": "rot",
  "7869": "          ",
  "7870": " After",
  "7871": " IP",
  "7872": "max",
  "7873": " 강",
  "7874": " multi",
  "7875": "OM",
  "7876": "�",
  "7877": "�ו�",
  "7878": " aqu",
  "7879": " �",
  "7880": " States",
  "7881": "证",
  "7882": " এক",
  "7883": " absol",
  "7884": "�",
  "7885": " pom",
  "7886": "ком",
  "7887": "によ",
  "7888": "vez",
  "7889": "्यक",
  "7890": " December",
  "7891": " likely",
  "7892": "Il",
  "7893": "Sub",
  "7894": "uit",
  "7895": " tố",
  "7896": " Rep",
  "7897": " Ng",
  "7898": " becom",
  "7899": "ESS",
  "7900": " factors",
  "7901": "((",
  "7902": "\\begin",
  "7903": " υ",
  "7904": "�크",
  "7905": " И",
  "7906": "ズ",
  "7907": " thế",
  "7908": "مس",
  "7909": "مهره",
  "7910": "هد",
  "7911": "003",
  "7912": "eller",
  "7913": " desarroll",
  "7914": "ları",
  "7915": " organiz",
  "7916": "்கள்",
  "7917": "花",
  "7918": "ez",
  "7919": "�י�",
  "7920": "asc",
  "7921": "ेत",
  "7922": " Κ",
  "7923": "ται",
  "7924": " ê",
  "7925": " poly",
  "7926": "ří",
  "7927": "规",
  "7928": "/a",
  "7929": "�י�",
  "7930": "imb",
  "7931": "ργ",
  "7932": " saat",
  "7933": " हु�",
  "7934": "েশ",
  "7935": "ını",
  "7936": "형",
  "7937": "ės",
  "7938": "调",
  "7939": " million",
  "7940": "(n",
  "7941": "��",
  "7942": " tout",
  "7943": "isen",
  "7944": " bank",
  "7945": " lines",
  "7946": " ض",
  "7947": "μο",
  "7948": "打",
  "7949": "ños",
  "7950": ".add",
  "7951": "Field",
  "7952": "icles",
  "7953": " hơn",
  "7954": "ๆ",
  "7955": " anti",
  "7956": "सी",
  "7957": "星",
  "7958": "្ន",
  "7959": "约",
  "7960": " nhưng",
  "7961": "案",
  "7962": "LO",
  "7963": "gn",
  "7964": "�ו�",
  "7965": " �",
  "7966": " ק�",
  "7967": "unci",
  "7968": "ák",
  "7969": " price",
  "7970": " کہ",
  "7971": "stract",
  "7972": "导",
  "7973": "ી�",
  "7974": "્ર",
  "7975": "ांच",
  "7976": "可能",
  "7977": " maint",
  "7978": " download",
  "7979": "Ref",
  "7980": "�",
  "7981": " cel",
  "7982": " gas",
  "7983": " gest",
  "7984": "article",
  "7985": " grup",
  "7986": "각",
  "7987": "격",
  "7988": "anning",
  "7989": " loss",
  "7990": "교",
  "7991": " September",
  "7992": " April",
  "7993": "-D",
  "7994": "})",
  "7995": "표",
  "7996": " kter",
  "7997": "urance",
  "7998": " conv",
  "7999": "ມ",
  "8000": " Net",
  "8001": "ül",
  "8002": "이라",
  "8003": " дру",
  "8004": " зна",
  "8005": "れて",
  "8006": "속",
  "8007": "모",
  "8008": "(d",
  "8009": "sz",
  "8010": "{B",
  "8011": "º",
  "8012": "inya",
  "8013": " Sa",
  "8014": " stra",
  "8015": "illi",
  "8016": " Inst",
  "8017": " noch",
  "8018": " groups",
  "8019": "Set",
  "8020": "�",
  "8021": " draw",
  "8022": "arkan",
  "8023": "osi",
  "8024": "دا",
  "8025": " List",
  "8026": " National",
  "8027": " الث",
  "8028": "úc",
  "8029": "效",
  "8030": "ুল",
  "8031": "cdots",
  "8032": " 문",
  "8033": " education",
  "8034": "New",
  "8035": "ead",
  "8036": "kom",
  "8037": "��",
  "8038": "�ו�",
  "8039": "�ו�",
  "8040": "ров",
  "8041": "كت",
  "8042": "();\n\n",
  "8043": "给",
  "8044": " production",
  "8045": "내",
  "8046": " issue",
  "8047": "現",
  "8048": "'h",
  "8049": "�า�",
  "8050": " came",
  "8051": "セ",
  "8052": "ivi",
  "8053": " مج",
  "8054": "もの",
  "8055": "网",
  "8056": "PD",
  "8057": "aku",
  "8058": " Dem",
  "8059": "�ร�",
  "8060": " enter",
  "8061": "្ត",
  "8062": "ła",
  "8063": " however",
  "8064": "置",
  "8065": " write",
  "8066": "!--",
  "8067": "Det",
  "8068": "Ent",
  "8069": " ty",
  "8070": "iments",
  "8071": " js",
  "8072": "duc",
  "8073": "Comment",
  "8074": "我们",
  "8075": "টি",
  "8076": "ẩm",
  "8077": " је",
  "8078": "/p",
  "8079": "87",
  "8080": "Event",
  "8081": "ising",
  "8082": " gib",
  "8083": " gli",
  "8084": "ニ",
  "8085": "دة",
  "8086": "äng",
  "8087": " Jo",
  "8088": " door",
  "8089": "้น�",
  "8090": " parts",
  "8091": "�ร�",
  "8092": "Inter",
  "8093": "법",
  "8094": " especially",
  "8095": "管理",
  "8096": " котор",
  "8097": "Es",
  "8098": "iên",
  "8099": "ties",
  "8100": "ْد",
  "8101": " roz",
  "8102": " room",
  "8103": " features",
  "8104": " 매",
  "8105": "良",
  "8106": "ுத்த",
  "8107": "�อ�",
  "8108": "كان",
  "8109": " जो",
  "8110": " visit",
  "8111": " considered",
  "8112": "그�",
  "8113": "ặc",
  "8114": " عليه",
  "8115": "Message",
  "8116": "_C",
  "8117": " dass",
  "8118": " بت",
  "8119": "ffect",
  "8120": " grav",
  "8121": "注",
  "8122": "Response",
  "8123": " additional",
  "8124": "51",
  "8125": "ening",
  "8126": "lege",
  "8127": "ив",
  "8128": "住",
  "8129": "�ה",
  "8130": "ेख",
  "8131": "SE",
  "8132": " să",
  "8133": "لس",
  "8134": " thread",
  "8135": " stay",
  "8136": "ikk",
  "8137": " وأ",
  "8138": " prime",
  "8139": "сто",
  "8140": "ние",
  "8141": "办",
  "8142": "든",
  "8143": "icture",
  "8144": " সম",
  "8145": "�",
  "8146": "ູ",
  "8147": " sein",
  "8148": "area",
  "8149": "arian",
  "8150": " अध",
  "8151": "対",
  "8152": " إن",
  "8153": "물",
  "8154": "Log",
  "8155": "ring",
  "8156": "�",
  "8157": "��",
  "8158": "ठ",
  "8159": "opy",
  "8160": "вор",
  "8161": "contr",
  "8162": "ộc",
  "8163": "청",
  "8164": " люб",
  "8165": "Per",
  "8166": "pend",
  "8167": " ways",
  "8168": " hid",
  "8169": " kita",
  "8170": " kết",
  "8171": " Sie",
  "8172": " yap",
  "8173": " Nam",
  "8174": "ंद",
  "8175": " pelo",
  "8176": "委",
  "8177": " issues",
  "8178": "xx",
  "8179": " apr",
  "8180": "ised",
  "8181": " ball",
  "8182": "ív",
  "8183": " dib",
  "8184": "τή",
  "8185": "েল",
  "8186": "้ว�",
  "8187": "省",
  "8188": " approxim",
  "8189": "ことが",
  "8190": "配",
  "8191": "험",
  "8192": " છે",
  "8193": "Fig",
  "8194": "dag",
  "8195": " rom",
  "8196": " cầu",
  "8197": " ध",
  "8198": " ever",
  "8199": " San",
  "8200": " Es",
  "8201": " İ",
  "8202": " estim",
  "8203": " needed",
  "8204": "それ",
  "8205": "question",
  "8206": "Test",
  "8207": "zel",
  "8208": "ढ",
  "8209": " pil",
  "8210": " năm",
  "8211": " jur",
  "8212": "共",
  "8213": "ний",
  "8214": "ildren",
  "8215": " minimum",
  "8216": "收",
  "8217": "ắc",
  "8218": " popular",
  "8219": "'in",
  "8220": "inner",
  "8221": " Г",
  "8222": "ilo",
  "8223": "amiento",
  "8224": " Cour",
  "8225": " ===",
  "8226": " ip",
  "8227": "ंग",
  "8228": "active",
  "8229": "under",
  "8230": "작",
  "8231": "점",
  "8232": "ufact",
  "8233": "uyển",
  "8234": "Link",
  "8235": "gest",
  "8236": "itable",
  "8237": " �",
  "8238": "�ה",
  "8239": "них",
  "8240": "itional",
  "8241": " created",
  "8242": "ści",
  "8243": "atisf",
  "8244": "增",
  "8245": " techni",
  "8246": "RA",
  "8247": "mb",
  "8248": "ери",
  "8249": " compris",
  "8250": "عل",
  "8251": "izer",
  "8252": " يا",
  "8253": "했",
  "8254": " الْم",
  "8255": ".n",
  "8256": "800",
  "8257": "rap",
  "8258": "reb",
  "8259": "sten",
  "8260": "том",
  "8261": " August",
  "8262": " concept",
  "8263": "两",
  "8264": "سم",
  "8265": " съ",
  "8266": "ρω",
  "8267": "处",
  "8268": " valid",
  "8269": " einen",
  "8270": " visual",
  "8271": "供",
  "8272": " facil",
  "8273": " determin",
  "8274": "ング",
  "8275": " você",
  "8276": "atr",
  "8277": " nature",
  "8278": "ivate",
  "8279": "izing",
  "8280": " đi",
  "8281": " /**\n",
  "8282": " memil",
  "8283": " matter",
  "8284": " 동",
  "8285": "始",
  "8286": "clusion",
  "8287": " oil",
  "8288": " liter",
  "8289": " vil",
  "8290": " eg",
  "8291": " SE",
  "8292": " Den",
  "8293": "ील",
  "8294": "answer",
  "8295": " doing",
  "8296": "clos",
  "8297": " compar",
  "8298": " हम",
  "8299": " porn",
  "8300": "だけ",
  "8301": "gar",
  "8302": "list",
  "8303": "tes",
  "8304": " tw",
  "8305": " mechan",
  "8306": " faz",
  "8307": "يار",
  "8308": " �",
  "8309": " Date",
  "8310": "ков",
  "8311": "光",
  "8312": "ให้�",
  "8313": "*,",
  "8314": "kg",
  "8315": "�อ",
  "8316": " today",
  "8317": "unn",
  "8318": "tegr",
  "8319": "َال",
  "8320": "ై",
  "8321": "ään",
  "8322": "قب",
  "8323": "كر",
  "8324": " compan",
  "8325": "场",
  "8326": "ります",
  "8327": "lah",
  "8328": "rict",
  "8329": "train",
  "8330": " ни",
  "8331": "ிவ",
  "8332": "ுற",
  "8333": "ете",
  "8334": " secara",
  "8335": "�",
  "8336": " labor",
  "8337": " gam",
  "8338": " compl",
  "8339": " cha",
  "8340": "oken",
  "8341": "ög",
  "8342": " mehr",
  "8343": "auf",
  "8344": "ạt",
  "8345": "른",
  "8346": " entire",
  "8347": "방",
  "8348": "ார்",
  "8349": "館",
  "8350": "-C",
  "8351": "�",
  "8352": " wel",
  "8353": " insp",
  "8354": " todo",
  "8355": "ダ",
  "8356": " anim",
  "8357": "्स",
  "8358": " can't",
  "8359": "なく",
  "8360": " των",
  "8361": " 장",
  "8362": " upd",
  "8363": "ным",
  "8364": "样",
  "8365": "pression",
  "8366": "је",
  "8367": "ae",
  "8368": "isch",
  "8369": "uted",
  "8370": "َد",
  "8371": "िट",
  "8372": "ْم",
  "8373": "па",
  "8374": " numer",
  "8375": " wherein",
  "8376": "�c",
  "8377": " ọ",
  "8378": " må",
  "8379": " fi",
  "8380": " Set",
  "8381": " images",
  "8382": "AV",
  "8383": "rho",
  "8384": "iso",
  "8385": "esti",
  "8386": " Data",
  "8387": "्ष",
  "8388": " Figure",
  "8389": "었",
  "8390": " ...\n",
  "8391": "());\n",
  "8392": " consist",
  "8393": " studies",
  "8394": "校",
  "8395": " capac",
  "8396": " handle",
  "8397": "Select",
  "8398": " industry",
  "8399": "္�",
  "8400": "�",
  "8401": "onstr",
  "8402": " dụng",
  "8403": "uns",
  "8404": " Public",
  "8405": " jest",
  "8406": "하게",
  "8407": " accur",
  "8408": " instance",
  "8409": " questo",
  "8410": "ствен",
  "8411": " multiple",
  "8412": " mah",
  "8413": " rất",
  "8414": "ポ",
  "8415": " seperti",
  "8416": "ensk",
  "8417": "ር",
  "8418": " surve",
  "8419": "-based",
  "8420": "推",
  "8421": " legal",
  "8422": " occur",
  "8423": " כי",
  "8424": "�่า",
  "8425": " fat",
  "8426": " won",
  "8427": " vit",
  "8428": " ví",
  "8429": "agram",
  "8430": " aspect",
  "8431": " са",
  "8432": " сам",
  "8433": "اری",
  "8434": " *\n",
  "8435": "్ట",
  "8436": "ੈ",
  "8437": "存",
  "8438": "난",
  "8439": "ਾਂ",
  "8440": " это",
  "8441": "PO",
  "8442": "fon",
  "8443": "nu",
  "8444": "��",
  "8445": " micro",
  "8446": " fail",
  "8447": "nder",
  "8448": " uit",
  "8449": " kön",
  "8450": " Techn",
  "8451": " Pe",
  "8452": " trước",
  "8453": "ži",
  "8454": " đề",
  "8455": "组",
  "8456": "람",
  "8457": " maximum",
  "8458": "<div",
  "8459": "TE",
  "8460": "late",
  "8461": "�",
  "8462": "�",
  "8463": "erap",
  "8464": "onal",
  "8465": "ivil",
  "8466": "وض",
  "8467": " Port",
  "8468": " �",
  "8469": " ولا",
  "8470": " zum",
  "8471": " بع",
  "8472": "قر",
  "8473": "ій",
  "8474": "ним",
  "8475": " sche",
  "8476": " شي",
  "8477": " format",
  "8478": " formula",
  "8479": " extra",
  "8480": " experiment",
  "8481": " essere",
  "8482": "ién",
  "8483": "kov",
  "8484": "serv",
  "8485": " segu",
  "8486": " effects",
  "8487": ".js",
  "8488": " cells",
  "8489": "BM",
  "8490": "github",
  "8491": "Đ",
  "8492": "ň",
  "8493": "ٌ",
  "8494": " cada",
  "8495": "reply",
  "8496": " proces",
  "8497": " minutes",
  "8498": " taken",
  "8499": "清",
  "8500": " steps",
  "8501": "까지",
  "8502": "ged",
  "8503": "pace",
  "8504": "��",
  "8505": "anks",
  "8506": " jak",
  "8507": "기도",
  "8508": " instead",
  "8509": " earth",
  "8510": "미",
  "8511": " component",
  "8512": "状",
  "8513": "IF",
  "8514": "van",
  "8515": "zu",
  "8516": "ĩ",
  "8517": "�",
  "8518": " mention",
  "8519": " gy",
  "8520": " ג�",
  "8521": " IS",
  "8522": "ှ",
  "8523": "кт",
  "8524": " zur",
  "8525": "しい",
  "8526": " کو",
  "8527": "强",
  "8528": " обо",
  "8529": "포",
  "8530": ">(",
  "8531": "hen",
  "8532": "�",
  "8533": " cette",
  "8534": "elig",
  "8535": "مة",
  "8536": "angkan",
  "8537": "ersion",
  "8538": "عة",
  "8539": " મ",
  "8540": "ço",
  "8541": "에는",
  "8542": "thern",
  "8543": "ாத",
  "8544": "己",
  "8545": "ుం�",
  "8546": "তে",
  "8547": "EXAMPLE",
  "8548": "-to",
  "8549": " tend",
  "8550": " væ",
  "8551": "ਦ",
  "8552": "ста",
  "8553": "став",
  "8554": "ја",
  "8555": " communic",
  "8556": "ં�",
  "8557": "................................",
  "8558": "�ระ�",
  "8559": " January",
  "8560": "uff",
  "8561": "يف",
  "8562": " Ein",
  "8563": "uks",
  "8564": "раз",
  "8565": "ໄ",
  "8566": "aje",
  "8567": "create",
  "8568": " defined",
  "8569": "スト",
  "8570": "放",
  "8571": " knowledge",
  "8572": " School",
  "8573": "))\n",
  "8574": "Ap",
  "8575": "�า�",
  "8576": "anan",
  "8577": "esh",
  "8578": "iser",
  "8579": " thắng",
  "8580": "ẻ",
  "8581": "्ड",
  "8582": " đấu",
  "8583": " six",
  "8584": "ATE",
  "8585": "ronic",
  "8586": "研究",
  "8587": "&amp",
  "8588": "/r",
  "8589": "�ร�",
  "8590": "�",
  "8591": "iny",
  "8592": " miss",
  "8593": "へ",
  "8594": "ارت",
  "8595": "άν",
  "8596": "再",
  "8597": "质",
  "8598": "ATION",
  "8599": "ederal",
  "8600": "?\"",
  "8601": "][",
  "8602": "{k",
  "8603": "�",
  "8604": "orr",
  "8605": " pain",
  "8606": "arb",
  "8607": " mul",
  "8608": " More",
  "8609": "ellen",
  "8610": "干",
  "8611": " actual",
  "8612": "ока",
  "8613": "Component",
  "8614": "adding",
  "8615": "िंग",
  "8616": " November",
  "8617": "lia",
  "8618": " dol",
  "8619": "ケ",
  "8620": " ngày",
  "8621": "َّة",
  "8622": "さん",
  "8623": " necessary",
  "8624": "(),",
  "8625": "path",
  "8626": "�",
  "8627": "agr",
  "8628": "see",
  "8629": " zo",
  "8630": "四",
  "8631": " سے",
  "8632": "私",
  "8633": " choice",
  "8634": "转",
  "8635": "atas",
  "8636": "elo",
  "8637": "ый",
  "8638": "onds",
  "8639": " rob",
  "8640": " يال",
  "8641": "úp",
  "8642": "ेज",
  "8643": "check",
  "8644": " 결",
  "8645": "每",
  "8646": " applications",
  "8647": " 무",
  "8648": ".P",
  "8649": "�เ�",
  "8650": " pode",
  "8651": " story",
  "8652": " Now",
  "8653": " ile",
  "8654": " ста",
  "8655": "매",
  "8656": " durante",
  "8657": "));\n",
  "8658": "69",
  "8659": "itch",
  "8660": " fall",
  "8661": "istry",
  "8662": " Fil",
  "8663": "しま",
  "8664": "北",
  "8665": " equal",
  "8666": "至",
  "8667": " continue",
  "8668": "Us",
  "8669": "lam",
  "8670": "}-\\",
  "8671": " pak",
  "8672": " five",
  "8673": "ady",
  "8674": "isto",
  "8675": " items",
  "8676": " note",
  "8677": "še",
  "8678": " де",
  "8679": "억",
  "8680": "bibnamefont",
  "8681": " 교",
  "8682": "################",
  "8683": "bibfnamefont",
  "8684": " incontri",
  "8685": ".B",
  "8686": "jas",
  "8687": " bers",
  "8688": " income",
  "8689": " ή",
  "8690": " Δ",
  "8691": " seem",
  "8692": "它",
  "8693": "prov",
  "8694": "Input",
  "8695": " त्य",
  "8696": "ริ�",
  "8697": " caso",
  "8698": " casino",
  "8699": " option",
  "8700": " ότι",
  "8701": "md",
  "8702": "section",
  "8703": " cách",
  "8704": " host",
  "8705": "omin",
  "8706": "umer",
  "8707": " From",
  "8708": " shape",
  "8709": "λα",
  "8710": " هذه",
  "8711": " bring",
  "8712": "报",
  "8713": "련",
  "8714": "開",
  "8715": "商",
  "8716": "源",
  "8717": "79",
  "8718": "�",
  "8719": "��",
  "8720": "init",
  "8721": " cru",
  "8722": " bottom",
  "8723": " hyd",
  "8724": "urt",
  "8725": "ент",
  "8726": "κε",
  "8727": " solid",
  "8728": "师",
  "8729": "气",
  "8730": " edge",
  "8731": "没有",
  "8732": "')\n",
  "8733": "(self",
  "8734": "�",
  "8735": "중",
  "8736": "�ות",
  "8737": "anza",
  "8738": "room",
  "8739": "�ה",
  "8740": "λη",
  "8741": "кий",
  "8742": " drug",
  "8743": " choose",
  "8744": " increased",
  "8745": " karena",
  "8746": "落",
  "8747": "nia",
  "8748": " random",
  "8749": "ाट",
  "8750": " مش",
  "8751": "ंड",
  "8752": "र्व",
  "8753": " install",
  "8754": "vision",
  "8755": "長",
  "8756": " distribution",
  "8757": "One",
  "8758": "borg",
  "8759": " took",
  "8760": " ung",
  "8761": " Sk",
  "8762": "change",
  "8763": "assword",
  "8764": " Wind",
  "8765": "ốn",
  "8766": " matrix",
  "8767": " League",
  "8768": "ித்த",
  "8769": "circ",
  "8770": "�่า�",
  "8771": " nut",
  "8772": "مْ",
  "8773": "éri",
  "8774": " Ba",
  "8775": "pring",
  "8776": "üt",
  "8777": "します",
  "8778": " chem",
  "8779": " clean",
  "8780": "িয়ে",
  "8781": " sangat",
  "8782": " sudah",
  "8783": " kepada",
  "8784": "��",
  "8785": "권",
  "8786": "��",
  "8787": " satisf",
  "8788": "akes",
  "8789": "ोल",
  "8790": "tras",
  "8791": "르",
  "8792": " slot",
  "8793": " equations",
  "8794": " 사용",
  "8795": " 요",
  "8796": "病",
  "8797": " difficult",
  "8798": "(m",
  "8799": "-e",
  "8800": " 할",
  "8801": "इ",
  "8802": " k�",
  "8803": " DNA",
  "8804": " త",
  "8805": "خل",
  "8806": " collection",
  "8807": " 세",
  "8808": "できる",
  "8809": " financial",
  "8810": "Size",
  "8811": "Р",
  "8812": "�",
  "8813": " mg",
  "8814": " hol",
  "8815": " death",
  "8816": " (!",
  "8817": "ayout",
  "8818": "ाउ",
  "8819": " Def",
  "8820": " trib",
  "8821": " \"\"",
  "8822": "ਹ",
  "8823": " đang",
  "8824": "}$\n",
  "8825": "оку",
  "8826": "ịch",
  "8827": " contract",
  "8828": " packet",
  "8829": "title",
  "8830": " states",
  "8831": "ਕ",
  "8832": " High",
  "8833": "فت",
  "8834": "berapa",
  "8835": "助",
  "8836": "ाले",
  "8837": "�ะ�",
  "8838": " 따",
  "8839": "摩",
  "8840": "89",
  "8841": "_D",
  "8842": "rs",
  "8843": "��",
  "8844": " mang",
  "8845": "uran",
  "8846": " rep",
  "8847": " Har",
  "8848": " Here",
  "8849": " exerc",
  "8850": "하여",
  "8851": "loat",
  "8852": "ন্�",
  "8853": "Service",
  "8854": " velocity",
  "8855": "HP",
  "8856": "_N",
  "8857": "�ו�",
  "8858": "�י�",
  "8859": "rov",
  "8860": " lie",
  "8861": "osis",
  "8862": "osta",
  "8863": "었다",
  "8864": "uka",
  "8865": "êm",
  "8866": " 적",
  "8867": "自己",
  "8868": "路",
  "8869": " ensure",
  "8870": " square",
  "8871": " cook",
  "8872": " bol",
  "8873": " kö",
  "8874": " Av",
  "8875": "وح",
  "8876": " jud",
  "8877": " Work",
  "8878": " cli",
  "8879": "初",
  "8880": "�ר",
  "8881": " transform",
  "8882": " itself",
  "8883": " neces",
  "8884": " temperature",
  "8885": "package",
  "8886": ".</",
  "8887": "_n",
  "8888": "{al",
  "8889": "}_{",
  "8890": "ष",
  "8891": "inas",
  "8892": "ored",
  "8893": " Е",
  "8894": "acing",
  "8895": "મ",
  "8896": "ув",
  "8897": "жа",
  "8898": "ంద",
  "8899": "城",
  "8900": "။",
  "8901": "ได้�",
  "8902": " axis",
  "8903": "bold",
  "8904": " ?\n",
  "8905": " syn",
  "8906": " rum",
  "8907": " Red",
  "8908": " Land",
  "8909": " });\n",
  "8910": "ል",
  "8911": "�้�",
  "8912": "arse",
  "8913": " vid",
  "8914": " Cas",
  "8915": "َك",
  "8916": "بد",
  "8917": " usually",
  "8918": "まで",
  "8919": "оди",
  "8920": " उप",
  "8921": " θα",
  "8922": "演",
  "8923": "lad",
  "8924": "{v",
  "8925": "�",
  "8926": " camb",
  "8927": "ゃ",
  "8928": "ário",
  "8929": " comment",
  "8930": "ுள",
  "8931": " serv",
  "8932": "ieren",
  "8933": " max",
  "8934": "ět",
  "8935": "日本",
  "8936": " straight",
  "8937": ".log",
  "8938": "Po",
  "8939": "RI",
  "8940": "љ",
  "8941": " mog",
  "8942": " Sex",
  "8943": "нов",
  "8944": " jeg",
  "8945": " qua",
  "8946": " Ent",
  "8947": "َى",
  "8948": "术",
  "8949": " plate",
  "8950": "ún",
  "8951": " diff",
  "8952": " assess",
  "8953": " security",
  "8954": "apping",
  "8955": "费",
  "8956": " October",
  "8957": ".F",
  "8958": "DU",
  "8959": "del",
  "8960": "Е",
  "8961": " tab",
  "8962": " são",
  "8963": " fire",
  "8964": "она",
  "8965": " yn",
  "8966": " Fin",
  "8967": "ке",
  "8968": " ન",
  "8969": " evidence",
  "8970": " autor",
  "8971": "verse",
  "8972": "nosti",
  "8973": "Image",
  "8974": " expected",
  "8975": "건",
  "8976": " kul",
  "8977": " unique",
  "8978": " Just",
  "8979": " Your",
  "8980": " Ans",
  "8981": "ativa",
  "8982": "google",
  "8983": " array",
  "8984": " Ž",
  "8985": " platform",
  "8986": "-T",
  "8987": "card",
  "8988": "arget",
  "8989": " lic",
  "8990": "acer",
  "8991": " Mer",
  "8992": "ifier",
  "8993": " chính",
  "8994": " į",
  "8995": "ुप",
  "8996": "认",
  "8997": " files",
  "8998": "default",
  "8999": "onesia",
  "9000": "[\\",
  "9001": "joy",
  "9002": " pow",
  "9003": " méd",
  "9004": " Pen",
  "9005": " Da",
  "9006": "专",
  "9007": " 설",
  "9008": " 경우",
  "9009": "팅",
  "9010": " cùng",
  "9011": "اً",
  "9012": "ном",
  "9013": " ric",
  "9014": " rules",
  "9015": "ाब",
  "9016": "िश",
  "9017": " пом",
  "9018": " пере",
  "9019": " pero",
  "9020": "と思",
  "9021": "ême",
  "9022": "字",
  "9023": " đố",
  "9024": " court",
  "9025": " directly",
  "9026": "operator",
  "9027": "dom",
  "9028": "준",
  "9029": "आ",
  "9030": " hogy",
  "9031": " rather",
  "9032": " Most",
  "9033": "ূ",
  "9034": "未",
  "9035": "اني",
  "9036": " '@",
  "9037": "에게",
  "9038": "ும",
  "9039": " getting",
  "9040": " tempo",
  "9041": " protein",
  "9042": ")}",
  "9043": "53",
  "9044": " :\n",
  "9045": "لَا",
  "9046": "enses",
  "9047": "切",
  "9048": " ett",
  "9049": "ğı",
  "9050": " ли",
  "9051": " Research",
  "9052": "Up",
  "9053": "ný",
  "9054": " mir",
  "9055": "び",
  "9056": " lên",
  "9057": "وی",
  "9058": "ួ",
  "9059": "plit",
  "9060": " diet",
  "9061": " perfect",
  "9062": " June",
  "9063": " xu",
  "9064": "components",
  "9065": "arios",
  "9066": "설",
  "9067": "造",
  "9068": "これ",
  "9069": " قال",
  "9070": " être",
  "9071": "54",
  "9072": "ψ",
  "9073": "asp",
  "9074": "osit",
  "9075": " 불",
  "9076": " Ben",
  "9077": "्ध",
  "9078": " Μ",
  "9079": "plik",
  "9080": "价",
  "9081": " allows",
  "9082": " objet",
  "9083": " believe",
  "9084": " học",
  "9085": "-pro",
  "9086": "Snapshot",
  "9087": "bs",
  "9088": "tn",
  "9089": "eda",
  "9090": "omo",
  "9091": " ej",
  "9092": "ミ",
  "9093": " John",
  "9094": " location",
  "9095": "构",
  "9096": " его",
  "9097": " Frank",
  "9098": "ίας",
  "9099": " margin",
  "9100": " tag",
  "9101": "べ",
  "9102": "uten",
  "9103": "ivos",
  "9104": " quy",
  "9105": "ấp",
  "9106": "្រ",
  "9107": "店",
  "9108": " General",
  "9109": "._",
  "9110": "UL",
  "9111": "uck",
  "9112": "\tpublic",
  "9113": "�้",
  "9114": " pair",
  "9115": "iale",
  "9116": "介",
  "9117": " produce",
  "9118": "居",
  "9119": "把",
  "9120": "标",
  "9121": "lichen",
  "9122": "素",
  "9123": "ไม่�",
  "9124": " στην",
  "9125": "':",
  "9126": "�",
  "9127": " walk",
  "9128": " instr",
  "9129": " Mad",
  "9130": "umns",
  "9131": "ेस",
  "9132": "üm",
  "9133": "ਾਰ",
  "9134": " App",
  "9135": "COMM",
  "9136": "۔\n",
  "9137": "fficient",
  "9138": "(e",
  "9139": "-G",
  "9140": ".io",
  "9141": "UM",
  "9142": "pgrid",
  "9143": " ful",
  "9144": " Some",
  "9145": " Cr",
  "9146": "áz",
  "9147": "ifi",
  "9148": " ফ",
  "9149": "iku",
  "9150": "лі",
  "9151": "िम",
  "9152": "ensity",
  "9153": "反",
  "9154": " prev",
  "9155": "ocket",
  "9156": "中国",
  "9157": " effort",
  "9158": " sempre",
  "9159": " 단",
  "9160": "门",
  "9161": " depend",
  "9162": "黄",
  "9163": "确",
  "9164": "個人",
  "9165": ".v",
  "9166": " mình",
  "9167": " km",
  "9168": "ણ",
  "9169": "લ",
  "9170": "oder",
  "9171": " EX",
  "9172": "ós",
  "9173": " कम",
  "9174": " phẩm",
  "9175": "书",
  "9176": "根",
  "9177": "記",
  "9178": "}^{\\",
  "9179": " אי�",
  "9180": "进行",
  "9181": " materials",
  "9182": " almost",
  "9183": "''",
  "9184": " went",
  "9185": "elas",
  "9186": " relev",
  "9187": "unch",
  "9188": "iele",
  "9189": " orang",
  "9190": " пер",
  "9191": "keit",
  "9192": "ulla",
  "9193": "약",
  "9194": "れば",
  "9195": " linear",
  "9196": " increasing",
  "9197": "防",
  "9198": " pressure",
  "9199": "ợp",
  "9200": "类",
  "9201": "rd",
  "9202": "�",
  "9203": "دام",
  "9204": "example",
  "9205": "ுட",
  "9206": " المت",
  "9207": "统",
  "9208": " assert",
  "9209": "Status",
  "9210": "buat",
  "9211": "问题",
  "9212": "oa",
  "9213": "oin",
  "9214": "İ",
  "9215": " ting",
  "9216": "ises",
  "9217": " hit",
  "9218": " kung",
  "9219": "نة",
  "9220": "used",
  "9221": " enh",
  "9222": " Jah",
  "9223": " الغ",
  "9224": " grande",
  "9225": "ити",
  "9226": "оду",
  "9227": "影",
  "9228": "関",
  "9229": " properties",
  "9230": " meaning",
  "9231": " đồng",
  "9232": "-up",
  "9233": "CC",
  "9234": "Post",
  "9235": "lot",
  "9236": "light",
  "9237": " aplic",
  "9238": " cual",
  "9239": " bur",
  "9240": "erek",
  "9241": "context",
  "9242": " berk",
  "9243": "ği",
  "9244": " guide",
  "9245": "える",
  "9246": "Result",
  "9247": "js",
  "9248": " isang",
  "9249": "andid",
  "9250": "اث",
  "9251": " white",
  "9252": " ô",
  "9253": " то",
  "9254": "امل",
  "9255": " solutions",
  "9256": " וה�",
  "9257": "告",
  "9258": "급",
  "9259": " הי�",
  "9260": " produk",
  "9261": "-content",
  "9262": ".b",
  "9263": "gle",
  "9264": "�י�",
  "9265": " Test",
  "9266": "seg",
  "9267": " chơi",
  "9268": "äll",
  "9269": " adult",
  "9270": "ства",
  "9271": "ानी",
  "9272": " decis",
  "9273": "策",
  "9274": " déc",
  "9275": " effective",
  "9276": "职",
  "9277": "Param",
  "9278": "社会",
  "9279": "pu",
  "9280": "��",
  "9281": " oh",
  "9282": " ble",
  "9283": "rian",
  "9284": "ük",
  "9285": " ర",
  "9286": " تس",
  "9287": "�ה",
  "9288": " बन",
  "9289": " terj",
  "9290": " anything",
  "9291": " उस",
  "9292": " taking",
  "9293": "超",
  "9294": " writing",
  "9295": " components",
  "9296": " 프",
  "9297": " described",
  "9298": " tahun",
  "9299": "Rec",
  "9300": "aur",
  "9301": " pesso",
  "9302": "ఁ",
  "9303": " Febru",
  "9304": " univers",
  "9305": " Up",
  "9306": "้อ�",
  "9307": "ski",
  "9308": "ード",
  "9309": "率",
  "9310": "amespace",
  "9311": "إن",
  "9312": " sistem",
  "9313": " friend",
  "9314": " eskort",
  "9315": "kap",
  "9316": "sol",
  "9317": "И",
  "9318": "etch",
  "9319": " egy",
  "9320": " kap",
  "9321": " Por",
  "9322": "ৃ",
  "9323": "ສ",
  "9324": " ল",
  "9325": " مص",
  "9326": " గ",
  "9327": "स्त",
  "9328": " पू",
  "9329": " Ze",
  "9330": "议",
  "9331": "atively",
  "9332": "\t\t\t\t\t",
  "9333": " didn't",
  "9334": " connection",
  "9335": "境",
  "9336": " parameters",
  "9337": "像",
  "9338": "-v",
  "9339": "But",
  "9340": "Note",
  "9341": "lj",
  "9342": "was",
  "9343": "�า�",
  "9344": " vä",
  "9345": "ລ",
  "9346": " Retr",
  "9347": "elles",
  "9348": " הא�",
  "9349": "photo",
  "9350": " ago",
  "9351": " هو",
  "9352": " 알",
  "9353": " veh",
  "9354": " started",
  "9355": " động",
  "9356": " sistema",
  "9357": " अपने",
  "9358": ".L",
  "9359": "lov",
  "9360": "plement",
  "9361": " national",
  "9362": " lin",
  "9363": " ס�",
  "9364": " Mus",
  "9365": "aper",
  "9366": "âu",
  "9367": " πε",
  "9368": "ু�",
  "9369": "ના",
  "9370": " discover",
  "9371": " changed",
  "9372": "サイ",
  "9373": " 특",
  "9374": "mat",
  "9375": "rl",
  "9376": "yth",
  "9377": " sites",
  "9378": "atif",
  "9379": "organ",
  "9380": " hợp",
  "9381": "يح",
  "9382": " Af",
  "9383": " ||",
  "9384": "avior",
  "9385": " ά",
  "9386": " whose",
  "9387": "ód",
  "9388": " Off",
  "9389": "이트",
  "9390": "ых",
  "9391": " contain",
  "9392": "ໍ",
  "9393": " gran",
  "9394": "liche",
  "9395": " news",
  "9396": "速",
  "9397": "tty",
  "9398": "风",
  "9399": " ön",
  "9400": " foi",
  "9401": "ospital",
  "9402": " 좋",
  "9403": ")/",
  "9404": "Add",
  "9405": "vet",
  "9406": "�",
  "9407": "थ",
  "9408": "itet",
  "9409": "itect",
  "9410": " deposit",
  "9411": " reference",
  "9412": " Pal",
  "9413": " Rem",
  "9414": " execut",
  "9415": "uba",
  "9416": "่น�",
  "9417": "질",
  "9418": "ăn",
  "9419": "ους",
  "9420": " assist",
  "9421": " Program",
  "9422": "让",
  "9423": "лад",
  "9424": "球",
  "9425": "ứng",
  "9426": "/src",
  "9427": " countries",
  "9428": "話",
  "9429": "様",
  "9430": "Opt",
  "9431": " ple",
  "9432": " align",
  "9433": " Get",
  "9434": "ancia",
  "9435": "ีย�",
  "9436": " living",
  "9437": " relationship",
  "9438": "AI",
  "9439": "TH",
  "9440": "{R",
  "9441": "��",
  "9442": " wor",
  "9443": " už",
  "9444": "راشد",
  "9445": "ifest",
  "9446": " trat",
  "9447": " Fre",
  "9448": " Kar",
  "9449": "저",
  "9450": "issa",
  "9451": " details",
  "9452": "ốc",
  "9453": "局",
  "9454": " extends",
  "9455": " longer",
  "9456": " optim",
  "9457": " histor",
  "9458": "フ�",
  "9459": "```\n",
  "9460": " THE",
  "9461": "Path",
  "9462": "det",
  "9463": "eq",
  "9464": "�",
  "9465": "�็�",
  "9466": " ded",
  "9467": " gel",
  "9468": "ベ",
  "9469": " quan",
  "9470": " unter",
  "9471": " وج",
  "9472": " resid",
  "9473": " thực",
  "9474": " operator",
  "9475": "SC",
  "9476": "kk",
  "9477": "�อ�",
  "9478": " mess",
  "9479": " lok",
  "9480": " rect",
  "9481": "äm",
  "9482": "ιά",
  "9483": "nej",
  "9484": "党",
  "9485": " arm",
  "9486": "cción",
  "9487": " /*",
  "9488": " events",
  "9489": " column",
  "9490": "…\n",
  "9491": "ър",
  "9492": "AME",
  "9493": "コン",
  "9494": "士",
  "9495": "ங்க",
  "9496": "gel",
  "9497": " drop",
  "9498": " mm",
  "9499": " games",
  "9500": "tex",
  "9501": "ück",
  "9502": "lij",
  "9503": "ưa",
  "9504": "ुम",
  "9505": " emerg",
  "9506": " رف",
  "9507": " जात",
  "9508": " transfer",
  "9509": "кие",
  "9510": "fully",
  "9511": " algorith",
  "9512": " كانت",
  "9513": "Att",
  "9514": "mak",
  "9515": "�י",
  "9516": "enu",
  "9517": "itan",
  "9518": "avo",
  "9519": " diabet",
  "9520": " см",
  "9521": "upakan",
  "9522": "ariable",
  "9523": " τι",
  "9524": " ਅ",
  "9525": " المن",
  "9526": " agre",
  "9527": " See",
  "9528": "ắt",
  "9529": " Indonesia",
  "9530": "息",
  "9531": " ذلك",
  "9532": ".is",
  "9533": "lie",
  "9534": " night",
  "9535": "rod",
  "9536": "struct",
  "9537": " AM",
  "9538": " الي",
  "9539": "avy",
  "9540": "ះ",
  "9541": " saf",
  "9542": "ियों",
  "9543": "ции",
  "9544": " reduce",
  "9545": " έχ",
  "9546": " ratio",
  "9547": " pentru",
  "9548": "/b",
  "9549": "Em",
  "9550": "yg",
  "9551": "�",
  "9552": " catch",
  "9553": " cele",
  "9554": " fot",
  "9555": " ez",
  "9556": " thì",
  "9557": " Hist",
  "9558": " led",
  "9559": "ugar",
  "9560": "低",
  "9561": " ਪ",
  "9562": "ੁ",
  "9563": "rown",
  "9564": " 받",
  "9565": " عنْ",
  "9566": "精",
  "9567": " innov",
  "9568": ".id",
  "9569": "_M",
  "9570": "adata",
  "9571": "uter",
  "9572": " điều",
  "9573": " ->",
  "9574": " immedi",
  "9575": " mej",
  "9576": " يت",
  "9577": " Real",
  "9578": " آن",
  "9579": " motor",
  "9580": " received",
  "9581": "ించ",
  "9582": "uct",
  "9583": "};\n\n",
  "9584": "onn",
  "9585": " fine",
  "9586": " wat",
  "9587": "eline",
  "9588": " ga",
  "9589": "చ",
  "9590": "avid",
  "9591": "्च",
  "9592": " diam",
  "9593": " બ",
  "9594": "ານ",
  "9595": " famil",
  "9596": "空",
  "9597": "--------------------------------",
  "9598": " improve",
  "9599": "PLY",
  "9600": "겠습니다",
  "9601": "!\"",
  "9602": "Grid",
  "9603": "ball",
  "9604": "��",
  "9605": "�ים",
  "9606": " sle",
  "9607": "isse",
  "9608": " node",
  "9609": "omas",
  "9610": " vida",
  "9611": "ера",
  "9612": "imer",
  "9613": " star",
  "9614": "iau",
  "9615": "iza",
  "9616": " valor",
  "9617": "şt",
  "9618": "总",
  "9619": "menu",
  "9620": " takes",
  "9621": " written",
  "9622": " 포",
  "9623": "fin",
  "9624": " );\n",
  "9625": "�ים",
  "9626": " mand",
  "9627": " kam",
  "9628": " kart",
  "9629": " Sm",
  "9630": " ()",
  "9631": "ाठ",
  "9632": "াহ",
  "9633": "onta",
  "9634": "ensi",
  "9635": " 배",
  "9636": "shared",
  "9637": " derivatives",
  "9638": "按摩",
  "9639": "희",
  "9640": " đối",
  "9641": "${",
  "9642": "+x",
  "9643": "QL",
  "9644": "��",
  "9645": "    \n",
  "9646": "ほ",
  "9647": "ims",
  "9648": "igu",
  "9649": "avel",
  "9650": "ocr",
  "9651": " وم",
  "9652": "izes",
  "9653": "什",
  "9654": "เก�",
  "9655": " scale",
  "9656": " relative",
  "9657": "creen",
  "9658": " demand",
  "9659": " 활",
  "9660": "host",
  "9661": "pun",
  "9662": "î",
  "9663": "inin",
  "9664": " agr",
  "9665": "eny",
  "9666": " rich",
  "9667": " render",
  "9668": "iller",
  "9669": " ર",
  "9670": " menc",
  "9671": "�ุ�",
  "9672": " במ�",
  "9673": " occup",
  "9674": "holder",
  "9675": "%\\",
  "9676": "cio",
  "9677": "pas",
  "9678": " jog",
  "9679": "اة",
  "9680": " File",
  "9681": " First",
  "9682": "---",
  "9683": "іль",
  "9684": " تر",
  "9685": " uses",
  "9686": "ное",
  "9687": " relig",
  "9688": " poder",
  "9689": " connected",
  "9690": "َنْ",
  "9691": " செய",
  "9692": "Int",
  "9693": "�",
  "9694": "�",
  "9695": " pad",
  "9696": " vai",
  "9697": "кра",
  "9698": " Gi",
  "9699": " exec",
  "9700": "ellow",
  "9701": "250",
  "9702": "wait",
  "9703": "обы",
  "9704": "환",
  "9705": "設",
  "9706": "ែល",
  "9707": " disease",
  "9708": " blood",
  "9709": "hu",
  "9710": " hanya",
  "9711": " vu",
  "9712": "يز",
  "9713": " track",
  "9714": " Ro",
  "9715": "ograf",
  "9716": "்ன",
  "9717": "変",
  "9718": "acebook",
  "9719": " starting",
  "9720": " haben",
  "9721": " continuous",
  "9722": " physical",
  "9723": "Net",
  "9724": "bel",
  "9725": "ming",
  "9726": "�י�",
  "9727": "�า�",
  "9728": "oti",
  "9729": " AC",
  "9730": "စ",
  "9731": "open",
  "9732": "ін",
  "9733": "运",
  "9734": "يرة",
  "9735": "永",
  "9736": " einem",
  "9737": "ταν",
  "9738": "领",
  "9739": "REPLY",
  "9740": " இர",
  "9741": " investig",
  "9742": " benefits",
  "9743": " illustr",
  "9744": ".pro",
  "9745": "_w",
  "9746": "pret",
  "9747": "uras",
  "9748": "ピ",
  "9749": " pré",
  "9750": " held",
  "9751": " пот",
  "9752": "abled",
  "9753": " compared",
  "9754": " regular",
  "9755": " basic",
  "9756": "ው",
  "9757": " merupakan",
  "9758": " database",
  "9759": " 들",
  "9760": " tiếp",
  "9761": ".app",
  "9762": "bal",
  "9763": "but",
  "9764": "wise",
  "9765": " South",
  "9766": " Div",
  "9767": "iks",
  "9768": "oval",
  "9769": "true",
  "9770": "�ה",
  "9771": " round",
  "9772": " रहे",
  "9773": "ుక",
  "9774": "container",
  "9775": "称",
  "9776": " filter",
  "9777": "olean",
  "9778": " pattern",
  "9779": " essential",
  "9780": ">>>>",
  "9781": " probability",
  "9782": " wurde",
  "9783": " 우리",
  "9784": ":\"",
  "9785": "PR",
  "9786": "��",
  "9787": "─",
  "9788": " scient",
  "9789": "esus",
  "9790": " please",
  "9791": " nad",
  "9792": "etic",
  "9793": "مكن",
  "9794": "ayo",
  "9795": "rael",
  "9796": "ensions",
  "9797": "南",
  "9798": " था",
  "9799": "-H",
  "9800": ".util",
  "9801": "fit",
  "9802": "mos",
  "9803": " แ�",
  "9804": "heit",
  "9805": "aled",
  "9806": " fond",
  "9807": " win",
  "9808": " lig",
  "9809": " rend",
  "9810": "ीन",
  "9811": "론",
  "9812": "립",
  "9813": " someone",
  "9814": "천",
  "9815": " negative",
  "9816": " practice",
  "9817": " copy",
  "9818": "企业",
  "9819": "now",
  "9820": "itate",
  "9821": "std",
  "9822": "status",
  "9823": " Mich",
  "9824": " Ο",
  "9825": " comme",
  "9826": "ícul",
  "9827": "rial",
  "9828": "ρη",
  "9829": "เล",
  "9830": " manufact",
  "9831": "encies",
  "9832": "例",
  "9833": "노",
  "9834": " construction",
  "9835": "App",
  "9836": "¨",
  "9837": "�n",
  "9838": " బ",
  "9839": "ِد",
  "9840": "soft",
  "9841": "传",
  "9842": " difer",
  "9843": ")$,",
  "9844": " giúp",
  "9845": " reading",
  "9846": " protect",
  "9847": " foot",
  "9848": " symbol",
  "9849": "selves",
  "9850": "OC",
  "9851": "�",
  "9852": "�",
  "9853": "orre",
  "9854": " מו�",
  "9855": "સ",
  "9856": " convert",
  "9857": "ाण",
  "9858": "？",
  "9859": "友",
  "9860": "한다",
  "9861": "円",
  "9862": " गया",
  "9863": " located",
  "9864": "ర్�",
  "9865": "場合",
  "9866": "Override",
  "9867": "อย่า�",
  "9868": "operatorname",
  "9869": "iap",
  "9870": " pov",
  "9871": " cần",
  "9872": "isco",
  "9873": " nou",
  "9874": " vs",
  "9875": " gal",
  "9876": "owa",
  "9877": " Bulg",
  "9878": " بين",
  "9879": "ੂ",
  "9880": " کر",
  "9881": " اب",
  "9882": "र्न",
  "9883": "uyên",
  "9884": "바",
  "9885": " sense",
  "9886": " الذي",
  "9887": "hes",
  "9888": "anje",
  "9889": " ven",
  "9890": " uno",
  "9891": "بار",
  "9892": "elli",
  "9893": "ellig",
  "9894": "حارب",
  "9895": "্প",
  "9896": " ਜ",
  "9897": " اخ",
  "9898": " load",
  "9899": "define",
  "9900": "-th",
  "9901": " vill",
  "9902": " võ",
  "9903": "stance",
  "9904": "uman",
  "9905": " leur",
  "9906": " desde",
  "9907": " serta",
  "9908": "义",
  "9909": " opin",
  "9910": " як",
  "9911": "時間",
  "9912": "current",
  "9913": " Commission",
  "9914": " በ",
  "9915": "Reply",
  "9916": "종",
  "9917": "cm",
  "9918": "lio",
  "9919": "×",
  "9920": "ё",
  "9921": "anch",
  "9922": "げ",
  "9923": " năng",
  "9924": " lä",
  "9925": "oso",
  "9926": "нь",
  "9927": "appro",
  "9928": " Our",
  "9929": "効",
  "9930": " memory",
  "9931": "她",
  "9932": " virtual",
  "9933": " reported",
  "9934": "Color",
  "9935": "%%%%%%%%",
  "9936": "COMMENT",
  "9937": "=\n",
  "9938": "Out",
  "9939": "bank",
  "9940": "į",
  "9941": "М",
  "9942": " pend",
  "9943": " cin",
  "9944": " cara",
  "9945": " wenn",
  "9946": "agon",
  "9947": " forward",
  "9948": "五",
  "9949": " nothing",
  "9950": " но",
  "9951": " China",
  "9952": " 게",
  "9953": "uyệ",
  "9954": "查",
  "9955": " culture",
  "9956": "110",
  "9957": "[]",
  "9958": "lat",
  "9959": " mig",
  "9960": "itel",
  "9961": " beberapa",
  "9962": "ovi",
  "9963": " chúng",
  "9964": "ोर",
  "9965": "។",
  "9966": "102",
  "9967": " contains",
  "9968": " pożycz",
  "9969": " outside",
  "9970": " update",
  "9971": "ạnh",
  "9972": " απο",
  "9973": " capt",
  "9974": "ໃ�",
  "9975": "Fil",
  "9976": "�",
  "9977": " Mas",
  "9978": " props",
  "9979": " Ges",
  "9980": " सर",
  "9981": " تت",
  "9982": "ampa",
  "9983": "web",
  "9984": "огда",
  "9985": " 감",
  "9986": " recogn",
  "9987": " monitor",
  "9988": "َةِ",
  "9989": "iu",
  "9990": "zd",
  "9991": "isme",
  "9992": "ছ",
  "9993": " niet",
  "9994": "ネ",
  "9995": "lying",
  "9996": "udo",
  "9997": " click",
  "9998": "forma",
  "9999": "อา�",
  "10000": "aju",
  "10001": " verd",
  "10002": " Problem",
  "10003": " activities",
  "10004": "算",
  "10005": " music",
  "10006": "чина",
  "10007": " layer",
  "10008": " companies",
  "10009": "![",
  "10010": ".T",
  "10011": "jek",
  "10012": "mal",
  "10013": "ņ",
  "10014": "�ו�",
  "10015": " sama",
  "10016": " dag",
  "10017": " seems",
  "10018": "ectors",
  "10019": "inden",
  "10020": " modo",
  "10021": "طر",
  "10022": "خص",
  "10023": "ảng",
  "10024": "登",
  "10025": "현",
  "10026": " appropri",
  "10027": " liqu",
  "10028": " developed",
  "10029": " elements",
  "10030": "Click",
  "10031": "car",
  "10032": "har",
  "10033": "iqu",
  "10034": "�",
  "10035": "�י�",
  "10036": " AND",
  "10037": "ノ",
  "10038": "াপ",
  "10039": "又",
  "10040": "eben",
  "10041": " दे",
  "10042": " राज",
  "10043": "方法",
  "10044": "θη",
  "10045": " Spec",
  "10046": "_list",
  "10047": "________",
  "10048": "Defin",
  "10049": " ؟؟\n",
  "10050": "��",
  "10051": " ces",
  "10052": " cit",
  "10053": "agt",
  "10054": "ασ",
  "10055": "oko",
  "10056": " Of",
  "10057": "üh",
  "10058": "зна",
  "10059": "েই",
  "10060": " בר�",
  "10061": "θε",
  "10062": " Engine",
  "10063": " অন",
  "10064": "hemat",
  "10065": " định",
  "10066": " dowol",
  "10067": " tốt",
  "10068": "께",
  "10069": "'A",
  "10070": "\\text",
  "10071": "anie",
  "10072": " vac",
  "10073": " proy",
  "10074": "ops",
  "10075": " Ke",
  "10076": "ưở",
  "10077": " mode",
  "10078": " شر",
  "10079": "请",
  "10080": "ās",
  "10081": " والله",
  "10082": " 당",
  "10083": "ន�",
  "10084": "_b",
  "10085": "�י�",
  "10086": " tour",
  "10087": "orge",
  "10088": " mtu",
  "10089": " ST",
  "10090": " AD",
  "10091": "وك",
  "10092": "aves",
  "10093": " enjoy",
  "10094": " Russ",
  "10095": " except",
  "10096": " É",
  "10097": "客",
  "10098": " resol",
  "10099": " 입",
  "10100": " peut",
  "10101": " equals",
  "10102": " variables",
  "10103": "周",
  "10104": "林",
  "10105": "였",
  "10106": "そう",
  "10107": " costs",
  "10108": "ショ",
  "10109": "asje",
  "10110": "level",
  "10111": "ingu",
  "10112": "images",
  "10113": " kami",
  "10114": "ры",
  "10115": " fort",
  "10116": "avn",
  "10117": " Lic",
  "10118": "                     ",
  "10119": "্থ",
  "10120": " الز",
  "10121": " 작",
  "10122": "rypt",
  "10123": "ọng",
  "10124": "记",
  "10125": " skills",
  "10126": "coin",
  "10127": "Comm",
  "10128": " capital",
  "10129": " δεν",
  "10130": " என",
  "10131": "ِنْ",
  "10132": "/C",
  "10133": "512",
  "10134": "SA",
  "10135": "Su",
  "10136": "{{",
  "10137": " só",
  "10138": "lear",
  "10139": "empo",
  "10140": "oda",
  "10141": "ári",
  "10142": " Bel",
  "10143": " Lo",
  "10144": "عم",
  "10145": "іт",
  "10146": "变",
  "10147": "ruction",
  "10148": " کن",
  "10149": "ثر",
  "10150": " included",
  "10151": "值",
  "10152": "款",
  "10153": ".jpg",
  "10154": "ੀ�",
  "10155": " probably",
  "10156": " mới",
  "10157": "ees",
  "10158": " sé",
  "10159": " lip",
  "10160": " hyp",
  "10161": "сл",
  "10162": "ests",
  "10163": " Esc",
  "10164": " Rad",
  "10165": "вет",
  "10166": " iš",
  "10167": "男",
  "10168": " ਸ",
  "10169": " های",
  "10170": " Š",
  "10171": "भी",
  "10172": " weeks",
  "10173": " उन्ह",
  "10174": " mobil",
  "10175": "照",
  "10176": " becomes",
  "10177": " Court",
  "10178": "什么",
  "10179": " categ",
  "10180": " hing",
  "10181": "amil",
  "10182": "\n\n\n\n",
  "10183": "પ",
  "10184": " Mc",
  "10185": " اله",
  "10186": " Nh",
  "10187": " بد",
  "10188": " Ü",
  "10189": "nek",
  "10190": " 후",
  "10191": "석",
  "10192": "้น",
  "10193": "âm",
  "10194": " construct",
  "10195": " Comput",
  "10196": "发展",
  "10197": " easily",
  "10198": " observed",
  "10199": "模",
  "10200": "cil",
  "10201": "oon",
  "10202": "rum",
  "10203": " theo",
  "10204": "arta",
  "10205": "console",
  "10206": "isha",
  "10207": "show",
  "10208": " active",
  "10209": " तक",
  "10210": "イル",
  "10211": " demonstr",
  "10212": " origin",
  "10213": " designed",
  "10214": " કર",
  "10215": "fol",
  "10216": "vg",
  "10217": " save",
  "10218": "१",
  "10219": "eto",
  "10220": " ظ",
  "10221": " deep",
  "10222": " gol",
  "10223": "char",
  "10224": "су",
  "10225": "antu",
  "10226": "osten",
  "10227": "ormal",
  "10228": " Its",
  "10229": "投",
  "10230": "বে",
  "10231": "획",
  "10232": "ター",
  "10233": "ັນ�",
  "10234": " affect",
  "10235": " automat",
  "10236": " 데",
  "10237": "深",
  "10238": "ưởng",
  "10239": ";->",
  "10240": "Of",
  "10241": "cite",
  "10242": "nb",
  "10243": "nolog",
  "10244": " fixed",
  "10245": " nä",
  "10246": "ilan",
  "10247": "utan",
  "10248": "igma",
  "10249": " Para",
  "10250": " �",
  "10251": " Day",
  "10252": " beaut",
  "10253": "ocol",
  "10254": " that's",
  "10255": "قل",
  "10256": " imag",
  "10257": "ulture",
  "10258": "achment",
  "10259": "につ",
  "10260": "อน",
  "10261": " без",
  "10262": "Stream",
  "10263": " Android",
  "10264": "责",
  "10265": "Conf",
  "10266": "부터",
  "10267": " memiliki",
  "10268": "$\\",
  "10269": "GB",
  "10270": " cao",
  "10271": " gay",
  "10272": " rag",
  "10273": "יים",
  "10274": "بت",
  "10275": " ø",
  "10276": " applied",
  "10277": " deliver",
  "10278": " ми",
  "10279": " Char",
  "10280": " नि",
  "10281": "准",
  "10282": "າມ",
  "10283": " nói",
  "10284": "'eau",
  "10285": "kas",
  "10286": "esk",
  "10287": " fel",
  "10288": " tools",
  "10289": " deal",
  "10290": "uses",
  "10291": " ور",
  "10292": " prin",
  "10293": " neigh",
  "10294": " بْن",
  "10295": " Vir",
  "10296": " أل",
  "10297": " nhận",
  "10298": "рем",
  "10299": " muito",
  "10300": "vention",
  "10301": "던",
  "10302": " été",
  "10303": "SD",
  "10304": " task",
  "10305": " tiền",
  "10306": " sử",
  "10307": " rates",
  "10308": " rais",
  "10309": "وش",
  "10310": " Business",
  "10311": " Os",
  "10312": "حت",
  "10313": " resources",
  "10314": " peu",
  "10315": " programs",
  "10316": "级",
  "10317": " δια",
  "10318": " τους",
  "10319": " determine",
  "10320": " situation",
  "10321": " dowolne",
  "10322": "kul",
  "10323": "{a",
  "10324": "�น�",
  "10325": "�",
  "10326": " dz",
  "10327": "alia",
  "10328": "itik",
  "10329": " nue",
  "10330": " hak",
  "10331": " ef",
  "10332": "ូ",
  "10333": "东",
  "10334": "قال",
  "10335": "েখ",
  "10336": " -->\n",
  "10337": " Дев",
  "10338": " purpose",
  "10339": ".W",
  "10340": ".cont",
  "10341": "/j",
  "10342": "Count",
  "10343": "Der",
  "10344": "yb",
  "10345": "消",
  "10346": " sah",
  "10347": " dark",
  "10348": " cơ",
  "10349": " bound",
  "10350": " fig",
  "10351": "roy",
  "10352": " commer",
  "10353": "íd",
  "10354": "ीम",
  "10355": "ве",
  "10356": " sust",
  "10357": " со",
  "10358": " Thus",
  "10359": "пи",
  "10360": "하기",
  "10361": "功",
  "10362": "�ה",
  "10363": " 반",
  "10364": " ¨",
  "10365": "event",
  "10366": " recent",
  "10367": "屋",
  "10368": "_type",
  "10369": "ться",
  "10370": " הוא",
  "10371": " greater",
  "10372": "段",
  "10373": "witter",
  "10374": " Austral",
  "10375": "61",
  "10376": "SU",
  "10377": "TA",
  "10378": "�ות",
  "10379": " mad",
  "10380": " nombre",
  "10381": " ri",
  "10382": " CH",
  "10383": " stream",
  "10384": "that",
  "10385": "ías",
  "10386": "יות",
  "10387": "号",
  "10388": " plant",
  "10389": " auth",
  "10390": "ادة",
  "10391": " operation",
  "10392": " India",
  "10393": " performed",
  "10394": " I've",
  "10395": "CP",
  "10396": " quite",
  "10397": " leave",
  "10398": "ник",
  "10399": "итель",
  "10400": "れた",
  "10401": "该",
  "10402": "larak",
  "10403": "ण्य",
  "10404": " प्रत",
  "10405": "면서",
  "10406": " appear",
  "10407": " understanding",
  "10408": "ổi",
  "10409": "\").",
  "10410": "Reg",
  "10411": "That",
  "10412": "ná",
  "10413": "vement",
  "10414": "�น�",
  "10415": "अ",
  "10416": "oute",
  "10417": " kol",
  "10418": " Sur",
  "10419": "chaft",
  "10420": " Coun",
  "10421": " Pat",
  "10422": "ຸ",
  "10423": " तर",
  "10424": " specified",
  "10425": " 과",
  "10426": "ların",
  "10427": " maka",
  "10428": " வர",
  "10429": "ắn",
  "10430": " observ",
  "10431": "IA",
  "10432": "Pay",
  "10433": " cat",
  "10434": " devices",
  "10435": " البي",
  "10436": " jag",
  "10437": "oca",
  "10438": "plies",
  "10439": " ஒ",
  "10440": "列",
  "10441": "는데",
  "10442": " gratu",
  "10443": " será",
  "10444": " khác",
  "10445": "ownload",
  "10446": " करें",
  "10447": "column",
  "10448": " அவ",
  "10449": " behavior",
  "10450": " published",
  "10451": "Das",
  "10452": "VID",
  "10453": "here",
  "10454": "pf",
  "10455": " therap",
  "10456": "ivel",
  "10457": "ツ",
  "10458": " Gl",
  "10459": "าน�",
  "10460": "িব",
  "10461": "았",
  "10462": "анк",
  "10463": ",\\",
  "10464": "-L",
  "10465": "TP",
  "10466": "well",
  "10467": "ও",
  "10468": "১",
  "10469": " progress",
  "10470": " ই",
  "10471": " Brit",
  "10472": " traff",
  "10473": " कहा",
  "10474": "aix",
  "10475": " تص",
  "10476": "เข",
  "10477": "би",
  "10478": " assum",
  "10479": " frame",
  "10480": " قر",
  "10481": " attention",
  "10482": "-size",
  "10483": "ள்",
  "10484": " प्रद",
  "10485": "結",
  "10486": "ுக்கு",
  "10487": " también",
  "10488": "會館",
  "10489": "![](",
  "10490": "(y",
  "10491": "101",
  "10492": " nom",
  "10493": " nella",
  "10494": "amily",
  "10495": "iminal",
  "10496": " anh",
  "10497": " disp",
  "10498": " soon",
  "10499": "024",
  "10500": "valu",
  "10501": "گر",
  "10502": " போ",
  "10503": "ция",
  "10504": "线",
  "10505": " besar",
  "10506": "越",
  "10507": " bagi",
  "10508": " camera",
  "10509": "需要",
  "10510": " ông",
  "10511": "test",
  "10512": "يج",
  "10513": " Tur",
  "10514": "query",
  "10515": " Bre",
  "10516": " Hand",
  "10517": " {\n\n",
  "10518": "мо",
  "10519": " adapt",
  "10520": "ierung",
  "10521": "args",
  "10522": " register",
  "10523": "さい",
  "10524": "ść",
  "10525": " everything",
  "10526": "Content",
  "10527": "�ည",
  "10528": "Do",
  "10529": "�่",
  "10530": "�্�",
  "10531": "inte",
  "10532": " svo",
  "10533": " wall",
  "10534": "ové",
  "10535": " Hot",
  "10536": " �",
  "10537": "头",
  "10538": " cancer",
  "10539": " تو",
  "10540": "aza",
  "10541": "감",
  "10542": "riter",
  "10543": "�ת",
  "10544": "布",
  "10545": " board",
  "10546": " বল",
  "10547": " 화",
  "10548": " wrong",
  "10549": "象",
  "10550": "Date",
  "10551": "PV",
  "10552": "토",
  "10553": "�י�",
  "10554": " harm",
  "10555": " Bi",
  "10556": "ਲ",
  "10557": " prest",
  "10558": "osti",
  "10559": " Use",
  "10560": "ös",
  "10561": "бот",
  "10562": "ername",
  "10563": "ም",
  "10564": "武",
  "10565": " feature",
  "10566": " remove",
  "10567": "ùa",
  "10568": " Therefore",
  "10569": " purch",
  "10570": "�ู",
  "10571": "あります",
  "10572": "-re",
  "10573": "Template",
  "10574": "sup",
  "10575": "ँ",
  "10576": " pens",
  "10577": " chain",
  "10578": " chuyển",
  "10579": " مهره",
  "10580": "بة",
  "10581": "京",
  "10582": " Kl",
  "10583": "че",
  "10584": "чин",
  "10585": "format",
  "10586": "また",
  "10587": "江",
  "10588": "足",
  "10589": "후",
  "10590": "isis",
  "10591": " mens",
  "10592": " charg",
  "10593": "함",
  "10594": " War",
  "10595": "illing",
  "10596": "انه",
  "10597": " मु�",
  "10598": " root",
  "10599": " yourself",
  "10600": " нап",
  "10601": "习",
  "10602": " stress",
  "10603": " نہ",
  "10604": " এব",
  "10605": "σης",
  "10606": "ដែល",
  "10607": "SM",
  "10608": "Work",
  "10609": "�",
  "10610": "orang",
  "10611": " nj",
  "10612": "ición",
  "10613": "يات",
  "10614": " Micro",
  "10615": "ocument",
  "10616": " zd",
  "10617": "οι",
  "10618": " cloud",
  "10619": "unda",
  "10620": "别",
  "10621": " dispon",
  "10622": "dev",
  "10623": "ουμε",
  "10624": "差",
  "10625": " define",
  "10626": "어�",
  "10627": "包",
  "10628": " feed",
  "10629": "见",
  "10630": " joint",
  "10631": " February",
  "10632": " Retrieved",
  "10633": "My",
  "10634": "Vol",
  "10635": "]{",
  "10636": "��",
  "10637": "�",
  "10638": "esa",
  "10639": "२",
  "10640": " nd",
  "10641": " nào",
  "10642": "   \n",
  "10643": "emente",
  "10644": "emph",
  "10645": " Sen",
  "10646": "eck",
  "10647": " Afr",
  "10648": " Los",
  "10649": "óg",
  "10650": " diese",
  "10651": " Information",
  "10652": "ення",
  "10653": " row",
  "10654": " emot",
  "10655": " 재",
  "10656": " poz",
  "10657": "жи",
  "10658": "pool",
  "10659": "��",
  "10660": "味",
  "10661": " limited",
  "10662": " occas",
  "10663": " trying",
  "10664": " bahwa",
  "10665": "َتْ",
  "10666": "�ີ່�",
  "10667": " recommend",
  "10668": "音",
  "10669": ".re",
  "10670": "vor",
  "10671": "yles",
  "10672": "ţ",
  "10673": "থ",
  "10674": " verm",
  "10675": " eyes",
  "10676": "olar",
  "10677": " 코",
  "10678": " stock",
  "10679": "umi",
  "10680": "angg",
  "10681": " Link",
  "10682": " {}",
  "10683": " لي",
  "10684": " prez",
  "10685": " ме",
  "10686": "ност",
  "10687": "ihan",
  "10688": " Prof",
  "10689": " שה�",
  "10690": "embly",
  "10691": "ல்ல",
  "10692": "목",
  "10693": "근",
  "10694": "ھی",
  "10695": "олько",
  "10696": " também",
  "10697": "-P",
  "10698": "_B",
  "10699": "band",
  "10700": "top",
  "10701": "�",
  "10702": " sat",
  "10703": " info",
  "10704": " gew",
  "10705": " repe",
  "10706": "―",
  "10707": "ρέ",
  "10708": "ِل",
  "10709": " server",
  "10710": "土",
  "10711": "خت",
  "10712": " strength",
  "10713": "ода",
  "10714": "ologies",
  "10715": "်း�",
  "10716": "nych",
  "10717": " configuration",
  "10718": " پر",
  "10719": "ACE",
  "10720": " behind",
  "10721": "////////////////",
  "10722": "-.",
  "10723": "Source",
  "10724": "\\n",
  "10725": "�ו�",
  "10726": " ped",
  "10727": " mole",
  "10728": " nên",
  "10729": " nett",
  "10730": " veg",
  "10731": " Section",
  "10732": "ecause",
  "10733": "рі",
  "10734": " �",
  "10735": "دين",
  "10736": " Facebook",
  "10737": " Ö",
  "10738": " •",
  "10739": " road",
  "10740": "phone",
  "10741": "ስ",
  "10742": " guid",
  "10743": " år",
  "10744": " برای",
  "10745": "Aut",
  "10746": " ;\n",
  "10747": " tec",
  "10748": " watch",
  "10749": " loro",
  "10750": "imas",
  "10751": " ked",
  "10752": " Sw",
  "10753": " TX",
  "10754": " jour",
  "10755": "iai",
  "10756": "にも",
  "10757": "ца",
  "10758": " goal",
  "10759": " formed",
  "10760": "况",
  "10761": " 직",
  "10762": " sinh",
  "10763": " individuals",
  "10764": "ography",
  "10765": " mobile",
  "10766": "Manager",
  "10767": "服务",
  "10768": " können",
  "10769": "iset",
  "10770": " incl",
  "10771": "ハ",
  "10772": " trial",
  "10773": "ól",
  "10774": "plat",
  "10775": "্ল",
  "10776": " ability",
  "10777": " button",
  "10778": "육",
  "10779": " المس",
  "10780": "-block",
  "10781": "ativo",
  "10782": " 사람",
  "10783": " Press",
  "10784": " Franc",
  "10785": " objects",
  "10786": " 차",
  "10787": "/or",
  "10788": "arily",
  "10789": " olarak",
  "10790": " bab",
  "10791": " kull",
  "10792": "agem",
  "10793": " isn't",
  "10794": "モ",
  "10795": "ска",
  "10796": " alc",
  "10797": " Vi",
  "10798": "ρχ",
  "10799": "ुद",
  "10800": "prop",
  "10801": "ampions",
  "10802": " הב�",
  "10803": "린",
  "10804": "phi",
  "10805": " entr",
  "10806": "اده",
  "10807": " piece",
  "10808": " pela",
  "10809": " patient",
  "10810": "້�",
  "10811": "就是",
  "10812": " larger",
  "10813": " quickly",
  "10814": "ுள்ள",
  "10815": "vat",
  "10816": " cm",
  "10817": " wan",
  "10818": "amas",
  "10819": " tool",
  "10820": " ב",
  "10821": "unto",
  "10822": "ря",
  "10823": " ছ",
  "10824": "ديد",
  "10825": " Ur",
  "10826": " स्थ",
  "10827": " Integr",
  "10828": " users",
  "10829": " rod",
  "10830": "ُّ",
  "10831": "ancy",
  "10832": ")$.\n\n",
  "10833": "ło",
  "10834": " simply",
  "10835": "ůj",
  "10836": "ecez",
  "10837": "known",
  "10838": "続",
  "10839": "_G",
  "10840": " hình",
  "10841": " Type",
  "10842": "ाड",
  "10843": "term",
  "10844": "erse",
  "10845": " sele",
  "10846": "َان",
  "10847": "pty",
  "10848": " يس",
  "10849": "ạng",
  "10850": " module",
  "10851": "도록",
  "10852": " attack",
  "10853": "快",
  "10854": "embre",
  "10855": "生活",
  "10856": "�ด�",
  "10857": "레",
  "10858": " currently",
  "10859": " 제공",
  "10860": " Organ",
  "10861": " ένα",
  "10862": "�่อ�",
  "10863": "ồi",
  "10864": "工作室",
  "10865": "Pos",
  "10866": "ULL",
  "10867": "sm",
  "10868": "��",
  "10869": "�",
  "10870": "�า�",
  "10871": "��",
  "10872": " pipe",
  "10873": " fait",
  "10874": " wait",
  "10875": " intr",
  "10876": "amma",
  "10877": " android",
  "10878": "тобы",
  "10879": " זה",
  "10880": " Um",
  "10881": " spir",
  "10882": "úblic",
  "10883": " حال",
  "10884": " قبل",
  "10885": "步",
  "10886": "ேர",
  "10887": " smaller",
  "10888": " degree",
  "10889": " lớ",
  "10890": " tangent",
  "10891": " شيء",
  "10892": "'n",
  "10893": "-object",
  "10894": "Open",
  "10895": "group",
  "10896": " cui",
  "10897": " mant",
  "10898": " ow",
  "10899": " vent",
  "10900": "otes",
  "10901": " rang",
  "10902": "iah",
  "10903": "则",
  "10904": "ント",
  "10905": " Also",
  "10906": " Develop",
  "10907": " throughout",
  "10908": "별",
  "10909": " করে",
  "10910": "Array",
  "10911": " اللہ",
  "10912": " advant",
  "10913": " examples",
  "10914": "/f",
  "10915": "_file",
  "10916": "mek",
  "10917": "sym",
  "10918": " �",
  "10919": " sides",
  "10920": "height",
  "10921": "ará",
  "10922": "idente",
  "10923": " Anh",
  "10924": " fore",
  "10925": "assa",
  "10926": " وش",
  "10927": "^{*",
  "10928": "inta",
  "10929": "ensor",
  "10930": "ρώ",
  "10931": " ਮ",
  "10932": " requires",
  "10933": " signal",
  "10934": "ाया",
  "10935": " primary",
  "10936": " 출",
  "10937": "Frame",
  "10938": "Url",
  "10939": " tant",
  "10940": "aron",
  "10941": "itud",
  "10942": "ড়",
  "10943": " Л",
  "10944": " ges",
  "10945": " Sal",
  "10946": "ép",
  "10947": " Mag",
  "10948": " season",
  "10949": " train",
  "10950": "äv",
  "10951": "ahkan",
  "10952": "ство",
  "10953": "เร�",
  "10954": " πολ",
  "10955": "998",
  "10956": " 업",
  "10957": "止",
  "10958": "計",
  "10959": "هههه",
  "10960": " strategy",
  "10961": " 김",
  "10962": ".G",
  "10963": "DF",
  "10964": "burg",
  "10965": "�ו�",
  "10966": "��",
  "10967": "Ε",
  "10968": " tiene",
  "10969": " mundo",
  "10970": "aste",
  "10971": " np",
  "10972": "icular",
  "10973": "amer",
  "10974": " Sta",
  "10975": "akin",
  "10976": "২",
  "10977": "ctor",
  "10978": "oks",
  "10979": "ている",
  "10980": " */",
  "10981": "たい",
  "10982": "送",
  "10983": " slow",
  "10984": "ステ",
  "10985": "�ר",
  "10986": " importante",
  "10987": " भार",
  "10988": "၊",
  "10989": "Query",
  "10990": "yan",
  "10991": " sources",
  "10992": " hari",
  "10993": " kred",
  "10994": "osom",
  "10995": " Table",
  "10996": " trở",
  "10997": " Hen",
  "10998": " iş",
  "10999": "яв",
  "11000": "فه",
  "11001": " parents",
  "11002": "ünd",
  "11003": " حد",
  "11004": "ورة",
  "11005": " drive",
  "11006": " extrem",
  "11007": " صوب",
  "11008": "’t",
  "11009": " 호",
  "11010": " determined",
  "11011": " будет",
  "11012": "![](_",
  "11013": ".php",
  "11014": "71",
  "11015": "ael",
  "11016": "nak",
  "11017": " tik",
  "11018": " sân",
  "11019": "atrix",
  "11020": " vì",
  "11021": " vẫn",
  "11022": " Air",
  "11023": " Count",
  "11024": " ito",
  "11025": " naar",
  "11026": " ద",
  "11027": "ارد",
  "11028": " बाद",
  "11029": " brain",
  "11030": "選",
  "11031": " remain",
  "11032": "んな",
  "11033": " decision",
  "11034": "-link",
  "11035": "aimassage",
  "11036": "volume",
  "11037": "태",
  "11038": " International",
  "11039": "ால்",
  "11040": "Entity",
  "11041": "Factory",
  "11042": " sample",
  "11043": " credit",
  "11044": " mont",
  "11045": "itary",
  "11046": "select",
  "11047": "ähr",
  "11048": " بي",
  "11049": "فس",
  "11050": "uke",
  "11051": " له",
  "11052": " manager",
  "11053": " serious",
  "11054": " skin",
  "11055": " skal",
  "11056": "这个",
  "11057": " 운",
  "11058": "节",
  "11059": " 통해",
  "11060": " τις",
  "11061": "Ver",
  "11062": "��",
  "11063": " cum",
  "11064": " mort",
  "11065": "icio",
  "11066": "لت",
  "11067": " Hol",
  "11068": "oka",
  "11069": " بش",
  "11070": "ंच",
  "11071": "ारा",
  "11072": "户",
  "11073": " حارب",
  "11074": " registr",
  "11075": "决",
  "11076": "들은",
  "11077": "notation",
  "11078": " Online",
  "11079": " 그런",
  "11080": " radon",
  "11081": "iểu",
  "11082": "-F",
  "11083": "-color",
  "11084": "CR",
  "11085": "OW",
  "11086": "bin",
  "11087": "uw",
  "11088": "vas",
  "11089": "itis",
  "11090": " ná",
  "11091": " thus",
  "11092": "ខ",
  "11093": " Del",
  "11094": " Out",
  "11095": " description",
  "11096": "azioni",
  "11097": "易",
  "11098": "ース",
  "11099": "材",
  "11100": " built",
  "11101": "zeit",
  "11102": " εκ",
  "11103": " harus",
  "11104": " আম",
  "11105": "达",
  "11106": " coordinates",
  "11107": "IK",
  "11108": "Pre",
  "11109": "cast",
  "11110": " hun",
  "11111": "ouble",
  "11112": "ណ",
  "11113": "ाओ",
  "11114": " Lu",
  "11115": "inda",
  "11116": " User",
  "11117": "oba",
  "11118": " prem",
  "11119": "हर",
  "11120": "早",
  "11121": " therefore",
  "11122": " student",
  "11123": "Property",
  "11124": " circum",
  "11125": " Allah",
  "11126": " Internet",
  "11127": " 회",
  "11128": "個人工作室",
  "11129": " diabetes",
  "11130": "#define",
  "11131": "72",
  "11132": "cks",
  "11133": "pir",
  "11134": "�ות",
  "11135": " band",
  "11136": "omi",
  "11137": " gj",
  "11138": "osen",
  "11139": " Check",
  "11140": "estamp",
  "11141": "ieš",
  "11142": " anc",
  "11143": " NOT",
  "11144": " किस",
  "11145": " Oper",
  "11146": "古",
  "11147": "ена",
  "11148": "स्थ",
  "11149": " الآ",
  "11150": " pretty",
  "11151": "product",
  "11152": "ारे",
  "11153": " medical",
  "11154": " useful",
  "11155": "aires",
  "11156": "ని",
  "11157": " ہو",
  "11158": " himself",
  "11159": "書",
  "11160": " connecting",
  "11161": "Create",
  "11162": "_re",
  "11163": "tings",
  "11164": "۱",
  "11165": " tv",
  "11166": " tai",
  "11167": " fer",
  "11168": " lần",
  "11169": " viel",
  "11170": "โ",
  "11171": " Log",
  "11172": "вер",
  "11173": "ுந்த",
  "11174": "িস",
  "11175": " dua",
  "11176": "��",
  "11177": " قد",
  "11178": " offers",
  "11179": "method",
  "11180": "ની",
  "11181": "_size",
  "11182": "razil",
  "11183": "ੰ�",
  "11184": " któ",
  "11185": " machine",
  "11186": " concentration",
  "11187": "Press",
  "11188": "hir",
  "11189": "kol",
  "11190": " ?\n\n",
  "11191": " dot",
  "11192": " theory",
  "11193": "asy",
  "11194": " worth",
  "11195": " towards",
  "11196": " ميره",
  "11197": "یا",
  "11198": "ος",
  "11199": " contra",
  "11200": " هال",
  "11201": "ন্ত",
  "11202": " Service",
  "11203": " οι",
  "11204": "联",
  "11205": "Code",
  "11206": "ë",
  "11207": " __",
  "11208": " dra",
  "11209": "itz",
  "11210": "ひ",
  "11211": " ook",
  "11212": " nors",
  "11213": "ара",
  "11214": "ェ",
  "11215": "irt",
  "11216": " Mu",
  "11217": " Mart",
  "11218": " Fe",
  "11219": "tres",
  "11220": " воз",
  "11221": "�ับ�",
  "11222": "ван",
  "11223": "cket",
  "11224": " carbon",
  "11225": " bool",
  "11226": " pieces",
  "11227": " player",
  "11228": " receive",
  "11229": "教育",
  "11230": "σεις",
  "11231": "世界",
  "11232": " desarrollo",
  "11233": " अधिक",
  "11234": ",y",
  "11235": "-ch",
  "11236": "Me",
  "11237": "iš",
  "11238": "É",
  "11239": " sound",
  "11240": " pick",
  "11241": " झ",
  "11242": "usan",
  "11243": " sequence",
  "11244": "лем",
  "11245": "یز",
  "11246": "予",
  "11247": "のです",
  "11248": " ગ",
  "11249": " �",
  "11250": " premi",
  "11251": "cipl",
  "11252": "论",
  "11253": "命",
  "11254": " volt",
  "11255": "ployment",
  "11256": " baş",
  "11257": " books",
  "11258": "니까",
  "11259": " ప్ర",
  "11260": "首",
  "11261": "================",
  "11262": "按摩個人工作室",
  "11263": "按摩個人工作室會館",
  "11264": "%)",
  "11265": ".}",
  "11266": "CA",
  "11267": "time",
  "11268": "�ี",
  "11269": " await",
  "11270": " sar",
  "11271": " sö",
  "11272": " mug",
  "11273": " batter",
  "11274": " warm",
  "11275": " �",
  "11276": "unakan",
  "11277": " console",
  "11278": " Bet",
  "11279": " très",
  "11280": " King",
  "11281": "قِ",
  "11282": " Over",
  "11283": "ето",
  "11284": "微",
  "11285": "cohol",
  "11286": "iệp",
  "11287": "ATA",
  "11288": "_test",
  "11289": "ெர",
  "11290": "منصور",
  "11291": " fields",
  "11292": "unicip",
  "11293": "�਼",
  "11294": " હત",
  "11295": "ecezji",
  "11296": "Icon",
  "11297": "TS",
  "11298": "kar",
  "11299": "lay",
  "11300": "�ו",
  "11301": " bem",
  "11302": "oter",
  "11303": "اذ",
  "11304": " Educ",
  "11305": "ਣ",
  "11306": "یس",
  "11307": " iter",
  "11308": " Gre",
  "11309": "のは",
  "11310": "aian",
  "11311": " فَ",
  "11312": "зы",
  "11313": "ша",
  "11314": " المست",
  "11315": " setting",
  "11316": "ूप",
  "11317": "ाना",
  "11318": "কে",
  "11319": "核",
  "11320": "ussi",
  "11321": "種",
  "11322": "นี้",
  "11323": "'aut",
  "11324": "-K",
  "11325": "MS",
  "11326": "}|",
  "11327": "�",
  "11328": "atin",
  "11329": " bere",
  "11330": " told",
  "11331": " Text",
  "11332": "unction",
  "11333": " Men",
  "11334": "abol",
  "11335": "िप",
  "11336": " prés",
  "11337": " Op",
  "11338": "arda",
  "11339": "ிப்ப",
  "11340": "িশ",
  "11341": " يُ",
  "11342": "อร",
  "11343": "断",
  "11344": "атель",
  "11345": " membuat",
  "11346": "결",
  "11347": "话",
  "11348": "่ว�",
  "11349": "ọi",
  "11350": "念",
  "11351": " simpl",
  "11352": "�ั�",
  "11353": "which",
  "11354": " USA",
  "11355": "ından",
  "11356": " gibt",
  "11357": "82",
  "11358": "Si",
  "11359": "hn",
  "11360": "oe",
  "11361": "orial",
  "11362": " category",
  "11363": " nuest",
  "11364": " kvin",
  "11365": " gan",
  "11366": "utter",
  "11367": " שי�",
  "11368": " PM",
  "11369": "း�",
  "11370": "уп",
  "11371": " heat",
  "11372": "ोट",
  "11373": "جم",
  "11374": "onews",
  "11375": " दिया",
  "11376": " ומ�",
  "11377": " helps",
  "11378": " basis",
  "11379": "走",
  "11380": " cuando",
  "11381": " эт",
  "11382": "โด�",
  "11383": " እ",
  "11384": " international",
  "11385": "ிட்ட",
  "11386": "edding",
  "11387": ".E",
  "11388": "62",
  "11389": "Ass",
  "11390": "gl",
  "11391": "hm",
  "11392": "lang",
  "11393": "nel",
  "11394": "nos",
  "11395": "zza",
  "11396": "{u",
  "11397": "�י�",
  "11398": "enas",
  "11399": " sø",
  "11400": "reme",
  "11401": " mặt",
  "11402": "usion",
  "11403": " stim",
  "11404": " ট",
  "11405": "ocks",
  "11406": " North",
  "11407": " وح",
  "11408": "كَ",
  "11409": "eps",
  "11410": "unde",
  "11411": "ल्य",
  "11412": " يَ",
  "11413": "бе",
  "11414": "్ప",
  "11415": " Stat",
  "11416": "写",
  "11417": "ける",
  "11418": " ideas",
  "11419": " momento",
  "11420": "'ex",
  "11421": ".~",
  "11422": "Dis",
  "11423": "Ste",
  "11424": "ű",
  "11425": "��",
  "11426": " biết",
  "11427": " fru",
  "11428": " fair",
  "11429": " lagi",
  "11430": " �",
  "11431": " Lin",
  "11432": " مست",
  "11433": " clin",
  "11434": " ON",
  "11435": " Other",
  "11436": " spect",
  "11437": " disclos",
  "11438": " metal",
  "11439": "优",
  "11440": "annot",
  "11441": "ậy",
  "11442": "Product",
  "11443": " While",
  "11444": "hingga",
  "11445": " tiempo",
  "11446": " movement",
  "11447": " Science",
  "11448": "重要",
  "11449": " embodiment",
  "11450": "cas",
  "11451": "wide",
  "11452": "enne",
  "11453": "atie",
  "11454": " civil",
  "11455": "alpha",
  "11456": " bert",
  "11457": " nước",
  "11458": " Alex",
  "11459": " �",
  "11460": "upun",
  "11461": " nhiên",
[...]
