{
  "0": "<|ifm|begin_of_text|>",
  "1": "<|ifm|endoftext|>",
  "2": "!",
  "3": "\"",
  "4": "#",
  "5": "$",
  "6": "%",
  "7": "&",
  "8": "'",
  "9": "(",
  "10": ")",
  "11": "*",
  "12": "+",
  "13": ",",
  "14": "-",
  "15": ".",
  "16": "/",
  "17": "0",
  "18": "1",
  "19": "2",
  "20": "3",
  "21": "4",
  "22": "5",
  "23": "6",
  "24": "7",
  "25": "8",
  "26": "9",
  "27": ":",
  "28": ";",
  "29": "<",
  "30": "=",
  "31": ">",
  "32": "?",
  "33": "@",
  "34": "A",
  "35": "B",
  "36": "C",
  "37": "D",
  "38": "E",
  "39": "F",
  "40": "G",
  "41": "H",
  "42": "I",
  "43": "J",
  "44": "K",
  "45": "L",
  "46": "M",
  "47": "N",
  "48": "O",
  "49": "P",
  "50": "Q",
  "51": "R",
  "52": "S",
  "53": "T",
  "54": "U",
  "55": "V",
  "56": "W",
  "57": "X",
  "58": "Y",
  "59": "Z",
  "60": "[",
  "61": "\\",
  "62": "]",
  "63": "^",
  "64": "_",
  "65": "`",
  "66": "a",
  "67": "b",
  "68": "c",
  "69": "d",
  "70": "e",
  "71": "f",
  "72": "g",
  "73": "h",
  "74": "i",
  "75": "j",
  "76": "k",
  "77": "l",
  "78": "m",
  "79": "n",
  "80": "o",
  "81": "p",
  "82": "q",
  "83": "r",
  "84": "s",
  "85": "t",
  "86": "u",
  "87": "v",
  "88": "w",
  "89": "x",
  "90": "y",
  "91": "z",
  "92": "{",
  "93": "|",
  "94": "}",
  "95": "~",
  "96": "�",
  "97": "�",
  "98": "�",
  "99": "�",
  "100": "�",
  "101": "�",
  "102": "�",
  "103": "�",
  "104": "�",
  "105": "�",
  "106": "�",
  "107": "�",
  "108": "�",
  "109": "�",
  "110": "�",
  "111": "�",
  "112": "�",
  "113": "�",
  "114": "�",
  "115": "�",
  "116": "�",
  "117": "�",
  "118": "�",
  "119": "�",
  "120": "�",
  "121": "�",
  "122": "�",
  "123": "�",
  "124": "�",
  "125": "�",
  "126": "�",
  "127": "�",
  "128": "�",
  "129": "�",
  "130": "�",
  "131": "�",
  "132": "�",
  "133": "�",
  "134": "�",
  "135": "�",
  "136": "�",
  "137": "�",
  "138": "�",
  "139": "�",
  "140": "�",
  "141": "�",
  "142": "�",
  "143": "�",
  "144": "�",
  "145": "�",
  "146": "�",
  "147": "�",
  "148": "�",
  "149": "�",
  "150": "�",
  "151": "�",
  "152": "�",
  "153": "�",
  "154": "�",
  "155": "�",
  "156": "�",
  "157": "�",
  "158": "�",
  "159": "�",
  "160": "�",
  "161": "�",
  "162": "�",
  "163": "�",
  "164": "�",
  "165": "�",
  "166": "�",
  "167": "�",
  "168": "�",
  "169": "�",
  "170": "�",
  "171": "�",
  "172": "�",
  "173": "�",
  "174": "�",
  "175": "�",
  "176": "�",
  "177": "�",
  "178": "�",
  "179": "�",
  "180": "�",
  "181": "�",
  "182": "�",
  "183": "�",
  "184": "�",
  "185": "�",
  "186": "�",
  "187": "�",
  "188": "�",
  "189": "�",
  "190": "\u0000",
  "191": "\u0001",
  "192": "\u0002",
  "193": "\u0003",
  "194": "\u0004",
  "195": "\u0005",
  "196": "\u0006",
  "197": "\u0007",
  "198": "\b",
  "199": "\t",
  "200": "\n",
  "201": "\u000b",
  "202": "\f",
  "203": "\r",
  "204": "\u000e",
  "205": "\u000f",
  "206": "\u0010",
  "207": "\u0011",
  "208": "\u0012",
  "209": "\u0013",
  "210": "\u0014",
  "211": "\u0015",
  "212": "\u0016",
  "213": "\u0017",
  "214": "\u0018",
  "215": "\u0019",
  "216": "\u001a",
  "217": "\u001b",
  "218": "\u001c",
  "219": "\u001d",
  "220": "\u001e",
  "221": "\u001f",
  "222": " ",
  "223": "",
  "224": "�",
  "225": "�",
  "226": "�",
  "227": "�",
  "228": "�",
  "229": "�",
  "230": "�",
  "231": "�",
  "232": "�",
  "233": "�",
  "234": "�",
  "235": "�",
  "236": "�",
  "237": "�",
  "238": "�",
  "239": "�",
  "240": "�",
  "241": "�",
  "242": "�",
  "243": "�",
  "244": "�",
  "245": "�",
  "246": "�",
  "247": "�",
  "248": "�",
  "249": "�",
  "250": "�",
  "251": "�",
  "252": "�",
  "253": "�",
  "254": "�",
  "255": "�",
  "256": "�",
  "257": "�",
  "258": "  ",
  "259": "ا",
  "260": "ل",
  "261": "    ",
  "262": "�",
  "263": "in",
  "264": " t",
  "265": " a",
  "266": "er",
  "267": " �",
  "268": "ي",
  "269": "م",
  "270": "on",
  "271": "ال",
  "272": "en",
  "273": "es",
  "274": "و",
  "275": "ن",
  "276": "ر",
  "277": " s",
  "278": "at",
  "279": "or",
  "280": "an",
  "281": " ال",
  "282": "he",
  "283": "re",
  "284": "ا�",
  "285": " c",
  "286": "it",
  "287": "al",
  "288": " p",
  "289": "ar",
  "290": " d",
  "291": "is",
  "292": "ou",
  "293": " the",
  "294": "�",
  "295": "ة",
  "296": " f",
  "297": " m",
  "298": " w",
  "299": "ing",
  "300": "        ",
  "301": "le",
  "302": "ت",
  "303": "�",
  "304": " b",
  "305": " �",
  "306": "�",
  "307": " o",
  "308": "ed",
  "309": "د",
  "310": "ic",
  "311": "as",
  "312": " an",
  "313": "ف",
  "314": "ion",
  "315": "   ",
  "316": "ه",
  "317": " in",
  "318": " ال�",
  "319": "om",
  "320": "el",
  "321": "ent",
  "322": " \"",
  "323": "ق",
  "324": " م",
  "325": " to",
  "326": "ب",
  "327": "et",
  "328": "ك",
  "329": " n",
  "330": " and",
  "331": " of",
  "332": "il",
  "333": " l",
  "334": "ع",
  "335": " h",
  "336": "ro",
  "337": "س",
  "338": "st",
  "339": "\":",
  "340": "am",
  "341": "ct",
  "342": " و",
  "343": "�",
  "344": " S",
  "345": "id",
  "346": "00",
  "347": " e",
  "348": " th",
  "349": "un",
  "350": "im",
  "351": "ur",
  "352": " T",
  "353": " C",
  "354": ".\n",
  "355": "ad",
  "356": " g",
  "357": "ol",
  "358": " A",
  "359": ",\n",
  "360": "ch",
  "361": " y",
  "362": " ب",
  "363": "�",
  "364": "us",
  "365": "ot",
  "366": "ig",
  "367": "ح",
  "368": " re",
  "369": "ve",
  "370": "ay",
  "371": "ی",
  "372": "ut",
  "373": " I",
  "374": "       ",
  "375": "ce",
  "376": "ा",
  "377": "20",
  "378": " M",
  "379": "ul",
  "380": "ag",
  "381": " P",
  "382": "--",
  "383": " de",
  "384": " (",
  "385": "ation",
  "386": "ات",
  "387": "ir",
  "388": " for",
  "389": "os",
  "390": " ف",
  "391": "est",
  "392": " ل",
  "393": "ية",
  "394": " ت",
  "395": " is",
  "396": "ver",
  "397": "ج",
  "398": "ow",
  "399": "ان",
  "400": "em",
  "401": " �",
  "402": " r",
  "403": "ار",
  "404": " ع",
  "405": " you",
  "406": "qu",
  "407": "um",
  "408": " B",
  "409": " أ",
  "410": "od",
  "411": "ab",
  "412": " الم",
  "413": " on",
  "414": "if",
  "415": "�",
  "416": "ى",
  "417": " st",
  "418": "े",
  "419": "ess",
  "420": "ly",
  "421": " D",
  "422": "ter",
  "423": "о",
  "424": "ac",
  "425": "ap",
  "426": "र",
  "427": " =",
  "428": "ط",
  "429": "ith",
  "430": " v",
  "431": "th",
  "432": " be",
  "433": "ص",
  "434": " �",
  "435": " N",
  "436": " R",
  "437": "ak",
  "438": " F",
  "439": "ش",
  "440": "ers",
  "441": ")\n",
  "442": " con",
  "443": "്",
  "444": "ri",
  "445": "ate",
  "446": " -",
  "447": "е",
  "448": " L",
  "449": " k",
  "450": "�",
  "451": " في",
  "452": " E",
  "453": "�",
  "454": "ist",
  "455": "                ",
  "456": " '",
  "457": " pro",
  "458": " with",
  "459": "а",
  "460": " W",
  "461": "..",
  "462": "\",",
  "463": " al",
  "464": "pe",
  "465": "ام",
  "466": " H",
  "467": "ang",
  "468": "and",
  "469": "्",
  "470": "ين",
  "471": "ز",
  "472": " من",
  "473": "��",
  "474": "�",
  "475": "خ",
  "476": "oc",
  "477": "se",
  "478": "ک",
  "479": " as",
  "480": "ra",
  "481": " wh",
  "482": "ort",
  "483": "ht",
  "484": " क",
  "485": " that",
  "486": "്�",
  "487": "ा�",
  "488": "',",
  "489": " com",
  "490": "ant",
  "491": "op",
  "492": " G",
  "493": "end",
  "494": "и",
  "495": "our",
  "496": "т",
  "497": "é",
  "498": " ي",
  "499": "up",
  "500": " se",
  "501": " it",
  "502": "10",
  "503": "\n\n",
  "504": "ill",
  "505": "ew",
  "506": "ment",
  "507": "ि",
  "508": "out",
  "509": "ी",
  "510": " un",
  "511": "art",
  "512": "201",
  "513": "ine",
  "514": " س",
  "515": "�",
  "516": "pl",
  "517": "ity",
  "518": "ض",
  "519": " �",
  "520": "ere",
  "521": "्�",
  "522": " ex",
  "523": "oun",
  "524": "],",
  "525": " or",
  "526": "rom",
  "527": "لى",
  "528": "н",
  "529": "اس",
  "530": "iv",
  "531": "           ",
  "532": " O",
  "533": "ير",
  "534": "ı",
  "535": " at",
  "536": "ं",
  "537": "ore",
  "538": "----",
  "539": " are",
  "540": "أ",
  "541": "ور",
  "542": "ue",
  "543": "iz",
  "544": "ain",
  "545": "с",
  "546": "te",
  "547": "ame",
  "548": "া",
  "549": "de",
  "550": "ول",
  "551": " ك",
  "552": " إ",
  "553": "ि�",
  "554": "р",
  "555": "ub",
  "556": " {",
  "557": "ون",
  "558": "اب",
  "559": "'s",
  "560": "og",
  "561": "ies",
  "562": "о�",
  "563": " qu",
  "564": " ن",
  "565": "اد",
  "566": "ff",
  "567": "ها",
  "568": " le",
  "569": ":\n",
  "570": "19",
  "571": "�",
  "572": "ction",
  "573": " ح",
  "574": "12",
  "575": " ک",
  "576": "ip",
  "577": "ث",
  "578": " [",
  "579": "ial",
  "580": "ok",
  "581": "ive",
  "582": "ure",
  "583": "ust",
  "584": " الت",
  "585": " الأ",
  "586": "ass",
  "587": ";\n",
  "588": "pt",
  "589": " The",
  "590": " د",
  "591": "age",
  "592": "\t\t",
  "593": "ia",
  "594": " وال",
  "595": "ight",
  "596": " he",
  "597": " en",
  "598": "int",
  "599": "ذ",
  "600": "\",\n",
  "601": "ik",
  "602": "ell",
  "603": "ost",
  "604": "ो",
  "605": "ard",
  "606": "11",
  "607": "port",
  "608": "ld",
  "609": "ie",
  "610": "ে",
  "611": "000",
  "612": " your",
  "613": " J",
  "614": "া�",
  "615": " ch",
  "616": " In",
  "617": " j",
  "618": "ave",
  "619": "     ",
  "620": " ق",
  "621": " us",
  "622": "all",
  "623": "ud",
  "624": " U",
  "625": "ري",
  "626": "ib",
  "627": " we",
  "628": " ج",
  "629": "اء",
  "630": "15",
  "631": "elf",
  "632": " ر",
  "633": "per",
  "634": "ack",
  "635": "لي",
  "636": "com",
  "637": " الع",
  "638": " K",
  "639": "ി",
  "640": " V",
  "641": " by",
  "642": "able",
  "643": "ect",
  "644": "ice",
  "645": "##",
  "646": "ast",
  "647": "ile",
  "648": " from",
  "649": "�",
  "650": "ind",
  "651": "ائ",
  "652": " ه",
  "653": " tr",
  "654": "orm",
  "655": "न",
  "656": " sh",
  "657": "اع",
  "658": " this",
  "659": " can",
  "660": " pr",
  "661": "�",
  "662": " not",
  "663": " pl",
  "664": "ہ",
  "665": "ے",
  "666": "are",
  "667": "14",
  "668": "ime",
  "669": "16",
  "670": "cl",
  "671": "ans",
  "672": "one",
  "673": "99",
  "674": "13",
  "675": "\",\"",
  "676": "ult",
  "677": "ide",
  "678": ",\"",
  "679": "__",
  "680": "pr",
  "681": " sa",
  "682": "ire",
  "683": "ear",
  "684": " على",
  "685": "202",
  "686": "],[",
  "687": "غ",
  "688": " ش",
  "689": " la",
  "690": "\":\"",
  "691": " im",
  "692": "               ",
  "693": "//",
  "694": " cl",
  "695": "ob",
  "696": "क",
  "697": "يد",
  "698": "25",
  "699": "18",
  "700": " ad",
  "701": " have",
  "702": " لل",
  "703": "con",
  "704": " स",
  "705": " was",
  "706": " }",
  "707": "ി�",
  "708": "30",
  "709": "ong",
  "710": "ex",
  "711": "ated",
  "712": "ord",
  "713": "্",
  "714": "্�",
  "715": "л",
  "716": "ah",
  "717": "ata",
  "718": "ite",
  "719": "ail",
  "720": "ich",
  "721": " res",
  "722": " Th",
  "723": "17",
  "724": " ,",
  "725": "_t",
  "726": "اف",
  "727": "cc",
  "728": "du",
  "729": " ह",
  "730": "av",
  "731": "ber",
  "732": "urn",
  "733": " per",
  "734": "��",
  "735": "act",
  "736": " خ",
  "737": "ance",
  "738": "ি",
  "739": " |",
  "740": "ign",
  "741": "ork",
  "742": " �",
  "743": " الس",
  "744": "ase",
  "745": "24",
  "746": " الح",
  "747": " ar",
  "748": " ab",
  "749": "ens",
  "750": "ge",
  "751": "وم",
  "752": " will",
  "753": " comp",
  "754": " all",
  "755": " St",
  "756": " {\n",
  "757": "\"\n",
  "758": " do",
  "759": "ions",
  "760": "اق",
  "761": "der",
  "762": "ep",
  "763": "ach",
  "764": "ook",
  "765": "ു",
  "766": " cont",
  "767": "form",
  "768": " if",
  "769": "23",
  "770": "ome",
  "771": "ous",
  "772": " ne",
  "773": "gr",
  "774": "ست",
  "775": "त",
  "776": "ype",
  "777": "ence",
  "778": "اح",
  "779": "ace",
  "780": "’",
  "781": "ical",
  "782": "ry",
  "783": " ap",
  "784": "ode",
  "785": " Y",
  "786": "ü",
  "787": "يل",
  "788": " म",
  "789": "ath",
  "790": "ary",
  "791": "to",
  "792": "ount",
  "793": "ظ",
  "794": "--------",
  "795": "ug",
  "796": "22",
  "797": "র",
  "798": "ould",
  "799": " des",
  "800": "fer",
  "801": "у",
  "802": " �",
  "803": " me",
  "804": "50",
  "805": "erv",
  "806": "رب",
  "807": "ations",
  "808": "ود",
  "809": "，",
  "810": "so",
  "811": "**",
  "812": "ark",
  "813": " أن",
  "814": "к",
  "815": "ئ",
  "816": "28",
  "817": " :",
  "818": "==",
  "819": " di",
  "820": "pro",
  "821": "स",
  "822": "ake",
  "823": "26",
  "824": "ound",
  "825": " प",
  "826": "ै",
  "827": "ual",
  "828": "ാ",
  "829": " ص",
  "830": " up",
  "831": " has",
  "832": "ു�",
  "833": "vel",
  "834": " out",
  "835": " ا",
  "836": " i",
  "837": "ree",
  "838": "40",
  "839": "33",
  "840": "ne",
  "841": "ents",
  "842": " par",
  "843": "27",
  "844": " .",
  "845": "In",
  "846": "ما",
  "847": " An",
  "848": "ck",
  "849": "اج",
  "850": "),",
  "851": "ood",
  "852": "ert",
  "853": " \\",
  "854": "ther",
  "855": " $",
  "856": "29",
  "857": "ll",
  "858": " self",
  "859": " #",
  "860": "{\"",
  "861": "ick",
  "862": "。",
  "863": "ull",
  "864": "The",
  "865": " Re",
  "866": " بال",
  "867": " مع",
  "868": "ition",
  "869": "ह",
  "870": "ാ�",
  "871": "io",
  "872": "ps",
  "873": "ont",
  "874": " <",
  "875": " more",
  "876": "است",
  "877": "يا",
  "878": "eng",
  "879": "।",
  "880": " man",
  "881": "oug",
  "882": " ret",
  "883": "من",
  "884": " الب",
  "885": " الإ",
  "886": " Ch",
  "887": " الج",
  "888": "بر",
  "889": "ु",
  "890": "val",
  "891": "vers",
  "892": " عن",
  "893": "ি�",
  "894": " su",
  "895": "ru",
  "896": "ER",
  "897": "مل",
  "898": "ors",
  "899": " so",
  "900": "06",
  "901": " dis",
  "902": "ल",
  "903": "=\"",
  "904": " الق",
  "905": "ple",
  "906": "enc",
  "907": "05",
  "908": "very",
  "909": "я",
  "910": "name",
  "911": "ы",
  "912": "ft",
  "913": "36",
  "914": "get",
  "915": "تر",
  "916": "ov",
  "917": ");\n",
  "918": "هم",
  "919": "line",
  "920": "own",
  "921": "�",
  "922": " pre",
  "923": "\r\n",
  "924": "35",
  "925": " الن",
  "926": "37",
  "927": "45",
  "928": "her",
  "929": "м",
  "930": "\\x",
  "931": "的",
  "932": "LL",
  "933": "в",
  "934": "�",
  "935": "نا",
  "936": "200",
  "937": " الد",
  "938": "32",
  "939": " gr",
  "940": "ian",
  "941": " *",
  "942": "عد",
  "943": "08",
  "944": "ose",
  "945": " &",
  "946": "iew",
  "947": "ock",
  "948": "cre",
  "949": "ey",
  "950": "وق",
  "951": "ç",
  "952": " الش",
  "953": " que",
  "954": " el",
  "955": " but",
  "956": "lo",
  "957": " new",
  "958": "res",
  "959": " get",
  "960": "},",
  "961": "の",
  "962": " te",
  "963": "                   ",
  "964": "AA",
  "965": "07",
  "966": " em",
  "967": "رو",
  "968": "म",
  "969": " ro",
  "970": "...",
  "971": "ory",
  "972": "يس",
  "973": "46",
  "974": " part",
  "975": " الف",
  "976": "anc",
  "977": "</",
  "978": "گ",
  "979": "sp",
  "980": "、",
  "981": "38",
  "982": "ें",
  "983": " ط",
  "984": "إ",
  "985": "بي",
  "986": "yst",
  "987": "پ",
  "988": "01",
  "989": "47",
  "990": "reat",
  "991": "از",
  "992": "ş",
  "993": "48",
  "994": " +",
  "995": " et",
  "996": "ings",
  "997": " their",
  "998": "ari",
  "999": "ize",
  "1000": "ays",
  "1001": "ject",
  "1002": " п",
  "1003": "رة",
  "1004": "ь",
  "1005": "39",
  "1006": "्र",
  "1007": "az",
  "1008": "ে�",
  "1009": "IN",
  "1010": "####",
  "1011": "self",
  "1012": " inter",
  "1013": " ng",
  "1014": "ink",
  "1015": "ax",
  "1016": " am",
  "1017": "ں",
  "1018": " \n",
  "1019": "09",
  "1020": "ict",
  "1021": "ung",
  "1022": " ag",
  "1023": "tr",
  "1024": "ek",
  "1025": "):\n",
  "1026": " return",
  "1027": " one",
  "1028": "لم",
  "1029": " sp",
  "1030": "ार",
  "1031": "تم",
  "1032": " آ",
  "1033": " है",
  "1034": "\\\"",
  "1035": "ild",
  "1036": " no",
  "1037": " के",
  "1038": " our",
  "1039": "49",
  "1040": ".com",
  "1041": " which",
  "1042": "sh",
  "1043": "ank",
  "1044": "ough",
  "1045": "21",
  "1046": "oy",
  "1047": "ese",
  "1048": "يم",
  "1049": "لك",
  "1050": "'t",
  "1051": "igh",
  "1052": "д",
  "1053": "ely",
  "1054": "aw",
  "1055": " إلى",
  "1056": "ade",
  "1057": "_m",
  "1058": " الر",
  "1059": "ient",
  "1060": "اص",
  "1061": "co",
  "1062": "ike",
  "1063": "66",
  "1064": "         ",
  "1065": "لة",
  "1066": " مح",
  "1067": "ale",
  "1068": "),\n",
  "1069": "�",
  "1070": "oll",
  "1071": "://",
  "1072": " they",
  "1073": "we",
  "1074": "ates",
  "1075": " الص",
  "1076": "ating",
  "1077": "ish",
  "1078": "eth",
  "1079": " time",
  "1080": " work",
  "1081": "ec",
  "1082": " def",
  "1083": "प",
  "1084": "ст",
  "1085": " /",
  "1086": "ystem",
  "1087": ").",
  "1088": " ब",
  "1089": "رك",
  "1090": " ان",
  "1091": " الك",
  "1092": "ULL",
  "1093": "04",
  "1094": " about",
  "1095": " na",
  "1096": " also",
  "1097": "iss",
  "1098": "ons",
  "1099": "ارة",
  "1100": " sc",
  "1101": "row",
  "1102": "57",
  "1103": "ier",
  "1104": "ss",
  "1105": "pec",
  "1106": "ove",
  "1107": " est",
  "1108": "ven",
  "1109": "い",
  "1110": "�",
  "1111": " We",
  "1112": "ater",
  "1113": "34",
  "1114": "','",
  "1115": "اه",
  "1116": " الخ",
  "1117": "ener",
  "1118": "�",
  "1119": "put",
  "1120": "ext",
  "1121": "old",
  "1122": "عة",
  "1123": " },\n",
  "1124": "ph",
  "1125": " go",
  "1126": "irst",
  "1127": "les",
  "1128": "lect",
  "1129": " bu",
  "1130": ")\n\n",
  "1131": "100",
  "1132": "ند",
  "1133": "ubl",
  "1134": "ग",
  "1135": " my",
  "1136": "ng",
  "1137": "tt",
  "1138": " sup",
  "1139": " ज",
  "1140": "ange",
  "1141": "ific",
  "1142": "erm",
  "1143": "á",
  "1144": " any",
  "1145": "ise",
  "1146": "56",
  "1147": "_c",
  "1148": " It",
  "1149": " न",
  "1150": " str",
  "1151": " acc",
  "1152": "ix",
  "1153": "ó",
  "1154": "ann",
  "1155": " int",
  "1156": "led",
  "1157": "sc",
  "1158": "�",
  "1159": "uk",
  "1160": " Un",
  "1161": "دم",
  "1162": "par",
  "1163": " ہ",
  "1164": "03",
  "1165": " ass",
  "1166": " الل",
  "1167": "ool",
  "1168": " в",
  "1169": "mer",
  "1170": "ES",
  "1171": "58",
  "1172": "02",
  "1173": " fe",
  "1174": "arg",
  "1175": "െ",
  "1176": " val",
  "1177": "_d",
  "1178": "ın",
  "1179": "ч",
  "1180": "حد",
  "1181": "ally",
  "1182": "�",
  "1183": "rit",
  "1184": "]\n",
  "1185": " pe",
  "1186": "ذا",
  "1187": "ys",
  "1188": "়",
  "1189": "ond",
  "1190": "alse",
  "1191": "ef",
  "1192": "يف",
  "1193": " `",
  "1194": " Pro",
  "1195": "44",
  "1196": " year",
  "1197": " class",
  "1198": "pos",
  "1199": "ices",
  "1200": "any",
  "1201": "que",
  "1202": "ؤ",
  "1203": "vent",
  "1204": " other",
  "1205": " may",
  "1206": " over",
  "1207": "اض",
  "1208": "cess",
  "1209": "عل",
  "1210": " who",
  "1211": "me",
  "1212": " his",
  "1213": " produ",
  "1214": "ption",
  "1215": "59",
  "1216": " off",
  "1217": "ement",
  "1218": "\\n",
  "1219": " mod",
  "1220": "AT",
  "1221": " bl",
  "1222": "قة",
  "1223": "('",
  "1224": "(\"",
  "1225": " del",
  "1226": " Com",
  "1227": " need",
  "1228": "iel",
  "1229": "ments",
  "1230": "und",
  "1231": "لا",
  "1232": "88",
  "1233": " с",
  "1234": " che",
  "1235": "rib",
  "1236": "�്�",
  "1237": " غ",
  "1238": "77",
  "1239": "ен",
  "1240": "xt",
  "1241": "اخ",
  "1242": "Th",
  "1243": " ang",
  "1244": " z",
  "1245": "ics",
  "1246": "で",
  "1247": "ww",
  "1248": "aus",
  "1249": " col",
  "1250": "يو",
  "1251": "air",
  "1252": " add",
  "1253": "بار",
  "1254": "اط",
  "1255": " num",
  "1256": "app",
  "1257": "31",
  "1258": "],[-",
  "1259": " ind",
  "1260": "oss",
  "1261": "urr",
  "1262": "_s",
  "1263": "ga",
  "1264": "\\u",
  "1265": " This",
  "1266": "NT",
  "1267": "atch",
  "1268": "red",
  "1269": "55",
  "1270": " prov",
  "1271": " her",
  "1272": " अ",
  "1273": "tern",
  "1274": " ल",
  "1275": "ğ",
  "1276": "oint",
  "1277": " द",
  "1278": "its",
  "1279": "ন",
  "1280": " some",
  "1281": "eb",
  "1282": "し",
  "1283": " است",
  "1284": " में",
  "1285": "اش",
  "1286": " व",
  "1287": " cons",
  "1288": "()",
  "1289": "ins",
  "1290": "ത",
  "1291": "olog",
  "1292": "�",
  "1293": " were",
  "1294": "�",
  "1295": " پ",
  "1296": " co",
  "1297": "द",
  "1298": " when",
  "1299": "يع",
  "1300": "رف",
  "1301": "au",
  "1302": " kn",
  "1303": "یں",
  "1304": " been",
  "1305": "ू",
  "1306": " ent",
  "1307": "ash",
  "1308": " like",
  "1309": "í",
  "1310": "pect",
  "1311": "に",
  "1312": "li",
  "1313": "يت",
  "1314": "}\n",
  "1315": "وس",
  "1316": " set",
  "1317": "             ",
  "1318": "ular",
  "1319": " comm",
  "1320": " es",
  "1321": " �",
  "1322": " data",
  "1323": "व",
  "1324": "مر",
  "1325": ">\n",
  "1326": "ures",
  "1327": " serv",
  "1328": "AR",
  "1329": "ра",
  "1330": " Wh",
  "1331": " ph",
  "1332": "view",
  "1333": "يات",
  "1334": "�়",
  "1335": "مة",
  "1336": "بة",
  "1337": " –",
  "1338": " ac",
  "1339": " there",
  "1340": "?\n",
  "1341": " н",
  "1342": "St",
  "1343": " hel",
  "1344": " into",
  "1345": " وت",
  "1346": "AL",
  "1347": "_f",
  "1348": " }\n",
  "1349": "_id",
  "1350": "fter",
  "1351": "amp",
  "1352": " act",
  "1353": " bet",
  "1354": "ower",
  "1355": "hed",
  "1356": " ما",
  "1357": " dif",
  "1358": " reg",
  "1359": "ON",
  "1360": "98",
  "1361": " र",
  "1362": "96",
  "1363": "،",
  "1364": "97",
  "1365": " ob",
  "1366": " rec",
  "1367": "als",
  "1368": "الم",
  "1369": " incl",
  "1370": "كن",
  "1371": "----------------",
  "1372": " its",
  "1373": "str",
  "1374": "て",
  "1375": "وج",
  "1376": "],\n",
  "1377": "type",
  "1378": "ility",
  "1379": "htt",
  "1380": " Sh",
  "1381": "Re",
  "1382": ",-",
  "1383": " import",
  "1384": "let",
  "1385": "erson",
  "1386": " ve",
  "1387": "ã",
  "1388": "з",
  "1389": "�",
  "1390": "�",
  "1391": "्य",
  "1392": "ied",
  "1393": "ues",
  "1394": " how",
  "1395": " op",
  "1396": "ble",
  "1397": "...\n",
  "1398": "ान",
  "1399": "�്�",
  "1400": "wo",
  "1401": "مد",
  "1402": "ages",
  "1403": "ner",
  "1404": "ress",
  "1405": "ai",
  "1406": "ö",
  "1407": "ities",
  "1408": "ational",
  "1409": " them",
  "1410": "====",
  "1411": " Se",
  "1412": "itt",
  "1413": "ین",
  "1414": "ов",
  "1415": "ھ",
  "1416": " tra",
  "1417": " الذ",
  "1418": " mem",
  "1419": "ों",
  "1420": " и",
  "1421": "86",
  "1422": "els",
  "1423": "ople",
  "1424": " Ar",
  "1425": " ز",
  "1426": " use",
  "1427": "�",
  "1428": "87",
  "1429": "pert",
  "1430": "す",
  "1431": "قد",
  "1432": " than",
  "1433": " just",
  "1434": "と",
  "1435": "ya",
  "1436": " NULL",
  "1437": " à",
  "1438": " para",
  "1439": "ার",
  "1440": "set",
  "1441": " rel",
  "1442": "oth",
  "1443": " الو",
  "1444": " br",
  "1445": " what",
  "1446": "ão",
  "1447": "iness",
  "1448": "\t\t\t\t",
  "1449": "},{\"",
  "1450": " min",
  "1451": "ethod",
  "1452": "_l",
  "1453": "ible",
  "1454": "day",
  "1455": " بن",
  "1456": "uch",
  "1457": "ator",
  "1458": "ctions",
  "1459": " first",
  "1460": " x",
  "1461": "ox",
  "1462": "ublic",
  "1463": " fin",
  "1464": " تع",
  "1465": "da",
  "1466": "بل",
  "1467": "な",
  "1468": "ased",
  "1469": "arket",
  "1470": "。\n",
  "1471": "ern",
  "1472": "ma",
  "1473": "ession",
  "1474": "arn",
  "1475": " make",
  "1476": "مو",
  "1477": " در",
  "1478": "لس",
  "1479": " Tr",
  "1480": " eff",
  "1481": "ু",
  "1482": "orn",
  "1483": " sub",
  "1484": "76",
  "1485": "ative",
  "1486": "ID",
  "1487": " fl",
  "1488": "た",
  "1489": "_p",
  "1490": " ser",
  "1491": "be",
  "1492": " [\n",
  "1493": " help",
  "1494": " He",
  "1495": "!\n",
  "1496": "ract",
  "1497": "र्�",
  "1498": "RE",
  "1499": "41",
  "1500": "п",
  "1501": " av",
  "1502": " Al",
  "1503": "ident",
  "1504": " Q",
  "1505": " की",
  "1506": "كر",
  "1507": "ني",
  "1508": "ci",
  "1509": "े�",
  "1510": "arch",
  "1511": "ada",
  "1512": "وب",
  "1513": "bl",
  "1514": " most",
  "1515": " الط",
  "1516": " ذ",
  "1517": "る",
  "1518": " You",
  "1519": ".p",
  "1520": " التي",
  "1521": " look",
  "1522": "نت",
  "1523": " بر",
  "1524": "х",
  "1525": "oup",
  "1526": " وأ",
  "1527": "time",
  "1528": " trans",
  "1529": " stud",
  "1530": "aut",
  "1531": " high",
  "1532": "قي",
  "1533": "ര",
  "1534": " أو",
  "1535": "ten",
  "1536": " would",
  "1537": " о",
  "1538": "42",
  "1539": " inv",
  "1540": "usiness",
  "1541": " sur",
  "1542": "が",
  "1543": "ield",
  "1544": "fl",
  "1545": "ric",
  "1546": " fun",
  "1547": " under",
  "1548": "دة",
  "1549": " att",
  "1550": "ST",
  "1551": "िय",
  "1552": " ==",
  "1553": "لف",
  "1554": " only",
  "1555": " आ",
  "1556": " لا",
  "1557": "value",
  "1558": " had",
  "1559": "def",
  "1560": " ক",
  "1561": " New",
  "1562": "य",
  "1563": "(self",
  "1564": "text",
  "1565": "�",
  "1566": "rough",
  "1567": " De",
  "1568": "ful",
  "1569": "formation",
  "1570": "ask",
  "1571": "{\n",
  "1572": " les",
  "1573": "ily",
  "1574": "min",
  "1575": " به",
  "1576": "LE",
  "1577": "velop",
  "1578": "�",
  "1579": "ته",
  "1580": "ديد",
  "1581": " car",
  "1582": "plic",
  "1583": "ま",
  "1584": "لام",
  "1585": "رد",
  "1586": " well",
  "1587": "                                ",
  "1588": "سب",
  "1589": "43",
  "1590": " تح",
  "1591": "ms",
  "1592": " loc",
  "1593": "ー",
  "1594": "を",
  "1595": "****",
  "1596": "read",
  "1597": " Cl",
  "1598": " inst",
  "1599": "�",
  "1600": " il",
  "1601": "dex",
  "1602": "й",
  "1603": "ts",
  "1604": "ature",
  "1605": "ames",
  "1606": "は",
  "1607": "شر",
  "1608": " को",
  "1609": " mon",
  "1610": " gu",
  "1611": "نة",
  "1612": " aut",
  "1613": " requ",
  "1614": "اني",
  "1615": "gan",
  "1616": "FF",
  "1617": "وف",
  "1618": " Z",
  "1619": "ler",
  "1620": "orld",
  "1621": "ting",
  "1622": "è",
  "1623": "of",
  "1624": " mga",
  "1625": " spec",
  "1626": "chn",
  "1627": "load",
  "1628": "خر",
  "1629": "\">",
  "1630": "�്ന",
  "1631": " these",
  "1632": " det",
  "1633": " best",
  "1634": "yn",
  "1635": " people",
  "1636": "ution",
  "1637": " Le",
  "1638": "999",
  "1639": " Ex",
  "1640": "bs",
  "1641": "ने",
  "1642": " rem",
  "1643": " da",
  "1644": "صل",
  "1645": "�",
  "1646": " ma",
  "1647": "ray",
  "1648": "لال",
  "1649": " مج",
  "1650": " sm",
  "1651": " pres",
  "1652": "95",
  "1653": " find",
  "1654": "ä",
  "1655": " sim",
  "1656": "67",
  "1657": "ward",
  "1658": " back",
  "1659": " result",
  "1660": " کی",
  "1661": "alth",
  "1662": " é",
  "1663": "تي",
  "1664": "�്ക",
  "1665": "ina",
  "1666": " >",
  "1667": "بد",
  "1668": "ows",
  "1669": "ause",
  "1670": "lar",
  "1671": " الي",
  "1672": " list",
  "1673": " ed",
  "1674": "ited",
  "1675": "ब",
  "1676": "ئيس",
  "1677": "وا",
  "1678": "br",
  "1679": " স",
  "1680": " Ad",
  "1681": "af",
  "1682": " к",
  "1683": " کے",
  "1684": "ड",
  "1685": " two",
  "1686": " test",
  "1687": "att",
  "1688": "б",
  "1689": "che",
  "1690": " कर",
  "1691": " play",
  "1692": " For",
  "1693": "pp",
  "1694": " pol",
  "1695": "AN",
  "1696": "gram",
  "1697": "wn",
  "1698": " through",
  "1699": " से",
  "1700": " مص",
  "1701": " want",
  "1702": "ре",
  "1703": "riv",
  "1704": "حة",
  "1705": "ارات",
  "1706": "وع",
  "1707": "كت",
  "1708": "ক",
  "1709": " الث",
  "1710": "ado",
  "1711": " مس",
  "1712": " every",
  "1713": "########",
  "1714": ".\n\n",
  "1715": "uc",
  "1716": "ious",
  "1717": "ज",
  "1718": "در",
  "1719": " cr",
  "1720": "Wh",
  "1721": "ife",
  "1722": " after",
  "1723": " Pl",
  "1724": " لم",
  "1725": "\":{\"",
  "1726": "aking",
  "1727": " yang",
  "1728": "�",
  "1729": "ME",
  "1730": "ল",
  "1731": "ource",
  "1732": "                       ",
  "1733": "ider",
  "1734": " lo",
  "1735": " person",
  "1736": "uring",
  "1737": " sol",
  "1738": " she",
  "1739": "�",
  "1740": " المت",
  "1741": "earch",
  "1742": " ব",
  "1743": " very",
  "1744": " differ",
  "1745": "num",
  "1746": "ines",
  "1747": "جر",
  "1748": "cri",
  "1749": "++",
  "1750": "....",
  "1751": " med",
  "1752": " علي",
  "1753": "اة",
  "1754": " then",
  "1755": " men",
  "1756": "مال",
  "1757": "യ",
  "1758": " त",
  "1759": "AC",
  "1760": "ет",
  "1761": "ute",
  "1762": " know",
  "1763": "ذه",
  "1764": " مش",
  "1765": "دي",
  "1766": "في",
  "1767": " should",
  "1768": "urrent",
  "1769": "一",
  "1770": "ets",
  "1771": "ruct",
  "1772": "ces",
  "1773": " print",
  "1774": " start",
  "1775": "urs",
  "1776": "سم",
  "1777": "ustom",
  "1778": " ग",
  "1779": " end",
  "1780": "ars",
  "1781": "г",
  "1782": "ref",
  "1783": "ital",
  "1784": " product",
  "1785": "SE",
  "1786": "add",
  "1787": "peri",
  "1788": "land",
  "1789": "78",
  "1790": " ins",
  "1791": "uss",
  "1792": " down",
  "1793": "ren",
  "1794": " مت",
  "1795": " und",
  "1796": " {\"",
  "1797": " д",
  "1798": "ateg",
  "1799": " cre",
  "1800": "كل",
  "1801": "irect",
  "1802": "col",
  "1803": "span",
  "1804": "yp",
  "1805": " sign",
  "1806": "ux",
  "1807": "ton",
  "1808": "�",
  "1809": "عر",
  "1810": "aph",
  "1811": " er",
  "1812": "ude",
  "1813": "�",
  "1814": "51",
  "1815": "ের",
  "1816": "-s",
  "1817": " prof",
  "1818": ".s",
  "1819": "وي",
  "1820": "68",
  "1821": "ret",
  "1822": "atic",
  "1823": " ],\n",
  "1824": " read",
  "1825": "OR",
  "1826": "്ത",
  "1827": " ث",
  "1828": "اث",
  "1829": "هر",
  "1830": " __",
  "1831": "tic",
  "1832": "ger",
  "1833": "ол",
  "1834": "ouse",
  "1835": "ee",
  "1836": " good",
  "1837": "چ",
  "1838": "़",
  "1839": " online",
  "1840": "man",
  "1841": " used",
  "1842": "ino",
  "1843": " প",
  "1844": "fo",
  "1845": " उ",
  "1846": "))",
  "1847": " const",
  "1848": " du",
  "1849": "ality",
  "1850": " cor",
  "1851": "ique",
  "1852": " long",
  "1853": " don",
  "1854": "سي",
  "1855": "ट",
  "1856": " tem",
  "1857": " where",
  "1858": "-b",
  "1859": " right",
  "1860": "An",
  "1861": "ত",
  "1862": "DE",
  "1863": " Con",
  "1864": "ادة",
  "1865": " fr",
  "1866": "IC",
  "1867": " ext",
  "1868": " form",
  "1869": " vari",
  "1870": " years",
  "1871": " includ",
  "1872": "يرة",
  "1873": "ced",
  "1874": " ke",
  "1875": "_b",
  "1876": "cent",
  "1877": " كان",
  "1878": ";\n\n",
  "1879": " En",
  "1880": "https",
  "1881": " گ",
  "1882": " الله",
  "1883": " bel",
  "1884": "۔",
  "1885": "िक",
  "1886": "…",
  "1887": " der",
  "1888": "uf",
  "1889": "تص",
  "1890": "ized",
  "1891": " fil",
  "1892": "kan",
  "1893": "�",
  "1894": "ো",
  "1895": " اس",
  "1896": " On",
  "1897": "ivers",
  "1898": " great",
  "1899": "ym",
  "1900": "ta",
  "1901": "()\n",
  "1902": "ни",
  "1903": " ver",
  "1904": " Gr",
  "1905": "ব",
  "1906": " ض",
  "1907": "rol",
  "1908": "ón",
  "1909": "ample",
  "1910": " And",
  "1911": " such",
  "1912": "cept",
  "1913": " بعد",
  "1914": "”",
  "1915": "\\\\",
  "1916": "oid",
  "1917": "ollow",
  "1918": " sl",
  "1919": " هذا",
  "1920": "':",
  "1921": " system",
  "1922": "fore",
  "1923": " وم",
  "1924": "ament",
  "1925": " इ",
  "1926": "yle",
  "1927": "ю",
  "1928": " could",
  "1929": " भ",
  "1930": "org",
  "1931": "�",
  "1932": "ോ",
  "1933": "arm",
  "1934": "�",
  "1935": "قر",
  "1936": " Res",
  "1937": "Ch",
  "1938": "IT",
  "1939": "ument",
  "1940": "�र",
  "1941": "lease",
  "1942": "لب",
  "1943": " said",
  "1944": " cas",
  "1945": " Bl",
  "1946": " app",
  "1947": "�",
  "1948": " pag",
  "1949": " many",
  "1950": "52",
  "1951": " مو",
  "1952": "هد",
  "1953": "hor",
  "1954": "AB",
  "1955": "ٹ",
  "1956": " um",
  "1957": "ength",
  "1958": " dec",
  "1959": "hip",
  "1960": "طة",
  "1961": " now",
  "1962": ".m",
  "1963": " design",
  "1964": "ants",
  "1965": "cont",
  "1966": "ene",
  "1967": " പ",
  "1968": "Pro",
  "1969": "\"\"",
  "1970": "قال",
  "1971": "یک",
  "1972": " और",
  "1973": "alk",
  "1974": "ump",
  "1975": " free",
  "1976": "fe",
  "1977": "inal",
  "1978": "53",
  "1979": " المن",
  "1980": " If",
  "1981": "ম",
  "1982": "net",
  "1983": "ror",
  "1984": "OT",
  "1985": "work",
  "1986": " information",
  "1987": " gener",
  "1988": "69",
  "1989": "pon",
  "1990": " way",
  "1991": "ом",
  "1992": " ay",
  "1993": "ны",
  "1994": " develop",
  "1995": " market",
  "1996": "fig",
  "1997": "يز",
  "1998": "oh",
  "1999": " value",
  "2000": " X",
  "2001": "ency",
  "2002": "ati",
  "2003": " number",
  "2004": " vis",
  "2005": " business",
  "2006": "rain",
  "2007": "199",
  "2008": "ats",
  "2009": "ید",
  "2010": "oci",
  "2011": " بين",
  "2012": " null",
  "2013": "iy",
  "2014": "és",
  "2015": " dist",
  "2016": " using",
  "2017": "্র",
  "2018": "cond",
  "2019": "ثر",
  "2020": "ട",
  "2021": "ody",
  "2022": " cal",
  "2023": "وت",
  "2024": " see",
  "2025": "か",
  "2026": "но",
  "2027": " Be",
  "2028": " Pr",
  "2029": " --",
  "2030": "ween",
  "2031": "ica",
  "2032": "54",
  "2033": "ン",
  "2034": "ED",
  "2035": "data",
  "2036": "ush",
  "2037": " experi",
  "2038": "اك",
  "2039": "_in",
  "2040": "td",
  "2041": "'),\n",
  "2042": "ат",
  "2043": "од",
  "2044": "Id",
  "2045": " even",
  "2046": " die",
  "2047": "ം",
  "2048": " while",
  "2049": " مر",
  "2050": "other",
  "2051": "جم",
  "2052": " pass",
  "2053": " htt",
  "2054": " bir",
  "2055": "اري",
  "2056": "Com",
  "2057": " bec",
  "2058": "ral",
  "2059": "ives",
  "2060": ",'",
  "2061": " count",
  "2062": " ter",
  "2063": "89",
  "2064": "amb",
  "2065": " cap",
  "2066": "ाल",
  "2067": " pos",
  "2068": " name",
  "2069": "ит",
  "2070": " main",
  "2071": " المح",
  "2072": ".t",
  "2073": "�",
  "2074": "ever",
  "2075": "fr",
  "2076": "وز",
  "2077": "'re",
  "2078": "atur",
  "2079": "ology",
  "2080": " here",
  "2081": "ara",
  "2082": "79",
  "2083": " home",
  "2084": ".l",
  "2085": " fam",
  "2086": "ait",
  "2087": "ш",
  "2088": "أن",
  "2089": "date",
  "2090": "play",
  "2091": "AD",
  "2092": "uro",
  "2093": " false",
  "2094": "Tr",
  "2095": " إن",
  "2096": " м",
  "2097": " post",
  "2098": "way",
  "2099": "ор",
  "2100": "च",
  "2101": "�",
  "2102": "ote",
  "2103": "from",
  "2104": "فر",
  "2105": "خص",
  "2106": " @",
  "2107": " أي",
  "2108": "key",
  "2109": "ense",
  "2110": " مد",
  "2111": "ired",
  "2112": "্য",
  "2113": "chool",
  "2114": " day",
  "2115": "ailable",
  "2116": "كون",
  "2117": "print",
  "2118": "تح",
  "2119": " process",
  "2120": " gl",
  "2121": "ams",
  "2122": "�",
  "2123": " each",
  "2124": " Fr",
  "2125": "class",
  "2126": " sk",
  "2127": "come",
  "2128": "word",
  "2129": "�",
  "2130": " كل",
  "2131": " hand",
  "2132": " ए",
  "2133": "انية",
  "2134": "قل",
  "2135": " As",
  "2136": "comm",
  "2137": "Name",
  "2138": " य",
  "2139": " Te",
  "2140": "itle",
  "2141": "ml",
  "2142": "ц",
  "2143": "ु�",
  "2144": " much",
  "2145": "abel",
  "2146": " %",
  "2147": " dan",
  "2148": "っ",
  "2149": " does",
  "2150": "ason",
  "2151": "-m",
  "2152": " т",
  "2153": "Ex",
  "2154": "سر",
  "2155": " provid",
  "2156": "ours",
  "2157": "ually",
  "2158": "['",
  "2159": "><",
  "2160": " poss",
  "2161": "ato",
  "2162": "::",
  "2163": "son",
  "2164": "erg",
  "2165": "une",
  "2166": " top",
  "2167": " take",
  "2168": "ery",
  "2169": " effect",
  "2170": " पर",
  "2171": "den",
  "2172": "EN",
  "2173": "�",
  "2174": "ih",
  "2175": "も",
  "2176": " sit",
  "2177": " different",
  "2178": "്ട",
  "2179": "umn",
  "2180": "是",
  "2181": ".,",
  "2182": "وان",
  "2183": " between",
  "2184": "ел",
  "2185": "for",
  "2186": " else",
  "2187": " का",
  "2188": "Type",
  "2189": "्त",
  "2190": "We",
  "2191": "version",
  "2192": "كة",
  "2193": " میں",
  "2194": "ideo",
  "2195": "ters",
  "2196": "ape",
  "2197": " own",
  "2198": "\"}",
  "2199": " وه",
  "2200": "�",
  "2201": "ama",
  "2202": "500",
  "2203": " на",
  "2204": " met",
  "2205": " dem",
  "2206": "ж",
  "2207": "Un",
  "2208": ".c",
  "2209": "മ",
  "2210": " Ind",
  "2211": "ولة",
  "2212": "り",
  "2213": "la",
  "2214": " ക",
  "2215": " non",
  "2216": "RO",
  "2217": "�",
  "2218": "over",
  "2219": "য়",
  "2220": "asy",
  "2221": "_name",
  "2222": " प्र",
  "2223": " world",
  "2224": "por",
  "2225": "imes",
  "2226": "oin",
  "2227": "ای",
  "2228": "Ar",
  "2229": "ole",
  "2230": " ...",
  "2231": " Ph",
  "2232": " All",
  "2233": "dd",
  "2234": " cent",
  "2235": "�",
  "2236": " incre",
  "2237": "ning",
  "2238": "64",
  "2239": "_C",
  "2240": "reg",
  "2241": "نس",
  "2242": "േ",
  "2243": "وقع",
  "2244": "ved",
  "2245": " Man",
  "2246": "riend",
  "2247": "�",
  "2248": " real",
  "2249": "آ",
  "2250": " To",
  "2251": ".j",
  "2252": "وات",
  "2253": "aj",
  "2254": "ior",
  "2255": " سي",
  "2256": " تم",
  "2257": "conom",
  "2258": "uck",
  "2259": "�",
  "2260": " again",
  "2261": "ê",
  "2262": "ser",
  "2263": " US",
  "2264": "人",
  "2265": "�",
  "2266": "ien",
  "2267": " اله",
  "2268": "ision",
  "2269": " ele",
  "2270": " quest",
  "2271": "EC",
  "2272": " week",
  "2273": "�",
  "2274": "start",
  "2275": "\n\n\n",
  "2276": " bo",
  "2277": "pend",
  "2278": "ില",
  "2279": "ince",
  "2280": "ness",
  "2281": "ault",
  "2282": "ورة",
  "2283": " أم",
  "2284": " char",
  "2285": " هذه",
  "2286": "�",
  "2287": "'\n",
  "2288": "ür",
  "2289": "دا",
  "2290": " جم",
  "2291": "ross",
  "2292": "ер",
  "2293": " support",
  "2294": " cle",
  "2295": "ization",
  "2296": "ും",
  "2297": "='",
  "2298": "This",
  "2299": "urch",
  "2300": " partic",
  "2301": "�",
  "2302": "www",
  "2303": "ريق",
  "2304": "ium",
  "2305": " program",
  "2306": "ión",
  "2307": " show",
  "2308": "akes",
  "2309": "ivid",
  "2310": "ots",
  "2311": " mat",
  "2312": "))\n",
  "2313": " ],",
  "2314": "ism",
  "2315": " because",
  "2316": "_n",
  "2317": " public",
  "2318": "En",
  "2319": " son",
  "2320": "url",
  "2321": " custom",
  "2322": "ান",
  "2323": "ог",
  "2324": "ccess",
  "2325": " الذي",
  "2326": " before",
  "2327": "-f",
  "2328": " techn",
  "2329": "less",
  "2330": "سارة",
  "2331": " point",
  "2332": "رق",
  "2333": "wh",
  "2334": "It",
  "2335": "Cl",
  "2336": "ales",
  "2337": " والم",
  "2338": "\".",
  "2339": "ron",
  "2340": "كم",
  "2341": "uy",
  "2342": "US",
  "2343": " هو",
  "2344": "اعة",
  "2345": "60",
  "2346": "خبار",
  "2347": "gin",
  "2348": "طل",
  "2349": "arget",
  "2350": "ais",
  "2351": " unt",
  "2352": "AS",
  "2353": " made",
  "2354": "ather",
  "2355": " run",
  "2356": "ential",
  "2357": "افة",
  "2358": " //",
  "2359": " equ",
  "2360": " invest",
  "2361": " lead",
  "2362": "\t\t\t",
  "2363": "ware",
  "2364": " আ",
  "2365": "ал",
  "2366": " Sp",
  "2367": " did",
  "2368": "ള",
  "2369": " follow",
  "2370": " last",
  "2371": "يب",
  "2372": " এ",
  "2373": " ہے",
  "2374": "the",
  "2375": "ared",
  "2376": "bers",
  "2377": "ified",
  "2378": "�",
  "2379": ".n",
  "2380": "->",
  "2381": "ically",
  "2382": "001",
  "2383": " mag",
  "2384": "ana",
  "2385": " च",
  "2386": " श",
  "2387": " ev",
  "2388": ".S",
  "2389": "れ",
  "2390": " si",
  "2391": "رض",
  "2392": " How",
  "2393": "う",
  "2394": "ists",
  "2395": " por",
  "2396": " pour",
  "2397": " пр",
  "2398": " anal",
  "2399": " يع",
  "2400": "ী",
  "2401": " appro",
  "2402": "',\n",
  "2403": " fact",
  "2404": "ربية",
  "2405": " pay",
  "2406": " offer",
  "2407": "ences",
  "2408": "ety",
  "2409": "ित",
  "2410": "right",
  "2411": " Or",
  "2412": "atus",
  "2413": "ION",
  "2414": "ills",
  "2415": " service",
  "2416": " place",
  "2417": "���",
  "2418": "-c",
  "2419": " being",
  "2420": " opt",
  "2421": " dr",
  "2422": " oper",
  "2423": "ify",
  "2424": "�",
  "2425": "िल",
  "2426": "ott",
  "2427": "za",
  "2428": "ems",
  "2429": "duct",
  "2430": "وك",
  "2431": "یر",
  "2432": "off",
  "2433": " bre",
  "2434": " him",
  "2435": "الة",
  "2436": " rest",
  "2437": " از",
  "2438": " വ",
  "2439": "')\n",
  "2440": " adv",
  "2441": " المو",
  "2442": "ane",
  "2443": "不",
  "2444": "}\n\n",
  "2445": " Is",
  "2446": " una",
  "2447": "']",
  "2448": "press",
  "2449": "വ",
  "2450": " commun",
  "2451": " ut",
  "2452": "NULL",
  "2453": "((",
  "2454": " los",
  "2455": "med",
  "2456": " found",
  "2457": "在",
  "2458": "شار",
  "2459": " ম",
  "2460": "الي",
  "2461": "========",
  "2462": "نية",
  "2463": " اليوم",
  "2464": " method",
  "2465": " month",
  "2466": "ability",
  "2467": "ET",
  "2468": "�",
  "2469": "ploy",
  "2470": "80",
  "2471": "ini",
  "2472": "�",
  "2473": "ら",
  "2474": "ele",
  "2475": "df",
  "2476": "cription",
  "2477": "à",
  "2478": "75",
  "2479": " ess",
  "2480": "pres",
  "2481": "import",
  "2482": "by",
  "2483": "rem",
  "2484": "স",
  "2485": "orth",
  "2486": " review",
  "2487": " organ",
  "2488": " som",
  "2489": "ركة",
  "2490": " order",
  "2491": "oney",
  "2492": "от",
  "2493": " cost",
  "2494": " عام",
  "2495": "يث",
  "2496": " हैं",
  "2497": "്ര",
  "2498": "्ट",
  "2499": "िए",
  "2500": "ção",
  "2501": "ocial",
  "2502": "ails",
  "2503": " System",
  "2504": "iver",
  "2505": "�",
  "2506": "FA",
  "2507": " available",
  "2508": "sw",
  "2509": "ത്ത",
  "2510": "تع",
  "2511": "bin",
  "2512": " Col",
  "2513": " cho",
  "2514": "`,",
  "2515": " No",
  "2516": ".g",
  "2517": " key",
  "2518": " both",
  "2519": " current",
  "2520": " تق",
  "2521": ".d",
  "2522": "ili",
  "2523": " تن",
  "2524": " کر",
  "2525": " الأم",
  "2526": "ात",
  "2527": "\")\n",
  "2528": " open",
  "2529": " log",
  "2530": "itions",
  "2531": " الز",
  "2532": "code",
  "2533": " الغ",
  "2534": "ca",
  "2535": "ени",
  "2536": " report",
  "2537": "�",
  "2538": "ita",
  "2539": "tain",
  "2540": " perform",
  "2541": "mp",
  "2542": ".org",
  "2543": " care",
  "2544": "ء",
  "2545": " health",
  "2546": "sub",
  "2547": " हो",
  "2548": " type",
  "2549": " خلال",
  "2550": " contin",
  "2551": "ır",
  "2552": " !",
  "2553": " life",
  "2554": " model",
  "2555": " those",
  "2556": " б",
  "2557": "有",
  "2558": " )",
  "2559": "ERT",
  "2560": " pop",
  "2561": "agement",
  "2562": "cho",
  "2563": "lex",
  "2564": " dev",
  "2565": "عم",
  "2566": " العام",
  "2567": "lection",
  "2568": "bo",
  "2569": " site",
  "2570": "yl",
  "2571": "راء",
  "2572": " സ",
  "2573": " وج",
  "2574": " same",
  "2575": "itch",
  "2576": " level",
  "2577": "ished",
  "2578": "يك",
  "2579": "iron",
  "2580": "ze",
  "2581": "ione",
  "2582": "िया",
  "2583": "ante",
  "2584": "aa",
  "2585": "aper",
  "2586": " book",
  "2587": " true",
  "2588": " Mar",
  "2589": "IS",
  "2590": "Con",
  "2591": "ores",
  "2592": "।\n",
  "2593": "enn",
  "2594": " وب",
  "2595": " ann",
  "2596": " More",
  "2597": "�",
  "2598": "ito",
  "2599": " dé",
  "2600": "ता",
  "2601": "ti",
  "2602": "stand",
  "2603": "こ",
  "2604": " INT",
  "2605": " function",
  "2606": "قت",
  "2607": "�",
  "2608": "ici",
  "2609": "�",
  "2610": " prote",
  "2611": " range",
  "2612": " اور",
  "2613": " old",
  "2614": "�",
  "2615": "ой",
  "2616": " company",
  "2617": " تص",
  "2618": " ين",
  "2619": "�",
  "2620": "aterial",
  "2621": " أك",
  "2622": " check",
  "2623": "irl",
  "2624": " المس",
  "2625": "IL",
  "2626": " وس",
  "2627": " webs",
  "2628": " _",
  "2629": "-d",
  "2630": " game",
  "2631": "ply",
  "2632": "تف",
  "2633": " Qu",
  "2634": " cond",
  "2635": "عض",
  "2636": " بل",
  "2637": "omen",
  "2638": "عب",
  "2639": "中",
  "2640": " �",
  "2641": "iter",
  "2642": " مط",
  "2643": "gen",
  "2644": " proble",
  "2645": "ke",
  "2646": "大",
  "2647": ".get",
  "2648": "ano",
  "2649": " Br",
  "2650": "file",
  "2651": "صر",
  "2652": "uh",
  "2653": " think",
  "2654": "ല",
  "2655": " ने",
  "2656": "ional",
  "2657": "ിയ",
  "2658": "ister",
  "2659": " None",
  "2660": "iment",
  "2661": " disc",
  "2662": " Cont",
  "2663": " وز",
  "2664": "كان",
  "2665": "raw",
  "2666": " হ",
  "2667": "ALU",
  "2668": "requ",
  "2669": "عود",
  "2670": " ein",
  "2671": "rop",
  "2672": "user",
  "2673": "جل",
  "2674": " ام",
  "2675": " experience",
  "2676": "ards",
  "2677": "cul",
  "2678": "ाम",
  "2679": "{\\",
  "2680": "90",
  "2681": "وى",
  "2682": "      ",
  "2683": " head",
  "2684": " child",
  "2685": "UR",
  "2686": " اب",
  "2687": "rite",
  "2688": "[i",
  "2689": "�",
  "2690": " مخ",
  "2691": " ন",
  "2692": "ليم",
  "2693": "-p",
  "2694": "ertain",
  "2695": "حن",
  "2696": "acy",
  "2697": "\":[",
  "2698": " direct",
  "2699": "].",
  "2700": "oot",
  "2701": "ando",
  "2702": "ന",
  "2703": " aff",
  "2704": "vert",
  "2705": " line",
  "2706": "rist",
  "2707": "وية",
  "2708": "ही",
  "2709": "ights",
  "2710": " say",
  "2711": " می",
  "2712": " المر",
  "2713": " ris",
  "2714": "ണ",
  "2715": "ember",
  "2716": "iversity",
  "2717": " around",
  "2718": " CO",
  "2719": " इस",
  "2720": "وں",
  "2721": "ought",
  "2722": "atures",
  "2723": " ben",
  "2724": " بد",
  "2725": "kt",
  "2726": "ender",
  "2727": " اخ",
  "2728": " അ",
  "2729": " small",
  "2730": "ission",
  "2731": " Na",
  "2732": "на",
  "2733": "-l",
  "2734": " come",
  "2735": "تب",
  "2736": "ध",
  "2737": "istr",
  "2738": "ream",
  "2739": "َ",
  "2740": "eter",
  "2741": " mus",
  "2742": " view",
  "2743": "][",
  "2744": "ctor",
  "2745": " qui",
  "2746": "ining",
  "2747": "ス",
  "2748": "िस",
  "2749": "test",
  "2750": "opy",
  "2751": "div",
  "2752": "65",
  "2753": "alt",
  "2754": " Am",
  "2755": "arr",
  "2756": "book",
  "2757": " build",
  "2758": "く",
  "2759": " prom",
  "2760": "CC",
  "2761": "ां",
  "2762": " ol",
  "2763": " let",
  "2764": " file",
  "2765": " try",
  "2766": "ipp",
  "2767": "do",
  "2768": "فس",
  "2769": "odel",
  "2770": " rece",
  "2771": " مست",
  "2772": " resp",
  "2773": "arge",
  "2774": " during",
  "2775": " ന",
  "2776": " ide",
  "2777": " کو",
  "2778": " تر",
  "2779": "ories",
  "2780": " cour",
  "2781": "بح",
  "2782": " must",
  "2783": " بم",
  "2784": "ks",
  "2785": " stand",
  "2786": "اذ",
  "2787": " \\\"",
  "2788": " з",
  "2789": "ना",
  "2790": " العالم",
  "2791": " including",
  "2792": "go",
  "2793": "了",
  "2794": " days",
  "2795": " المع",
  "2796": "ways",
  "2797": "INS",
  "2798": " sex",
  "2799": " iss",
  "2800": " consider",
  "2801": "icy",
  "2802": " big",
  "2803": "طر",
  "2804": "أس",
  "2805": " يم",
  "2806": " Ap",
  "2807": "'ll",
  "2808": " services",
  "2809": "002",
  "2810": "ск",
  "2811": " മ",
  "2812": "ün",
  "2813": " |\n",
  "2814": "iqu",
  "2815": "iles",
  "2816": "AAAA",
  "2817": " كسارة",
  "2818": ".\"",
  "2819": "Sh",
  "2820": "uff",
  "2821": "aster",
  "2822": " art",
  "2823": "ains",
  "2824": "تد",
  "2825": " Des",
  "2826": "ाय",
  "2827": "إن",
  "2828": " activ",
  "2829": " term",
  "2830": " Cent",
  "2831": "                           ",
  "2832": " second",
  "2833": " بح",
  "2834": " ذلك",
  "2835": "):",
  "2836": "outh",
  "2837": " الان",
  "2838": "PP",
  "2839": " سے",
  "2840": "\\\":",
  "2841": " present",
  "2842": "فض",
  "2843": "ли",
  "2844": " without",
  "2845": "های",
  "2846": "70",
  "2847": "iving",
  "2848": "�",
  "2849": "oto",
  "2850": "._",
  "2851": " grow",
  "2852": "یا",
  "2853": " three",
  "2854": "--------------------------------",
  "2855": "ينة",
  "2856": "untime",
  "2857": "umm",
  "2858": "IM",
  "2859": "ابة",
  "2860": " Eng",
  "2861": " With",
  "2862": "198",
  "2863": " أس",
  "2864": "��",
  "2865": "_r",
  "2866": " �",
  "2867": " مق",
  "2868": " project",
  "2869": "CT",
  "2870": "ves",
  "2871": "met",
  "2872": " within",
  "2873": "له",
  "2874": "UT",
  "2875": " addition",
  "2876": " access",
  "2877": "icro",
  "2878": "لات",
  "2879": " really",
  "2880": "fect",
  "2881": "room",
  "2882": " কর",
  "2883": "OS",
  "2884": " INTO",
  "2885": "raph",
  "2886": "ui",
  "2887": " mill",
  "2888": "ico",
  "2889": " next",
  "2890": " sing",
  "2891": "ー�",
  "2892": " tri",
  "2893": " applic",
  "2894": " power",
  "2895": "Le",
  "2896": "�",
  "2897": "pecial",
  "2898": " call",
  "2899": " expl",
  "2900": " price",
  "2901": " une",
  "2902": "ule",
  "2903": "na",
  "2904": "itor",
  "2905": "ugg",
  "2906": "ന്ന",
  "2907": " ref",
  "2908": " leg",
  "2909": "INSERT",
  "2910": "NA",
  "2911": "്പ",
  "2912": "ALUES",
  "2913": " fac",
  "2914": "aff",
  "2915": " arg",
  "2916": " den",
  "2917": "ones",
  "2918": " full",
  "2919": " trad",
  "2920": "دد",
  "2921": "مان",
  "2922": "ift",
  "2923": "********",
  "2924": " eng",
  "2925": " pot",
  "2926": " learn",
  "2927": "false",
  "2928": " size",
  "2929": " ç",
  "2930": " فى",
  "2931": " المست",
  "2932": "ases",
  "2933": " provide",
  "2934": " দ",
  "2935": " ber",
  "2936": " mult",
  "2937": "“",
  "2938": " Amer",
  "2939": " التع",
  "2940": "_st",
  "2941": " writ",
  "2942": "ся",
  "2943": " local",
  "2944": " у",
  "2945": " pat",
  "2946": "Col",
  "2947": "്യ",
  "2948": " هي",
  "2949": " Sup",
  "2950": "ます",
  "2951": " pas",
  "2952": " important",
  "2953": " So",
  "2954": "cur",
  "2955": "uz",
  "2956": "inc",
  "2957": " لت",
  "2958": "ضا",
  "2959": "بيع",
  "2960": "back",
  "2961": "acter",
  "2962": "ുന്ന",
  "2963": "etwork",
  "2964": " vol",
  "2965": " Pol",
  "2966": ".\"\n",
  "2967": "ha",
  "2968": "-M",
  "2969": "irt",
  "2970": " ات",
  "2971": " عبد",
  "2972": " os",
  "2973": "щ",
  "2974": "perty",
  "2975": " team",
  "2976": " job",
  "2977": "iven",
  "2978": "സ",
  "2979": "Val",
  "2980": " الأس",
  "2981": "no",
  "2982": " account",
  "2983": " با",
  "2984": "ster",
  "2985": "ference",
  "2986": "init",
  "2987": "},\n",
  "2988": " case",
  "2989": "return",
  "2990": "bre",
  "2991": " dans",
  "2992": "http",
  "2993": "نع",
  "2994": "يان",
  "2995": " Fl",
  "2996": "ثل",
  "2997": "aving",
  "2998": " للم",
  "2999": "viron",
  "3000": " There",
  "3001": "Al",
  "3002": " interest",
  "3003": "ume",
  "3004": "AM",
  "3005": "och",
  "3006": "ئة",
  "3007": "用",
  "3008": "�",
  "3009": "�",
  "3010": "'ve",
  "3011": "ん",
  "3012": " keep",
  "3013": "�",
  "3014": " They",
  "3015": " एक",
  "3016": " Comm",
  "3017": "الية",
  "3018": "ero",
  "3019": " \"\"",
  "3020": " still",
  "3021": " السي",
  "3022": "-t",
  "3023": "/p",
  "3024": "ips",
  "3025": "85",
  "3026": "abil",
  "3027": "300",
  "3028": " عمل",
  "3029": " conf",
  "3030": "ittle",
  "3031": "റ",
  "3032": "പ",
  "3033": " “",
  "3034": "LT",
  "3035": "essage",
  "3036": "CE",
  "3037": "'m",
  "3038": " mar",
  "3039": " تج",
  "3040": " بش",
  "3041": "جة",
  "3042": "صف",
  "3043": "api",
  "3044": "(\n",
  "3045": " lim",
  "3046": " ago",
  "3047": "�",
  "3048": "\\+",
  "3049": "�",
  "3050": " أب",
  "3051": " چ",
  "3052": "্ত",
  "3053": " Med",
  "3054": "تها",
  "3055": "head",
  "3056": " NaN",
  "3057": " کہ",
  "3058": "�",
  "3059": "adi",
  "3060": "hr",
  "3061": "ird",
  "3062": ");",
  "3063": "Se",
  "3064": " room",
  "3065": "ries",
  "3066": " love",
  "3067": "يه",
  "3068": "ем",
  "3069": "ായ",
  "3070": "ley",
  "3071": " يت",
  "3072": " But",
  "3073": "ella",
  "3074": " video",
  "3075": "Pr",
  "3076": " cell",
  "3077": " water",
  "3078": "ala",
  "3079": " state",
  "3080": "ड़",
  "3081": "्व",
  "3082": " —",
  "3083": " थ",
  "3084": " فر",
  "3085": " VALUES",
  "3086": " mov",
  "3087": " Me",
  "3088": " friend",
  "3089": "ак",
  "3090": "ée",
  "3091": "تى",
  "3092": "thing",
  "3093": " الرئيس",
  "3094": "ags",
  "3095": "}}",
  "3096": "itive",
  "3097": " website",
  "3098": "श",
  "3099": " imp",
  "3100": "िन",
  "3101": "____",
  "3102": " قد",
  "3103": "イ",
  "3104": "List",
  "3105": " اح",
  "3106": " las",
  "3107": "\\/",
  "3108": "يين",
  "3109": " Serv",
  "3110": " وي",
  "3111": "�",
  "3112": "ulation",
  "3113": "�്�",
  "3114": " الآ",
  "3115": " going",
  "3116": " La",
  "3117": "oud",
  "3118": " id",
  "3119": "aring",
  "3120": " plus",
  "3121": " sem",
  "3122": "cle",
  "3123": " المج",
  "3124": " محمد",
  "3125": " results",
  "3126": "زة",
  "3127": "سة",
  "3128": "72",
  "3129": "ined",
  "3130": " few",
  "3131": "lı",
  "3132": " control",
  "3133": "action",
  "3134": " ত",
  "3135": "var",
  "3136": " تو",
  "3137": " area",
  "3138": "CA",
  "3139": " Gu",
  "3140": "nect",
  "3141": "خل",
  "3142": " pa",
  "3143": " products",
  "3144": ".f",
  "3145": " قبل",
  "3146": " اع",
  "3147": "150",
  "3148": "asi",
  "3149": "ites",
  "3150": " tot",
  "3151": "ادي",
  "3152": "rc",
  "3153": "ples",
  "3154": "き",
  "3155": "প",
  "3156": " له",
  "3157": "ponse",
  "3158": "era",
  "3159": " المص",
  "3160": " indust",
  "3161": "/w",
  "3162": "上",
  "3163": " happ",
  "3164": "To",
  "3165": " May",
  "3166": " ار",
  "3167": "place",
  "3168": " family",
  "3169": " फ",
  "3170": " port",
  "3171": " spe",
  "3172": "اسة",
  "3173": " Car",
  "3174": "aps",
  "3175": "�",
  "3176": "(s",
  "3177": " DE",
  "3178": " الاست",
  "3179": "দ",
  "3180": "################",
  "3181": "حر",
  "3182": "ables",
  "3183": "كس",
  "3184": " She",
  "3185": "ula",
  "3186": " الدول",
  "3187": " better",
  "3188": "ancial",
  "3189": "ords",
  "3190": " ou",
  "3191": "്ച",
  "3192": " Co",
  "3193": "ribut",
  "3194": "ividual",
  "3195": " ...\n",
  "3196": "اير",
  "3197": "ീ",
  "3198": "You",
  "3199": "101",
  "3200": "ali",
  "3201": " ख",
  "3202": " exp",
  "3203": " Can",
  "3204": "ाद",
  "3205": " au",
  "3206": "�",
  "3207": "irm",
  "3208": "120",
  "3209": "cer",
  "3210": "=\\\"",
  "3211": "�",
  "3212": "भ",
  "3213": " وف",
  "3214": "></",
  "3215": " Ab",
  "3216": "ances",
  "3217": " looking",
  "3218": "obal",
  "3219": "Ob",
  "3220": "�",
  "3221": " که",
  "3222": " buy",
  "3223": "ager",
  "3224": "197",
  "3225": "mber",
  "3226": "74",
  "3227": " put",
  "3228": "قط",
  "3229": " bas",
  "3230": "icht",
  "3231": " based",
  "3232": " research",
  "3233": "ക",
  "3234": "On",
  "3235": " create",
  "3236": "خدم",
  "3237": "ille",
  "3238": " تس",
  "3239": " study",
  "3240": " table",
  "3241": "81",
  "3242": "وة",
  "3243": "ands",
  "3244": "لية",
  "3245": "unction",
  "3246": " exc",
  "3247": " Sc",
  "3248": " कि",
  "3249": " feel",
  "3250": "ypes",
  "3251": " special",
  "3252": "po",
  "3253": " group",
  "3254": "ros",
  "3255": "ট",
  "3256": " might",
  "3257": "ently",
  "3258": "pre",
  "3259": "use",
  "3260": "acc",
  "3261": "قات",
  "3262": "ysis",
  "3263": "েন",
  "3264": " не",
  "3265": " وع",
  "3266": "inter",
  "3267": " impro",
  "3268": "If",
  "3269": "De",
  "3270": " این",
  "3271": "alam",
  "3272": " ear",
  "3273": "ई",
  "3274": " Ass",
  "3275": "さ",
  "3276": "82",
  "3277": " بت",
  "3278": " hum",
  "3279": " Im",
  "3280": " quality",
  "3281": " Intern",
  "3282": "(n",
  "3283": "61",
  "3284": "ATE",
  "3285": "ports",
  "3286": "ريك",
  "3287": " را",
  "3288": " http",
  "3289": "aya",
  "3290": " hard",
  "3291": " lot",
  "3292": " sure",
  "3293": "idth",
  "3294": "CO",
  "3295": "�",
  "3296": " लिए",
  "3297": " hist",
  "3298": " money",
  "3299": " too",
  "3300": "ائي",
  "3301": "امل",
  "3302": " u",
  "3303": "CH",
  "3304": "ively",
  "3305": "ately",
  "3306": "As",
  "3307": "verage",
  "3308": " expect",
  "3309": "ida",
  "3310": "ан",
  "3311": "して",
  "3312": "Cont",
  "3313": "lete",
  "3314": "شف",
  "3315": "ト",
  "3316": "yd",
  "3317": "�",
  "3318": " user",
  "3319": " ___",
  "3320": "ومة",
  "3321": " less",
  "3322": " hot",
  "3323": " University",
  "3324": " ?",
  "3325": " NOT",
  "3326": " Che",
  "3327": " material",
  "3328": " جديد",
  "3329": "ते",
  "3330": "�",
  "3331": " chang",
  "3332": " الجم",
  "3333": "73",
  "3334": "ification",
  "3335": " غير",
  "3336": " Go",
  "3337": " \"$",
  "3338": "_type",
  "3339": "item",
  "3340": " max",
  "3341": " يح",
  "3342": " المد",
  "3343": " text",
  "3344": "IG",
  "3345": "(m",
  "3346": "�",
  "3347": "ास",
  "3348": "84",
  "3349": "Str",
  "3350": "یم",
  "3351": "erc",
  "3352": "دام",
  "3353": " تش",
  "3354": "!!",
  "3355": " سب",
  "3356": "83",
  "3357": "ibr",
  "3358": "ogle",
  "3359": "ذلك",
  "3360": "年",
  "3361": "400",
  "3362": "ache",
  "3363": "rel",
  "3364": "ريد",
  "3365": "あ",
  "3366": "anks",
  "3367": "He",
  "3368": " style",
  "3369": " treat",
  "3370": "ram",
  "3371": "�",
  "3372": " ч",
  "3373": "ids",
  "3374": " profession",
  "3375": "IR",
  "3376": "AG",
  "3377": "ides",
  "3378": "_P",
  "3379": "出",
  "3380": "roll",
  "3381": "ura",
  "3382": " ",
  "3383": "ka",
  "3384": " content",
  "3385": "engan",
  "3386": "lish",
  "3387": "93",
  "3388": "angu",
  "3389": "وار",
  "3390": "obile",
  "3391": " رئيس",
  "3392": " کا",
  "3393": " link",
  "3394": " يوم",
  "3395": "akan",
  "3396": "ण",
  "3397": "idad",
  "3398": "63",
  "3399": "joy",
  "3400": "الب",
  "3401": " Aut",
  "3402": "�",
  "3403": "artment",
  "3404": "DD",
  "3405": "����",
  "3406": "�",
  "3407": "ling",
  "3408": " مل",
  "3409": "ba",
  "3410": "صول",
  "3411": " At",
  "3412": "ftware",
  "3413": " contact",
  "3414": "ources",
  "3415": "ിക്ക",
  "3416": "اغ",
  "3417": " ident",
  "3418": " meng",
  "3419": " يمكن",
  "3420": " since",
  "3421": " भी",
  "3422": "/s",
  "3423": "يج",
  "3424": "–",
  "3425": "يش",
  "3426": "leg",
  "3427": "Res",
  "3428": " elect",
  "3429": "log",
  "3430": "opt",
  "3431": " low",
  "3432": " social",
  "3433": "ouble",
  "3434": "ڈ",
  "3435": " search",
  "3436": " mach",
  "3437": " always",
  "3438": "itter",
  "3439": " priv",
  "3440": " العمل",
  "3441": " school",
  "3442": "ائية",
  "3443": "ourn",
  "3444": " ..",
  "3445": "aces",
  "3446": "ación",
  "3447": "gu",
  "3448": "ury",
  "3449": " np",
  "3450": " Off",
  "3451": " redu",
  "3452": "otal",
  "3453": " ]",
  "3454": " ('",
  "3455": "ception",
  "3456": "},\"",
  "3457": " little",
  "3458": "vious",
  "3459": " Read",
  "3460": "mas",
  "3461": "tegr",
  "3462": "ए",
  "3463": "not",
  "3464": "ja",
  "3465": " News",
  "3466": "ering",
  "3467": "以",
  "3468": " অ",
  "3469": " appe",
  "3470": "_T",
  "3471": " plan",
  "3472": "�",
  "3473": " Dis",
  "3474": " event",
  "3475": "об",
  "3476": " \"\"\"\n",
  "3477": " عند",
  "3478": "71",
  "3479": " كما",
  "3480": " ول",
  "3481": "62",
  "3482": "94",
  "3483": " individual",
  "3484": "بن",
  "3485": "اقتص",
  "3486": " پر",
  "3487": " قال",
  "3488": " Inst",
  "3489": "قا",
  "3490": "ظر",
  "3491": "apt",
  "3492": " left",
  "3493": "री",
  "3494": " page",
  "3495": "个",
  "3496": "Pl",
  "3497": " web",
  "3498": "ثير",
  "3499": "py",
  "3500": "اريخ",
  "3501": " ré",
  "3502": "وض",
  "3503": "Get",
  "3504": " give",
  "3505": " «",
  "3506": "null",
  "3507": " able",
  "3508": " Ste",
  "3509": "91",
  "3510": "ッ",
  "3511": "-in",
  "3512": "ств",
  "3513": "abor",
  "3514": "ney",
  "3515": "ेश",
  "3516": "ican",
  "3517": "日",
  "3518": " gen",
  "3519": "حدة",
  "3520": "ка",
  "3521": "args",
  "3522": "�",
  "3523": "XFF",
  "3524": "—",
  "3525": "order",
  "3526": " sever",
  "3527": "EM",
  "3528": " يق",
  "3529": "iction",
  "3530": "men",
  "3531": "Read",
  "3532": " sw",
  "3533": ").\n",
  "3534": "он",
  "3535": " things",
  "3536": "\u0000\u0000",
  "3537": " Par",
  "3538": "です",
  "3539": "ued",
  "3540": " مصر",
  "3541": " ge",
  "3542": "के",
  "3543": "ohn",
  "3544": " house",
  "3545": " Per",
  "3546": " turn",
  "3547": " Do",
  "3548": "plement",
  "3549": " enc",
  "3550": " المش",
  "3551": "فت",
  "3552": "elle",
  "3553": "ങ്�",
  "3554": "ido",
  "3555": " change",
  "3556": "AP",
  "3557": " [-",
  "3558": "ograph",
  "3559": " Em",
  "3560": " bro",
  "3561": " following",
  "3562": "array",
  "3563": "emb",
  "3564": "ñ",
  "3565": "vironment",
  "3566": " air",
  "3567": "Time",
  "3568": "fd",
  "3569": "vern",
  "3570": "ente",
  "3571": " ens",
  "3572": " عليه",
  "3573": "atform",
  "3574": " email",
  "3575": "İ",
  "3576": " won",
  "3577": " large",
  "3578": "ظة",
  "3579": " ولا",
  "3580": "क्�",
  "3581": "�",
  "3582": "vol",
  "3583": "ربي",
  "3584": " Dr",
  "3585": "iod",
  "3586": "ركز",
  "3587": "unt",
  "3588": " г",
  "3589": "ौ",
  "3590": "BD",
  "3591": "By",
  "3592": " dri",
  "3593": "وري",
  "3594": "�",
  "3595": " ü",
  "3596": "111",
  "3597": "iginal",
  "3598": "行",
  "3599": "�",
  "3600": "html",
  "3601": " body",
  "3602": " untuk",
  "3603": " Ne",
  "3604": " وح",
  "3605": "ething",
  "3606": "this",
  "3607": " prim",
  "3608": " another",
  "3609": "ൽ",
  "3610": "ॉ",
  "3611": " Your",
  "3612": " والت",
  "3613": " »",
  "3614": "ural",
  "3615": "present",
  "3616": "des",
  "3617": " ist",
  "3618": "وني",
  "3619": "ination",
  "3620": " href",
  "3621": "ended",
  "3622": "ла",
  "3623": " dig",
  "3624": " making",
  "3625": "ructure",
  "3626": "ormal",
  "3627": " قر",
  "3628": "92",
  "3629": "ND",
  "3630": "ention",
  "3631": "ос",
  "3632": " lik",
  "3633": " El",
  "3634": "OD",
  "3635": "和",
  "3636": "�",
  "3637": "：",
  "3638": "�",
  "3639": " signific",
  "3640": "�",
  "3641": " dat",
  "3642": "index",
  "3643": "idence",
  "3644": " today",
  "3645": "ules",
  "3646": " meet",
  "3647": " allow",
  "3648": " mas",
  "3649": "icial",
  "3650": "cover",
  "3651": "ú",
  "3652": " জ",
  "3653": "BA",
  "3654": "�",
  "3655": " occ",
  "3656": " success",
  "3657": "CD",
  "3658": "110",
  "3659": " das",
  "3660": "ाज",
  "3661": " step",
  "3662": " easy",
  "3663": "ols",
  "3664": "ого",
  "3665": " عل",
  "3666": " sal",
  "3667": " Reg",
  "3668": "jor",
  "3669": "aş",
  "3670": "face",
  "3671": "رس",
  "3672": " near",
  "3673": " artic",
  "3674": "oo",
  "3675": "imal",
  "3676": "itial",
  "3677": " employ",
  "3678": " وك",
  "3679": " beh",
  "3680": " include",
  "3681": "ру",
  "3682": " ask",
  "3683": "って",
  "3684": " mom",
  "3685": "ett",
  "3686": "ados",
  "3687": "ocument",
  "3688": " benef",
  "3689": "ording",
  "3690": "تماع",
  "3691": "ക്ക",
  "3692": "്റ",
  "3693": " light",
  "3694": "ena",
  "3695": "امج",
  "3696": "param",
  "3697": "ാണ",
  "3698": " bi",
  "3699": "rix",
  "3700": "avor",
  "3701": " �",
  "3702": " field",
  "3703": "reen",
  "3704": "IP",
  "3705": "ests",
  "3706": " food",
  "3707": "生",
  "3708": " dengan",
  "3709": "How",
  "3710": "�്ച",
  "3711": "160",
  "3712": " è",
  "3713": "pm",
  "3714": " ce",
  "3715": "andom",
  "3716": "ده",
  "3717": " جميع",
  "3718": "For",
  "3719": " personal",
  "3720": "asure",
  "3721": "aim",
  "3722": " possible",
  "3723": "reet",
  "3724": "')",
  "3725": "要",
  "3726": "だ",
  "3727": "した",
  "3728": "بت",
  "3729": " What",
  "3730": "\\\",",
  "3731": "hether",
  "3732": "196",
  "3733": " mot",
  "3734": " https",
  "3735": "_D",
  "3736": "iled",
  "3737": "vis",
  "3738": " सं",
  "3739": "方",
  "3740": " Comp",
  "3741": " creat",
  "3742": " understand",
  "3743": "Ph",
  "3744": " ون",
  "3745": "ائل",
  "3746": "رات",
  "3747": "ocus",
  "3748": "fort",
  "3749": "What",
  "3750": "مار",
  "3751": "resh",
  "3752": "حي",
  "3753": "ils",
  "3754": "ived",
  "3755": " intern",
  "3756": "image",
  "3757": "ци",
  "3758": "pression",
  "3759": "ING",
  "3760": " ی",
  "3761": "صة",
  "3762": "ison",
  "3763": "ette",
  "3764": " against",
  "3765": " حيث",
  "3766": "ité",
  "3767": "ufact",
  "3768": " اف",
  "3769": "ilar",
  "3770": " ö",
  "3771": "ua",
  "3772": "pg",
  "3773": "ending",
  "3774": "हीं",
  "3775": "ér",
  "3776": " fut",
  "3777": " sat",
  "3778": "_S",
  "3779": " total",
  "3780": "........",
  "3781": ".sh",
  "3782": "ires",
  "3783": " certain",
  "3784": " ini",
  "3785": "�",
  "3786": " نے",
  "3787": " وإ",
  "3788": " ра",
  "3789": "apat",
  "3790": " وق",
  "3791": "им",
  "3792": "pen",
  "3793": "اصة",
  "3794": " conc",
  "3795": " got",
  "3796": " Part",
  "3797": "uild",
  "3798": " حس",
  "3799": " Ser",
  "3800": " flo",
  "3801": "bd",
  "3802": "اصل",
  "3803": "raft",
  "3804": "ابع",
  "3805": "ർ",
  "3806": " pract",
  "3807": "Ad",
  "3808": "িক",
  "3809": "append",
  "3810": "طين",
  "3811": " target",
  "3812": " PM",
  "3813": " po",
  "3814": " ത",
  "3815": " الى",
  "3816": " working",
  "3817": "iam",
  "3818": "�",
  "3819": "ube",
  "3820": "iler",
  "3821": "お",
  "3822": "分",
  "3823": "atest",
  "3824": "list",
  "3825": "会",
  "3826": " أح",
  "3827": " ومن",
  "3828": "�",
  "3829": "�",
  "3830": " object",
  "3831": " '',",
  "3832": "ля",
  "3833": " color",
  "3834": "به",
  "3835": "umb",
  "3836": "ental",
  "3837": "Er",
  "3838": "تخ",
  "3839": " break",
  "3840": " These",
  "3841": " Cal",
  "3842": "یت",
  "3843": "uly",
  "3844": " stat",
  "3845": " fa",
  "3846": " vi",
  "3847": " Fin",
  "3848": " require",
  "3849": "odes",
  "3850": "len",
  "3851": " bar",
  "3852": " السعود",
  "3853": " features",
  "3854": "string",
  "3855": " law",
  "3856": "DF",
  "3857": "(t",
  "3858": "    \n",
  "3859": "से",
  "3860": " mit",
  "3861": " bed",
  "3862": "(f",
  "3863": " needs",
  "3864": "قوق",
  "3865": "utions",
  "3866": "atural",
  "3867": "_data",
  "3868": " </",
  "3869": " Sch",
  "3870": "lt",
  "3871": "Object",
  "3872": " diff",
  "3873": " Euro",
  "3874": "aging",
  "3875": "�",
  "3876": "ieve",
  "3877": "�",
  "3878": "BC",
  "3879": " hal",
  "3880": "ayer",
  "3881": "}\\",
  "3882": " My",
  "3883": "�",
  "3884": " never",
  "3885": " isang",
  "3886": "ocal",
  "3887": " win",
  "3888": "_h",
  "3889": " Dep",
  "3890": "portun",
  "3891": " مؤ",
  "3892": "ilt",
  "3893": "gl",
  "3894": "فع",
  "3895": "عار",
  "3896": " short",
  "3897": " حتى",
  "3898": " something",
  "3899": "redit",
  "3900": " mer",
  "3901": " girl",
  "3902": " mo",
  "3903": "dev",
  "3904": " By",
  "3905": "ولا",
  "3906": " Us",
  "3907": "umber",
  "3908": "600",
  "3909": " super",
  "3910": "زيد",
  "3911": " development",
  "3912": "Value",
  "3913": "Qu",
  "3914": "No",
  "3915": "بير",
  "3916": " clean",
  "3917": " ]\n",
  "3918": " dep",
  "3919": "�",
  "3920": " zu",
  "3921": "udi",
  "3922": "tre",
  "3923": "احة",
  "3924": " دول",
  "3925": "رياض",
  "3926": "EE",
  "3927": " الوط",
  "3928": "�",
  "3929": " Ro",
  "3930": "اقة",
  "3931": "gi",
  "3932": "�",
  "3933": " enjoy",
  "3934": " women",
  "3935": "为",
  "3936": " جن",
  "3937": "ım",
  "3938": "то",
  "3939": " هنا",
  "3940": " econom",
  "3941": ".b",
  "3942": "||",
  "3943": " values",
  "3944": "thers",
  "3945": "ൂ",
  "3946": "\tif",
  "3947": "�",
  "3948": " away",
  "3949": "可",
  "3950": "format",
  "3951": "�",
  "3952": " times",
  "3953": "اجتماع",
  "3954": "تج",
  "3955": "ന്�",
  "3956": " يج",
  "3957": "inline",
  "3958": " वि�",
  "3959": " pack",
  "3960": " Ang",
  "3961": "انون",
  "3962": "我",
  "3963": "iş",
  "3964": " Val",
  "3965": "Ag",
  "3966": " dom",
  "3967": " لأ",
  "3968": "\\t",
  "3969": "ضع",
  "3970": "usher",
  "3971": "ension",
  "3972": " Christ",
  "3973": "ارج",
  "3974": "cript",
  "3975": "indows",
  "3976": "ाह",
  "3977": "uation",
  "3978": " Mon",
  "3979": " offers",
  "3980": "اقتصاد",
  "3981": "ож",
  "3982": "وث",
  "3983": " due",
  "3984": "能",
  "3985": "imate",
  "3986": "inst",
  "3987": "aur",
  "3988": "ız",
  "3989": "lev",
  "3990": "eta",
  "3991": " रह",
  "3992": "الات",
  "3993": " como",
  "3994": " Min",
  "3995": "�",
  "3996": " fund",
  "3997": "EX",
  "3998": " visit",
  "3999": "صد",
  "4000": "imum",
  "4001": " govern",
  "4002": "数",
  "4003": "anies",
  "4004": "িয়",
  "4005": " respons",
  "4006": " path",
  "4007": "perties",
  "4008": "hi",
  "4009": ",NULL",
  "4010": "oken",
  "4011": " <<",
  "4012": "ouch",
  "4013": "roid",
  "4014": "urance",
  "4015": " ha",
  "4016": " Gl",
  "4017": "urg",
  "4018": "123",
  "4019": " pen",
  "4020": "ায়",
  "4021": "urther",
  "4022": " four",
  "4023": " Not",
  "4024": "ھی",
  "4025": " Our",
  "4026": "نے",
  "4027": " pan",
  "4028": "iff",
  "4029": "ाव",
  "4030": "cd",
  "4031": "RA",
  "4032": " single",
  "4033": "ably",
  "4034": "}{",
  "4035": "نين",
  "4036": "بات",
  "4037": "eral",
  "4038": " sum",
  "4039": "�",
  "4040": "ابات",
  "4041": " inc",
  "4042": " أع",
  "4043": " mil",
  "4044": "                 ",
  "4045": " Bo",
  "4046": "(x",
  "4047": "ibility",
  "4048": " move",
  "4049": " تط",
  "4050": " code",
  "4051": "ye",
  "4052": " games",
  "4053": "atter",
  "4054": "cial",
  "4055": "গ",
  "4056": "amente",
  "4057": "side",
  "4058": " Ed",
  "4059": "روع",
  "4060": "anguage",
  "4061": "opp",
  "4062": "-h",
  "4063": " بعض",
  "4064": " \"\"\"",
  "4065": "wards",
  "4066": "box",
  "4067": "label",
  "4068": " എ",
  "4069": " download",
  "4070": "ंग",
  "4071": " خط",
  "4072": " address",
  "4073": " sus",
  "4074": "True",
  "4075": " الض",
  "4076": " kind",
  "4077": "�",
  "4078": " واح",
  "4079": " news",
  "4080": "اعد",
  "4081": "اسية",
  "4082": "�",
  "4083": "ensive",
  "4084": "ク",
  "4085": "ready",
  "4086": "وص",
  "4087": " When",
  "4088": "الت",
  "4089": "ae",
  "4090": " ste",
  "4091": " hab",
  "4092": " mean",
  "4093": "osp",
  "4094": "_w",
  "4095": "لق",
  "4096": "New",
  "4097": "-w",
  "4098": "�",
  "4099": "aint",
  "4100": "ULT",
  "4101": "left",
  "4102": " select",
  "4103": "Gr",
  "4104": "ış",
  "4105": " input",
  "4106": " Cr",
  "4107": "Data",
  "4108": "িন",
  "4109": "ball",
  "4110": " energ",
  "4111": "LO",
  "4112": " past",
  "4113": "creen",
  "4114": "فة",
  "4115": "[\"",
  "4116": " dest",
  "4117": " والأ",
  "4118": " अप",
  "4119": "ظام",
  "4120": "oman",
  "4121": " perfect",
  "4122": "مس",
  "4123": " complet",
  "4124": "Im",
  "4125": " а",
  "4126": "102",
  "4127": " Ag",
  "4128": "utes",
  "4129": "indi",
  "4130": " सम",
  "4131": "String",
  "4132": "icle",
  "4133": "رح",
  "4134": "াল",
  "4135": "غير",
  "4136": "Is",
  "4137": " recomm",
  "4138": "ava",
  "4139": "icult",
  "4140": "よ",
  "4141": ".w",
  "4142": "ری",
  "4143": " ni",
  "4144": "vec",
  "4145": "سلام",
  "4146": "ategory",
  "4147": "خدام",
  "4148": "isa",
  "4149": " تف",
  "4150": " أكثر",
  "4151": "ored",
  "4152": " ant",
  "4153": "TER",
  "4154": "();\n",
  "4155": " press",
  "4156": "ás",
  "4157": "ル",
  "4158": "ിര",
  "4159": "ruction",
  "4160": "gy",
  "4161": " weight",
  "4162": "],\"",
  "4163": "作",
  "4164": "ورية",
  "4165": ".append",
  "4166": "At",
  "4167": " Cor",
  "4168": " bit",
  "4169": "bf",
  "4170": " match",
  "4171": "ിന",
  "4172": "pri",
  "4173": "rect",
  "4174": "mes",
  "4175": "يلة",
  "4176": " العربية",
  "4177": "agn",
  "4178": " Str",
  "4179": " mal",
  "4180": "node",
  "4181": " नहीं",
  "4182": "ising",
  "4183": "ост",
  "4184": "serv",
  "4185": "idd",
  "4186": " لي",
  "4187": " perm",
  "4188": "acebook",
  "4189": " relations",
  "4190": "108",
  "4191": "طف",
  "4192": " purch",
  "4193": ".set",
  "4194": "ок",
  "4195": "ارس",
  "4196": "لسطين",
  "4197": " space",
  "4198": "year",
  "4199": "Node",
  "4200": " Jan",
  "4201": "Method",
  "4202": "け",
  "4203": "nya",
  "4204": "ोग",
  "4205": "بية",
  "4206": " children",
  "4207": "ар",
  "4208": "250",
  "4209": "حنة",
  "4210": "ía",
  "4211": " beaut",
  "4212": " strateg",
  "4213": "angan",
  "4214": " iç",
  "4215": " rate",
  "4216": " United",
  "4217": "ators",
  "4218": " particular",
  "4219": "ocation",
  "4220": " students",
  "4221": " side",
  "4222": "\tinline",
  "4223": " Work",
  "4224": " given",
  "4225": " mais",
  "4226": "___",
  "4227": "gn",
  "4228": "ങ്ങ",
  "4229": " تد",
  "4230": "800",
  "4231": " Apr",
  "4232": "ora",
  "4233": " arr",
  "4234": " أنه",
  "4235": "])\n",
  "4236": "elling",
  "4237": " significant",
  "4238": "BB",
  "4239": " along",
  "4240": "comp",
  "4241": "ать",
  "4242": "DA",
  "4243": " having",
  "4244": " problem",
  "4245": "الح",
  "4246": "Add",
  "4247": " specific",
  "4248": "clus",
  "4249": " cir",
  "4250": "asing",
  "4251": " ट",
  "4252": "ارد",
  "4253": " date",
  "4254": " Up",
  "4255": "je",
  "4256": "自",
  "4257": " hours",
  "4258": " National",
  "4259": "ани",
  "4260": "unic",
  "4261": " Free",
  "4262": "ops",
  "4263": "edd",
  "4264": " ہیں",
  "4265": " von",
  "4266": " سن",
  "4267": " الات",
  "4268": " sent",
  "4269": "リ",
  "4270": " network",
  "4271": " loss",
  "4272": "/m",
  "4273": "ومات",
  "4274": " associ",
  "4275": "本",
  "4276": "now",
  "4277": " contain",
  "4278": "ラ",
  "4279": " dating",
  "4280": " util",
  "4281": "国",
  "4282": " determ",
  "4283": "ades",
  "4284": "apan",
  "4285": "फ",
  "4286": "Des",
  "4287": " تت",
  "4288": " প্র",
  "4289": "180",
  "4290": "witter",
  "4291": "unch",
  "4292": "iday",
  "4293": " why",
  "4294": " quick",
  "4295": "PS",
  "4296": "UN",
  "4297": " City",
  "4298": "Date",
  "4299": " infl",
  "4300": "！",
  "4301": "/d",
  "4302": " л",
  "4303": " قط",
  "4304": " Add",
  "4305": " hom",
  "4306": "-S",
  "4307": " neg",
  "4308": "طم",
  "4309": "ki",
  "4310": "verse",
  "4311": "'),",
  "4312": " Sm",
  "4313": " phot",
  "4314": " However",
  "4315": "ती",
  "4316": "ıl",
  "4317": "anch",
  "4318": " deal",
  "4319": " مب",
  "4320": "ей",
  "4321": " आप",
  "4322": " major",
  "4323": " exist",
  "4324": " several",
  "4325": "unc",
  "4326": "én",
  "4327": "_M",
  "4328": "下",
  "4329": "yt",
  "4330": " nam",
  "4331": "level",
  "4332": "ABLE",
  "4333": "ho",
  "4334": " One",
  "4335": "تلف",
  "4336": "astic",
  "4337": "105",
  "4338": "ises",
  "4339": "ки",
  "4340": "حدث",
  "4341": " …",
  "4342": " country",
  "4343": "ving",
  "4344": "�",
  "4345": " discuss",
  "4346": " deb",
  "4347": "ам",
  "4348": "�",
  "4349": "IB",
  "4350": " months",
  "4351": "ونا",
  "4352": "لاث",
  "4353": " example",
  "4354": "IV",
  "4355": "ليل",
  "4356": "atients",
  "4357": "MENT",
  "4358": "106",
  "4359": "到",
  "4360": "onus",
  "4361": " رو",
  "4362": " उन",
  "4363": "Bl",
  "4364": " Best",
  "4365": " toget",
  "4366": "255",
  "4367": " Bank",
  "4368": "»",
  "4369": ".r",
  "4370": " together",
  "4371": "با",
  "4372": "fa",
  "4373": " Get",
  "4374": "هل",
  "4375": " far",
  "4376": " across",
  "4377": "change",
  "4378": " Count",
  "4379": "ester",
  "4380": " تأ",
  "4381": "count",
  "4382": " often",
  "4383": "config",
  "4384": "ken",
  "4385": "Or",
  "4386": " sens",
  "4387": "ив",
  "4388": "                               ",
  "4389": " �",
  "4390": "فضل",
  "4391": "اقع",
  "4392": "003",
  "4393": "قم",
  "4394": " below",
  "4395": "OL",
  "4396": " Bar",
  "4397": "_list",
  "4398": "ground",
  "4399": " means",
  "4400": "�",
  "4401": "thon",
  "4402": "195",
  "4403": " pri",
  "4404": "bb",
  "4405": "ordin",
  "4406": " That",
  "4407": " Of",
  "4408": " educ",
  "4409": " cur",
  "4410": "来",
  "4411": " live",
  "4412": " dur",
  "4413": " period",
  "4414": " +=",
  "4415": "يدة",
  "4416": " э",
  "4417": "�",
  "4418": "icient",
  "4419": "یش",
  "4420": "eters",
  "4421": " stay",
  "4422": "++++",
  "4423": ">\\",
  "4424": "�",
  "4425": "成",
  "4426": "uel",
  "4427": " pred",
  "4428": "vo",
  "4429": " len",
  "4430": "そ",
  "4431": "_{",
  "4432": " compet",
  "4433": " options",
  "4434": "طقة",
  "4435": " सा�",
  "4436": "ised",
  "4437": "lement",
  "4438": " focus",
  "4439": " character",
  "4440": "्म",
  "4441": "EF",
  "4442": "nes",
  "4443": "icense",
  "4444": "None",
  "4445": "121",
  "4446": "�",
  "4447": "ends",
  "4448": " talk",
  "4449": " larg",
  "4450": " makes",
  "4451": "تاب",
  "4452": "/\n",
  "4453": "ضر",
  "4454": "mm",
  "4455": " ظ",
  "4456": "াম",
  "4457": " المغ",
  "4458": " cult",
  "4459": "नी",
  "4460": "جه",
  "4461": "ias",
  "4462": "iful",
  "4463": " Ge",
  "4464": " حول",
  "4465": " المق",
  "4466": " potential",
  "4467": " য",
  "4468": " community",
  "4469": " tak",
  "4470": " index",
  "4471": "new",
  "4472": " indic",
  "4473": "多",
  "4474": " image",
  "4475": " desc",
  "4476": " card",
  "4477": " various",
  "4478": "حم",
  "4479": "ript",
  "4480": "state",
  "4481": " Market",
  "4482": " clos",
  "4483": "لت",
  "4484": "ocks",
  "4485": " kar",
  "4486": " required",
  "4487": "وال",
  "4488": "ownload",
  "4489": " industry",
  "4490": " mass",
  "4491": " uma",
  "4492": "column",
  "4493": "رج",
  "4494": " qual",
  "4495": " financial",
  "4496": " position",
  "4497": "ودة",
  "4498": "قيق",
  "4499": " منذ",
  "4500": "كات",
  "4501": "dated",
  "4502": " ملي",
  "4503": "ık",
  "4504": "_re",
  "4505": " performance",
  "4506": "ुर",
  "4507": " members",
  "4508": " West",
  "4509": " prob",
  "4510": "�",
  "4511": "عا",
  "4512": "140",
  "4513": "oper",
  "4514": "ുട",
  "4515": "امة",
  "4516": " ड",
  "4517": "emp",
  "4518": "وط",
  "4519": "oi",
  "4520": "র্�",
  "4521": "my",
  "4522": "�",
  "4523": " assert",
  "4524": "atory",
  "4525": "La",
  "4526": "lege",
  "4527": " School",
  "4528": " done",
  "4529": " amount",
  "4530": " publ",
  "4531": "ф",
  "4532": " abs",
  "4533": "152",
  "4534": " inform",
  "4535": " auf",
  "4536": "cal",
  "4537": "ira",
  "4538": "子",
  "4539": "');\n",
  "4540": "خرى",
  "4541": "ائر",
  "4542": " management",
  "4543": "pose",
  "4544": " already",
  "4545": " от",
  "4546": "\")",
  "4547": "ин",
  "4548": " answ",
  "4549": " Post",
  "4550": " [\"",
  "4551": "db",
  "4552": "ounter",
  "4553": "eler",
  "4554": " رس",
  "4555": "''",
  "4556": "(p",
  "4557": "ورد",
  "4558": " ست",
  "4559": "depend",
  "4560": "DB",
  "4561": " عم",
  "4562": " analysis",
  "4563": "orage",
  "4564": "xx",
  "4565": " actually",
  "4566": "elt",
  "4567": " comput",
  "4568": " share",
  "4569": " sil",
  "4570": "�",
  "4571": "�",
  "4572": " بأ",
  "4573": " software",
  "4574": " exam",
  "4575": "ival",
  "4576": " المتحدة",
  "4577": "lich",
  "4578": " author",
  "4579": "新",
  "4580": " opportun",
  "4581": "ുക",
  "4582": " র",
  "4583": "103",
  "4584": " via",
  "4585": "vest",
  "4586": "eff",
  "4587": "ാര",
  "4588": " course",
  "4589": " القر",
  "4590": " بالم",
  "4591": " Business",
  "4592": " pers",
  "4593": " risk",
  "4594": "ले",
  "4595": " gam",
  "4596": "ア",
  "4597": " bag",
  "4598": "Error",
  "4599": "-r",
  "4600": "igher",
  "4601": "�",
  "4602": "�",
  "4603": "ither",
  "4604": "cret",
  "4605": "ivo",
  "4606": " لك",
  "4607": "زي",
  "4608": "AF",
  "4609": "合",
  "4610": " dire",
  "4611": " eas",
  "4612": " simple",
  "4613": "System",
  "4614": "const",
  "4615": "ogn",
  "4616": " depend",
  "4617": "「",
  "4618": "333",
  "4619": " environment",
  "4620": " البر",
  "4621": " ak",
  "4622": " become",
  "4623": " High",
  "4624": ".h",
  "4625": "حق",
  "4626": "�",
  "4627": "istance",
  "4628": " host",
  "4629": " \\\n",
  "4630": " ;",
  "4631": " True",
  "4632": "」",
  "4633": " night",
  "4634": "ارية",
  "4635": " static",
  "4636": " common",
  "4637": " hold",
  "4638": "_code",
  "4639": " AM",
  "4640": " tax",
  "4641": " mak",
  "4642": " land",
  "4643": "107",
  "4644": "All",
  "4645": " المنت",
  "4646": "anced",
  "4647": " paper",
  "4648": " energy",
  "4649": "\treturn",
  "4650": "راق",
  "4651": " Fe",
  "4652": "・",
  "4653": "اری",
  "4654": " الأول",
  "4655": ".html",
  "4656": " install",
  "4657": "rodu",
  "4658": " الحجر",
  "4659": " strong",
  "4660": " bal",
  "4661": "িত",
  "4662": "SS",
  "4663": "ured",
  "4664": "va",
  "4665": " invol",
  "4666": "्ल",
  "4667": "${",
  "4668": "itional",
  "4669": "یل",
  "4670": " improve",
  "4671": " Pre",
  "4672": " city",
  "4673": "iti",
  "4674": "ينا",
  "4675": " impact",
  "4676": " property",
  "4677": " casino",
  "4678": "ِ",
  "4679": " Oct",
  "4680": " Ret",
  "4681": " الاح",
  "4682": " تست",
  "4683": " )\n",
  "4684": "just",
  "4685": "ners",
  "4686": "_file",
  "4687": "اجه",
  "4688": " List",
  "4689": " ച",
  "4690": " أيضا",
  "4691": "_size",
  "4692": " black",
  "4693": " آخر",
  "4694": "ാണ്",
  "4695": ".add",
  "4696": " sugg",
  "4697": "�",
  "4698": " cou",
  "4699": " الحك",
  "4700": "hel",
  "4701": "_g",
  "4702": "plit",
  "4703": "\n\n\n\n",
  "4704": "TH",
  "4705": " **",
  "4706": "Up",
  "4707": "iple",
  "4708": " rep",
  "4709": " موقع",
  "4710": "neg",
  "4711": " crit",
  "4712": "ixed",
  "4713": " provides",
  "4714": "ternal",
  "4715": "ിച്ച",
  "4716": " cover",
  "4717": "时",
  "4718": "max",
  "4719": " Aug",
  "4720": " version",
  "4721": "�",
  "4722": "েছ",
  "4723": "جيل",
  "4724": "chen",
  "4725": "�",
  "4726": " البل",
  "4727": "izz",
  "4728": "这",
  "4729": "ipment",
  "4730": "ظم",
  "4731": "ख",
  "4732": " التن",
  "4733": " future",
  "4734": " यह",
  "4735": " clear",
  "4736": "104",
  "4737": " المؤ",
  "4738": " Inter",
  "4739": "ste",
  "4740": "ère",
  "4741": "اهد",
  "4742": "ാന",
  "4743": " ст",
  "4744": " John",
  "4745": "object",
  "4746": "aged",
  "4747": "۔\n",
  "4748": "ाइ",
  "4749": " necess",
  "4750": " getting",
  "4751": "\\\n",
  "4752": " Out",
  "4753": " Health",
  "4754": " camp",
  "4755": " companies",
  "4756": " title",
  "4757": "ario",
  "4758": " question",
  "4759": "ivity",
  "4760": "لكتر",
  "4761": " media",
  "4762": " entre",
  "4763": " Di",
  "4764": "nd",
  "4765": " за",
  "4766": "地",
  "4767": " tim",
  "4768": " শ",
  "4769": " عدد",
  "4770": "入",
  "4771": "_of",
  "4772": "EY",
  "4773": ".M",
  "4774": "ारी",
  "4775": "ör",
  "4776": " details",
  "4777": " für",
  "4778": " patients",
  "4779": "size",
  "4780": "empl",
  "4781": "�",
  "4782": " final",
  "4783": "\"},{\"",
  "4784": "PT",
  "4785": "xf",
  "4786": "اسي",
  "4787": "256",
  "4788": "number",
  "4789": "ients",
  "4790": "）",
  "4791": " extra",
  "4792": " كانت",
  "4793": " Sol",
  "4794": "/c",
  "4795": "оль",
  "4796": " connect",
  "4797": " particip",
  "4798": "تك",
  "4799": " bul",
  "4800": " je",
  "4801": " cam",
  "4802": " base",
  "4803": "হ",
  "4804": "194",
  "4805": "理",
  "4806": "quest",
  "4807": " enh",
  "4808": " consum",
  "4809": "\"},\"",
  "4810": "666",
  "4811": " cut",
  "4812": "ناء",
  "4813": "Be",
  "4814": "أة",
  "4815": "ادر",
  "4816": "inde",
  "4817": " Econom",
  "4818": "دى",
  "4819": "ledge",
  "4820": " يست",
  "4821": "title",
  "4822": " pur",
  "4823": "ober",
  "4824": "ief",
  "4825": "default",
  "4826": "（",
  "4827": "aily",
  "4828": " York",
  "4829": " pel",
  "4830": "اعات",
  "4831": " season",
  "4832": " Stud",
  "4833": "�",
  "4834": " please",
  "4835": "FAULT",
  "4836": " action",
  "4837": "rie",
  "4838": "াক",
  "4839": "inary",
  "4840": " dos",
  "4841": " mel",
  "4842": " thing",
  "4843": "ults",
  "4844": "161",
  "4845": " об",
  "4846": " relationship",
  "4847": " age",
  "4848": " pi",
  "4849": " face",
  "4850": "هب",
  "4851": " among",
  "4852": " role",
  "4853": " output",
  "4854": "%%",
  "4855": " Online",
  "4856": "omet",
  "4857": "================",
  "4858": " called",
  "4859": " المخ",
  "4860": " red",
  "4861": "يق",
  "4862": "تمع",
  "4863": "や",
  "4864": "Per",
  "4865": "õ",
  "4866": "ope",
  "4867": " مطحنة",
  "4868": "يران",
  "4869": "्री",
  "4870": "EB",
  "4871": " popular",
  "4872": " World",
  "4873": " وهو",
  "4874": "akt",
  "4875": "/l",
  "4876": " إذا",
  "4877": "ই",
  "4878": "otes",
  "4879": "\"]",
  "4880": "'d",
  "4881": "്ല",
  "4882": " others",
  "4883": ".png",
  "4884": "han",
  "4885": "leep",
  "4886": "gress",
  "4887": "�",
  "4888": " States",
  "4889": "يط",
  "4890": "soft",
  "4891": "last",
  "4892": " known",
  "4893": " human",
  "4894": " comes",
  "4895": " الجديد",
  "4896": " node",
  "4897": "sel",
  "4898": "_F",
  "4899": "istic",
  "4900": " void",
  "4901": "â",
  "4902": " Hot",
  "4903": " platform",
  "4904": "IE",
  "4905": "125",
  "4906": " phys",
  "4907": " respect",
  "4908": " points",
  "4909": "bol",
  "4910": "bar",
  "4911": "ikan",
  "4912": "ında",
  "4913": "raz",
  "4914": "ß",
  "4915": "事",
  "4916": " aw",
  "4917": " بو",
  "4918": " ري",
  "4919": " above",
  "4920": " begin",
  "4921": "asa",
  "4922": "ounds",
  "4923": " يتم",
  "4924": "iki",
  "4925": " until",
  "4926": " ഇ",
  "4927": " million",
  "4928": "lam",
  "4929": " الاس",
  "4930": "128",
  "4931": "ima",
  "4932": " series",
  "4933": "ستان",
  "4934": " Techn",
  "4935": " Research",
  "4936": "192",
  "4937": " Trans",
  "4938": " سر",
  "4939": "112",
  "4940": " professional",
  "4941": " represent",
  "4942": " Il",
  "4943": " says",
  "4944": "            ",
  "4945": "apers",
  "4946": "حو",
  "4947": "117",
  "4948": "iting",
  "4949": "تی",
  "4950": " sec",
  "4951": "rial",
  "4952": " ثم",
  "4953": "ios",
  "4954": " teach",
  "4955": "ركات",
  "4956": "या",
  "4957": "्थ",
  "4958": "ao",
  "4959": " Home",
  "4960": " Aust",
  "4961": " autom",
  "4962": "oph",
  "4963": "ès",
  "4964": " South",
  "4965": "position",
  "4966": "�",
  "4967": "学",
  "4968": "定",
  "4969": " whether",
  "4970": "ika",
  "4971": "مبر",
  "4972": "900",
  "4973": "گر",
  "4974": " manufact",
  "4975": "atal",
  "4976": " vers",
  "4977": "itted",
  "4978": " Park",
  "4979": " thought",
  "4980": " pick",
  "4981": "ony",
  "4982": "iques",
  "4983": "130",
  "4984": "uit",
  "4985": "ど",
  "4986": "sy",
  "4987": "-st",
  "4988": " محطم",
  "4989": " Inc",
  "4990": " Review",
  "4991": "kn",
  "4992": " نق",
  "4993": "122",
  "4994": " عبر",
  "4995": " State",
  "4996": "MP",
  "4997": "�",
  "4998": "する",
  "4999": " Europe",
  "5000": "Key",
  "5001": "الأ",
  "5002": "�",
  "5003": " treatment",
  "5004": "ares",
  "5005": "ель",
  "5006": " yet",
  "5007": "FC",
  "5008": " least",
  "5009": "سبب",
  "5010": "uments",
  "5011": "izing",
  "5012": "Em",
  "5013": "010",
  "5014": " حد",
  "5015": "void",
  "5016": "oute",
  "5017": "zer",
  "5018": " expert",
  "5019": " higher",
  "5020": " أخبار",
  "5021": " هم",
  "5022": "Fr",
  "5023": " ever",
  "5024": "�",
  "5025": "          ",
  "5026": " ആ",
  "5027": "img",
  "5028": "ред",
  "5029": "Che",
  "5030": " models",
  "5031": " increase",
  "5032": " unique",
  "5033": " similar",
  "5034": " Er",
  "5035": " mes",
  "5036": "oups",
  "5037": " किया",
  "5038": "anya",
  "5039": "MS",
  "5040": " approach",
  "5041": "ед",
  "5042": "amm",
  "5043": " American",
  "5044": "vi",
  "5045": "জ",
  "5046": "input",
  "5047": "_path",
  "5048": "gg",
  "5049": "uan",
  "5050": " moment",
  "5051": "109",
  "5052": "تل",
  "5053": " mind",
  "5054": "ئے",
  "5055": " questions",
  "5056": " prem",
  "5057": "dis",
  "5058": "�",
  "5059": " !=",
  "5060": "TR",
  "5061": " wr",
  "5062": " IN",
  "5063": "igr",
  "5064": " Price",
  "5065": "市",
  "5066": "یس",
  "5067": "�",
  "5068": "ifier",
  "5069": "�",
  "5070": " وفي",
  "5071": "عمل",
  "5072": "Array",
  "5073": "cm",
  "5074": "--\n",
  "5075": "�",
  "5076": "ges",
  "5077": " young",
  "5078": " sort",
  "5079": " Acc",
  "5080": " Rep",
  "5081": " technology",
  "5082": "Sp",
  "5083": "iers",
  "5084": " Pres",
  "5085": " لن",
  "5086": " sym",
  "5087": " items",
  "5088": " enter",
  "5089": " بط",
  "5090": "家",
  "5091": "nt",
  "5092": "offset",
  "5093": "/t",
  "5094": " sites",
  "5095": "II",
  "5096": " لح",
  "5097": "ô",
  "5098": " ،",
  "5099": " item",
  "5100": "hib",
  "5101": " الصح",
  "5102": " provided",
  "5103": "CPP",
  "5104": ".jpg",
  "5105": " Sw",
  "5106": "-\n",
  "5107": "क्ष",
  "5108": "mo",
  "5109": "trans",
  "5110": "])",
  "5111": " seg",
  "5112": " protect",
  "5113": "_pro",
  "5114": "ضوع",
  "5115": "uary",
  "5116": " لو",
  "5117": "aling",
  "5118": "فو",
  "5119": ">>",
  "5120": "endo",
  "5121": " Pe",
  "5122": "_se",
  "5123": "يفة",
  "5124": " caus",
  "5125": "_R",
  "5126": "IF",
  "5127": " dam",
  "5128": " Act",
  "5129": "った",
  "5130": " cook",
  "5131": " users",
  "5132": "_ms",
  "5133": "XX",
  "5134": "高",
  "5135": "هي",
  "5136": "عية",
  "5137": "127",
  "5138": "ty",
  "5139": " السعودية",
  "5140": "\r\n\r\n",
  "5141": "nov",
  "5142": " مم",
  "5143": "sole",
  "5144": " front",
  "5145": " dari",
  "5146": "_v",
  "5147": "ministr",
  "5148": " customers",
  "5149": "114",
  "5150": "ahan",
  "5151": " application",
  "5152": " walk",
  "5153": "lections",
  "5154": " chall",
  "5155": " reason",
  "5156": " request",
  "5157": "め",
  "5158": " music",
  "5159": " ep",
  "5160": " dump",
  "5161": "assert",
  "5162": "ham",
  "5163": " option",
  "5164": " ہو",
  "5165": "ない",
  "5166": " training",
  "5167": "ائد",
  "5168": " آن",
  "5169": " oil",
  "5170": " param",
  "5171": " response",
  "5172": " natural",
  "5173": "../",
  "5174": " آلة",
  "5175": "Par",
  "5176": " Af",
  "5177": "�",
  "5178": "こと",
  "5179": "ابق",
  "5180": "rypt",
  "5181": " اق",
  "5182": "�়",
  "5183": "ynam",
  "5184": "DC",
  "5185": "باب",
  "5186": "وير",
  "5187": " DEFAULT",
  "5188": "ões",
  "5189": " government",
  "5190": " avec",
  "5191": "cf",
  "5192": "190",
  "5193": " مجلس",
  "5194": "小",
  "5195": " source",
  "5196": "�",
  "5197": "=True",
  "5198": " تحت",
  "5199": " private",
  "5200": " вы",
  "5201": " গ",
  "5202": "\tint",
  "5203": " يكون",
  "5204": "ev",
  "5205": " coll",
  "5206": "medi",
  "5207": " record",
  "5208": "math",
  "5209": " growth",
  "5210": "awa",
  "5211": "يمة",
  "5212": "isi",
  "5213": " pict",
  "5214": " ور",
  "5215": "زل",
  "5216": "oke",
  "5217": "istics",
  "5218": " lower",
  "5219": "group",
  "5220": "board",
  "5221": "بع",
  "5222": " fast",
  "5223": " Ac",
  "5224": "CRE",
  "5225": "rown",
  "5226": "edu",
  "5227": " della",
  "5228": "ournal",
  "5229": "px",
  "5230": " bank",
  "5231": " article",
  "5232": "ication",
  "5233": " Black",
  "5234": " dim",
  "5235": " track",
  "5236": "ിൽ",
  "5237": "atan",
  "5238": "ij",
  "5239": "ological",
  "5240": "(d",
  "5241": "فاق",
  "5242": "انيا",
  "5243": " tut",
  "5244": "�",
  "5245": "前",
  "5246": " يد",
  "5247": " global",
  "5248": " ही",
  "5249": "epoch",
  "5250": "144",
  "5251": "Il",
  "5252": "There",
  "5253": " ş",
  "5254": "�",
  "5255": "ptember",
  "5256": " لإ",
  "5257": "most",
  "5258": "كد",
  "5259": "Post",
  "5260": "ideos",
  "5261": "كي",
  "5262": " Will",
  "5263": " policy",
  "5264": "115",
  "5265": " }\n\n",
  "5266": "hing",
  "5267": "curity",
  "5268": " ra",
  "5269": " مثل",
  "5270": " grand",
  "5271": " percent",
  "5272": "203",
  "5273": "تن",
  "5274": " ach",
  "5275": "دارة",
  "5276": " polit",
  "5277": " issues",
  "5278": " general",
  "5279": " imm",
  "5280": "ını",
  "5281": " previous",
  "5282": "``",
  "5283": " Cons",
  "5284": " Gener",
  "5285": " story",
  "5286": " further",
  "5287": "191",
  "5288": " Google",
  "5289": " once",
  "5290": "Ab",
  "5291": "*)",
  "5292": " heart",
  "5293": "оз",
  "5294": "empt",
  "5295": "istry",
  "5296": " },",
  "5297": " AS",
  "5298": " بشكل",
  "5299": "alls",
  "5300": "え",
  "5301": "link",
  "5302": "فل",
  "5303": "urb",
  "5304": " sch",
  "5305": "rip",
  "5306": " للأ",
  "5307": "([",
  "5308": "source",
  "5309": " enough",
  "5310": "ونة",
  "5311": "Of",
  "5312": "-a",
  "5313": "حاد",
  "5314": "اضي",
  "5315": "最",
  "5316": " صور",
  "5317": "193",
  "5318": "िर",
  "5319": " favor",
  "5320": " complete",
  "5321": "ging",
  "5322": " للبيع",
  "5323": "pa",
  "5324": " Sim",
  "5325": " Center",
  "5326": "…\n",
  "5327": "ुल",
  "5328": " Are",
  "5329": "Int",
  "5330": "azione",
  "5331": " sale",
  "5332": " works",
  "5333": "कर",
  "5334": " ولك",
  "5335": " ले",
  "5336": "oring",
  "5337": " obtain",
  "5338": ".T",
  "5339": "ения",
  "5340": "ried",
  "5341": "isation",
  "5342": "gun",
  "5343": " cu",
  "5344": "116",
  "5345": " customer",
  "5346": "ées",
  "5347": ".C",
  "5348": " kung",
  "5349": " جه",
  "5350": " After",
  "5351": "�",
  "5352": "ек",
  "5353": "ത്",
  "5354": " Sk",
  "5355": " شر",
  "5356": "ading",
  "5357": " machine",
  "5358": " Sl",
  "5359": " plant",
  "5360": " Now",
  "5361": "േ�",
  "5362": " ito",
  "5363": " {\\",
  "5364": "Us",
  "5365": "part",
  "5366": "يخ",
  "5367": " по",
  "5368": "_to",
  "5369": "BE",
  "5370": " صح",
  "5371": " চ",
  "5372": " film",
  "5373": "وه",
  "5374": "�",
  "5375": " sche",
  "5376": "()\n\n",
  "5377": "nb",
  "5378": "-to",
  "5379": "ڑ",
  "5380": " Feb",
  "5381": "yo",
  "5382": "ét",
  "5383": " vous",
  "5384": " comment",
  "5385": "wa",
  "5386": " بق",
  "5387": "EST",
  "5388": "arb",
  "5389": " integr",
  "5390": "indow",
  "5391": " continue",
  "5392": " deg",
  "5393": "نان",
  "5394": " location",
  "5395": " default",
  "5396": "ements",
  "5397": " ->",
  "5398": "lat",
  "5399": "amento",
  "5400": "idden",
  "5401": "ُ",
  "5402": "AE",
  "5403": " हु�",
  "5404": "_count",
  "5405": "HE",
  "5406": "�",
  "5407": "法",
  "5408": "annel",
  "5409": "ön",
  "5410": " بها",
  "5411": "mente",
  "5412": "الد",
  "5413": "OW",
  "5414": " vo",
  "5415": "اده",
  "5416": ".x",
  "5417": "icon",
  "5418": "View",
  "5419": " etc",
  "5420": " esc",
  "5421": "uration",
  "5422": "ൊ",
  "5423": "_time",
  "5424": " فيها",
  "5425": "نامج",
  "5426": "他",
  "5427": " regard",
  "5428": "output",
  "5429": " watch",
  "5430": " feature",
  "5431": " الجز",
  "5432": "Gener",
  "5433": "صح",
  "5434": "posed",
  "5435": "واء",
  "5436": "aba",
  "5437": " minutes",
  "5438": "�",
  "5439": " TV",
  "5440": " الرئيسية",
  "5441": "ny",
  "5442": "Field",
  "5443": " From",
  "5444": "ello",
  "5445": "�",
  "5446": " التح",
  "5447": " member",
  "5448": "color",
  "5449": "/b",
  "5450": "airs",
  "5451": " ing",
  "5452": "anda",
  "5453": "__(",
  "5454": " task",
  "5455": " var",
  "5456": "And",
  "5457": " Ver",
  "5458": "duc",
  "5459": "                     ",
  "5460": " crusher",
  "5461": " systems",
  "5462": "oon",
  "5463": " نس",
  "5464": "]]",
  "5465": "ivery",
  "5466": " brand",
  "5467": "PE",
  "5468": "ening",
  "5469": "പ്പ",
  "5470": " effects",
  "5471": " Del",
  "5472": " bring",
  "5473": "对",
  "5474": "unk",
  "5475": " نفس",
  "5476": " credit",
  "5477": " دور",
  "5478": " fit",
  "5479": " करने",
  "5480": "cpp",
  "5481": " join",
  "5482": "عت",
  "5483": "\"},",
  "5484": " array",
  "5485": "علام",
  "5486": " بس",
  "5487": "(c",
  "5488": "ami",
  "5489": " fig",
  "5490": " div",
  "5491": "че",
  "5492": " dise",
  "5493": "-B",
  "5494": "्क",
  "5495": "ani",
  "5496": "mod",
  "5497": "مية",
  "5498": "ंद",
  "5499": "から",
  "5500": "全",
  "5501": "াদ",
  "5502": "Fe",
  "5503": " miss",
  "5504": "الف",
  "5505": " travel",
  "5506": " الإلكتر",
  "5507": "�",
  "5508": " е",
  "5509": "െയ",
  "5510": "iece",
  "5511": "جد",
  "5512": " word",
  "5513": " Air",
  "5514": "race",
  "5515": "就",
  "5516": " Her",
  "5517": "UM",
  "5518": "ेट",
  "5519": "first",
  "5520": "address",
  "5521": "Α",
  "5522": "echo",
  "5523": "begin",
  "5524": "ribution",
  "5525": " لكن",
  "5526": " الوز",
  "5527": " شخص",
  "5528": "dc",
  "5529": " eval",
  "5530": " conditions",
  "5531": "content",
  "5532": "�",
  "5533": "pha",
  "5534": " ren",
  "5535": " internet",
  "5536": "ائيل",
  "5537": " فيه",
  "5538": "性",
  "5539": "تا",
  "5540": "্ট",
  "5541": "alar",
  "5542": "ém",
  "5543": "oved",
  "5544": "ाई",
  "5545": " شركة",
  "5546": "ंत",
  "5547": " لأن",
  "5548": " especial",
  "5549": " اليمن",
  "5550": " IL",
  "5551": "Count",
  "5552": "ellent",
  "5553": "ona",
  "5554": "PL",
  "5555": "151",
  "5556": " أول",
  "5557": "ribute",
  "5558": " early",
  "5559": " mobile",
  "5560": " reviews",
  "5561": "tes",
  "5562": " mark",
  "5563": "path",
  "5564": "ù",
  "5565": " Day",
  "5566": "true",
  "5567": ":\"",
  "5568": "iddle",
  "5569": "point",
  "5570": " April",
  "5571": "عيد",
  "5572": "CR",
  "5573": "FB",
  "5574": "ോ�",
  "5575": "ربع",
  "5576": " نہ",
  "5577": " close",
  "5578": "cast",
  "5579": " False",
  "5580": " العراق",
  "5581": " North",
  "5582": "lin",
  "5583": " gi",
  "5584": " için",
  "5585": "اک",
  "5586": " Service",
  "5587": " config",
  "5588": "idge",
  "5589": "ipping",
  "5590": "lem",
  "5591": "ाने",
  "5592": " الرياض",
  "5593": "ولى",
  "5594": "OM",
  "5595": ".st",
  "5596": " changes",
  "5597": "icrosoft",
  "5598": "idak",
  "5599": " writing",
  "5600": "ecut",
  "5601": "igen",
  "5602": " तो",
  "5603": "\t\t\t\t\t\t\t\t",
  "5604": " concern",
  "5605": " center",
  "5606": " pain",
  "5607": "ൻ",
  "5608": "119",
  "5609": " •",
  "5610": "example",
  "5611": "ട്ട",
  "5612": "ിക",
  "5613": " Sub",
  "5614": "ador",
  "5615": "ii",
  "5616": " ${",
  "5617": " التج",
  "5618": " أش",
  "5619": " جديدة",
  "5620": " nag",
  "5621": "though",
  "5622": " types",
  "5623": " everything",
  "5624": "ав",
  "5625": "147",
  "5626": " कह",
  "5627": "sv",
  "5628": " engine",
  "5629": "ির",
  "5630": "chan",
  "5631": "():\n",
  "5632": "aux",
  "5633": " production",
  "5634": "uer",
  "5635": " March",
  "5636": "كثر",
  "5637": " measure",
  "5638": "ola",
  "5639": "inding",
  "5640": "iones",
  "5641": "igned",
  "5642": "alm",
  "5643": " box",
  "5644": " Facebook",
  "5645": "انات",
  "5646": " ود",
  "5647": " doesn",
  "5648": "موعة",
  "5649": "ൾ",
  "5650": "وش",
  "5651": " phone",
  "5652": " lib",
  "5653": " document",
  "5654": "�",
  "5655": " بأن",
  "5656": "ota",
  "5657": "ابل",
  "5658": "aki",
  "5659": "CB",
  "5660": " history",
  "5661": " App",
  "5662": "ং",
  "5663": " five",
  "5664": "وجه",
  "5665": "142",
  "5666": "upt",
  "5667": "113",
  "5668": " beautiful",
  "5669": " أد",
  "5670": "اسم",
  "5671": " China",
  "5672": "uge",
  "5673": " subject",
  "5674": " stock",
  "5675": "gal",
  "5676": " latest",
  "5677": "anning",
  "5678": "品",
  "5679": " sett",
  "5680": " Top",
  "5681": " UK",
  "5682": " client",
  "5683": "zen",
  "5684": "_epoch",
  "5685": "/f",
  "5686": "月",
  "5687": "タ",
  "5688": "IST",
  "5689": " suggest",
  "5690": "hol",
  "5691": " Mus",
  "5692": " quant",
  "5693": "ち",
  "5694": "ليات",
  "5695": " building",
  "5696": " الا",
  "5697": "yr",
  "5698": " معد",
  "5699": "िव",
  "5700": " Don",
  "5701": " ذات",
  "5702": "Price",
  "5703": "valid",
  "5704": "وسط",
  "5705": "IA",
  "5706": " &&",
  "5707": " بإ",
  "5708": " او",
  "5709": "ista",
  "5710": "্ব",
  "5711": "ilities",
  "5712": " message",
  "5713": "�",
  "5714": " ensure",
  "5715": "/*",
  "5716": "ить",
  "5717": " ولكن",
  "5718": "ovember",
  "5719": "CL",
  "5720": " تك",
  "5721": "rating",
  "5722": "ाए",
  "5723": "éd",
  "5724": "lim",
  "5725": " later",
  "5726": "opyright",
  "5727": " �",
  "5728": "700",
  "5729": " Anda",
  "5730": "قب",
  "5731": " combin",
  "5732": "つ",
  "5733": " bab",
  "5734": "جن",
  "5735": " comfort",
  "5736": "aha",
  "5737": " store",
  "5738": " taking",
  "5739": " India",
  "5740": " सक",
  "5741": "MT",
  "5742": "plied",
  "5743": "archar",
  "5744": " inf",
  "5745": "When",
  "5746": "iger",
  "5747": "�",
  "5748": " added",
  "5749": "145",
  "5750": "Dis",
  "5751": " estab",
  "5752": "ائمة",
  "5753": "156",
  "5754": "weet",
  "5755": "्स",
  "5756": " إلي",
  "5757": "alah",
  "5758": " foot",
  "5759": "yes",
  "5760": "ил",
  "5761": " either",
  "5762": "My",
  "5763": " Tra",
  "5764": "�",
  "5765": "्प",
  "5766": " however",
  "5767": " فإن",
  "5768": "�",
  "5769": "fully",
  "5770": "ds",
  "5771": " pod",
  "5772": "arter",
  "5773": "UP",
  "5774": " choose",
  "5775": " San",
  "5776": " structure",
  "5777": " انت",
  "5778": "aks",
  "5779": " Port",
  "5780": "148",
  "5781": "public",
  "5782": " syn",
  "5783": " string",
  "5784": "_B",
  "5785": " كيف",
  "5786": " click",
  "5787": " $\\",
  "5788": "せ",
  "5789": "عمال",
  "5790": "ação",
  "5791": " length",
  "5792": "ago",
  "5793": " dalam",
  "5794": " blog",
  "5795": "EO",
  "5796": "vey",
  "5797": "arl",
  "5798": "\"},\n",
  "5799": "روس",
  "5800": " additional",
  "5801": "cember",
  "5802": "162",
  "5803": "`\n",
  "5804": " В",
  "5805": " tre",
  "5806": "رفة",
  "5807": "aman",
  "5808": "nc",
  "5809": "izes",
  "5810": "ector",
  "5811": "�",
  "5812": " doing",
  "5813": ");\n\n",
  "5814": "  \n",
  "5815": "ML",
  "5816": "overn",
  "5817": " related",
  "5818": " Art",
  "5819": "خط",
  "5820": "公",
  "5821": "াব",
  "5822": " International",
  "5823": " Sie",
  "5824": "发",
  "5825": "手",
  "5826": " Here",
  "5827": "lu",
  "5828": "ched",
  "5829": " TABLE",
  "5830": "****************",
  "5831": " tell",
  "5832": " staff",
  "5833": "qual",
  "5834": "عات",
  "5835": "-based",
  "5836": " June",
  "5837": " أحد",
  "5838": "adem",
  "5839": " دون",
  "5840": " П",
  "5841": "aker",
  "5842": "eds",
  "5843": "غل",
  "5844": "izer",
  "5845": "root",
  "5846": " areas",
  "5847": " Data",
  "5848": "124",
  "5849": " \n\n",
  "5850": "itchen",
  "5851": " Mc",
  "5852": "PI",
  "5853": "agram",
  "5854": "clude",
  "5855": ".log",
  "5856": " ten",
  "5857": "ণ",
  "5858": " اش",
  "5859": "field",
  "5860": " साथ",
  "5861": " Pa",
  "5862": "سن",
  "5863": "یز",
  "5864": " fre",
  "5865": "-F",
  "5866": "itude",
  "5867": "143",
  "5868": " Group",
  "5869": "者",
  "5870": " started",
  "5871": "روط",
  "5872": " war",
  "5873": " पह",
  "5874": "レ",
  "5875": " friends",
  "5876": " bil",
  "5877": "encies",
  "5878": "azon",
  "5879": "iche",
  "5880": " claim",
  "5881": "coming",
  "5882": " block",
  "5883": " row",
  "5884": " levels",
  "5885": "estamp",
  "5886": "ycl",
  "5887": ".assert",
  "5888": " sich",
  "5889": " someone",
  "5890": "rew",
  "5891": "াস",
  "5892": " likely",
  "5893": " simply",
  "5894": " expected",
  "5895": "\"\n\n",
  "5896": "قالات",
  "5897": " أف",
  "5898": " Rob",
  "5899": "020",
  "5900": "/j",
  "5901": " وش",
  "5902": "aga",
  "5903": "220",
  "5904": " seb",
  "5905": ";;",
  "5906": " Ben",
  "5907": " events",
  "5908": "illion",
  "5909": "sl",
  "5910": "values",
  "5911": " prec",
  "5912": "edia",
  "5913": "////",
  "5914": "idade",
  "5915": " سم",
  "5916": " info",
  "5917": " includes",
  "5918": " designed",
  "5919": "াত",
  "5920": "(int",
  "5921": " investig",
  "5922": " പ്ര",
  "5923": "ità",
  "5924": " accept",
  "5925": " echo",
  "5926": "�",
  "5927": "gener",
  "5928": "سل",
  "5929": "واب",
  "5930": " original",
  "5931": " لها",
  "5932": "面",
  "5933": " observ",
  "5934": "ondon",
  "5935": " needed",
  "5936": "وقف",
  "5937": "اخل",
  "5938": "sk",
  "5939": " standard",
  "5940": "False",
  "5941": " blood",
  "5942": " hol",
  "5943": ".D",
  "5944": " recommend",
  "5945": "118",
  "5946": "رم",
  "5947": " prior",
  "5948": "і",
  "5949": " compl",
  "5950": "enced",
  "5951": "154",
  "5952": " typ",
  "5953": "Info",
  "5954": " af",
  "5955": "ları",
  "5956": "ाक",
  "5957": "parent",
  "5958": "posit",
  "5959": " Just",
  "5960": "シ",
  "5961": "-C",
  "5962": "mercial",
  "5963": "itation",
  "5964": " Det",
  "5965": " não",
  "5966": "\"><",
  "5967": "negate",
  "5968": " white",
  "5969": " وقد",
  "5970": "360",
  "5971": "gt",
  "5972": "ington",
  "5973": "igin",
  "5974": "ئی",
  "5975": "ضاء",
  "5976": " digital",
  "5977": "amples",
  "5978": " security",
  "5979": "ibrary",
  "5980": " rap",
  "5981": "طب",
  "5982": "fi",
  "5983": "الك",
  "5984": "•",
  "5985": " الام",
  "5986": "ilter",
  "5987": "را",
  "5988": "aced",
  "5989": " View",
  "5990": "ribe",
  "5991": " solution",
  "5992": "كتب",
  "5993": "بط",
  "5994": " sont",
  "5995": " <-",
  "5996": " کن",
  "5997": " Services",
  "5998": " English",
  "5999": "েক",
  "6000": " کرد",
  "6001": "138",
  "6002": "170",
  "6003": " map",
  "6004": ".e",
  "6005": "ных",
  "6006": "ти",
  "6007": " يش",
  "6008": "غة",
  "6009": "ديث",
  "6010": " উ",
  "6011": " :\n",
  "6012": "هاب",
  "6013": "体",
  "6014": "Ap",
  "6015": " send",
  "6016": "135",
  "6017": " issue",
  "6018": " created",
  "6019": "().",
  "6020": " বি�",
  "6021": " words",
  "6022": " calcul",
  "6023": "HT",
  "6024": "�",
  "6025": "ilder",
  "6026": " था",
  "6027": " lab",
  "6028": "cel",
  "6029": " جان",
  "6030": "力",
  "6031": " nak",
  "6032": "度",
  "6033": "ണ്ട",
  "6034": "ില്",
  "6035": " العامة",
  "6036": "اظ",
  "6037": "ained",
  "6038": " Pat",
  "6039": " prices",
  "6040": "Eng",
  "6041": " Please",
  "6042": "iva",
  "6043": "164",
  "6044": "ithub",
  "6045": "ATION",
  "6046": " emb",
  "6047": "139",
  "6048": " sales",
  "6049": "=None",
  "6050": "cr",
  "6051": " Bro",
  "6052": "دمة",
  "6053": " seen",
  "6054": " marketing",
  "6055": "score",
  "6056": "004",
  "6057": " didn",
  "6058": "126",
  "6059": "dir",
  "6060": " Rec",
  "6061": " saf",
  "6062": "ют",
  "6063": " कार",
  "6064": "coin",
  "6065": " veh",
  "6066": "wood",
  "6067": " dog",
  "6068": " £",
  "6069": " Department",
  "6070": "نى",
  "6071": " affect",
  "6072": "uj",
  "6073": " House",
  "6074": " بك",
  "6075": " وقال",
  "6076": "部",
  "6077": "141",
  "6078": "عي",
  "6079": " living",
  "6080": "create",
  "6081": "bi",
  "6082": " learning",
  "6083": "ми",
  "6084": "Text",
  "6085": " deliver",
  "6086": " Est",
  "6087": " Develop",
  "6088": " بار",
  "6089": "�",
  "6090": " initial",
  "6091": " display",
  "6092": "ृ",
  "6093": "同",
  "6094": " q",
  "6095": " Sci",
  "6096": "ffff",
  "6097": "ाप",
  "6098": " الشر",
  "6099": " collect",
  "6100": " reading",
  "6101": "MA",
  "6102": " Design",
  "6103": "function",
  "6104": "ria",
  "6105": " knowledge",
  "6106": "所",
  "6107": "ные",
  "6108": "];\n",
  "6109": "Te",
  "6110": " هناك",
  "6111": "ospital",
  "6112": "Sub",
  "6113": " normal",
  "6114": " valid",
  "6115": " problems",
  "6116": "                         ",
  "6117": "ython",
  "6118": "005",
  "6119": " Elect",
  "6120": "ضافة",
  "6121": "ename",
  "6122": "dom",
  "6123": " answer",
  "6124": " inside",
  "6125": " refer",
  "6126": "-P",
  "6127": " average",
  "6128": "�",
  "6129": "-n",
  "6130": "sequ",
  "6131": " shows",
  "6132": "جز",
  "6133": "-up",
  "6134": "oe",
  "6135": " whole",
  "6136": "plot",
  "6137": "ുമ",
  "6138": ".;",
  "6139": "hat",
  "6140": " lang",
  "6141": " memb",
  "6142": "rive",
  "6143": " except",
  "6144": "ولوج",
  "6145": "kl",
  "6146": " difficult",
  "6147": "ras",
  "6148": " July",
  "6149": "باح",
  "6150": " tw",
  "6151": "loat",
  "6152": "ald",
  "6153": "ugh",
  "6154": "top",
  "6155": " Sur",
  "6156": "numer",
  "6157": "की",
  "6158": " office",
  "6159": " إلا",
  "6160": "ighb",
  "6161": " العل",
  "6162": "FE",
  "6163": " hindi",
  "6164": " cells",
  "6165": " الإسلام",
  "6166": " ple",
  "6167": " din",
  "6168": " condition",
  "6169": " according",
  "6170": " Type",
  "6171": " choice",
  "6172": " though",
  "6173": " announ",
  "6174": "？",
  "6175": " AU",
  "6176": "OP",
  "6177": "plication",
  "6178": "rec",
  "6179": " elif",
  "6180": " gel",
  "6181": "175",
  "6182": "み",
  "6183": "ads",
  "6184": "iring",
  "6185": " Int",
  "6186": "يديو",
  "6187": "155",
  "6188": "uid",
  "6189": "amily",
  "6190": "工",
  "6191": "ترك",
  "6192": "rict",
  "6193": "्ह",
  "6194": " Dav",
  "6195": " sen",
  "6196": "ис",
  "6197": ".A",
  "6198": "ework",
  "6199": " التو",
  "6200": "\">\n",
  "6201": " nicht",
  "6202": "itting",
  "6203": "गा",
  "6204": " screen",
  "6205": "pat",
  "6206": "_ID",
  "6207": " hair",
  "6208": " save",
  "6209": "ached",
  "6210": " Cas",
  "6211": "علن",
  "6212": " İ",
  "6213": "udio",
  "6214": " bes",
  "6215": "عرض",
  "6216": " الأخبار",
  "6217": "好",
  "6218": "ged",
  "6219": " aux",
  "6220": " गया",
  "6221": " error",
  "6222": "وبر",
  "6223": " nom",
  "6224": " والع",
  "6225": " الاخ",
  "6226": " implement",
  "6227": "FD",
  "6228": "isf",
  "6229": " برای",
  "6230": "_at",
  "6231": "ريم",
  "6232": "350",
  "6233": "ruary",
  "6234": " separ",
  "6235": " complex",
  "6236": " double",
  "6237": "description",
  "6238": " dapat",
  "6239": "158",
  "6240": " Red",
  "6241": " apply",
  "6242": " بھی",
  "6243": " ایک",
  "6244": "\",\r\n",
  "6245": " Lo",
  "6246": " (\"",
  "6247": "ン�",
  "6248": " modern",
  "6249": " اج",
  "6250": " وقت",
  "6251": "صور",
  "6252": "El",
  "6253": " pet",
  "6254": "Code",
  "6255": " sel",
  "6256": "ead",
  "6257": "通",
  "6258": "uth",
  "6259": "ുത",
  "6260": "itar",
  "6261": "light",
  "6262": "ريقة",
  "6263": "149",
  "6264": " الأمريك",
  "6265": " Ins",
  "6266": "使",
  "6267": "181",
  "6268": " effective",
  "6269": "@@",
  "6270": " Test",
  "6271": "bit",
  "6272": "да",
  "6273": " insurance",
  "6274": "sa",
  "6275": " cand",
  "6276": "也",
  "6277": " cases",
  "6278": " ill",
  "6279": " wait",
  "6280": "SP",
  "6281": " element",
  "6282": " الصين",
  "6283": " essay",
  "6284": "136",
  "6285": " bad",
  "6286": "NO",
  "6287": "rap",
  "6288": "ipe",
  "6289": "With",
  "6290": "240",
  "6291": "137",
  "6292": "total",
  "6293": "client",
  "6294": "131",
  "6295": "ayan",
  "6296": " ও",
  "6297": "more",
  "6298": " players",
  "6299": "011",
  "6300": "ريف",
  "6301": " Austral",
  "6302": "оп",
  "6303": "oma",
  "6304": "EL",
  "6305": " random",
  "6306": " har",
  "6307": "াই",
  "6308": "mit",
  "6309": "\\\":\\\"",
  "6310": "210",
  "6311": " بي",
  "6312": "Α�",
  "6313": " equipment",
  "6314": " drug",
  "6315": " sell",
  "6316": "){\n",
  "6317": "cing",
  "6318": "表",
  "6319": "clud",
  "6320": "Check",
  "6321": "err",
  "6322": "اذا",
  "6323": "اون",
  "6324": "129",
  "6325": " porn",
  "6326": "قيقة",
  "6327": "yon",
  "6328": " recent",
  "6329": "From",
  "6330": "atas",
  "6331": "153",
  "6332": " السل",
  "6333": " ST",
  "6334": " الإن",
  "6335": " Av",
  "6336": "olution",
  "6337": "内",
  "6338": "业",
  "6339": "�",
  "6340": "                                                                ",
  "6341": "_col",
  "6342": " September",
  "6343": "mark",
  "6344": "ضة",
  "6345": "غط",
  "6346": "ياة",
  "6347": "سرائيل",
  "6348": "QU",
  "6349": " fem",
  "6350": " Set",
  "6351": "后",
  "6352": " takes",
  "6353": " يس",
  "6354": " مف",
  "6355": "133",
  "6356": "ност",
  "6357": "انی",
  "6358": " August",
  "6359": " pin",
  "6360": " eine",
  "6361": "براير",
  "6362": "الع",
  "6363": "ной",
  "6364": "ville",
  "6365": " مه",
  "6366": "#\n",
  "6367": "elcome",
  "6368": "ully",
  "6369": " अन",
  "6370": " ·",
  "6371": " Sa",
  "6372": " entire",
  "6373": "orr",
  "6374": "phone",
  "6375": "ু�",
  "6376": "زم",
  "6377": " الفر",
  "6378": "Am",
  "6379": "امعة",
  "6380": " aus",
  "6381": "ila",
  "6382": "ियों",
  "6383": "Class",
  "6384": " Mod",
  "6385": " الوق",
  "6386": "132",
  "6387": " terms",
  "6388": "غر",
  "6389": " took",
  "6390": " usually",
  "6391": "sch",
  "6392": " الذهب",
  "6393": "obre",
  "6394": "িল",
  "6395": "ukan",
  "6396": " طحن",
  "6397": " compon",
  "6398": " official",
  "6399": "\");\n",
  "6400": " ترك",
  "6401": "اي",
  "6402": "حات",
  "6403": " tidak",
  "6404": "nen",
  "6405": "bc",
  "6406": "inger",
  "6407": " feed",
  "6408": "_url",
  "6409": " wor",
  "6410": "Sc",
  "6411": "�",
  "6412": "_value",
  "6413": " County",
  "6414": " safe",
  "6415": " contract",
  "6416": "`,`",
  "6417": " sou",
  "6418": "adas",
  "6419": "|\n",
  "6420": "ес",
  "6421": " correct",
  "6422": " device",
  "6423": "いる",
  "6424": "ln",
  "6425": " الاجتماع",
  "6426": "amin",
  "6427": "abase",
  "6428": "わ",
  "6429": "etime",
  "6430": "mon",
  "6431": "illed",
  "6432": "illa",
  "6433": "308",
  "6434": "ioni",
  "6435": "result",
  "6436": " فقط",
  "6437": "dan",
  "6438": "化",
  "6439": "ेल",
  "6440": "ুল",
  "6441": " المه",
  "6442": " came",
  "6443": "انا",
  "6444": "心",
  "6445": " هل",
  "6446": "irus",
  "6447": " های",
  "6448": " bah",
  "6449": " jug",
  "6450": "زيز",
  "6451": "文",
  "6452": "点",
  "6453": "________",
  "6454": "ishing",
  "6455": "rica",
  "6456": " مشار",
  "6457": "leri",
  "6458": " أخرى",
  "6459": "prise",
  "6460": "043",
  "6461": " بنا",
  "6462": " زي",
  "6463": " board",
  "6464": "teger",
  "6465": "Man",
  "6466": " হয়",
  "6467": "inder",
  "6468": "�",
  "6469": "zz",
  "6470": "Our",
  "6471": " vot",
  "6472": "�",
  "6473": "عدين",
  "6474": "時",
  "6475": "                                   ",
  "6476": "elebr",
  "6477": " six",
  "6478": "Line",
  "6479": " الإم",
  "6480": " Some",
  "6481": "于",
  "6482": " ir",
  "6483": " Book",
  "6484": "_IN",
  "6485": " rates",
  "6486": "_x",
  "6487": "]\n\n",
  "6488": "More",
  "6489": " تھ",
  "6490": " altern",
  "6491": "acing",
  "6492": " .\n",
  "6493": " multiple",
  "6494": "ائم",
  "6495": " Runtime",
  "6496": "obs",
  "6497": "加",
  "6498": " Rem",
  "6499": " البح",
  "6500": " maintain",
  "6501": "event",
  "6502": "ader",
  "6503": "目",
  "6504": " associated",
  "6505": "oms",
  "6506": "down",
  "6507": "di",
  "6508": " وزير",
  "6509": "ige",
  "6510": " ভ",
  "6511": "ça",
  "6512": "aran",
  "6513": "ри",
  "6514": " С",
  "6515": "زب",
  "6516": " Over",
  "6517": " enhance",
  "6518": " والإ",
  "6519": " uns",
  "6520": "nection",
  "6521": "159",
  "6522": " mask",
  "6523": " при",
  "6524": "157",
  "6525": "ميل",
  "6526": " Dec",
  "6527": " []\n",
  "6528": "sm",
  "6529": " nos",
  "6530": " الموقع",
  "6531": "uest",
  "6532": "));\n",
  "6533": "Not",
  "6534": " یہ",
  "6535": "222",
  "6536": "urt",
  "6537": "ക്�",
  "6538": " जो",
  "6539": " التق",
  "6540": " ko",
  "6541": "struct",
  "6542": "Reg",
  "6543": "-se",
  "6544": "mat",
  "6545": "تق",
  "6546": " introdu",
  "6547": " cause",
  "6548": " Direct",
  "6549": "-A",
  "6550": " ét",
  "6551": " ile",
  "6552": "�",
  "6553": " exact",
  "6554": "??",
  "6555": " Anal",
  "6556": " materials",
  "6557": "char",
  "6558": "EA",
  "6559": "аль",
  "6560": " stop",
  "6561": " لق",
  "6562": " Rel",
  "6563": "571",
  "6564": "جنة",
  "6565": " pal",
  "6566": "author",
  "6567": " effort",
  "6568": " January",
  "6569": "ened",
  "6570": " suff",
  "6571": " temper",
  "6572": "सी",
  "6573": " جو",
  "6574": " Ob",
  "6575": "venue",
  "6576": "ادات",
  "6577": " sun",
  "6578": "ğı",
  "6579": ".in",
  "6580": " sin",
  "6581": " taken",
  "6582": " gold",
  "6583": "vention",
  "6584": "\"],",
  "6585": "�",
  "6586": "una",
  "6587": " mis",
  "6588": "rier",
  "6589": "where",
  "6590": "006",
  "6591": "ويت",
  "6592": " yap",
  "6593": " bus",
  "6594": " وط",
  "6595": " dies",
  "6596": " tools",
  "6597": " raise",
  "6598": "resp",
  "6599": " October",
  "6600": "\\_",
  "6601": "ming",
  "6602": "320",
  "6603": " Street",
  "6604": " Play",
  "6605": " player",
  "6606": "ummary",
  "6607": " write",
  "6608": "lor",
  "6609": "atives",
  "6610": "NS",
  "6611": "عادة",
  "6612": "েল",
  "6613": " graph",
  "6614": " اد",
  "6615": " Information",
  "6616": " regul",
  "6617": " receive",
  "6618": "lib",
  "6619": " frequ",
  "6620": "الث",
  "6621": "\\\",\\\"",
  "6622": " Cap",
  "6623": "ريب",
  "6624": " akan",
  "6625": "iro",
  "6626": " half",
  "6627": "ções",
  "6628": "ük",
  "6629": "168",
  "6630": " دار",
  "6631": "hold",
  "6632": "Off",
  "6633": "ديو",
  "6634": "arant",
  "6635": " activity",
  "6636": "سات",
  "6637": " earn",
  "6638": " Program",
  "6639": " \"/",
  "6640": "204",
  "6641": "esis",
  "6642": " نش",
  "6643": " third",
  "6644": " regular",
  "6645": "gor",
  "6646": " صف",
  "6647": "PR",
  "6648": "aining",
  "6649": " ابن",
  "6650": "都",
  "6651": " images",
  "6652": "�",
  "6653": " bonus",
  "6654": " घ",
  "6655": " prefer",
  "6656": " essential",
  "6657": " yourself",
  "6658": "’est",
  "6659": " First",
  "6660": " seek",
  "6661": "asc",
  "6662": " ре",
  "6663": " حال",
  "6664": "ദ",
  "6665": "HO",
  "6666": "actions",
  "6667": " demand",
  "6668": "So",
  "6669": " الذين",
  "6670": "189",
  "6671": "Mar",
  "6672": "body",
  "6673": " methods",
  "6674": "check",
  "6675": " consist",
  "6676": " wide",
  "6677": " bott",
  "6678": " हम",
  "6679": "يام",
  "6680": " currently",
  "6681": "Ed",
  "6682": "ided",
  "6683": " más",
  "6684": " أص",
  "6685": "acks",
  "6686": "azing",
  "6687": "وريا",
  "6688": "pace",
  "6689": " update",
  "6690": " Open",
  "6691": ".net",
  "6692": "ذكر",
  "6693": "171",
  "6694": "कार",
  "6695": "ंड",
  "6696": " из",
  "6697": "শ",
  "6698": " contr",
  "6699": " ib",
  "6700": "quare",
  "6701": "得",
  "6702": "ение",
  "6703": " weeks",
  "6704": "ceed",
  "6705": " soon",
  "6706": "്ള",
  "6707": " مصنع",
  "6708": " idea",
  "6709": "008",
  "6710": " skills",
  "6711": "}$",
  "6712": " ready",
  "6713": " fire",
  "6714": " CA",
  "6715": " dumpster",
  "6716": "افظ",
  "6717": "صوص",
  "6718": " fall",
  "6719": " الدر",
  "6720": " variety",
  "6721": "ellow",
  "6722": "ience",
  "6723": "134",
  "6724": "GB",
  "6725": "163",
  "6726": " medical",
  "6727": "fc",
  "6728": " Web",
  "6729": "ecur",
  "6730": "اعدة",
  "6731": " Cour",
  "6732": " Mag",
  "6733": " subst",
  "6734": "338",
  "6735": " positive",
  "6736": "ров",
  "6737": "acity",
  "6738": " الآن",
  "6739": "هور",
  "6740": " international",
  "6741": "ного",
  "6742": "anger",
  "6743": " sn",
  "6744": "��",
  "6745": " status",
  "6746": "XA",
  "6747": "го",
  "6748": "ROM",
  "6749": " الأح",
  "6750": "258",
  "6751": " individuals",
  "6752": " المزيد",
  "6753": " acqu",
  "6754": "تبر",
  "6755": " especially",
  "6756": "�",
  "6757": "قبل",
  "6758": "ees",
  "6759": "174",
  "6760": " ways",
  "6761": "ть",
  "6762": "ابط",
  "6763": "ائق",
  "6764": "./",
  "6765": " November",
  "6766": "              ",
  "6767": "kat",
  "6768": "height",
  "6769": " anything",
  "6770": "ela",
  "6771": "ungen",
  "6772": "But",
  "6773": "-year",
  "6774": " ba",
  "6775": "回",
  "6776": "Runtime",
  "6777": " Management",
  "6778": " ses",
  "6779": " Die",
  "6780": " forward",
  "6781": " Cam",
  "6782": "\"\"\"\n",
  "6783": " God",
  "6784": "ملكة",
  "6785": " Hol",
  "6786": "フ",
  "6787": " दे",
  "6788": "146",
  "6789": " أبو",
  "6790": " leading",
  "6791": " سعر",
  "6792": "AY",
  "6793": ".de",
  "6794": "ervice",
  "6795": "inition",
  "6796": " الفك",
  "6797": "uis",
  "6798": " charg",
  "6799": "ugar",
  "6800": "js",
  "6801": "ques",
  "6802": "金",
  "6803": " الثاني",
  "6804": " مختلف",
  "6805": "CF",
  "6806": " Windows",
  "6807": "NAME",
  "6808": " pul",
  "6809": " flow",
  "6810": " cannot",
  "6811": "active",
  "6812": " assist",
  "6813": " King",
  "6814": "بحث",
  "6815": "uto",
  "6816": " sud",
  "6817": "�",
  "6818": " alt",
  "6819": "apter",
  "6820": "ague",
  "6821": " مبار",
  "6822": "তে",
  "6823": " للح",
  "6824": " draw",
  "6825": "=$",
  "6826": "Index",
  "6827": " Met",
  "6828": "LECT",
  "6829": "erap",
  "6830": "Event",
  "6831": "230",
  "6832": " wer",
  "6833": "rt",
  "6834": "غي",
  "6835": "اصيل",
  "6836": "incip",
  "6837": "else",
  "6838": "omb",
  "6839": " عليها",
  "6840": "188",
  "6841": "ങ്ങള",
  "6842": " park",
  "6843": " purchase",
  "6844": " files",
  "6845": " varchar",
  "6846": "xy",
  "6847": " collection",
  "6848": " included",
  "6849": "ভ",
  "6850": ".ex",
  "6851": " Author",
  "6852": "ный",
  "6853": "host",
  "6854": "ların",
  "6855": " شهر",
  "6856": " ON",
  "6857": " یک",
  "6858": "ضم",
  "6859": " পর",
  "6860": " العلم",
  "6861": "-D",
  "6862": "206",
  "6863": " الأخ",
  "6864": "zy",
  "6865": " almost",
  "6866": "oub",
  "6867": "illing",
  "6868": " See",
  "6869": " تخ",
  "6870": " غزة",
  "6871": "ql",
  "6872": " reach",
  "6873": " solutions",
  "6874": "سك",
  "6875": " قص",
  "6876": "erve",
  "6877": "eto",
  "6878": " يناير",
  "6879": "401",
  "6880": " micro",
  "6881": "افية",
  "6882": " benefits",
  "6883": "过",
  "6884": "/v",
  "6885": " countries",
  "6886": " এক",
  "6887": "esso",
  "6888": "ിട",
  "6889": "Inter",
  "6890": " hor",
  "6891": " ax",
  "6892": "AAAAAAAA",
  "6893": "nbsp",
  "6894": "187",
  "6895": " matter",
  "6896": "�",
  "6897": "gs",
  "6898": "Set",
  "6899": "ает",
  "6900": "HER",
  "6901": "コ",
  "6902": "xim",
  "6903": "lik",
  "6904": " ball",
  "6905": "�",
  "6906": "comes",
  "6907": "ael",
  "6908": "们",
  "6909": " appear",
  "6910": "ography",
  "6911": "[]",
  "6912": " الجن",
  "6913": " للت",
  "6914": " train",
  "6915": " شي",
  "6916": " chat",
  "6917": "mission",
  "6918": "agon",
  "6919": "ums",
  "6920": " ضد",
  "6921": " \"\\",
  "6922": "_ex",
  "6923": " cert",
  "6924": " located",
  "6925": " Product",
  "6926": " December",
  "6927": "uate",
  "6928": " رم",
  "6929": "iniz",
  "6930": "天",
  "6931": "ورونا",
  "6932": " ж",
  "6933": " (`",
  "6934": "pring",
  "6935": "طار",
  "6936": "State",
  "6937": " allows",
  "6938": " longer",
  "6939": " الهند",
  "6940": " tour",
  "6941": " vs",
  "6942": " diet",
  "6943": " وكان",
  "6944": " influ",
  "6945": "گی",
  "6946": "request",
  "6947": "block",
  "6948": "平",
  "6949": "اية",
  "6950": "165",
  "6951": "نی",
  "6952": " Gold",
  "6953": "BU",
  "6954": " buh",
  "6955": " کار",
  "6956": " ||",
  "6957": "اند",
  "6958": "ുടെ",
  "6959": "avy",
  "6960": " Bu",
  "6961": "Do",
  "6962": "rs",
  "6963": " gas",
  "6964": " Check",
  "6965": "如",
  "6966": "プ",
  "6967": "172",
  "6968": " male",
  "6969": " bud",
  "6970": "اءات",
  "6971": "্ষ",
  "6972": "情",
  "6973": "Me",
  "6974": "دمات",
  "6975": "sych",
  "6976": " عالم",
  "6977": "ाग",
  "6978": "post",
  "6979": "AK",
  "6980": "�",
  "6981": "िश",
  "6982": " activities",
  "6983": " حل",
  "6984": " everyone",
  "6985": "ؤول",
  "6986": " ord",
  "6987": "anta",
  "6988": " ф",
  "6989": "450",
  "6990": " Har",
  "6991": "244",
  "6992": " language",
  "6993": "@example",
  "6994": " arch",
  "6995": "opping",
  "6996": " boy",
  "6997": " Sing",
  "6998": "ロ",
  "6999": " Time",
  "7000": " tal",
  "7001": " recogn",
  "7002": "weight",
  "7003": " legal",
  "7004": "�",
  "7005": " Prof",
  "7006": "OC",
  "7007": "ুর",
  "7008": "ائب",
  "7009": "007",
  "7010": " Ev",
  "7011": "ackage",
  "7012": "edding",
  "7013": " worth",
  "7014": "anz",
  "7015": " skin",
  "7016": "ker",
  "7017": "(l",
  "7018": "irtual",
  "7019": "�",
  "7020": "\\r",
  "7021": " went",
  "7022": "earn",
  "7023": " الحر",
  "7024": " wonder",
  "7025": "amos",
  "7026": " شب",
  "7027": "باد",
  "7028": " hotel",
  "7029": "カ",
  "7030": "ّ",
  "7031": " party",
  "7032": " Use",
  "7033": "主",
  "7034": " tool",
  "7035": " section",
  "7036": "انه",
  "7037": "223",
  "7038": "का",
  "7039": " ka",
  "7040": "ْ",
  "7041": " excellent",
  "7042": " الفلسطين",
  "7043": "فيذ",
  "7044": " تعلي",
  "7045": " فبراير",
  "7046": " cash",
  "7047": " Policy",
  "7048": " London",
  "7049": "بيرة",
  "7050": "ジ",
  "7051": "mb",
  "7052": "eline",
  "7053": ".P",
  "7054": "edi",
  "7055": "mt",
  "7056": "их",
  "7057": " pattern",
  "7058": "erved",
  "7059": " education",
  "7060": "تين",
  "7061": "اعي",
  "7062": "ady",
  "7063": ")(",
  "7064": "215",
  "7065": " CH",
  "7066": " behav",
  "7067": "(b",
  "7068": "images",
  "7069": "179",
  "7070": "abs",
  "7071": "iforn",
  "7072": "rep",
  "7073": " factors",
  "7074": "),(",
  "7075": "يري",
  "7076": "ensor",
  "7077": "225",
  "7078": "\tc",
  "7079": "tty",
  "7080": "ياه",
  "7081": "شة",
  "7082": "ono",
  "7083": " ideas",
  "7084": " root",
  "7085": "212",
  "7086": " থ",
  "7087": " الملك",
  "7088": " عد",
  "7089": " الإلكتروني",
  "7090": "script",
  "7091": "女",
  "7092": "cil",
  "7093": "kin",
  "7094": "当",
  "7095": " الاع",
  "7096": "েশ",
  "7097": " believe",
  "7098": "itan",
  "7099": "################################",
  "7100": "adata",
  "7101": " Class",
  "7102": "176",
  "7103": "بيق",
  "7104": " sample",
  "7105": ")\n\n\n",
  "7106": "�െ",
  "7107": "oday",
  "7108": " أق",
  "7109": "osed",
  "7110": " Mich",
  "7111": " وهي",
  "7112": ".path",
  "7113": "flow",
  "7114": "_index",
  "7115": " AND",
  "7116": "open",
  "7117": "قافة",
  "7118": "动",
  "7119": " العربي",
  "7120": " anim",
  "7121": " �",
  "7122": "185",
  "7123": "Rec",
  "7124": "186",
  "7125": " dro",
  "7126": "-v",
  "7127": " الكرة",
  "7128": " investment",
  "7129": " deep",
  "7130": " decision",
  "7131": " drive",
  "7132": " hit",
  "7133": " منها",
  "7134": " rele",
  "7135": " views",
  "7136": "periment",
  "7137": " column",
  "7138": "009",
  "7139": "attle",
  "7140": " couple",
  "7141": " auch",
  "7142": "يون",
  "7143": "adio",
  "7144": " Govern",
  "7145": "ظيم",
  "7146": "ие",
  "7147": " mix",
  "7148": " Def",
  "7149": " أفضل",
  "7150": " अध",
  "7151": " Power",
  "7152": " studies",
  "7153": "lear",
  "7154": "_key",
  "7155": " ti",
  "7156": " tu",
  "7157": " والد",
  "7158": " ability",
  "7159": " express",
  "7160": "之",
  "7161": " circ",
  "7162": " Russ",
  "7163": "Number",
  "7164": "ली",
  "7165": "428",
  "7166": "ancy",
  "7167": "ويل",
  "7168": ".L",
  "7169": " capital",
  "7170": " بسبب",
  "7171": " خود",
  "7172": "fol",
  "7173": "ilm",
  "7174": " America",
  "7175": " estim",
  "7176": " أمام",
  "7177": " running",
  "7178": " Law",
  "7179": "区",
  "7180": "VID",
  "7181": "lan",
  "7182": " الأمن",
  "7183": " costs",
  "7184": "admin",
  "7185": "erman",
  "7186": " computer",
  "7187": "你",
  "7188": "等",
  "7189": "src",
  "7190": "221",
  "7191": "enz",
  "7192": " ((",
  "7193": " ഒ",
  "7194": " تكون",
  "7195": " assess",
  "7196": "�",
  "7197": "-g",
  "7198": ".B",
  "7199": "مت",
  "7200": " daily",
  "7201": " اپ",
  "7202": "ches",
  "7203": "pty",
  "7204": " Series",
  "7205": " discover",
  "7206": "ुन",
  "7207": "اشر",
  "7208": "rot",
  "7209": "(L",
  "7210": " War",
  "7211": " lay",
  "7212": "ende",
  "7213": "cher",
  "7214": " easily",
  "7215": " woman",
  "7216": " predict",
  "7217": "美",
  "7218": "重",
  "7219": " instit",
  "7220": "تے",
  "7221": "ميم",
  "7222": "osis",
  "7223": "خول",
  "7224": "يرا",
  "7225": " proced",
  "7226": " حق",
  "7227": " reported",
  "7228": "512",
  "7229": " wood",
  "7230": " فيديو",
  "7231": "One",
  "7232": "INT",
  "7233": " region",
  "7234": " ult",
  "7235": " الإنس",
  "7236": "313",
  "7237": "term",
  "7238": " slot",
  "7239": " upon",
  "7240": "apa",
  "7241": "error",
  "7242": " المشار",
  "7243": "%\n",
  "7244": " Mal",
  "7245": "ую",
  "7246": "ました",
  "7247": "iling",
  "7248": "reate",
  "7249": "rm",
  "7250": "رئيس",
  "7251": "oker",
  "7252": "াজ",
  "7253": "width",
  "7254": " كبير",
  "7255": "urer",
  "7256": " pun",
  "7257": "abet",
  "7258": " national",
  "7259": "مي",
  "7260": " innov",
  "7261": "います",
  "7262": "184",
  "7263": "urrency",
  "7264": "-al",
  "7265": "ाया",
  "7266": " touch",
  "7267": "\\uff",
  "7268": "dependent",
  "7269": "ronic",
  "7270": " accur",
  "7271": " mi",
  "7272": " challeng",
  "7273": "ترة",
  "7274": " firm",
  "7275": " limit",
  "7276": "183",
  "7277": " الحكومة",
  "7278": " Pay",
  "7279": " supply",
  "7280": "235",
  "7281": "olar",
  "7282": " القد",
  "7283": "imestamp",
  "7284": "او",
  "7285": " itu",
  "7286": "قديم",
  "7287": "used",
  "7288": " عملية",
  "7289": " possib",
  "7290": "'.",
  "7291": "303",
  "7292": "167",
  "7293": "aries",
  "7294": " suit",
  "7295": " numbers",
  "7296": "اقات",
  "7297": "ori",
  "7298": " Hel",
  "7299": "ls",
  "7300": "aled",
  "7301": " pada",
  "7302": "ifest",
  "7303": " death",
  "7304": "كتور",
  "7305": "ढ",
  "7306": "        \n",
  "7307": "ocol",
  "7308": "�",
  "7309": " الثلاث",
  "7310": " suppl",
  "7311": "arden",
  "7312": "Pe",
  "7313": " tar",
  "7314": "果",
  "7315": " throughout",
  "7316": " groups",
  "7317": " Ber",
  "7318": " Care",
  "7319": "Table",
  "7320": "ns",
  "7321": " جز",
  "7322": " received",
  "7323": "�",
  "7324": "روف",
  "7325": "-Mail",
  "7326": " يا",
  "7327": " kal",
  "7328": "_de",
  "7329": " الأن",
  "7330": "ruit",
  "7331": " rent",
  "7332": " cru",
  "7333": " لع",
  "7334": "(i",
  "7335": "email",
  "7336": "اسات",
  "7337": "aven",
  "7338": "ifornia",
  "7339": "252",
  "7340": "205",
  "7341": "आ",
  "7342": " parts",
  "7343": "�",
  "7344": "low",
  "7345": "جان",
  "7346": "ushing",
  "7347": " أحمد",
  "7348": "éc",
  "7349": "/data",
  "7350": " providing",
  "7351": "NG",
  "7352": " nice",
  "7353": " البحر",
  "7354": "外",
  "7355": "كنولوج",
  "7356": "BF",
  "7357": "VE",
  "7358": "ederal",
  "7359": "لاف",
  "7360": " نہیں",
  "7361": " والح",
  "7362": "صال",
  "7363": " agre",
  "7364": " داخل",
  "7365": " وزارة",
  "7366": "Bu",
  "7367": " المركز",
  "7368": "orge",
  "7369": "ycle",
  "7370": "سين",
  "7371": "اہ",
  "7372": " grad",
  "7373": " ها",
  "7374": " Invest",
  "7375": "atin",
  "7376": "ظمة",
  "7377": "-L",
  "7378": "static",
  "7379": " الدين",
  "7380": " أغ",
  "7381": "اما",
  "7382": " bath",
  "7383": " names",
  "7384": " tout",
  "7385": " Twitter",
  "7386": "グ",
  "7387": "^{",
  "7388": "ـ",
  "7389": "166",
  "7390": "\t\t\t\t\t",
  "7391": " IS",
  "7392": " quite",
  "7393": "ford",
  "7394": "物",
  "7395": " iy",
  "7396": " bisa",
  "7397": " �",
  "7398": " ای",
  "7399": " خام",
  "7400": " رہ",
  "7401": " prep",
  "7402": "ris",
  "7403": " رقم",
  "7404": " upang",
  "7405": " fat",
  "7406": "208",
  "7407": "طلاق",
  "7408": "كية",
  "7409": "uman",
  "7410": "cb",
  "7411": " clients",
  "7412": "Pol",
  "7413": "iture",
  "7414": " decl",
  "7415": "ാത",
  "7416": "Ass",
  "7417": "182",
  "7418": "xff",
  "7419": "Out",
  "7420": "्या",
  "7421": " Men",
  "7422": " Link",
  "7423": " نت",
  "7424": "','','",
  "7425": " argument",
  "7426": " videos",
  "7427": "名",
  "7428": "ogen",
  "7429": "sche",
  "7430": " hope",
  "7431": " rights",
  "7432": " Su",
  "7433": " trying",
  "7434": "icks",
  "7435": " علم",
  "7436": " Most",
  "7437": " Ann",
  "7438": "oding",
  "7439": "Trans",
  "7440": "�",
  "7441": " نحن",
  "7442": "ugin",
  "7443": " Engine",
  "7444": "ूर",
  "7445": "260",
  "7446": "avig",
  "7447": "BS",
  "7448": " increased",
  "7449": "لمة",
  "7450": "চ",
  "7451": " Let",
  "7452": "encia",
  "7453": " مز",
  "7454": "طفال",
  "7455": " coming",
  "7456": "ريقيا",
  "7457": "yg",
  "7458": " کیا",
  "7459": "iance",
  "7460": "意",
  "7461": "一个",
  "7462": " أخ",
  "7463": " highly",
  "7464": " والن",
  "7465": "اعب",
  "7466": " directly",
  "7467": " necessary",
  "7468": "aka",
  "7469": "भी",
  "7470": "insert",
  "7471": "usion",
  "7472": " quickly",
  "7473": "aves",
  "7474": " satisf",
  "7475": "اطق",
  "7476": "xa",
  "7477": " cross",
  "7478": "=False",
  "7479": "rav",
  "7480": "فاع",
  "7481": "oria",
  "7482": "án",
  "7483": "\\\">",
  "7484": "osa",
  "7485": " opportunity",
  "7486": "进",
  "7487": "oz",
  "7488": " pages",
  "7489": " محفو",
  "7490": "ере",
  "7491": " reve",
  "7492": " قرار",
  "7493": " \"^",
  "7494": "xe",
  "7495": "Point",
  "7496": " pressure",
  "7497": "نتاج",
  "7498": "sha",
  "7499": "غم",
  "7500": " conduct",
  "7501": " February",
  "7502": "(r",
  "7503": "ersion",
  "7504": " speed",
  "7505": "211",
  "7506": "ete",
  "7507": "kw",
  "7508": "هما",
  "7509": " PR",
  "7510": " compared",
  "7511": "لی",
  "7512": "টি",
  "7513": " Public",
  "7514": "ran",
  "7515": "开",
  "7516": "道",
  "7517": " الأولى",
  "7518": " Mac",
  "7519": "/S",
  "7520": "Cpp",
  "7521": " लग",
  "7522": "Ne",
  "7523": " Great",
  "7524": "感",
  "7525": " KEY",
  "7526": "umin",
  "7527": "र्म",
  "7528": " hon",
  "7529": "�",
  "7530": " told",
  "7531": " تاريخ",
  "7532": " safety",
  "7533": " seem",
  "7534": "280",
  "7535": "_dir",
  "7536": " الخاصة",
  "7537": "agen",
  "7538": "VER",
  "7539": "相",
  "7540": " wall",
  "7541": "015",
  "7542": " Internet",
  "7543": " طريق",
  "7544": " pang",
  "7545": " جر",
  "7546": " load",
  "7547": "现",
  "7548": " applications",
  "7549": " projects",
  "7550": "quence",
  "7551": " numer",
  "7552": "Ang",
  "7553": " gö",
  "7554": " delivery",
  "7555": "اهدة",
  "7556": "ictionary",
  "7557": "anto",
  "7558": " वाल",
  "7559": "169",
  "7560": " tor",
  "7561": ",C",
  "7562": " continu",
  "7563": "orning",
  "7564": "؟",
  "7565": "ملة",
  "7566": " طب",
  "7567": " practice",
  "7568": "hood",
  "7569": "زام",
  "7570": " temp",
  "7571": "وبة",
  "7572": "ाब",
  "7573": "aste",
  "7574": " Phil",
  "7575": " built",
  "7576": "aug",
  "7577": "177",
  "7578": "207",
  "7579": "wan",
  "7580": " उस",
  "7581": "abled",
  "7582": "imin",
  "7583": "uint",
  "7584": "ിന്�",
  "7585": "rey",
  "7586": "ент",
  "7587": " Brit",
  "7588": "213",
  "7589": "osition",
  "7590": " استخدام",
  "7591": " cer",
  "7592": "aming",
  "7593": " outside",
  "7594": " Associ",
  "7595": " الوطني",
  "7596": "File",
  "7597": " Mach",
  "7598": " Big",
  "7599": "_test",
  "7600": " shown",
  "7601": "افق",
  "7602": "代",
  "7603": "mak",
  "7604": " multi",
  "7605": " student",
  "7606": " pm",
  "7607": " Ke",
  "7608": "thern",
  "7609": "ев",
  "7610": " دی",
  "7611": " الصف",
  "7612": "ുള",
  "7613": " stress",
  "7614": " plans",
  "7615": "unity",
  "7616": "214",
  "7617": "طن",
  "7618": " About",
  "7619": " التص",
  "7620": ".print",
  "7621": "178",
  "7622": "ıy",
  "7623": " photos",
  "7624": " behind",
  "7625": " round",
  "7626": " الخارج",
  "7627": ".out",
  "7628": "اهرة",
  "7629": " mess",
  "7630": " UR",
  "7631": " ഉ",
  "7632": "െന്ന",
  "7633": "ут",
  "7634": "oles",
  "7635": "из",
  "7636": " viol",
  "7637": " mid",
  "7638": "uv",
  "7639": " roll",
  "7640": " السود",
  "7641": " для",
  "7642": "ेख",
  "7643": " rat",
  "7644": " books",
  "7645": "েছে",
  "7646": "EG",
  "7647": "Size",
  "7648": "wise",
  "7649": " mechan",
  "7650": " trade",
  "7651": " الحقوق",
  "7652": " الشيخ",
  "7653": " ‘",
  "7654": "ancing",
  "7655": "ادث",
  "7656": "bling",
  "7657": " nous",
  "7658": " tro",
  "7659": "012",
  "7660": " While",
  "7661": " hat",
  "7662": " restaur",
  "7663": "209",
  "7664": "216",
  "7665": " unit",
  "7666": "ので",
  "7667": " trust",
  "7668": "\\ufffd",
  "7669": " (\n",
  "7670": " disease",
  "7671": " elements",
  "7672": "安",
  "7673": " সম",
  "7674": " ID",
  "7675": " primary",
  "7676": "عال",
  "7677": "030",
  "7678": " avoid",
  "7679": " وأن",
  "7680": "لمان",
  "7681": " Key",
  "7682": "च्�",
  "7683": "思",
  "7684": " Sen",
  "7685": "ocr",
  "7686": " requirements",
  "7687": " Office",
  "7688": " Form",
  "7689": " مدينة",
  "7690": "/M",
  "7691": " clin",
  "7692": "_var",
  "7693": " Sal",
  "7694": " resources",
  "7695": "atrix",
  "7696": " عمر",
  "7697": " <=",
  "7698": "iding",
  "7699": "istem",
  "7700": "-time",
  "7701": " لبن",
  "7702": "ধ",
  "7703": ">(",
  "7704": " मह",
  "7705": "wner",
  "7706": "olf",
  "7707": " سل",
  "7708": "حلة",
  "7709": "_j",
  "7710": "ashion",
  "7711": " inj",
  "7712": "selves",
  "7713": "umer",
  "7714": "وی",
  "7715": "ونية",
  "7716": "уд",
  "7717": " Log",
  "7718": " جدا",
  "7719": "оч",
  "7720": "062",
  "7721": "-T",
  "7722": "olo",
  "7723": " proper",
  "7724": " asked",
  "7725": "ായി",
  "7726": "�",
  "7727": " التعليم",
  "7728": "section",
  "7729": " الخط",
  "7730": " court",
  "7731": " sound",
  "7732": "سان",
  "7733": "..\n",
  "7734": " construction",
  "7735": " mut",
  "7736": "サ",
  "7737": "ас",
  "7738": " isn",
  "7739": " optim",
  "7740": " Table",
  "7741": " Bel",
  "7742": "itute",
  "7743": " rock",
  "7744": " transport",
  "7745": " aim",
  "7746": " التس",
  "7747": "-pro",
  "7748": "اصر",
  "7749": ".edu",
  "7750": "مح",
  "7751": "iet",
  "7752": " label",
  "7753": " hy",
  "7754": "ocs",
  "7755": "üm",
  "7756": " juga",
  "7757": " ध",
  "7758": " Year",
  "7759": " وذلك",
  "7760": " يجب",
  "7761": " Company",
  "7762": "ensions",
  "7763": " gets",
  "7764": "OU",
  "7765": "covery",
  "7766": " دو",
  "7767": "LC",
  "7768": "�",
  "7769": "ecurity",
  "7770": " happy",
  "7771": "onday",
  "7772": "inin",
  "7773": "كتوبر",
  "7774": "�",
  "7775": "تلال",
  "7776": "alan",
  "7777": "231",
  "7778": " release",
  "7779": " states",
  "7780": " nature",
  "7781": "peed",
  "7782": " sleep",
  "7783": "Acc",
  "7784": "{}",
  "7785": "实",
  "7786": " Japan",
  "7787": " insp",
  "7788": " مليون",
  "7789": "ership",
  "7790": " под",
  "7791": " >>",
  "7792": " strength",
  "7793": " describ",
  "7794": "exas",
  "7795": " ര",
  "7796": "ونس",
  "7797": " leave",
  "7798": "�",
  "7799": " Bre",
  "7800": " Sil",
  "7801": " المل",
  "7802": " White",
  "7803": " stra",
  "7804": "irit",
  "7805": "्द",
  "7806": " واحد",
  "7807": "tex",
  "7808": "_L",
  "7809": " baş",
  "7810": " Search",
  "7811": "365",
  "7812": "Input",
  "7813": "_mod",
  "7814": "310",
  "7815": "ैं",
  "7816": " rather",
  "7817": "RT",
  "7818": " format",
  "7819": " Dem",
  "7820": "conf",
  "7821": " probably",
  "7822": "PC",
  "7823": "233",
  "7824": "ducation",
  "7825": " بع",
  "7826": " لد",
  "7827": "افي",
  "7828": "ढ़",
  "7829": "�",
  "7830": "ുന്നു",
  "7831": "OUR",
  "7832": " موس",
  "7833": "yan",
  "7834": "�",
  "7835": "ीन",
  "7836": "286",
  "7837": " अपने",
  "7838": "))\n\n",
  "7839": "�",
  "7840": "افظة",
  "7841": "\t\n",
  "7842": " وجود",
  "7843": " trading",
  "7844": "şt",
  "7845": " guide",
  "7846": "�",
  "7847": "_ch",
  "7848": "234",
  "7849": "Br",
  "7850": " comments",
  "7851": "تبار",
  "7852": " economic",
  "7853": "rio",
  "7854": "mi",
  "7855": " что",
  "7856": " fresh",
  "7857": "uster",
  "7858": " sed",
  "7859": " prevent",
  "7860": "224",
  "7861": " held",
  "7862": " Att",
  "7863": "PO",
  "7864": "_dict",
  "7865": " immedi",
  "7866": "ambda",
  "7867": "update",
  "7868": " celebr",
  "7869": "245",
  "7870": "保",
  "7871": " register",
  "7872": " East",
  "7873": "bon",
  "7874": "ुक",
  "7875": ")\r\n",
  "7876": " \"@",
  "7877": " score",
  "7878": "afe",
  "7879": "254",
  "7880": " sono",
  "7881": " مجموعة",
  "7882": " demon",
  "7883": " الناس",
  "7884": " К",
  "7885": "ship",
  "7886": "थ",
  "7887": " pros",
  "7888": "(a",
  "7889": ".</",
  "7890": "itect",
  "7891": "شي",
  "7892": "信",
  "7893": "ابعة",
  "7894": "iano",
  "7895": " net",
  "7896": " advant",
  "7897": "xd",
  "7898": " Canada",
  "7899": " تحد",
  "7900": " وخ",
  "7901": " comb",
  "7902": " menj",
  "7903": "oro",
  "7904": " cart",
  "7905": "علومات",
  "7906": " fol",
  "7907": "304",
  "7908": " considered",
  "7909": "gorith",
  "7910": " छ",
  "7911": "hen",
  "7912": "................",
  "7913": " Ltd",
  "7914": "ky",
  "7915": " عرض",
  "7916": " atau",
  "7917": "xb",
  "7918": " رياض",
  "7919": " الجه",
  "7920": "اعية",
  "7921": " الرو",
  "7922": " الدولة",
  "7923": " jobs",
  "7924": "Inst",
  "7925": "ği",
  "7926": " Return",
  "7927": " كم",
  "7928": " للإ",
  "7929": " soci",
  "7930": " attention",
  "7931": " dib",
  "7932": "App",
  "7933": "第",
  "7934": "050",
  "7935": " song",
  "7936": " actual",
  "7937": " مشروع",
  "7938": " Buy",
  "7939": "173",
  "7940": " auth",
  "7941": " ٹ",
  "7942": "α",
  "7943": " الحل",
  "7944": "/h",
  "7945": ".W",
  "7946": "antes",
  "7947": "aft",
  "7948": " ڈ",
  "7949": "imento",
  "7950": " door",
  "7951": " transfer",
  "7952": "\\\";",
  "7953": "edic",
  "7954": "imb",
  "7955": " playing",
  "7956": "wer",
  "7957": "ولايات",
  "7958": " reli",
  "7959": "�",
  "7960": " brow",
  "7961": " ليس",
  "7962": " active",
  "7963": "期",
  "7964": " عب",
  "7965": "حا",
  "7966": " ألف",
  "7967": " advert",
  "7968": "واج",
  "7969": "centr",
  "7970": " Show",
  "7971": "Test",
  "7972": "band",
  "7973": "SET",
  "7974": " President",
  "7975": " خاصة",
  "7976": "numerator",
  "7977": "-type",
  "7978": "ий",
  "7979": " حر",
  "7980": "ync",
  "7981": " bien",
  "7982": " Mil",
  "7983": "明",
  "7984": " Mem",
  "7985": " administr",
  "7986": " emerg",
  "7987": "emplate",
  "7988": " Back",
  "7989": "_EX",
  "7990": "ميس",
  "7991": "270",
  "7992": "isions",
  "7993": "unn",
  "7994": " Name",
  "7995": " fuck",
  "7996": "ريط",
  "7997": " tag",
  "7998": "enty",
  "7999": " storage",
  "8000": " anyone",
  "8001": "メ",
  "8002": "عداد",
  "8003": "�",
  "8004": " capt",
  "8005": "<td",
  "8006": "iller",
  "8007": " diagn",
  "8008": " definit",
  "8009": " ao",
  "8010": "aten",
  "8011": "aign",
  "8012": "ন্�",
  "8013": " town",
  "8014": " prop",
  "8015": " exerc",
  "8016": " العم",
  "8017": "�",
  "8018": " charge",
  "8019": " раз",
  "8020": " فن",
  "8021": " uses",
  "8022": " Dan",
  "8023": "':\n",
  "8024": " حم",
  "8025": " Vol",
  "8026": ".co",
  "8027": "232",
  "8028": "ynamic",
  "8029": "jo",
  "8030": "hal",
  "8031": "أي",
  "8032": "ترنت",
  "8033": " tree",
  "8034": "suba",
  "8035": "提",
  "8036": ".js",
  "8037": " smart",
  "8038": "\":-",
  "8039": " العق",
  "8040": " kan",
  "8041": " Les",
  "8042": "ിത",
  "8043": " ground",
  "8044": " promot",
  "8045": " Video",
  "8046": " consult",
  "8047": "cs",
  "8048": "SA",
  "8049": " concept",
  "8050": "уч",
  "8051": " Good",
  "8052": " nothing",
  "8053": "ائی",
  "8054": " محفوظة",
  "8055": "ائف",
  "8056": "ına",
  "8057": "asons",
  "8058": "�",
  "8059": " बन",
  "8060": " Ital",
  "8061": "301",
  "8062": " tamb",
  "8063": " تل",
  "8064": ".__",
  "8065": "cope",
  "8066": " published",
  "8067": " rais",
  "8068": " candid",
  "8069": " Mark",
  "8070": " نظر",
  "8071": "ريل",
  "8072": "ooking",
  "8073": "റ്റ",
  "8074": " जात",
  "8075": " dei",
  "8076": "but",
  "8077": "علق",
  "8078": " св",
  "8079": "player",
  "8080": "inn",
  "8081": "issions",
  "8082": " sobre",
  "8083": "aca",
  "8084": "位",
  "8085": " note",
  "8086": " dir",
  "8087": " properties",
  "8088": " /*",
  "8089": " جنوب",
  "8090": " kom",
  "8091": "Exception",
  "8092": " float",
  "8093": " الدولي",
  "8094": "itte",
  "8095": "has",
  "8096": "�",
  "8097": "status",
  "8098": "riving",
  "8099": " معدات",
  "8100": "mical",
  "8101": " Priv",
  "8102": "mos",
  "8103": " مك",
  "8104": " transform",
  "8105": " البي",
  "8106": "xc",
  "8107": "�",
  "8108": " nut",
  "8109": "сп",
  "8110": "ছ",
  "8111": "strong",
  "8112": " His",
  "8113": "uri",
  "8114": "302",
  "8115": " Friday",
  "8116": "\u0000\u0000\u0000\u0000",
  "8117": "created",
  "8118": " نشر",
  "8119": " Super",
  "8120": "ea",
  "8121": "heel",
  "8122": " USA",
  "8123": " والتي",
  "8124": "看",
  "8125": "porate",
  "8126": " نوع",
  "8127": "بلغ",
  "8128": " args",
  "8129": "ति",
  "8130": " commercial",
  "8131": "750",
  "8132": "تفاع",
  "8133": "----------------------------------------------------------------",
  "8134": "iner",
  "8135": "سبوع",
  "8136": " II",
  "8137": "cut",
  "8138": " ബ",
  "8139": " lines",
  "8140": "量",
  "8141": "amework",
  "8142": "375",
  "8143": "Def",
  "8144": " تلك",
  "8145": " तक",
  "8146": " Make",
  "8147": " www",
  "8148": "ход",
  "8149": " واست",
  "8150": " أهم",
  "8151": "rome",
  "8152": "Please",
  "8153": "acking",
  "8154": " voc",
  "8155": "الس",
  "8156": "226",
  "8157": "Rel",
  "8158": " बाद",
  "8159": "include",
  "8160": " copy",
  "8161": "اهم",
  "8162": " العد",
  "8163": " بما",
  "8164": " surface",
  "8165": "ご",
  "8166": " برنامج",
  "8167": " السلام",
  "8168": "িয়ে",
  "8169": " helps",
  "8170": " reduce",
  "8171": " مض",
  "8172": " band",
  "8173": "网",
  "8174": " peng",
  "8175": "机",
  "8176": " Press",
  "8177": " este",
  "8178": "unday",
  "8179": "рав",
  "8180": "間",
  "8181": "_tr",
  "8182": " gives",
  "8183": "bih",
  "8184": " selection",
  "8185": " Mer",
  "8186": " dal",
  "8187": "着",
  "8188": "انت",
  "8189": " starting",
  "8190": "取",
  "8191": "Go",
  "8192": "orial",
  "8193": "Ent",
  "8194": "سكر",
  "8195": "iciency",
  "8196": " بالإ",
  "8197": "720",
  "8198": " developed",
  "8199": "利",
  "8200": " लोग",
  "8201": "545",
  "8202": "ipped",
  "8203": "र्त",
  "8204": "П",
  "8205": "door",
  "8206": "[:",
  "8207": "++++++++",
  "8208": " Find",
  "8209": "words",
  "8210": "lation",
  "8211": "次",
  "8212": " più",
  "8213": " adalah",
  "8214": "227",
  "8215": " دولار",
  "8216": " cancer",
  "8217": "رش",
  "8218": "Phone",
  "8219": " California",
  "8220": "ोज",
  "8221": " mort",
  "8222": "unit",
  "8223": "ेस",
  "8224": " fail",
  "8225": " fore",
  "8226": "とい",
  "8227": "044",
  "8228": "OK",
  "8229": "يني",
  "8230": "340",
  "8231": " Real",
  "8232": " حالة",
  "8233": "lying",
  "8234": "rench",
  "8235": " उप",
  "8236": "SG",
  "8237": " star",
  "8238": " adjust",
  "8239": "aire",
  "8240": " cm",
  "8241": " buhok",
  "8242": " Road",
  "8243": "水",
  "8244": " ولي",
  "8245": "�",
  "8246": "graph",
  "8247": "under",
  "8248": " \"${",
  "8249": " تا",
  "8250": "ungs",
  "8251": " اسم",
  "8252": " ثلاث",
  "8253": ":\\\"",
  "8254": "TP",
  "8255": "INE",
  "8256": "asan",
  "8257": "املة",
  "8258": "abe",
  "8259": " വി�",
  "8260": "-re",
  "8261": " green",
  "8262": " Pal",
  "8263": "ष",
  "8264": "元",
  "8265": "üz",
  "8266": "وله",
  "8267": " difference",
  "8268": "�",
  "8269": " liter",
  "8270": " OR",
  "8271": " profile",
  "8272": "343",
  "8273": "واع",
  "8274": " कहा",
  "8275": " programs",
  "8276": "cp",
  "8277": " monitor",
  "8278": "330",
  "8279": "DT",
  "8280": "جميع",
  "8281": "aria",
  "8282": "219",
  "8283": " کم",
  "8284": "xFF",
  "8285": "قه",
  "8286": " jour",
  "8287": "ارير",
  "8288": "040",
  "8289": " sind",
  "8290": "aturday",
  "8291": " evidence",
  "8292": " height",
  "8293": " mode",
  "8294": "Generic",
  "8295": " wanted",
  "8296": "iny",
  "8297": " road",
  "8298": " tele",
  "8299": "ുള്ള",
  "8300": " fab",
  "8301": " prot",
  "8302": "env",
  "8303": "്മ",
  "8304": " ot",
  "8305": "انة",
  "8306": " Green",
  "8307": ".R",
  "8308": "式",
  "8309": "with",
  "8310": " ''",
  "8311": "(),",
  "8312": " General",
  "8313": " fine",
  "8314": " Н",
  "8315": " كتاب",
  "8316": "هن",
  "8317": " राज",
  "8318": "anti",
  "8319": " എന്ന",
  "8320": " cool",
  "8321": "raint",
  "8322": " College",
  "8323": "pet",
  "8324": "agi",
  "8325": " compar",
  "8326": " نج",
  "8327": " اللي",
  "8328": " مركز",
  "8329": "238",
  "8330": "ある",
  "8331": "~~",
  "8332": "其",
  "8333": "ूप",
  "8334": "िंग",
  "8335": " strategy",
  "8336": "FO",
  "8337": " البحث",
  "8338": "Status",
  "8339": " Indust",
  "8340": "064",
  "8341": "entes",
  "8342": "داد",
  "8343": "eller",
  "8344": "icate",
  "8345": " command",
  "8346": "dn",
  "8347": "grad",
  "8348": " Wash",
  "8349": " neighb",
  "8350": " ones",
  "8351": "312",
  "8352": "apping",
  "8353": " Also",
  "8354": " bin",
  "8355": " server",
  "8356": "今",
  "8357": " Ter",
  "8358": " kon",
  "8359": "ولي",
  "8360": " मिल",
  "8361": "burg",
  "8362": "house",
  "8363": "كا",
  "8364": "然",
  "8365": "igital",
  "8366": " recently",
  "8367": "bed",
  "8368": " late",
  "8369": "هدف",
  "8370": " रहे",
  "8371": "315",
  "8372": "reek",
  "8373": " Ve",
  "8374": " pills",
  "8375": "ulti",
  "8376": " businesses",
  "8377": " kitchen",
  "8378": "而",
  "8379": "properties",
  "8380": "obj",
  "8381": "ठ",
  "8382": " مث",
  "8383": "لع",
  "8384": "249",
  "8385": " absol",
  "8386": "berg",
  "8387": " ল",
  "8388": " یا",
  "8389": "ologies",
  "8390": "np",
  "8391": "352",
  "8392": " wish",
  "8393": " amazing",
  "8394": " physical",
  "8395": "501",
  "8396": "angle",
  "8397": " Je",
  "8398": " Other",
  "8399": "ordinates",
  "8400": "可以",
  "8401": " يؤ",
  "8402": " club",
  "8403": "inos",
  "8404": "マ",
  "8405": " instead",
  "8406": "كنولوجيا",
  "8407": "شن",
  "8408": " organiz",
  "8409": "اسب",
  "8410": "ظهر",
  "8411": "SC",
  "8412": " бы",
  "8413": "更",
  "8414": "ذر",
  "8415": "respond",
  "8416": "�",
  "8417": "को",
  "8418": " looks",
  "8419": " David",
  "8420": " الأمر",
  "8421": ":\n\n",
  "8422": "iana",
  "8423": " kids",
  "8424": "hy",
  "8425": "Ind",
  "8426": " chance",
  "8427": " functions",
  "8428": "्न",
  "8429": " Technology",
  "8430": "ائج",
  "8431": " Report",
  "8432": " القانون",
  "8433": "217",
  "8434": "ая",
  "8435": " Es",
  "8436": "items",
  "8437": " cat",
  "8438": "241",
  "8439": "�",
  "8440": "\tN",
  "8441": "_address",
  "8442": " النس",
  "8443": "select",
  "8444": "-e",
  "8445": "%D",
  "8446": "ൈ",
  "8447": "UL",
  "8448": " Custom",
  "8449": "User",
  "8450": "nergy",
  "8451": "imo",
  "8452": "efore",
  "8453": "218",
  "8454": "(\\",
  "8455": "いた",
  "8456": "रे",
  "8457": "غيرة",
  "8458": "Item",
  "8459": "�ं",
  "8460": "priate",
  "8461": "場",
  "8462": "بو",
  "8463": "239",
  "8464": " الوقت",
  "8465": " France",
  "8466": " Development",
  "8467": "estion",
  "8468": "istrict",
  "8469": " pagk",
  "8470": "IO",
  "8471": "323",
  "8472": " vac",
  "8473": "ESS",
  "8474": " income",
  "8475": "305",
  "8476": " Hand",
  "8477": " rob",
  "8478": "229",
  "8479": " princip",
  "8480": "known",
  "8481": "�",
  "8482": "�",
  "8483": " overall",
  "8484": "anno",
  "8485": "ذي",
  "8486": "}/",
  "8487": "285",
  "8488": "്വ",
  "8489": "rupt",
  "8490": "oes",
  "8491": "يار",
  "8492": "ест",
  "8493": " sold",
  "8494": " payment",
  "8495": "بال",
  "8496": "ेज",
  "8497": "تدى",
  "8498": " EX",
  "8499": "larak",
  "8500": "316",
  "8501": "ku",
  "8502": "237",
  "8503": " struct",
  "8504": " filter",
  "8505": "rd",
  "8506": "�",
  "8507": " عدم",
  "8508": " attempt",
  "8509": " Mart",
  "8510": "अ",
  "8511": " Sex",
  "8512": "ART",
  "8513": "care",
  "8514": " written",
  "8515": "Posted",
  "8516": " sua",
  "8517": " progress",
  "8518": "فا",
  "8519": " limited",
  "8520": "fb",
  "8521": " سنة",
  "8522": " لی",
  "8523": " الحوث",
  "8524": " situation",
  "8525": "ustr",
  "8526": " اخبار",
  "8527": "unning",
  "8528": " الشخص",
  "8529": " الأد",
  "8530": "С",
  "8531": "ometry",
  "8532": " Every",
  "8533": "ضي",
  "8534": " extrem",
  "8535": " وہ",
  "8536": "QL",
  "8537": " بود",
  "8538": " فقد",
  "8539": " grat",
  "8540": "/papers",
  "8541": "ARY",
  "8542": "281",
  "8543": " kay",
  "8544": "Ι",
  "8545": " الاقتصاد",
  "8546": "وبا",
  "8547": "فظ",
  "8548": "正",
  "8549": "dule",
  "8550": " medic",
  "8551": " وضع",
  "8552": "്ക്ക",
  "8553": " Full",
  "8554": "مش",
  "8555": " spot",
  "8556": "اا",
  "8557": " */",
  "8558": " tip",
  "8559": " mention",
  "8560": "صرية",
  "8561": "程",
  "8562": " tod",
  "8563": "-de",
  "8564": "特",
  "8565": " Sign",
  "8566": "され",
  "8567": ".nber",
  "8568": "三",
  "8569": "istory",
  "8570": " किस",
  "8571": "icens",
  "8572": "/g",
  "8573": "ildren",
  "8574": "frame",
  "8575": " ?\n",
  "8576": " oder",
  "8577": " باش",
  "8578": " career",
  "8579": " bis",
  "8580": "Ste",
  "8581": "دية",
  "8582": " بيان",
  "8583": "enge",
  "8584": " उन्ह",
  "8585": "ategories",
  "8586": " نيو",
  "8587": "aires",
  "8588": "ICAg",
  "8589": " situ",
  "8590": "هرب",
  "8591": "Your",
  "8592": " stream",
  "8593": "617",
  "8594": "间",
  "8595": "lean",
  "8596": " former",
  "8597": "Engine",
  "8598": " width",
  "8599": " Water",
  "8600": "332",
  "8601": "حت",
  "8602": " aspect",
  "8603": "ാല",
  "8604": "inese",
  "8605": "021",
  "8606": " dry",
  "8607": "ova",
  "8608": "228",
  "8609": "’un",
  "8610": "php",
  "8611": "agra",
  "8612": " huge",
  "8613": " floor",
  "8614": "ورو",
  "8615": "olved",
  "8616": "lands",
  "8617": "/A",
  "8618": " منه",
  "8619": "्ष",
  "8620": " towards",
  "8621": " girls",
  "8622": " Jack",
  "8623": " achieve",
  "8624": "ارت",
  "8625": " goal",
  "8626": "\\\"\\",
  "8627": "236",
  "8628": "كو",
  "8629": ".F",
  "8630": "bum",
  "8631": " hands",
  "8632": " दो",
  "8633": "eles",
  "8634": "space",
  "8635": "raction",
  "8636": " president",
  "8637": " remove",
  "8638": "\tfor",
  "8639": " متر",
  "8640": "سط",
  "8641": " furn",
  "8642": " التط",
  "8643": "Sup",
  "8644": " Social",
  "8645": " المط",
  "8646": "ضان",
  "8647": "ools",
  "8648": " jud",
  "8649": " القط",
  "8650": "与",
  "8651": "_res",
  "8652": " demonstr",
  "8653": "よう",
  "8654": "Can",
  "8655": " حقوق",
  "8656": "294",
  "8657": "ière",
  "8658": "251",
  "8659": "erek",
  "8660": "स्त",
  "8661": "解",
  "8662": " المملكة",
  "8663": "िम",
  "8664": "253",
  "8665": "راءة",
  "8666": " пол",
  "8667": " Mr",
  "8668": "util",
  "8669": "شرة",
  "8670": "经",
  "8671": "件",
  "8672": " window",
  "8673": "eder",
  "8674": " [[",
  "8675": " compr",
  "8676": " euro",
  "8677": " -\n",
  "8678": "321",
  "8679": " Click",
  "8680": "ben",
  "8681": " \"\",\n",
  "8682": "ко",
  "8683": " Arch",
  "8684": " Download",
  "8685": "257",
  "8686": "370",
  "8687": "آن",
  "8688": " Bi",
  "8689": " partners",
  "8690": "zi",
  "8691": "�",
  "8692": " fix",
  "8693": "الى",
  "8694": " الدولية",
  "8695": "crete",
  "8696": "main",
  "8697": "建",
  "8698": " instance",
  "8699": " »\n",
  "8700": "Lo",
  "8701": "076",
  "8702": "TC",
  "8703": "اره",
  "8704": " نظام",
  "8705": " ideal",
  "8706": " مارس",
  "8707": "Other",
  "8708": "elta",
  "8709": "oves",
  "8710": "DS",
  "8711": " Australia",
  "8712": " conv",
  "8713": " وما",
  "8714": " pretty",
  "8715": " Gen",
  "8716": " Ext",
  "8717": "243",
  "8718": "ربة",
  "8719": "*/",
  "8720": " Prov",
  "8721": " Ma",
  "8722": "names",
  "8723": " increasing",
  "8724": " أجل",
  "8725": " про",
  "8726": "ानी",
  "8727": "गी",
  "8728": "-R",
  "8729": "307",
  "8730": " اقتصاد",
  "8731": "=\"#",
  "8732": " sports",
  "8733": "Top",
  "8734": " لدي",
  "8735": "ид",
  "8736": " werden",
  "8737": "alled",
  "8738": " عندما",
  "8739": "UB",
  "8740": " करें",
  "8741": " regarding",
  "8742": "ocket",
  "8743": "ৃ",
  "8744": "PA",
  "8745": "cons",
  "8746": ".y",
  "8747": "373",
  "8748": " Bay",
  "8749": "Equal",
  "8750": " concentr",
  "8751": "480",
  "8752": "Mon",
  "8753": "248",
  "8754": "alpha",
  "8755": "hl",
  "8756": "ensity",
  "8757": "414",
  "8758": "420",
  "8759": "あり",
  "8760": "্থ",
  "8761": " replace",
  "8762": " كبيرة",
  "8763": " resid",
  "8764": " anti",
  "8765": "_a",
  "8766": " guid",
  "8767": "Feature",
  "8768": "�",
  "8769": "abin",
  "8770": "سام",
  "8771": " understanding",
  "8772": "ഴ",
  "8773": " Main",
  "8774": "ضاف",
  "8775": "306",
  "8776": " Bet",
  "8777": "ulo",
  "8778": " Apple",
  "8779": "وء",
  "8780": "制",
  "8781": "inated",
  "8782": "imp",
  "8783": " أبي",
  "8784": "ড়",
  "8785": "242",
  "8786": " obj",
  "8787": "'),(",
  "8788": " parent",
  "8789": "pected",
  "8790": "キ",
  "8791": "ظيف",
  "8792": "В",
  "8793": " hour",
  "8794": " Fre",
  "8795": "ुत",
  "8796": " doll",
  "8797": " meeting",
  "8798": "ji",
  "8799": " так",
  "8800": "411",
  "8801": " background",
  "8802": " seems",
  "8803": " pand",
  "8804": "299",
  "8805": " conven",
  "8806": " ip",
  "8807": " كورونا",
  "8808": " Christmas",
  "8809": "eur",
  "8810": " partner",
  "8811": "force",
  "8812": "Gl",
  "8813": " drink",
  "8814": " Week",
  "8815": "onom",
  "8816": "265",
  "8817": "NC",
  "8818": "ο",
  "8819": "Free",
  "8820": "vas",
  "8821": "080",
  "8822": "iser",
  "8823": " shape",
  "8824": "にな",
  "8825": "current",
  "8826": " ساعة",
  "8827": "_date",
  "8828": " PC",
  "8829": " بج",
  "8830": " الجديدة",
  "8831": " creating",
  "8832": " therap",
  "8833": "/C",
  "8834": " شد",
  "8835": "مع",
  "8836": " returns",
  "8837": " completely",
  "8838": "abi",
  "8839": "table",
  "8840": "264",
  "8841": " relev",
  "8842": " counter",
  "8843": " تب",
  "8844": "েই",
  "8845": "mu",
  "8846": "見",
  "8847": "asyon",
  "8848": "IZ",
  "8849": "ebut",
  "8850": "016",
  "8851": " spect",
  "8852": "fs",
  "8853": "ursday",
  "8854": " sor",
  "8855": " dark",
  "8856": " Person",
  "8857": "’é",
  "8858": " serious",
  "8859": "262",
  "8860": "method",
  "8861": " Char",
  "8862": "ന്ത",
  "8863": " Vis",
  "8864": " Central",
  "8865": "014",
  "8866": "033",
  "8867": "345",
  "8868": "FL",
  "8869": " fully",
  "8870": "itary",
  "8871": "324",
  "8872": " involved",
  "8873": " قسم",
  "8874": " devices",
  "8875": "404",
  "8876": " doc",
  "8877": "272",
  "8878": " context",
  "8879": " eyes",
  "8880": ".\\",
  "8881": " Android",
  "8882": "ivil",
  "8883": "ncia",
  "8884": " olarak",
  "8885": " Any",
  "8886": "019",
  "8887": "-H",
  "8888": "<int",
  "8889": " vehicle",
  "8890": " certainly",
  "8891": " contains",
  "8892": "eful",
  "8893": "ydro",
  "8894": "ffic",
  "8895": " جد",
  "8896": " الحد",
  "8897": " rich",
  "8898": "Last",
  "8899": " Fore",
  "8900": " largest",
  "8901": "ributed",
  "8902": "290",
  "8903": " labor",
  "8904": "ednes",
  "8905": "omas",
  "8906": " birth",
  "8907": " DO",
  "8908": " Life",
  "8909": " dress",
  "8910": "while",
  "8911": " sust",
  "8912": "Request",
  "8913": " ജ",
  "8914": " über",
  "8915": "iyor",
  "8916": " وص",
  "8917": " Net",
  "8918": " Texas",
  "8919": "طلق",
  "8920": " police",
  "8921": " population",
  "8922": "でき",
  "8923": " عبدال",
  "8924": "351",
  "8925": " volume",
  "8926": " tips",
  "8927": " عق",
  "8928": " kas",
  "8929": "288",
  "8930": " Equ",
  "8931": " tend",
  "8932": "�",
  "8933": "Min",
  "8934": " tum",
  "8935": " soft",
  "8936": " distance",
  "8937": "etary",
  "8938": " fant",
  "8939": " basic",
  "8940": "888",
  "8941": "322",
  "8942": " culture",
  "8943": " reports",
  "8944": "عه",
  "8945": " favorite",
  "8946": " License",
  "8947": "ناعة",
  "8948": "ला",
  "8949": "وجد",
  "8950": " SE",
  "8951": " stage",
  "8952": " photo",
  "8953": "ку",
  "8954": " قانون",
  "8955": " ya",
  "8956": "بدأ",
  "8957": " التد",
  "8958": "ponent",
  "8959": " SET",
  "8960": "RS",
  "8961": " Then",
  "8962": " Hall",
  "8963": " Amazon",
  "8964": " Date",
  "8965": "ailed",
  "8966": "wide",
  "8967": " pued",
  "8968": "build",
  "8969": "icer",
  "8970": ".V",
  "8971": " مساء",
  "8972": " Enter",
  "8973": " {}",
  "8974": "269",
  "8975": " bedroom",
  "8976": " Jul",
  "8977": "ibi",
  "8978": "说",
  "8979": "’s",
  "8980": "antly",
  "8981": "329",
  "8982": " als",
  "8983": "247",
  "8984": " Access",
  "8985": "وجود",
  "8986": " نه",
  "8987": " mount",
  "8988": "_N",
  "8989": " movie",
  "8990": " matrix",
  "8991": "ارك",
  "8992": "比",
  "8993": "社",
  "8994": "াপ",
  "8995": "少",
  "8996": " حك",
  "8997": "uw",
  "8998": "ূ",
  "8999": " ফ",
  "9000": "هداف",
  "9001": " آپ",
  "9002": "ismo",
  "9003": " steps",
  "9004": "ുവ",
  "9005": "336",
  "9006": "ulf",
  "9007": "arily",
  "9008": " cop",
  "9009": ".\",\n",
  "9010": ".id",
  "9011": ".length",
  "9012": "eld",
  "9013": "لسل",
  "9014": " origin",
  "9015": "icles",
  "9016": " نحو",
  "9017": " العديد",
  "9018": "ois",
  "9019": "се",
  "9020": "اجة",
  "9021": ",\\",
  "9022": "Max",
  "9023": " meas",
  "9024": "organ",
  "9025": " Board",
  "9026": " bur",
  "9027": " Stand",
  "9028": "web",
  "9029": "تخابات",
  "9030": "�്�",
  "9031": "ческ",
  "9032": "テ",
  "9033": "活",
  "9034": " باز",
  "9035": "\":[{\"",
  "9036": "gest",
  "9037": " ছ",
  "9038": "irs",
  "9039": "_per",
  "9040": "fin",
  "9041": " خارج",
  "9042": " Bit",
  "9043": " itself",
  "9044": "】",
  "9045": " ci",
  "9046": "وعات",
  "9047": "Log",
  "9048": "【",
  "9049": " �",
  "9050": "733",
  "9051": " حو",
  "9052": "enda",
  "9053": "263",
  "9054": "Hand",
  "9055": "long",
  "9056": "gas",
  "9057": "ellig",
  "9058": "013",
  "9059": "exp",
  "9060": "],[\"",
  "9061": " sector",
  "9062": " للش",
  "9063": "تمبر",
  "9064": " está",
  "9065": " greater",
  "9066": "جب",
  "9067": " definitely",
  "9068": " FROM",
  "9069": " ~",
  "9070": "ouve",
  "9071": " مما",
  "9072": "zo",
  "9073": "°",
  "9074": "gam",
  "9075": "261",
  "9076": " Const",
  "9077": "246",
  "9078": "ander",
  "9079": " ير",
  "9080": " فلسطين",
  "9081": "MC",
  "9082": "知",
  "9083": "аз",
  "9084": "dates",
  "9085": " Project",
  "9086": "\\\",\\",
  "9087": "zt",
  "9088": "Comp",
  "9089": " saw",
  "9090": "363",
  "9091": "-k",
  "9092": " ger",
  "9093": "ributes",
  "9094": " san",
  "9095": " الشعب",
  "9096": " البن",
  "9097": "444",
  "9098": " О",
  "9099": " useful",
  "9100": " expression",
  "9101": " iş",
  "9102": "device",
  "9103": "275",
  "9104": " বল",
  "9105": " decor",
  "9106": "018",
  "9107": "\")\n\n",
  "9108": " efficient",
  "9109": " Economic",
  "9110": " distribution",
  "9111": "ouncil",
  "9112": "259",
  "9113": " loan",
  "9114": "EW",
  "9115": " कम",
  "9116": ".is",
  "9117": " बार",
  "9118": " tit",
  "9119": "_version",
  "9120": " صنع",
  "9121": " sense",
  "9122": "undo",
  "9123": "طلب",
  "9124": "(data",
  "9125": "enza",
  "9126": " fair",
  "9127": "将",
  "9128": "original",
  "9129": " patient",
  "9130": ";&",
  "9131": "274",
  "9132": "关",
  "9133": "Start",
  "9134": "027",
  "9135": "ednesday",
  "9136": "reci",
  "9137": ".N",
  "9138": "About",
  "9139": "مين",
  "9140": "win",
  "9141": " cette",
  "9142": "angg",
  "9143": " description",
  "9144": " وجه",
  "9145": "998",
  "9146": "erver",
  "9147": " tick",
  "9148": " successful",
  "9149": "отор",
  "9150": "raining",
  "9151": " ই",
  "9152": " pem",
  "9153": "常",
  "9154": "िट",
  "9155": "جات",
  "9156": " يف",
  "9157": ".pdf",
  "9158": "�്പ",
  "9159": " */\n",
  "9160": " المجتمع",
  "9161": " Media",
  "9162": " traditional",
  "9163": "ारा",
  "9164": " pam",
  "9165": " أكتوبر",
  "9166": " ont",
  "9167": " prepar",
  "9168": "itas",
  "9169": " bei",
  "9170": "وفر",
  "9171": "params",
  "9172": " norm",
  "9173": "327",
  "9174": "266",
  "9175": "色",
  "9176": " offering",
  "9177": " بات",
  "9178": " الثالث",
  "9179": " dell",
  "9180": "uesday",
  "9181": " trab",
  "9182": "\":\n",
  "9183": "generated",
  "9184": "283",
  "9185": "ıs",
  "9186": " الولايات",
  "9187": " वह",
  "9188": " amb",
  "9189": " Opt",
  "9190": "Ret",
  "9191": " Pan",
  "9192": " الإمارات",
  "9193": "_e",
  "9194": "ahil",
  "9195": " Science",
  "9196": "eden",
  "9197": " يعني",
  "9198": " सी",
  "9199": " piece",
  "9200": " दिया",
  "9201": "�",
  "9202": " decre",
  "9203": "وليو",
  "9204": ".load",
  "9205": ".name",
  "9206": " electric",
  "9207": " slow",
  "9208": " করে",
  "9209": "}},{\"",
  "9210": " budget",
  "9211": " emp",
  "9212": " miles",
  "9213": "ые",
  "9214": " \"#",
  "9215": " Mad",
  "9216": ".re",
  "9217": "060",
  "9218": " خبر",
  "9219": " Que",
  "9220": " الأحد",
  "9221": "صابة",
  "9222": " vict",
  "9223": " مرة",
  "9224": "ও",
  "9225": "iento",
  "9226": "har",
  "9227": " الاتحاد",
  "9228": "udo",
  "9229": "Dr",
  "9230": " Stat",
  "9231": " كس",
  "9232": "')\n\n",
  "9233": "/re",
  "9234": "ò",
  "9235": "418",
  "9236": "isk",
  "9237": " فل",
  "9238": " Hotel",
  "9239": "MO",
  "9240": " عشر",
  "9241": " straight",
  "9242": "454",
  "9243": "901",
  "9244": " النف",
  "9245": "持",
  "9246": " force",
  "9247": "eli",
  "9248": "�",
  "9249": "Sim",
  "9250": "uda",
  "9251": " planning",
  "9252": ",\r\n",
  "9253": "pite",
  "9254": " font",
  "9255": " منطقة",
  "9256": "身",
  "9257": "elles",
  "9258": "408",
  "9259": " bool",
  "9260": "271",
  "9261": " أث",
  "9262": " sie",
  "9263": "iber",
  "9264": " nas",
  "9265": "HA",
  "9266": "ाओं",
  "9267": "AND",
  "9268": "_by",
  "9269": "ifying",
  "9270": " led",
  "9271": "393",
  "9272": "555",
  "9273": " اط",
  "9274": " Sun",
  "9275": "rg",
  "9276": " parents",
  "9277": "xi",
  "9278": "456",
  "9279": "üş",
  "9280": "·",
  "9281": " =>",
  "9282": "ناة",
  "9283": "�",
  "9284": "267",
  "9285": " goes",
  "9286": "410",
  "9287": " الحديد",
  "9288": "ILE",
  "9289": "374",
  "9290": "াহ",
  "9291": "334",
  "9292": " analy",
  "9293": "فات",
  "9294": "rat",
  "9295": "idos",
  "9296": "ously",
  "9297": "402",
  "9298": " interested",
  "9299": " Card",
  "9300": " >=",
  "9301": "احية",
  "9302": " ters",
  "9303": "ureau",
  "9304": " central",
  "9305": "agai",
  "9306": " college",
  "9307": " Monday",
  "9308": " carry",
  "9309": " जिस",
  "9310": "                             ",
  "9311": "520",
  "9312": "353",
  "9313": " Paper",
  "9314": " tom",
  "9315": "HERE",
  "9316": " European",
  "9317": " lives",
  "9318": "quot",
  "9319": " exactly",
  "9320": "stract",
  "9321": "May",
  "9322": " Tel",
  "9323": " healthy",
  "9324": "تز",
  "9325": " ['",
  "9326": "291",
  "9327": " ملف",
  "9328": "خاص",
  "9329": "ез",
  "9330": "650",
  "9331": "�",
  "9332": " Jun",
  "9333": " Casino",
  "9334": "610",
  "9335": " IT",
  "9336": "�",
  "9337": "اتف",
  "9338": "enter",
  "9339": "371",
  "9340": "292",
  "9341": " cos",
  "9342": " letter",
  "9343": "ല്ല",
  "9344": "্প",
  "9345": " setting",
  "9346": " dead",
  "9347": "profile",
  "9348": "412",
  "9349": " معل",
  "9350": " �",
  "9351": "273",
  "9352": " আম",
  "9353": "ば",
  "9354": "996",
  "9355": " factor",
  "9356": "oving",
  "9357": "kg",
  "9358": "FT",
  "9359": " respond",
  "9360": "طات",
  "9361": "eme",
  "9362": " খ",
  "9363": " سحق",
  "9364": "ры",
  "9365": "850",
  "9366": " mu",
  "9367": "eries",
  "9368": " بی",
  "9369": " RuntimeMethod",
  "9370": "接",
  "9371": "Over",
  "9372": " سال",
  "9373": "SD",
  "9374": "ائع",
  "9375": "339",
  "9376": " والش",
  "9377": " ön",
  "9378": " Game",
  "9379": " utf",
  "9380": "त्र",
  "9381": "زار",
  "9382": " kam",
  "9383": "FR",
  "9384": "aaaa",
  "9385": " Flor",
  "9386": "قرير",
  "9387": "rief",
  "9388": "cu",
  "9389": " lost",
  "9390": "Co",
  "9391": "atively",
  "9392": "”\n",
  "9393": "mitted",
  "9394": "وعة",
  "9395": " Food",
  "9396": " ign",
  "9397": ".py",
  "9398": " \"\n",
  "9399": " master",
  "9400": "319",
  "9401": " {'",
  "9402": " nel",
  "9403": " entry",
  "9404": "�്ഞ",
  "9405": "volution",
  "9406": "ം�",
  "9407": "ructions",
  "9408": "تمر",
  "9409": " المصري",
  "9410": "alle",
  "9411": " نم",
  "9412": "اؤ",
  "9413": "282",
  "9414": " paid",
  "9415": "437",
  "9416": "SELECT",
  "9417": "325",
  "9418": "起",
  "9419": " advice",
  "9420": "وح",
  "9421": " نص",
  "9422": "いて",
  "9423": ".)",
  "9424": "ай",
  "9425": "031",
  "9426": " session",
  "9427": " mac",
  "9428": " sand",
  "9429": " التف",
  "9430": "#!",
  "9431": " exclus",
  "9432": " ذكر",
  "9433": "311",
  "9434": "pass",
  "9435": " الأرد",
  "9436": " وسلم",
  "9437": " communication",
  "9438": "yles",
  "9439": "AGE",
  "9440": " temperature",
  "9441": "anging",
  "9442": " Long",
  "9443": " picture",
  "9444": "query",
  "9445": "Fig",
  "9446": " wrong",
  "9447": " Color",
  "9448": " organization",
  "9449": "نگ",
  "9450": "277",
  "9451": " sistem",
  "9452": " updated",
  "9453": "esse",
  "9454": "字",
  "9455": "UK",
  "9456": "otos",
  "9457": " ju",
  "9458": "anç",
  "9459": " إسرائيل",
  "9460": "777",
  "9461": "料",
  "9462": " OF",
  "9463": " shipping",
  "9464": " الوطنية",
  "9465": " الصحة",
  "9466": "يسمبر",
  "9467": "409",
  "9468": " Court",
  "9469": " وان",
  "9470": " Ze",
  "9471": "CREATE",
  "9472": " heat",
  "9473": " Network",
  "9474": "_i",
  "9475": "NN",
  "9476": " فيما",
  "9477": " interview",
  "9478": "las",
  "9479": "agg",
  "9480": " القي",
  "9481": ".txt",
  "9482": " morning",
  "9483": " ضمن",
  "9484": " تصن",
  "9485": " Education",
  "9486": " М",
  "9487": "293",
  "9488": " الار",
  "9489": "ieces",
  "9490": " Under",
  "9491": "ooth",
  "9492": "ще",
  "9493": " CON",
  "9494": " opportunities",
  "9495": " जान",
  "9496": "产",
  "9497": " solid",
  "9498": "fit",
  "9499": " links",
  "9500": " determine",
  "9501": "reh",
  "9502": "562",
  "9503": " rules",
  "9504": "372",
  "9505": "cht",
  "9506": " degree",
  "9507": "337",
  "9508": "里",
  "9509": "त्त",
  "9510": " scale",
  "9511": "331",
  "9512": " Mot",
  "9513": "يدا",
  "9514": "جمع",
  "9515": " existing",
  "9516": "示",
  "9517": "ستر",
  "9518": "ted",
  "9519": "quality",
  "9520": "Column",
  "9521": " statement",
  "9522": "iye",
  "9523": "्ध",
  "9524": " الموضوع",
  "9525": " شه",
  "9526": " motor",
  "9527": " announced",
  "9528": "acters",
  "9529": "314",
  "9530": "_set",
  "9531": " باست",
  "9532": "PM",
  "9533": " protein",
  "9534": "mg",
  "9535": " pictures",
  "9536": " صل",
  "9537": " خاص",
  "9538": "اول",
  "9539": " blue",
  "9540": "Open",
  "9541": "039",
  "9542": "lay",
  "9543": " mula",
  "9544": "441",
  "9545": "気",
  "9546": " radi",
  "9547": " Women",
  "9548": "管",
  "9549": " tan",
  "9550": "fast",
  "9551": " stone",
  "9552": " पू",
  "9553": " correspond",
  "9554": "業",
  "9555": " थी",
  "9556": "_cast",
  "9557": "iden",
  "9558": "系",
  "9559": "Σ",
  "9560": " broad",
  "9561": "516",
  "9562": "lished",
  "9563": " THE",
  "9564": "ً",
  "9565": " summer",
  "9566": " Start",
  "9567": " как",
  "9568": " сл",
  "9569": "という",
  "9570": " pool",
  "9571": " comfortable",
  "9572": "509",
  "9573": "470",
  "9574": "istan",
  "9575": "mean",
  "9576": " يون",
  "9577": "ahr",
  "9578": "276",
  "9579": " يك",
  "9580": " Contact",
  "9581": " أنها",
  "9582": " mor",
  "9583": " لمن",
  "9584": "�",
  "9585": "ulated",
  "9586": "ctors",
  "9587": "616",
  "9588": " التش",
  "9589": " HD",
  "9590": "�",
  "9591": " divers",
  "9592": "向",
  "9593": " بغ",
  "9594": " जी",
  "9595": " Bed",
  "9596": "®",
  "9597": " الحياة",
  "9598": "434",
  "9599": "arak",
  "9600": " attract",
  "9601": "_offset",
  "9602": " واحدة",
  "9603": "923",
  "9604": " protection",
  "9605": " Lin",
  "9606": ";\\",
  "9607": " gar",
  "9608": "399",
  "9609": "tenance",
  "9610": "017",
  "9611": "070",
  "9612": " *\n",
  "9613": "ിന്റെ",
  "9614": " \",",
  "9615": " لبنان",
  "9616": "じ",
  "9617": " Special",
  "9618": "anges",
  "9619": "_text",
  "9620": " famil",
  "9621": "reme",
  "9622": "Aut",
  "9623": "्यक",
  "9624": " opin",
  "9625": "326",
  "9626": " released",
  "9627": " flex",
  "9628": " سی",
  "9629": "Form",
  "9630": "OB",
  "9631": "309",
  "9632": "هورية",
  "9633": "�\u0000",
  "9634": "etic",
  "9635": "ko",
  "9636": "ême",
  "9637": "商",
  "9638": " histor",
  "9639": " الدكتور",
  "9640": "isher",
  "9641": " مال",
  "9642": "ston",
  "9643": "esi",
  "9644": " operations",
  "9645": "نق",
  "9646": "বে",
  "9647": " অন",
  "9648": " الاحتلال",
  "9649": " conse",
  "9650": "شاء",
  "9651": " comme",
  "9652": "Web",
  "9653": "undred",
  "9654": "PD",
  "9655": " Financial",
  "9656": "529",
  "9657": "еч",
  "9658": " execut",
  "9659": " \"-",
  "9660": "iced",
  "9661": "ィ",
  "9662": "oul",
  "9663": "anyak",
  "9664": " exchange",
  "9665": " يص",
  "9666": "\\end",
  "9667": "یه",
  "9668": "%%%%",
  "9669": " Build",
  "9670": " employees",
  "9671": " RE",
  "9672": "�",
  "9673": "长",
  "9674": "335",
  "9675": "296",
  "9676": "price",
  "9677": " parameters",
  "9678": "MD",
  "9679": "ائيلي",
  "9680": "icas",
  "9681": "اسطة",
  "9682": " إل",
  "9683": "}\"",
  "9684": "refix",
  "9685": "ساب",
  "9686": " shop",
  "9687": " lebih",
  "9688": "cor",
  "9689": " Mat",
  "9690": "نف",
  "9691": " AB",
  "9692": " fight",
  "9693": " connection",
  "9694": "ifications",
  "9695": " الساعة",
  "9696": " العرب",
  "9697": " appropriate",
  "9698": " purpose",
  "9699": "inct",
  "9700": " कु�",
  "9701": "287",
  "9702": "バ",
  "9703": "anal",
  "9704": "instance",
  "9705": "mail",
  "9706": " الحديث",
  "9707": "UE",
  "9708": " warm",
  "9709": " subsc",
  "9710": "front",
  "9711": " steel",
  "9712": "target",
  "9713": " Blue",
  "9714": "गे",
  "9715": "632",
  "9716": "Ur",
  "9717": "इ",
  "9718": " بخ",
  "9719": "ancer",
  "9720": " damage",
  "9721": "roller",
  "9722": " پی",
  "9723": "505",
  "9724": "499",
  "9725": "قق",
  "9726": "384",
  "9727": " अधिक",
  "9728": " ऐ",
  "9729": "arning",
  "9730": " کرنے",
  "9731": "403",
  "9732": "405",
  "9733": "022",
  "9734": "432",
  "9735": "abol",
  "9736": " قي",
  "9737": " places",
  "9738": "pi",
  "9739": ".println",
  "9740": " mir",
  "9741": "cos",
  "9742": "itors",
  "9743": "sup",
  "9744": "craft",
  "9745": " المنطقة",
  "9746": " produce",
  "9747": " trav",
  "9748": "还",
  "9749": "ضية",
  "9750": "اسبة",
  "9751": " اض",
  "9752": " auto",
  "9753": "اهر",
  "9754": " Term",
  "9755": "550",
  "9756": " ശ",
  "9757": "328",
  "9758": " يخ",
  "9759": "كرة",
  "9760": "bal",
  "9761": " basis",
  "9762": "284",
  "9763": "063",
  "9764": "355",
  "9765": "्यू",
  "9766": " Rich",
  "9767": "-G",
  "9768": "298",
  "9769": " testing",
  "9770": "二",
  "9771": "uğ",
  "9772": " الخميس",
  "9773": "268",
  "9774": " ضر",
  "9775": "_user",
  "9776": " NY",
  "9777": "िं",
  "9778": "_con",
  "9779": " maximum",
  "9780": " لش",
  "9781": " Organ",
  "9782": " nation",
  "9783": " glass",
  "9784": "hn",
  "9785": " Ham",
  "9786": "grade",
  "9787": " रहा",
  "9788": " secret",
  "9789": "دف",
  "9790": " كنت",
  "9791": "eps",
  "9792": "XB",
  "9793": " fill",
  "9794": " الأمريكية",
  "9795": "icies",
  "9796": "سسة",
  "9797": "زمة",
  "9798": "AU",
  "9799": "Color",
  "9800": "اجهة",
  "9801": " الماضي",
  "9802": "ango",
  "9803": "على",
  "9804": " أور",
  "9805": " ton",
  "9806": "808",
  "9807": " الخارجية",
  "9808": "ുണ",
  "9809": " remember",
  "9810": " propos",
  "9811": " COVID",
  "9812": " ()",
  "9813": " cloud",
  "9814": " responsible",
  "9815": " ولم",
  "9816": "arth",
  "9817": "ecause",
  "9818": " Oil",
  "9819": "392",
  "9820": " experiment",
  "9821": " Club",
  "9822": "�",
  "9823": "_length",
  "9824": " dict",
  "9825": " بيع",
  "9826": " sé",
  "9827": " Qual",
  "9828": "dr",
  "9829": "_node",
  "9830": "640",
  "9831": " Sunday",
  "9832": " alla",
  "9833": " Los",
  "9834": " सर",
  "9835": "318",
  "9836": "！\n",
  "9837": "279",
  "9838": ")\\",
  "9839": " deposit",
  "9840": " memory",
  "9841": "XC",
  "9842": " Light",
  "9843": "ادية",
  "9844": "<<",
  "9845": " Rock",
  "9846": "raf",
  "9847": " encour",
  "9848": "riter",
  "9849": "cn",
  "9850": " km",
  "9851": " Microsoft",
  "9852": "Path",
  "9853": " selected",
  "9854": "']\n",
  "9855": " Word",
  "9856": "�",
  "9857": " imag",
  "9858": "الإ",
  "9859": "537",
  "9860": " dil",
  "9861": "ORE",
  "9862": " baby",
  "9863": "же",
  "9864": "言",
  "9865": " van",
  "9866": " حجر",
  "9867": "-of",
  "9868": "364",
  "9869": " العالمية",
  "9870": "can",
  "9871": " psych",
  "9872": " MA",
  "9873": "380",
  "9874": " err",
  "9875": "১",
  "9876": " المغرب",
  "9877": " �",
  "9878": " kull",
  "9879": " الأمير",
  "9880": " صلى",
  "9881": " String",
  "9882": " sources",
  "9883": " growing",
  "9884": "sum",
  "9885": " tent",
  "9886": "porary",
  "9887": " rot",
  "9888": "440",
  "9889": "/P",
  "9890": "357",
  "9891": "297",
  "9892": " collabor",
  "9893": "اضيع",
  "9894": " Fig",
  "9895": "رهاب",
  "9896": "dk",
  "9897": "هاية",
  "9898": "ipes",
  "9899": " CBD",
  "9900": "LS",
  "9901": "090",
  "9902": " بص",
  "9903": "team",
  "9904": " Cost",
  "9905": " الجمعة",
  "9906": "lık",
  "9907": "ası",
  "9908": "After",
  "9909": "637",
  "9910": "ég",
  "9911": " مدير",
  "9912": " ),\n",
  "9913": "981",
  "9914": " Electric",
  "9915": " thous",
  "9916": "978",
  "9917": "elah",
  "9918": " themselves",
  "9919": " highest",
  "9920": " giving",
  "9921": " package",
  "9922": "جوم",
  "9923": " incor",
  "9924": " Oper",
  "9925": "TERN",
  "9926": "ilang",
  "9927": " nang",
  "9928": "_k",
  "9929": "ماية",
  "9930": "361",
  "9931": " الظ",
  "9932": " جس",
  "9933": "ोट",
  "9934": "349",
  "9935": "وفمبر",
  "9936": " stories",
  "9937": " إدارة",
  "9938": "iri",
  "9939": " dar",
  "9940": "يدي",
  "9941": " cards",
  "9942": " Code",
  "9943": "想",
  "9944": "থ",
  "9945": "pective",
  "9946": " Lim",
  "9947": " رمضان",
  "9948": "-term",
  "9949": "�",
  "9950": " х",
  "9951": "346",
  "9952": " visual",
  "9953": "िप",
  "9954": " طلب",
  "9955": "025",
  "9956": "ريس",
  "9957": "frac",
  "9958": " मु�",
  "9959": "ından",
  "9960": "430",
  "9961": "ورات",
  "9962": " reflect",
  "9963": "Ident",
  "9964": "�",
  "9965": " anche",
  "9966": "278",
  "9967": "amed",
  "9968": " Franc",
  "9969": "idget",
  "9970": "قص",
  "9971": " جائ",
  "9972": " الخاص",
  "9973": " nach",
  "9974": " Camp",
  "9975": "960",
  "9976": "üy",
  "9977": "حب",
  "9978": " Land",
  "9979": " sang",
  "9980": " kat",
  "9981": " li",
  "9982": " fait",
  "9983": "lier",
  "9984": "cat",
  "9985": "YPE",
  "9986": "Les",
  "9987": "ശ",
  "9988": "動",
  "9989": ".data",
  "9990": " Government",
  "9991": "ORT",
  "9992": "因",
  "9993": "bool",
  "9994": "383",
  "9995": " أسعار",
  "9996": " fi",
  "9997": "_y",
  "9998": "../../",
  "9999": " kap",
  "10000": "295",
  "10001": "href",
  "10002": " friendly",
  "10003": "416",
  "10004": "erta",
  "10005": "mek",
  "10006": "mar",
  "10007": "جي",
  "10008": "317",
  "10009": "ربعاء",
  "10010": " requires",
  "10011": "leh",
  "10012": " мож",
  "10013": "真",
  "10014": " Beach",
  "10015": " cit",
  "10016": "bn",
  "10017": "チ",
  "10018": " faz",
  "10019": "commod",
  "10020": " اجتماع",
  "10021": " rank",
  "10022": "chi",
  "10023": "icing",
  "10024": " lie",
  "10025": " mah",
  "10026": "/n",
  "10027": "î",
  "10028": " الثلاثاء",
  "10029": "�",
  "10030": " alle",
  "10031": " Global",
  "10032": " شده",
  "10033": " ER",
  "10034": " я",
  "10035": "display",
  "10036": "inue",
  "10037": "زا",
  "10038": " discount",
  "10039": "359",
  "10040": "ECT",
  "10041": "636",
  "10042": "980",
  "10043": "dib",
  "10044": " ans",
  "10045": " billion",
  "10046": " anc",
  "10047": " vent",
  "10048": "قاء",
  "10049": " değ",
  "10050": " دع",
  "10051": "Element",
  "10052": "023",
  "10053": " बी",
  "10054": " moving",
  "10055": " ê",
  "10056": " hous",
  "10057": " Nor",
  "10058": " या",
  "10059": " era",
  "10060": " finish",
  "10061": "很",
  "10062": "344",
  "10063": "425",
  "10064": "289",
  "10065": "van",
  "10066": "में",
  "10067": " السابق",
  "10068": " People",
  "10069": " Manager",
  "10070": "366",
  "10071": "estic",
  "10072": "026",
  "10073": " Africa",
  "10074": "431",
  "10075": "考",
  "10076": "duction",
  "10077": "-on",
  "10078": " Non",
  "10079": "Model",
  "10080": " Max",
  "10081": "341",
  "10082": " sexual",
  "10083": "_class",
  "10084": "related",
  "10085": "-align",
  "10086": " templ",
  "10087": "Fl",
  "10088": "orrow",
  "10089": "Mod",
  "10090": "‘",
  "10091": "997",
  "10092": "فن",
  "10093": "فير",
  "10094": " حساب",
  "10095": "abilities",
  "10096": "指",
  "10097": "él",
  "10098": "032",
  "10099": "シ�",
  "10100": "asts",
  "10101": " Washington",
  "10102": "415",
  "10103": "ups",
  "10104": " offered",
  "10105": " mother",
  "10106": "yc",
  "10107": "686",
  "10108": "652",
  "10109": "ائرة",
  "10110": "格",
  "10111": "Pre",
  "10112": "_sh",
  "10113": "ット",
  "10114": " secure",
  "10115": " solo",
  "10116": "去",
  "10117": "PG",
  "10118": " Mass",
  "10119": " button",
  "10120": " meny",
  "10121": " stri",
  "10122": " processing",
  "10123": " extremely",
  "10124": "_start",
  "10125": " ഒര",
  "10126": "process",
  "10127": "746",
  "10128": "role",
  "10129": "فاء",
  "10130": " detect",
  "10131": "md",
  "10132": "656",
  "10133": " worked",
  "10134": " dass",
  "10135": " Sale",
  "10136": " �",
  "10137": " capacity",
  "10138": " ته",
  "10139": "جلي",
  "10140": " فريق",
  "10141": " hospital",
  "10142": " أمريك",
  "10143": "gz",
  "10144": "#!/",
  "10145": " الرسم",
  "10146": " الكثير",
  "10147": " فض",
  "10148": " delle",
  "10149": "ffect",
  "10150": "isode",
  "10151": "Don",
  "10152": "展",
  "10153": "rics",
  "10154": "445",
  "10155": "ITY",
  "10156": "LA",
  "10157": "电",
  "10158": " surv",
  "10159": " Bas",
  "10160": "river",
  "10161": "集",
  "10162": " Wood",
  "10163": " الإنسان",
  "10164": " James",
  "10165": "otic",
  "10166": "Ref",
  "10167": "olean",
  "10168": "ischen",
  "10169": "ateur",
  "10170": "Link",
  "10171": " Well",
  "10172": " minimum",
  "10173": " हुए",
  "10174": "IX",
  "10175": "option",
  "10176": "<p",
  "10177": " spread",
  "10178": " trial",
  "10179": "\":[\"",
  "10180": "isc",
  "10181": "عدات",
  "10182": " اص",
  "10183": "othing",
  "10184": "041",
  "10185": " Tur",
  "10186": "কে",
  "10187": "务",
  "10188": "pu",
  "10189": " operation",
  "10190": "_DIR",
  "10191": "খ",
  "10192": "417",
  "10193": "={",
  "10194": " campaign",
  "10195": " std",
  "10196": " भार",
  "10197": " تھا",
  "10198": " handle",
  "10199": "خرج",
  "10200": "standing",
  "10201": "iders",
  "10202": "lee",
  "10203": " metal",
  "10204": "口",
  "10205": "antic",
  "10206": " Saturday",
  "10207": "نيه",
  "10208": "ocker",
  "10209": "では",
  "10210": " Prem",
  "10211": "Char",
  "10212": " Adv",
  "10213": "istant",
  "10214": "argin",
  "10215": "那",
  "10216": "uat",
  "10217": " لدى",
  "10218": "actor",
  "10219": "_ME",
  "10220": "028",
  "10221": " сп",
  "10222": " farm",
  "10223": "342",
  "10224": " drop",
  "10225": " dip",
  "10226": "及",
  "10227": " [],\n",
  "10228": " Working",
  "10229": "406",
  "10230": "किन",
  "10231": " الحرب",
  "10232": " نی",
  "10233": "�",
  "10234": " shall",
  "10235": "`)",
  "10236": " launch",
  "10237": " techniques",
  "10238": "obe",
  "10239": " بشأن",
  "10240": " !\n",
  "10241": "348",
  "10242": "ист",
  "10243": "ции",
  "10244": " iyong",
  "10245": "িব",
  "10246": "-sh",
  "10247": "ested",
  "10248": " التأ",
  "10249": " wants",
  "10250": "�",
  "10251": " تسجيل",
  "10252": " foreign",
  "10253": " parte",
  "10254": " الخبر",
  "10255": " الإعلام",
  "10256": " Value",
  "10257": "995",
  "10258": " significantly",
  "10259": "745",
  "10260": "ुम",
  "10261": " وإن",
  "10262": "auth",
  "10263": ".v",
  "10264": "حص",
  "10265": "itu",
  "10266": " المب",
  "10267": " كتب",
  "10268": " Music",
  "10269": "uns",
  "10270": "ptr",
  "10271": " بالأ",
  "10272": "388",
  "10273": "ede",
  "10274": "510",
  "10275": "696",
  "10276": "354",
  "10277": "())\n",
  "10278": "ATH",
  "10279": " Li",
  "10280": " والس",
  "10281": " plt",
  "10282": " bey",
  "10283": " स्व",
  "10284": " eye",
  "10285": "mal",
  "10286": "ignment",
  "10287": "469",
  "10288": "390",
  "10289": "\tprint",
  "10290": "خة",
  "10291": " Nov",
  "10292": "TE",
  "10293": "resource",
  "10294": "onds",
  "10295": " الشرق",
  "10296": "024",
  "10297": "plies",
  "10298": " Journal",
  "10299": "oco",
  "10300": "لو",
  "10301": "ulations",
  "10302": " فه",
  "10303": "369",
  "10304": " construct",
  "10305": " Call",
  "10306": "_get",
  "10307": "oster",
  "10308": " سياسة",
  "10309": "اهيم",
  "10310": "�",
  "10311": "058",
  "10312": " Si",
  "10313": "ityEngine",
  "10314": " topic",
  "10315": " batter",
  "10316": "امه",
  "10317": "デ",
  "10318": " सब",
  "10319": "=(",
  "10320": " Live",
  "10321": "map",
  "10322": " المف",
  "10323": " markets",
  "10324": "uple",
  "10325": "\\xc",
  "10326": " دست",
  "10327": "/L",
  "10328": "362",
  "10329": "float",
  "10330": "NY",
  "10331": "icos",
  "10332": " tests",
  "10333": "ät",
  "10334": "先",
  "10335": " Grand",
  "10336": " Why",
  "10337": " owner",
  "10338": "ژ",
  "10339": " مغ",
  "10340": "オ",
  "10341": "421",
  "10342": "Tok",
  "10343": " direction",
  "10344": "625",
  "10345": " कुछ",
  "10346": " أكبر",
  "10347": " bound",
  "10348": " variable",
  "10349": "েখ",
  "10350": " expand",
  "10351": " котор",
  "10352": "交",
  "10353": " Plan",
  "10354": "isp",
  "10355": " critical",
  "10356": " layer",
  "10357": " Number",
  "10358": "igo",
  "10359": " Pop",
  "10360": "CS",
  "10361": "726",
  "10362": " wir",
  "10363": "utf",
  "10364": "ورت",
  "10365": "omin",
  "10366": "HP",
  "10367": "ittee",
  "10368": "ومية",
  "10369": "037",
  "10370": "347",
  "10371": "لمات",
  "10372": "ия",
  "10373": "ughter",
  "10374": "356",
  "10375": "next",
  "10376": "722",
  "10377": "Range",
  "10378": " pow",
  "10379": "602",
  "10380": "ブ",
  "10381": "622",
  "10382": " pu",
  "10383": " السعر",
  "10384": "GO",
  "10385": "aren",
  "10386": ":\r\n",
  "10387": " Mo",
  "10388": "ارب",
  "10389": " Michael",
  "10390": " التعدين",
  "10391": "سی",
  "10392": " Trump",
  "10393": "unda",
  "10394": "token",
  "10395": "Ο",
  "10396": "не",
  "10397": " allowed",
  "10398": " Rest",
  "10399": " showed",
  "10400": "Are",
  "10401": " Paul",
  "10402": "教",
  "10403": "_info",
  "10404": "О",
  "10405": " এব",
  "10406": " category",
  "10407": " نقل",
  "10408": "িস",
  "10409": " مهم",
  "10410": "[-",
  "10411": " الشركة",
  "10412": " relax",
  "10413": "_V",
  "10414": " النه",
  "10415": " script",
  "10416": " عنه",
  "10417": " articles",
  "10418": " coach",
  "10419": "MM",
  "10420": "та",
  "10421": " وهذا",
  "10422": "جاز",
  "10423": " establish",
  "10424": " votre",
  "10425": "onesia",
  "10426": " الموس",
  "10427": " നി�",
  "10428": "icago",
  "10429": ".write",
  "10430": " ല",
  "10431": " ин",
  "10432": " سبتمبر",
  "10433": " bottom",
  "10434": " mol",
  "10435": " rev",
  "10436": " behavior",
  "10437": "edy",
  "10438": " larger",
  "10439": "ик",
  "10440": " spend",
  "10441": " Comput",
  "10442": " negative",
  "10443": " Sam",
  "10444": "haps",
  "10445": " رد",
  "10446": "منت",
  "10447": " wife",
  "10448": " trip",
  "10449": " رياضة",
  "10450": " switch",
  "10451": " Op",
  "10452": " manager",
  "10453": " देख",
  "10454": "ौर",
  "10455": "据",
  "10456": "aciones",
  "10457": " स्थ",
  "10458": " Dev",
  "10459": "case",
  "10460": "acle",
  "10461": " cast",
  "10462": " cookies",
  "10463": "823",
  "10464": " Found",
  "10465": "419",
  "10466": "540",
  "10467": " Support",
  "10468": " ada",
  "10469": " adult",
  "10470": "立",
  "10471": " algorith",
  "10472": "font",
  "10473": "ataset",
  "10474": " experienced",
  "10475": " mad",
  "10476": " Share",
  "10477": "么",
  "10478": " الترك",
  "10479": "bug",
  "10480": "خذ",
  "10481": "994",
  "10482": " presented",
  "10483": " Size",
  "10484": " convers",
  "10485": "原",
  "10486": "423",
  "10487": " Love",
  "10488": "�",
  "10489": " fields",
  "10490": " Security",
  "10491": " surr",
  "10492": "ुद",
  "10493": " cheap",
  "10494": "386",
  "10495": ".next",
  "10496": " benefit",
  "10497": " frame",
  "10498": " سنوات",
  "10499": "ادرة",
  "10500": " burn",
  "10501": "قول",
  "10502": " بحث",
  "10503": " feet",
  "10504": "plications",
  "10505": "ICAgICAg",
  "10506": "424",
  "10507": " particularly",
  "10508": " Tom",
  "10509": "Comment",
  "10510": "612",
  "10511": ".assertEqual",
  "10512": "367",
  "10513": "عام",
  "10514": "اجر",
  "10515": "ുറ",
  "10516": "AAA",
  "10517": "aro",
  "10518": " ven",
  "10519": "К",
  "10520": "_log",
  "10521": " src",
  "10522": " Д",
  "10523": "anner",
  "10524": "عدد",
  "10525": " audi",
  "10526": " إذ",
  "10527": " سوريا",
  "10528": "strument",
  "10529": "368",
  "10530": "rian",
  "10531": " الأكثر",
  "10532": "افر",
  "10533": "LD",
  "10534": "ulate",
  "10535": " �",
  "10536": "Act",
  "10537": " التعلي",
  "10538": " Р",
  "10539": "هه",
  "10540": " रूप",
  "10541": "قية",
  "10542": " الشعر",
  "10543": "442",
  "10544": " बह",
  "10545": "hes",
  "10546": "روض",
  "10547": "_num",
  "10548": " ingred",
  "10549": " الخام",
  "10550": " became",
  "10551": "زر",
  "10552": " kad",
  "10553": " كأس",
  "10554": "ungan",
  "10555": "ł",
  "10556": "山",
  "10557": " Indian",
  "10558": " tab",
  "10559": " AUT",
  "10560": "inden",
  "10561": " powerful",
  "10562": "734",
  "10563": "ouv",
  "10564": "358",
  "10565": "endant",
  "10566": "osing",
  "10567": " أمر",
  "10568": " datas",
  "10569": " dol",
  "10570": "Token",
  "10571": " Wall",
  "10572": "Gen",
  "10573": "061",
  "10574": " Pass",
  "10575": " Page",
  "10576": "خصص",
  "10577": ".last",
  "10578": " dedic",
  "10579": " rental",
  "10580": "She",
  "10581": "iten",
  "10582": " attack",
  "10583": "------------------------",
  "10584": "اجات",
  "10585": "uhan",
  "10586": "െട",
  "10587": " beach",
  "10588": " sar",
  "10589": "Call",
  "10590": " generally",
  "10591": "يزة",
  "10592": " المرأة",
  "10593": "\tP",
  "10594": "382",
  "10595": " manage",
  "10596": "766",
  "10597": "ാക്ക",
  "10598": "494",
  "10599": "product",
  "10600": "arga",
  "10601": "));",
  "10602": "uma",
  "10603": "438",
  "10604": "بيب",
  "10605": "667",
  "10606": "601",
  "10607": "atar",
  "10608": " channel",
  "10609": "کھ",
  "10610": "ろ",
  "10611": "iquid",
  "10612": "ания",
  "10613": "dy",
  "10614": "ilename",
  "10615": " helpful",
  "10616": "606",
  "10617": "ATA",
  "10618": "ؤون",
  "10619": "داول",
  "10620": "413",
  "10621": ",p",
  "10622": " ok",
  "10623": "714",
  "10624": " Account",
  "10625": " ich",
  "10626": "plugin",
  "10627": "Bar",
  "10628": " أما",
  "10629": " Watch",
  "10630": " scient",
  "10631": " जा",
  "10632": " |--",
  "10633": "बर",
  "10634": "غيير",
  "10635": "549",
  "10636": "376",
  "10637": " middle",
  "10638": "�",
  "10639": " Jos",
  "10640": " Box",
  "10641": "asta",
  "10642": " لس",
  "10643": " इन",
  "10644": " للن",
  "10645": "CED",
  "10646": "被",
  "10647": "ная",
  "10648": " ديسمبر",
  "10649": " المعلومات",
  "10650": "ят",
  "10651": "�",
  "10652": " pes",
  "10653": "rical",
  "10654": " remain",
  "10655": "�",
  "10656": "ência",
  "10657": " hay",
  "10658": " بدون",
  "10659": "سكرية",
  "10660": " يوليو",
  "10661": "377",
  "10662": "usr",
  "10663": "idential",
  "10664": "451",
  "10665": "parse",
  "10666": "وری",
  "10667": "hand",
  "10668": " Kn",
  "10669": "وو",
  "10670": "GR",
  "10671": " waste",
  "10672": " وغير",
  "10673": " compreh",
  "10674": " exit",
  "10675": "385",
  "10676": "ussi",
  "10677": " kullan",
  "10678": "-old",
  "10679": "فيديو",
  "10680": " البريد",
  "10681": " Many",
  "10682": "र्व",
  "10683": " settings",
  "10684": "530",
  "10685": "029",
  "10686": " mere",
  "10687": "احب",
  "10688": " performed",
  "10689": "AV",
  "10690": "�",
  "10691": " vit",
  "10692": "�",
  "10693": "-free",
  "10694": " relevant",
  "10695": "809",
  "10696": "PU",
  "10697": " vor",
  "10698": " AD",
  "10699": "کی",
  "10700": "idades",
  "10701": "िज",
  "10702": "後",
  "10703": "525",
  "10704": "rees",
  "10705": " चाह",
  "10706": "mem",
  "10707": " afford",
  "10708": "\\xf",
  "10709": " Artic",
  "10710": " ট",
  "10711": " crypt",
  "10712": "pap",
  "10713": "435",
  "10714": "=[",
  "10715": "_codegen",
  "10716": " navig",
  "10717": " balance",
  "10718": " صباح",
  "10719": " immediately",
  "10720": " الداخ",
  "10721": "وبية",
  "10722": "lines",
  "10723": " دي",
  "10724": "ni",
  "10725": " interesting",
  "10726": "596",
  "10727": "Ge",
  "10728": "arp",
  "10729": "obil",
  "10730": "lig",
  "10731": "\\xb",
  "10732": " пред",
  "10733": "osen",
  "10734": "י",
  "10735": "alo",
  "10736": " economy",
  "10737": "یاد",
  "10738": " عاما",
  "10739": " TH",
  "10740": " gift",
  "10741": " components",
  "10742": "كين",
  "10743": " بمن",
  "10744": "857",
  "10745": " Team",
  "10746": "annels",
  "10747": ")$",
  "10748": "يوب",
  "10749": " database",
  "10750": " Thursday",
  "10751": " political",
  "10752": " قائمة",
  "10753": "uran",
  "10754": " Today",
  "10755": "ليا",
  "10756": "acer",
  "10757": " changed",
  "10758": " ',",
  "10759": "ACT",
  "10760": "uty",
  "10761": " sport",
  "10762": "grid",
  "10763": " الأرض",
  "10764": " rout",
  "10765": " قب",
  "10766": " password",
  "10767": "ju",
  "10768": "IGN",
  "10769": "VD",
  "10770": "Av",
  "10771": "hidden",
  "10772": " enhancement",
  "10773": " روس",
  "10774": "sg",
  "10775": " emot",
  "10776": "055",
  "10777": "asion",
  "10778": "378",
  "10779": " طن",
  "10780": "gery",
  "10781": "620",
  "10782": "طان",
  "10783": "-the",
  "10784": "Dep",
  "10785": "ims",
  "10786": " أر",
  "10787": "itution",
  "10788": "Sw",
  "10789": "ublished",
  "10790": "\\xe",
  "10791": " يونيو",
  "10792": " sig",
  "10793": " الرح",
  "10794": " adapt",
  "10795": " موضوع",
  "10796": "علان",
  "10797": " olan",
  "10798": " رب",
  "10799": "جار",
  "10800": " Even",
  "10801": " reference",
  "10802": "396",
  "10803": "ويات",
  "10804": "\",\"\",",
  "10805": " التاريخ",
  "10806": "راتيج",
  "10807": "ered",
  "10808": " tub",
  "10809": "型",
  "10810": " قدم",
  "10811": ">\n\n",
  "10812": "iente",
  "10813": "كمة",
  "10814": "enta",
  "10815": "اصمة",
  "10816": " pair",
  "10817": "alang",
  "10818": " coff",
  "10819": "zione",
  "10820": " rooms",
  "10821": "تهم",
  "10822": "387",
  "10823": " forum",
  "10824": "ль",
  "10825": "Builder",
  "10826": "[j",
  "10827": "اشرة",
  "10828": "ι",
  "10829": "Part",
  "10830": "أخبار",
  "10831": " اي",
  "10832": "443",
  "10833": "521",
  "10834": " المواط",
  "10835": " थे",
  "10836": " convert",
  "10837": "igration",
  "10838": "using",
  "10839": " fans",
  "10840": " गई",
  "10841": "472",
  "10842": " Chinese",
  "10843": "446",
  "10844": "615",
  "10845": "直",
  "10846": "isco",
  "10847": " therefore",
  "10848": "�",
  "10849": " حين",
  "10850": " Alex",
  "10851": " Reviews",
  "10852": "511",
  "10853": "ാവ",
  "10854": " المالية",
  "10855": " Fire",
  "10856": "ക്ഷ",
  "10857": " websites",
  "10858": "imi",
  "10859": " الوزراء",
  "10860": " Details",
  "10861": "495",
  "10862": " relig",
  "10863": "عضاء",
  "10864": "roy",
  "10865": " meaning",
  "10866": " speak",
  "10867": " أيام",
  "10868": "pc",
  "10869": " goals",
  "10870": "apped",
  "10871": "$\\",
  "10872": "Att",
  "10873": "पी",
  "10874": "051",
  "10875": " Plus",
  "10876": "何",
  "10877": " Miss",
  "10878": "ウ",
  "10879": "�্�",
  "10880": " Mel",
  "10881": "687",
  "10882": " maa",
  "10883": " Head",
  "10884": " तर",
  "10885": " إنه",
  "10886": " Order",
  "10887": " Bureau",
  "10888": " entertain",
  "10889": "project",
  "10890": "ampions",
  "10891": " জন",
  "10892": "ASS",
  "10893": "979",
  "10894": " ومع",
  "10895": "647",
  "10896": " سات",
  "10897": "rank",
  "10898": "�",
  "10899": " advanced",
  "10900": " Stock",
  "10901": " gay",
  "10902": " Cloud",
  "10903": " Den",
  "10904": " wird",
  "10905": "设",
  "10906": " Pet",
  "10907": " Follow",
  "10908": "People",
  "10909": " initi",
  "10910": "�",
  "10911": " leur",
  "10912": " Two",
  "10913": "受",
  "10914": "Fin",
  "10915": "_W",
  "10916": "ابقة",
  "10917": "Contact",
  "10918": " sab",
  "10919": "الق",
  "10920": "585",
  "10921": " quarter",
  "10922": "381",
  "10923": " wie",
  "10924": "455",
  "10925": " began",
  "10926": "\"></",
  "10927": "496",
  "10928": "etimes",
  "10929": "oir",
  "10930": "605",
  "10931": " Control",
  "10932": "عى",
  "10933": " Gal",
  "10934": "604",
  "10935": "572",
  "10936": "ിക്കുന്ന",
  "10937": "427",
  "10938": "iste",
  "10939": "465",
  "10940": "سرائيلي",
  "10941": " été",
  "10942": "507",
  "10943": "950",
  "10944": "stream",
  "10945": " exception",
  "10946": "053",
  "10947": "490",
  "10948": "ryst",
  "10949": "izar",
  "10950": ".cl",
  "10951": " نف",
  "10952": "533",
  "10953": " Star",
  "10954": " Digital",
  "10955": "elines",
  "10956": "End",
  "10957": "ν",
  "10958": "663",
  "10959": "rest",
  "10960": "429",
  "10961": "ians",
  "10962": " Id",
  "10963": "655",
  "10964": "_str",
  "10965": "397",
  "10966": " edge",
  "10967": "ഹ",
  "10968": " menu",
  "10969": "well",
  "10970": "ुप",
  "10971": " Prote",
  "10972": "KK",
  "10973": "MB",
  "10974": "USER",
  "10975": "مدة",
  "10976": "RI",
  "10977": "те",
  "10978": " sys",
  "10979": "rum",
  "10980": " fir",
  "10981": "Enumerator",
  "10982": " generate",
  "10983": " core",
  "10984": "REE",
  "10985": " você",
  "10986": "idas",
  "10987": " established",
  "10988": "056",
  "10989": " described",
  "10990": "场",
  "10991": " അവ",
  "10992": " alternative",
  "10993": " occur",
  "10994": "base",
  "10995": "rows",
  "10996": " hundred",
  "10997": "407",
  "10998": "422",
  "10999": " الأش",
  "11000": "_end",
  "11001": "ね",
  "11002": "609",
  "11003": "merce",
  "11004": " thinking",
  "11005": "474",
  "11006": "سطس",
  "11007": "قرار",
  "11008": " strategies",
  "11009": "ثمار",
  "11010": "Rem",
  "11011": "Most",
  "11012": " ©",
  "11013": "ymbol",
  "11014": "ोल",
  "11015": "727",
  "11016": " finding",
  "11017": "\\xd",
  "11018": " commit",
  "11019": "599",
  "11020": " fest",
  "11021": " Wednesday",
  "11022": " challenges",
  "11023": "شت",
  "11024": "oli",
  "11025": "cular",
  "11026": " تقدم",
  "11027": ".php",
  "11028": "391",
  "11029": " شيء",
  "11030": "roke",
  "11031": "ыв",
  "11032": "には",
  "11033": " annual",
  "11034": "436",
  "11035": "379",
  "11036": " تغ",
  "11037": "ومي",
  "11038": "واق",
  "11039": "707",
  "11040": "”,",
  "11041": "Product",
  "11042": " rapid",
  "11043": "ック",
  "11044": " mining",
  "11045": "389",
  "11046": "528",
  "11047": " finally",
  "11048": "২",
  "11049": "ное",
  "11050": "744",
  "11051": "uzz",
  "11052": "398",
  "11053": " easier",
  "11054": "买",
  "11055": " Each",
  "11056": "anged",
  "11057": "Tube",
  "11058": " mai",
  "11059": " الحصول",
  "11060": "inen",
  "11061": "672",
  "11062": "应",
  "11063": " مايو",
  "11064": "580",
  "11065": "065",
  "11066": "here",
  "11067": "ド",
  "11068": ".bl",
  "11069": "istration",
  "11070": " played",
  "11071": "letter",
  "11072": " Fund",
  "11073": "611",
  "11074": "ाध",
  "11075": "ിവ",
  "11076": "്ഥ",
  "11077": "ابية",
  "11078": "imm",
  "11079": "461",
  "11080": " التر",
  "11081": " الأه",
  "11082": " السن",
  "11083": " French",
  "11084": "Apr",
  "11085": "ضور",
  "11086": "ندا",
  "11087": "Search",
  "11088": " sav",
  "11089": "ervation",
  "11090": " looked",
  "11091": " عالية",
  "11092": "607",
  "11093": "pret",
  "11094": "وند",
  "11095": "enti",
  "11096": "\\xa",
  "11097": "ии",
  "11098": "驾",
  "11099": " Tuesday",
  "11100": "ingle",
  "11101": "民",
  "11102": " والق",
  "11103": "但",
  "11104": "034",
  "11105": " Thanks",
  "11106": " variables",
  "11107": "460",
  "11108": " cred",
  "11109": "uti",
  "11110": " Pen",
  "11111": " بالت",
  "11112": "ाश",
  "11113": " beyond",
  "11114": " اث",
  "11115": "abetes",
  "11116": "fection",
  "11117": " advantage",
  "11118": "خي",
  "11119": "ില്ല",
  "11120": " kur",
  "11121": "ANG",
  "11122": "يسي",
  "11123": " الثانية",
  "11124": "apes",
  "11125": "än",
  "11126": "920",
  "11127": "Ut",
  "11128": " Republic",
  "11129": "atically",
  "11130": "�",
  "11131": " Phys",
  "11132": " repair",
  "11133": "्ड",
  "11134": "rote",
  "11135": "457",
  "11136": " station",
  "11137": "Sl",
  "11138": " النظام",
  "11139": " Mobile",
  "11140": "like",
  "11141": " tur",
  "11142": "draw",
  "11143": "海",
  "11144": "ых",
  "11145": " Girl",
  "11146": "543",
  "11147": "911",
  "11148": "394",
  "11149": " yield",
  "11150": " otherwise",
  "11151": "522",
  "11152": " anda",
  "11153": "eni",
  "11154": " البلد",
  "11155": "جال",
  "11156": "524",
  "11157": "etch",
[...]
