{
  "0": "�",
  "1": "�",
  "2": "�",
  "3": "�",
  "4": "�",
  "5": "�",
  "6": "�",
  "7": "�",
  "8": "�",
  "9": "�",
  "10": "�",
  "11": "�",
  "12": "�",
  "13": "!",
  "14": "\"",
  "15": "#",
  "16": "$",
  "17": "%",
  "18": "&",
  "19": "'",
  "20": "(",
  "21": ")",
  "22": "*",
  "23": "+",
  "24": ",",
  "25": "-",
  "26": ".",
  "27": "/",
  "28": "0",
  "29": "1",
  "30": "2",
  "31": "3",
  "32": "4",
  "33": "5",
  "34": "6",
  "35": "7",
  "36": "8",
  "37": "9",
  "38": ":",
  "39": ";",
  "40": "<",
  "41": "=",
  "42": ">",
  "43": "?",
  "44": "@",
  "45": "A",
  "46": "B",
  "47": "C",
  "48": "D",
  "49": "E",
  "50": "F",
  "51": "G",
  "52": "H",
  "53": "I",
  "54": "J",
  "55": "K",
  "56": "L",
  "57": "M",
  "58": "N",
  "59": "O",
  "60": "P",
  "61": "Q",
  "62": "R",
  "63": "S",
  "64": "T",
  "65": "U",
  "66": "V",
  "67": "W",
  "68": "X",
  "69": "Y",
  "70": "Z",
  "71": "[",
  "72": "\\",
  "73": "]",
  "74": "^",
  "75": "_",
  "76": "`",
  "77": "a",
  "78": "b",
  "79": "c",
  "80": "d",
  "81": "e",
  "82": "f",
  "83": "g",
  "84": "h",
  "85": "i",
  "86": "j",
  "87": "k",
  "88": "l",
  "89": "m",
  "90": "n",
  "91": "o",
  "92": "p",
  "93": "q",
  "94": "r",
  "95": "s",
  "96": "t",
  "97": "u",
  "98": "v",
  "99": "w",
  "100": "x",
  "101": "y",
  "102": "z",
  "103": "{",
  "104": "|",
  "105": "}",
  "106": "~",
  "107": "�",
  "108": "�",
  "109": "�",
  "110": "�",
  "111": "�",
  "112": "�",
  "113": "�",
  "114": "�",
  "115": "�",
  "116": "�",
  "117": "�",
  "118": "�",
  "119": "�",
  "120": "�",
  "121": "�",
  "122": "�",
  "123": "�",
  "124": "�",
  "125": "�",
  "126": "�",
  "127": "�",
  "128": "�",
  "129": "�",
  "130": "�",
  "131": "�",
  "132": "�",
  "133": "�",
  "134": "�",
  "135": "�",
  "136": "�",
  "137": "�",
  "138": "�",
  "139": "�",
  "140": "�",
  "141": "�",
  "142": "�",
  "143": "�",
  "144": "�",
  "145": "�",
  "146": "�",
  "147": "�",
  "148": "�",
  "149": "�",
  "150": "�",
  "151": "�",
  "152": "�",
  "153": "�",
  "154": "�",
  "155": "�",
  "156": "�",
  "157": "�",
  "158": "�",
  "159": "�",
  "160": "�",
  "161": "�",
  "162": "�",
  "163": "�",
  "164": "�",
  "165": "�",
  "166": "�",
  "167": "�",
  "168": "�",
  "169": "�",
  "170": "�",
  "171": "�",
  "172": "�",
  "173": "�",
  "174": "�",
  "175": "�",
  "176": "�",
  "177": "�",
  "178": "�",
  "179": "�",
  "180": "�",
  "181": "�",
  "182": "�",
  "183": "�",
  "184": "�",
  "185": "�",
  "186": "�",
  "187": "�",
  "188": "\u0000",
  "189": "\u0001",
  "190": "\u0002",
  "191": "\u0003",
  "192": "\u0004",
  "193": "\u0005",
  "194": "\u0006",
  "195": "\u0007",
  "196": "\b",
  "197": "\t",
  "198": "\n",
  "199": "\u000b",
  "200": "\f",
  "201": "\r",
  "202": "\u000e",
  "203": "\u000f",
  "204": "\u0010",
  "205": "\u0011",
  "206": "\u0012",
  "207": "\u0013",
  "208": "\u0014",
  "209": "\u0015",
  "210": "\u0016",
  "211": "\u0017",
  "212": "\u0018",
  "213": "\u0019",
  "214": "\u001a",
  "215": "\u001b",
  "216": "\u001c",
  "217": "\u001d",
  "218": "\u001e",
  "219": "\u001f",
  "220": " ",
  "221": "",
  "222": "�",
  "223": "�",
  "224": "�",
  "225": "�",
  "226": "�",
  "227": "�",
  "228": "�",
  "229": "�",
  "230": "�",
  "231": "�",
  "232": "�",
  "233": "�",
  "234": "�",
  "235": "�",
  "236": "�",
  "237": "�",
  "238": "�",
  "239": "�",
  "240": "�",
  "241": "�",
  "242": "�",
  "243": "�",
  "244": "�",
  "245": "�",
  "246": "�",
  "247": "�",
  "248": "�",
  "249": "�",
  "250": "�",
  "251": "�",
  "252": "�",
  "253": "�",
  "254": "�",
  "255": "�",
  "256": "  ",
  "257": "    ",
  "258": "er",
  "259": "in",
  "260": " t",
  "261": "on",
  "262": " a",
  "263": "en",
  "264": "es",
  "265": "at",
  "266": " �",
  "267": "or",
  "268": " s",
  "269": " d",
  "270": "an",
  "271": " c",
  "272": "о",
  "273": "re",
  "274": "he",
  "275": "        ",
  "276": " p",
  "277": "   ",
  "278": "al",
  "279": "е",
  "280": "is",
  "281": "ar",
  "282": "а",
  "283": "it",
  "284": "и",
  "285": "le",
  "286": "т",
  "287": " m",
  "288": " f",
  "289": " o",
  "290": " the",
  "291": "ic",
  "292": "ion",
  "293": "н",
  "294": "as",
  "295": "ro",
  "296": "et",
  "297": " b",
  "298": "с",
  "299": "р",
  "300": "ing",
  "301": "el",
  "302": "ent",
  "303": "ed",
  "304": "�",
  "305": "о�",
  "306": " w",
  "307": " n",
  "308": ";\n",
  "309": "un",
  "310": " in",
  "311": " l",
  "312": "st",
  "313": "ct",
  "314": "ur",
  "315": " an",
  "316": "am",
  "317": "om",
  "318": "ut",
  "319": " =",
  "320": "il",
  "321": "id",
  "322": "       ",
  "323": " of",
  "324": "im",
  "325": " e",
  "326": " v",
  "327": " h",
  "328": " to",
  "329": "�",
  "330": " (",
  "331": "ad",
  "332": "л",
  "333": " S",
  "334": "ch",
  "335": ".\n",
  "336": " de",
  "337": "ol",
  "338": "us",
  "339": " th",
  "340": "ul",
  "341": " and",
  "342": "os",
  "343": " g",
  "344": "�",
  "345": "\t\t",
  "346": "ig",
  "347": "em",
  "348": " re",
  "349": "iv",
  "350": " T",
  "351": "qu",
  "352": " A",
  "353": "--",
  "354": " C",
  "355": "у",
  "356": "ra",
  "357": "к",
  "358": ");\n",
  "359": "ot",
  "360": "od",
  "361": "ce",
  "362": "ag",
  "363": "est",
  "364": "if",
  "365": "ation",
  "366": "в",
  "367": " {",
  "368": "\n\n",
  "369": "um",
  "370": "           ",
  "371": "я",
  "372": " I",
  "373": " is",
  "374": "ow",
  "375": " P",
  "376": " M",
  "377": "м",
  "378": "ab",
  "379": "ate",
  "380": " r",
  "381": " con",
  "382": "�",
  "383": " k",
  "384": " st",
  "385": "ы",
  "386": " y",
  "387": "�",
  "388": "ir",
  "389": "ie",
  "390": "д",
  "391": " п",
  "392": " \"",
  "393": " for",
  "394": " ",
  "395": "ist",
  "396": "..",
  "397": "é",
  "398": "ers",
  "399": "ac",
  "400": "ا",
  "401": " D",
  "402": ")\n",
  "403": "ст",
  "404": " }",
  "405": "//",
  "406": "ess",
  "407": "�",
  "408": "ort",
  "409": "ay",
  "410": " B",
  "411": "ь",
  "412": "00",
  "413": "�",
  "414": " {\n",
  "415": "te",
  "416": "ter",
  "417": "pe",
  "418": "th",
  "419": " �",
  "420": ",\n",
  "421": "                ",
  "422": "oc",
  "423": " R",
  "424": "se",
  "425": "ap",
  "426": "ен",
  "427": " E",
  "428": "ub",
  "429": "and",
  "430": " -",
  "431": "end",
  "432": " L",
  "433": " F",
  "434": " pro",
  "435": "ч",
  "436": " on",
  "437": " в",
  "438": "pl",
  "439": "ri",
  "440": " <",
  "441": "av",
  "442": "**",
  "443": " �",
  "444": " с",
  "445": " un",
  "446": " be",
  "447": "ak",
  "448": " N",
  "449": "up",
  "450": " al",
  "451": "20",
  "452": "ра",
  "453": "ass",
  "454": "de",
  "455": "ction",
  "456": "ame",
  "457": "ith",
  "458": "ue",
  "459": " se",
  "460": ">\n",
  "461": " com",
  "462": "�",
  "463": "á",
  "464": "ver",
  "465": " H",
  "466": "ов",
  "467": "ht",
  "468": "з",
  "469": "ly",
  "470": " н",
  "471": "iz",
  "472": " qu",
  "473": "port",
  "474": "ou",
  "475": "pt",
  "476": "----",
  "477": " G",
  "478": " �",
  "479": "og",
  "480": "our",
  "481": " '",
  "482": "ang",
  "483": "xt",
  "484": " W",
  "485": "�",
  "486": " as",
  "487": "�",
  "488": "х",
  "489": "�",
  "490": "int",
  "491": "�",
  "492": " *",
  "493": " j",
  "494": "п",
  "495": " и",
  "496": "age",
  "497": "tr",
  "498": " ne",
  "499": "�",
  "500": " en",
  "501": "ia",
  "502": " о",
  "503": "ant",
  "504": "()",
  "505": "ine",
  "506": "art",
  "507": "ó",
  "508": "=\"",
  "509": "�",
  "510": "op",
  "511": " that",
  "512": "ment",
  "513": " wh",
  "514": "ect",
  "515": "rom",
  "516": "con",
  "517": " with",
  "518": " la",
  "519": "ere",
  "520": "ity",
  "521": "     ",
  "522": " ch",
  "523": " $",
  "524": "’",
  "525": "ng",
  "526": "ре",
  "527": " pr",
  "528": "й",
  "529": "               ",
  "530": " O",
  "531": " tr",
  "532": " le",
  "533": "б",
  "534": "lic",
  "535": "urn",
  "536": " it",
  "537": " or",
  "538": " ex",
  "539": "ult",
  "540": "for",
  "541": "ill",
  "542": "ata",
  "543": " �",
  "544": " this",
  "545": " �",
  "546": "г",
  "547": "ial",
  "548": "ни",
  "549": " к",
  "550": "�",
  "551": "oun",
  "552": " at",
  "553": " cl",
  "554": "pr",
  "555": "get",
  "556": " �",
  "557": " us",
  "558": "ik",
  "559": "==",
  "560": " д",
  "561": "í",
  "562": "ا�",
  "563": " if",
  "564": "ure",
  "565": "ind",
  "566": "cl",
  "567": "per",
  "568": " z",
  "569": "ov",
  "570": "ain",
  "571": "able",
  "572": "ile",
  "573": "�",
  "574": " U",
  "575": " �",
  "576": "ر",
  "577": " V",
  "578": "turn",
  "579": "ost",
  "580": "10",
  "581": "ive",
  "582": "ud",
  "583": " are",
  "584": " +",
  "585": "ет",
  "586": "，",
  "587": "ол",
  "588": "ne",
  "589": " The",
  "590": " K",
  "591": "�",
  "592": "In",
  "593": "ц",
  "594": "ight",
  "595": "der",
  "596": " .",
  "597": " i",
  "598": "的",
  "599": "ok",
  "600": ":\n",
  "601": "ies",
  "602": "ell",
  "603": "all",
  "604": "out",
  "605": " J",
  "606": "ю",
  "607": "ip",
  "608": " In",
  "609": "ib",
  "610": " from",
  "611": "ри",
  "612": " [",
  "613": "ی",
  "614": "ans",
  "615": "are",
  "616": "ire",
  "617": "io",
  "618": " by",
  "619": "ob",
  "620": "ff",
  "621": "од",
  "622": " he",
  "623": "(\"",
  "624": "import",
  "625": "те",
  "626": "ом",
  "627": "\t\t\t\t",
  "628": "com",
  "629": "##",
  "630": " }\n",
  "631": "ны",
  "632": "ust",
  "633": " на",
  "634": "но",
  "635": "ase",
  "636": " el",
  "637": "ack",
  "638": "ा",
  "639": "ard",
  "640": "ли",
  "641": " do",
  "642": " res",
  "643": "ore",
  "644": " �",
  "645": "ont",
  "646": " м",
  "647": "ог",
  "648": " //",
  "649": "ж",
  "650": " you",
  "651": " ,",
  "652": "ı",
  "653": "ш",
  "654": "ber",
  "655": "ype",
  "656": "19",
  "657": "act",
  "658": "�",
  "659": " :",
  "660": "ens",
  "661": "to",
  "662": "ени",
  "663": "ug",
  "664": "ice",
  "665": "ich",
  "666": " per",
  "667": "ast",
  "668": "ode",
  "669": "на",
  "670": "ор",
  "671": "->",
  "672": " �",
  "673": "du",
  "674": " par",
  "675": " we",
  "676": "form",
  "677": " return",
  "678": ").",
  "679": "ide",
  "680": "ach",
  "681": ".s",
  "682": " que",
  "683": " sh",
  "684": "ublic",
  "685": "ime",
  "686": "і",
  "687": "ave",
  "688": "ä",
  "689": "та",
  "690": "pro",
  "691": "ord",
  "692": "cc",
  "693": "。",
  "694": " pl",
  "695": "</",
  "696": "à",
  "697": "--------",
  "698": "�",
  "699": "ath",
  "700": " class",
  "701": "ec",
  "702": " not",
  "703": "201",
  "704": " \\",
  "705": "ong",
  "706": "\",",
  "707": "alue",
  "708": "ple",
  "709": "ign",
  "710": "ا�",
  "711": "****",
  "712": "ль",
  "713": " can",
  "714": "}\n",
  "715": " des",
  "716": " ad",
  "717": "put",
  "718": " з",
  "719": "�",
  "720": "ject",
  "721": " |",
  "722": "ser",
  "723": "und",
  "724": "ption",
  "725": "ge",
  "726": "�",
  "727": " đ",
  "728": "ite",
  "729": "pon",
  "730": "ла",
  "731": "();\n",
  "732": ";\n\n",
  "733": "ü",
  "734": "و",
  "735": "ient",
  "736": " new",
  "737": "ph",
  "738": "12",
  "739": "ва",
  "740": "�",
  "741": " ar",
  "742": "res",
  "743": "ск",
  "744": "ll",
  "745": " б",
  "746": "ن",
  "747": "str",
  "748": "St",
  "749": "ey",
  "750": " Th",
  "751": "  ",
  "752": "ой",
  "753": "�",
  "754": "                   ",
  "755": "iew",
  "756": " /",
  "757": "),",
  "758": "ance",
  "759": "ated",
  "760": "ace",
  "761": "ер",
  "762": " cont",
  "763": "yst",
  "764": "ition",
  "765": " ap",
  "766": "__",
  "767": " &",
  "768": " me",
  "769": "щ",
  "770": " im",
  "771": "fer",
  "772": "ah",
  "773": "elf",
  "774": "ть",
  "775": "tring",
  "776": "�",
  "777": "ail",
  "778": "ical",
  "779": "::",
  "780": "div",
  "781": "ти",
  "782": "ize",
  "783": "र",
  "784": "ps",
  "785": "{\n",
  "786": " �",
  "787": " te",
  "788": "ck",
  "789": "('",
  "790": "े",
  "791": "par",
  "792": "ence",
  "793": "ork",
  "794": "eng",
  "795": " у",
  "796": "د",
  "797": "unction",
  "798": " ro",
  "799": " ab",
  "800": " str",
  "801": "ft",
  "802": "ount",
  "803": "....",
  "804": "enc",
  "805": "eg",
  "806": " all",
  "807": "ه",
  "808": "�",
  "809": "ç",
  "810": "one",
  "811": "ary",
  "812": " was",
  "813": "ations",
  "814": " di",
  "815": "�",
  "816": "ull",
  "817": " }\n\n",
  "818": "ier",
  "819": " su",
  "820": " �",
  "821": "lo",
  "822": "то",
  "823": "्",
  "824": "ve",
  "825": "11",
  "826": "gr",
  "827": " est",
  "828": "ö",
  "829": " @",
  "830": "ung",
  "831": " x",
  "832": "oul",
  "833": "ual",
  "834": "ã",
  "835": "ت",
  "836": "ystem",
  "837": "202",
  "838": "”",
  "839": "ory",
  "840": "ال",
  "841": "so",
  "842": "ax",
  "843": "α",
  "844": "tt",
  "845": "�",
  "846": "pos",
  "847": " have",
  "848": "ся",
  "849": "ка",
  "850": "م",
  "851": "ear",
  "852": "ER",
  "853": " pre",
  "854": " public",
  "855": "τ",
  "856": "vent",
  "857": "lect",
  "858": "',",
  "859": "15",
  "860": "�",
  "861": " St",
  "862": "ي",
  "863": "ци",
  "864": "�",
  "865": "�",
  "866": "odel",
  "867": "ock",
  "868": "ро",
  "869": "iel",
  "870": "nd",
  "871": "ex",
  "872": " get",
  "873": " int",
  "874": "�",
  "875": " �",
  "876": "ould",
  "877": "text",
  "878": "err",
  "879": " за",
  "880": "ل",
  "881": " em",
  "882": "ого",
  "883": "�",
  "884": " et",
  "885": " dis",
  "886": "erv",
  "887": "ió",
  "888": "ем",
  "889": "``",
  "890": ".get",
  "891": "ari",
  "892": "�",
  "893": "ă",
  "894": "ert",
  "895": "erm",
  "896": "�",
  "897": "ा�",
  "898": "\"\n",
  "899": " г",
  "900": "we",
  "901": "cre",
  "902": "ο",
  "903": "====",
  "904": "az",
  "905": "che",
  "906": "ors",
  "907": "ener",
  "908": "oid",
  "909": "�",
  "910": " set",
  "911": "ư",
  "912": "ome",
  "913": " your",
  "914": " ob",
  "915": "Re",
  "916": " no",
  "917": " will",
  "918": " по",
  "919": " #",
  "920": "Name",
  "921": "об",
  "922": " не",
  "923": "16",
  "924": "да",
  "925": "oll",
  "926": "200",
  "927": "ss",
  "928": " =>",
  "929": "cri",
  "930": " del",
  "931": "\t\t\t",
  "932": "ão",
  "933": " </",
  "934": " ч",
  "935": "า",
  "936": "_t",
  "937": "orm",
  "938": " �",
  "939": " Y",
  "940": "ep",
  "941": "18",
  "942": "、",
  "943": "vel",
  "944": "�",
  "945": "ι",
  "946": "name",
  "947": " has",
  "948": "'s",
  "949": "oint",
  "950": "         ",
  "951": "�",
  "952": "IN",
  "953": "ys",
  "954": "The",
  "955": "ents",
  "956": "ON",
  "957": " es",
  "958": " num",
  "959": "row",
  "960": " const",
  "961": " Ch",
  "962": ");\n\n",
  "963": "25",
  "964": "्�",
  "965": "use",
  "966": "ля",
  "967": " out",
  "968": " inter",
  "969": "own",
  "970": "ру",
  "971": "ek",
  "972": "ión",
  "973": "ле",
  "974": "13",
  "975": "�",
  "976": " man",
  "977": "li",
  "978": "�",
  "979": " ра",
  "980": "ake",
  "981": "14",
  "982": "ions",
  "983": "ми",
  "984": "bo",
  "985": "ि",
  "986": "}\n\n",
  "987": "Con",
  "988": "eth",
  "989": "ан",
  "990": "�",
  "991": "ific",
  "992": "ild",
  "993": "aj",
  "994": "�",
  "995": "от",
  "996": "ann",
  "997": " т",
  "998": "он",
  "999": "ark",
  "1000": "ств",
  "1001": "ry",
  "1002": " а",
  "1003": "sp",
  "1004": "Id",
  "1005": " )",
  "1006": "ree",
  "1007": "ink",
  "1008": "ê",
  "1009": "val",
  "1010": "les",
  "1011": "า�",
  "1012": "but",
  "1013": " def",
  "1014": "ton",
  "1015": " _",
  "1016": " ph",
  "1017": " so",
  "1018": "ext",
  "1019": "anc",
  "1020": " up",
  "1021": " क",
  "1022": " der",
  "1023": " function",
  "1024": "this",
  "1025": "ater",
  "1026": "String",
  "1027": "))",
  "1028": "30",
  "1029": "set",
  "1030": " part",
  "1031": "ки",
  "1032": "ian",
  "1033": ".m",
  "1034": " sp",
  "1035": "ther",
  "1036": "uk",
  "1037": "Pro",
  "1038": " ال",
  "1039": "yn",
  "1040": "ange",
  "1041": "inal",
  "1042": "ound",
  "1043": "...",
  "1044": "?\n",
  "1045": " am",
  "1046": "ose",
  "1047": "add",
  "1048": "ST",
  "1049": " data",
  "1050": "://",
  "1051": "                       ",
  "1052": "000",
  "1053": "ν",
  "1054": "ement",
  "1055": "ado",
  "1056": "ield",
  "1057": "ix",
  "1058": "ł",
  "1059": "ric",
  "1060": "ray",
  "1061": " Re",
  "1062": " ==",
  "1063": " which",
  "1064": "�",
  "1065": "ery",
  "1066": "ε",
  "1067": "wo",
  "1068": "AT",
  "1069": "ci",
  "1070": "ी",
  "1071": " –",
  "1072": "au",
  "1073": "arg",
  "1074": " stat",
  "1075": " form",
  "1076": "ова",
  "1077": "ade",
  "1078": " م",
  "1079": "...\n",
  "1080": "ator",
  "1081": "сти",
  "1082": "’s",
  "1083": " col",
  "1084": "List",
  "1085": " one",
  "1086": " Pro",
  "1087": "17",
  "1088": "cess",
  "1089": "atch",
  "1090": " lo",
  "1091": "urr",
  "1092": " “",
  "1093": " u",
  "1094": " об",
  "1095": " �",
  "1096": "iss",
  "1097": "ew",
  "1098": "�",
  "1099": "me",
  "1100": "ок",
  "1101": ".l",
  "1102": " \n",
  "1103": "ale",
  "1104": "ings",
  "1105": "ि�",
  "1106": "red",
  "1107": "her",
  "1108": " but",
  "1109": "RE",
  "1110": "\">",
  "1111": " bo",
  "1112": "i�",
  "1113": " �",
  "1114": "�",
  "1115": "ож",
  "1116": "�",
  "1117": "pec",
  "1118": ".c",
  "1119": " é",
  "1120": "Qu",
  "1121": "น",
  "1122": " co",
  "1123": "ф",
  "1124": " die",
  "1125": "�",
  "1126": " ب",
  "1127": ".com",
  "1128": "ai",
  "1129": "�",
  "1130": "dex",
  "1131": "que",
  "1132": " от",
  "1133": " value",
  "1134": "********",
  "1135": "100",
  "1136": "abel",
  "1137": " pos",
  "1138": "ა",
  "1139": "Ex",
  "1140": "eb",
  "1141": " ent",
  "1142": " go",
  "1143": "alse",
  "1144": "一",
  "1145": "data",
  "1146": "led",
  "1147": " tra",
  "1148": "ви",
  "1149": "]\n",
  "1150": "roup",
  "1151": "ک",
  "1152": "nh",
  "1153": "\">\n",
  "1154": " self",
  "1155": "app",
  "1156": "ove",
  "1157": "ada",
  "1158": " */",
  "1159": "Com",
  "1160": " при",
  "1161": " use",
  "1162": "다",
  "1163": "ude",
  "1164": "pect",
  "1165": "sh",
  "1166": " da",
  "1167": "rit",
  "1168": "ise",
  "1169": "の",
  "1170": "ij",
  "1171": "ста",
  "1172": "cul",
  "1173": "ick",
  "1174": "fo",
  "1175": "50",
  "1176": ".p",
  "1177": "이",
  "1178": "ty",
  "1179": "tem",
  "1180": "ред",
  "1181": " na",
  "1182": " id",
  "1183": "EN",
  "1184": " av",
  "1185": " val",
  "1186": " sol",
  "1187": "ения",
  "1188": "irst",
  "1189": " э",
  "1190": "ied",
  "1191": "че",
  "1192": " comp",
  "1193": "----------------",
  "1194": " dif",
  "1195": "ivate",
  "1196": " sa",
  "1197": " los",
  "1198": "fig",
  "1199": " Un",
  "1200": "σ",
  "1201": "�",
  "1202": "co",
  "1203": "ş",
  "1204": "quest",
  "1205": "plic",
  "1206": "�",
  "1207": "ë",
  "1208": " add",
  "1209": "�",
  "1210": " equ",
  "1211": " more",
  "1212": "ous",
  "1213": "ư�",
  "1214": " Z",
  "1215": "是",
  "1216": "ос",
  "1217": "\":",
  "1218": " gr",
  "1219": "ese",
  "1220": "�",
  "1221": " �",
  "1222": " л",
  "1223": " An",
  "1224": "uct",
  "1225": "ρ",
  "1226": "24",
  "1227": "cont",
  "1228": "ym",
  "1229": "lement",
  "1230": "â",
  "1231": "ô",
  "1232": " time",
  "1233": " para",
  "1234": "its",
  "1235": "�",
  "1236": "\",\n",
  "1237": "ta",
  "1238": "ven",
  "1239": " !",
  "1240": "tern",
  "1241": "Ch",
  "1242": "ą",
  "1243": " acc",
  "1244": " und",
  "1245": "_s",
  "1246": "ं",
  "1247": "duct",
  "1248": "\");\n",
  "1249": "ethod",
  "1250": "ates",
  "1251": "def",
  "1252": "ma",
  "1253": " op",
  "1254": "ien",
  "1255": "line",
  "1256": "ი",
  "1257": " Com",
  "1258": " che",
  "1259": "ely",
  "1260": " au",
  "1261": "�",
  "1262": "ole",
  "1263": " void",
  "1264": "be",
  "1265": "чи",
  "1266": "_m",
  "1267": "cent",
  "1268": "Cont",
  "1269": "aw",
  "1270": "ú",
  "1271": "32",
  "1272": "ten",
  "1273": "ID",
  "1274": "dd",
  "1275": " bet",
  "1276": "س",
  "1277": " Con",
  "1278": " over",
  "1279": "оз",
  "1280": "ld",
  "1281": "AR",
  "1282": "�",
  "1283": " sup",
  "1284": " trans",
  "1285": "ank",
  "1286": "()\n",
  "1287": "�",
  "1288": " ra",
  "1289": " result",
  "1290": "ма",
  "1291": "�",
  "1292": " det",
  "1293": "hat",
  "1294": "AL",
  "1295": "Type",
  "1296": "่",
  "1297": " à",
  "1298": "ics",
  "1299": " >",
  "1300": "ей",
  "1301": "อ",
  "1302": "�",
  "1303": "col",
  "1304": " ag",
  "1305": "Data",
  "1306": " ng",
  "1307": "',\n",
  "1308": "ế",
  "1309": "си",
  "1310": "(s",
  "1311": "�",
  "1312": "�",
  "1313": "####",
  "1314": " reg",
  "1315": "�",
  "1316": "ę",
  "1317": " �",
  "1318": "ạ",
  "1319": "return",
  "1320": "urrent",
  "1321": " sc",
  "1322": "ger",
  "1323": "View",
  "1324": "�",
  "1325": "OR",
  "1326": " nh",
  "1327": " name",
  "1328": "ो",
  "1329": " var",
  "1330": "ava",
  "1331": "als",
  "1332": " comm",
  "1333": ")\n\n",
  "1334": "ish",
  "1335": "ues",
  "1336": " cons",
  "1337": "essage",
  "1338": "는",
  "1339": " sub",
  "1340": "ength",
  "1341": "�",
  "1342": " */\n",
  "1343": "י",
  "1344": "yle",
  "1345": " work",
  "1346": " е",
  "1347": " cal",
  "1348": "ных",
  "1349": "ca",
  "1350": "π",
  "1351": "LE",
  "1352": " end",
  "1353": "�",
  "1354": " ser",
  "1355": " rel",
  "1356": "ash",
  "1357": " their",
  "1358": " ка",
  "1359": "ular",
  "1360": "fl",
  "1361": "To",
  "1362": "En",
  "1363": "ows",
  "1364": " ac",
  "1365": "за",
  "1366": "ict",
  "1367": "Res",
  "1368": "22",
  "1369": " min",
  "1370": "ب",
  "1371": "ament",
  "1372": "ays",
  "1373": "ault",
  "1374": "ze",
  "1375": "uth",
  "1376": "ча",
  "1377": "ument",
  "1378": ".d",
  "1379": "igh",
  "1380": "Th",
  "1381": "ა�",
  "1382": " pe",
  "1383": " else",
  "1384": "ative",
  "1385": "оль",
  "1386": "old",
  "1387": "Cl",
  "1388": " er",
  "1389": "son",
  "1390": " type",
  "1391": "40",
  "1392": "ef",
  "1393": "�",
  "1394": " This",
  "1395": " bu",
  "1396": "-s",
  "1397": "�",
  "1398": "........",
  "1399": "ان",
  "1400": "ร",
  "1401": "']",
  "1402": " System",
  "1403": "�",
  "1404": "ource",
  "1405": "ession",
  "1406": "lem",
  "1407": "�",
  "1408": "olog",
  "1409": "에",
  "1410": "ner",
  "1411": "ike",
  "1412": "cond",
  "1413": ".S",
  "1414": "Col",
  "1415": "เ",
  "1416": " number",
  "1417": " cre",
  "1418": " П",
  "1419": "min",
  "1420": "ts",
  "1421": " act",
  "1422": "vers",
  "1423": "�",
  "1424": "rol",
  "1425": "bl",
  "1426": "ribut",
  "1427": " les",
  "1428": "ho",
  "1429": " por",
  "1430": "_p",
  "1431": "ider",
  "1432": " fl",
  "1433": " و",
  "1434": "ility",
  "1435": " when",
  "1436": "read",
  "1437": " also",
  "1438": " cor",
  "1439": "ו",
  "1440": "�",
  "1441": "ru",
  "1442": "AN",
  "1443": " tem",
  "1444": " any",
  "1445": "any",
  "1446": " um",
  "1447": " du",
  "1448": ".f",
  "1449": " про",
  "1450": "�",
  "1451": " they",
  "1452": "Text",
  "1453": " other",
  "1454": "date",
  "1455": "_c",
  "1456": "…",
  "1457": "ção",
  "1458": " String",
  "1459": "è",
  "1460": " null",
  "1461": "sw",
  "1462": "ating",
  "1463": "ного",
  "1464": " true",
  "1465": ".t",
  "1466": "    ",
  "1467": "ning",
  "1468": "oy",
  "1469": "ной",
  "1470": "де",
  "1471": "ди",
  "1472": " two",
  "1473": "ages",
  "1474": "quire",
  "1475": " X",
  "1476": "of",
  "1477": " Ar",
  "1478": "ก",
  "1479": "न",
  "1480": "�",
  "1481": "ả",
  "1482": "ask",
  "1483": "ces",
  "1484": "�",
  "1485": " đ�",
  "1486": "['",
  "1487": "ml",
  "1488": "```",
  "1489": "\";\n",
  "1490": "round",
  "1491": "ams",
  "1492": " its",
  "1493": "ader",
  "1494": "ible",
  "1495": "�",
  "1496": ".set",
  "1497": " ver",
  "1498": " fe",
  "1499": "na",
  "1500": "_l",
  "1501": "error",
  "1502": "uch",
  "1503": " В",
  "1504": "23",
  "1505": "�",
  "1506": "有",
  "1507": "Ar",
  "1508": " sur",
  "1509": " about",
  "1510": "\tif",
  "1511": "ait",
  "1512": " ass",
  "1513": "let",
  "1514": "clude",
  "1515": "br",
  "1516": "η",
  "1517": "тель",
  "1518": "»",
  "1519": "оп",
  "1520": " С",
  "1521": "�",
  "1522": "在",
  "1523": "_f",
  "1524": "ς",
  "1525": " bl",
  "1526": "és",
  "1527": "ract",
  "1528": "^{",
  "1529": "erson",
  "1530": "                                ",
  "1531": "不",
  "1532": "�",
  "1533": "ة",
  "1534": "�",
  "1535": "ins",
  "1536": "ение",
  "1537": "no",
  "1538": "“",
  "1539": "сп",
  "1540": "pp",
  "1541": "क",
  "1542": "ervice",
  "1543": "raw",
  "1544": "ui",
  "1545": "ute",
  "1546": "SE",
  "1547": "ample",
  "1548": " ре",
  "1549": " вы",
  "1550": "ż",
  "1551": " inv",
  "1552": "view",
  "1553": "�",
  "1554": " prob",
  "1555": "htt",
  "1556": "user",
  "1557": "š",
  "1558": "을",
  "1559": " Ex",
  "1560": "itle",
  "1561": "go",
  "1562": " Se",
  "1563": "ocal",
  "1564": "mer",
  "1565": " model",
  "1566": " private",
  "1567": " si",
  "1568": "ress",
  "1569": "========",
  "1570": "  ",
  "1571": "å",
  "1572": "ica",
  "1573": " It",
  "1574": ".\n\n",
  "1575": "ww",
  "1576": "esent",
  "1577": "้",
  "1578": " Al",
  "1579": " il",
  "1580": "ponse",
  "1581": "_d",
  "1582": "�",
  "1583": "raph",
  "1584": "\")",
  "1585": " point",
  "1586": "ع",
  "1587": "(\n",
  "1588": " sim",
  "1589": "ny",
  "1590": "new",
  "1591": "하",
  "1592": "ower",
  "1593": "////",
  "1594": "amp",
  "1595": "не",
  "1596": " met",
  "1597": "ación",
  "1598": "yp",
  "1599": " из",
  "1600": " test",
  "1601": "ais",
  "1602": "cho",
  "1603": " af",
  "1604": "ception",
  "1605": "ond",
  "1606": " year",
  "1607": "($",
  "1608": " %",
  "1609": " there",
  "1610": " were",
  "1611": "uc",
  "1612": "υ",
  "1613": " import",
  "1614": "oth",
  "1615": "emb",
  "1616": "idth",
  "1617": ".A",
  "1618": "atur",
  "1619": "class",
  "1620": "ên",
  "1621": "의",
  "1622": "roll",
  "1623": " prov",
  "1624": "ke",
  "1625": ".h",
  "1626": " my",
  "1627": "ons",
  "1628": "�",
  "1629": " into",
  "1630": " kh",
  "1631": " ст",
  "1632": " `",
  "1633": " «",
  "1634": "ler",
  "1635": "中",
  "1636": "ски",
  "1637": " den",
  "1638": "ე",
  "1639": " med",
  "1640": " att",
  "1641": "work",
  "1642": "60",
  "1643": "             ",
  "1644": " foll",
  "1645": " د",
  "1646": "�",
  "1647": " inst",
  "1648": " than",
  "1649": "urs",
  "1650": "irect",
  "1651": "ctions",
  "1652": "�",
  "1653": " ф",
  "1654": "util",
  "1655": " dist",
  "1656": "_id",
  "1657": " need",
  "1658": " ext",
  "1659": " how",
  "1660": " first",
  "1661": "ution",
  "1662": " �",
  "1663": " ?",
  "1664": "го",
  "1665": " We",
  "1666": "itt",
  "1667": " differ",
  "1668": "].",
  "1669": " пр",
  "1670": "�",
  "1671": "ъ",
  "1672": "public",
  "1673": "�",
  "1674": "сть",
  "1675": "28",
  "1676": "ž",
  "1677": "={",
  "1678": "ง",
  "1679": " स",
  "1680": "��",
  "1681": "Ob",
  "1682": " false",
  "1683": "att",
  "1684": "�",
  "1685": "用",
  "1686": " mod",
  "1687": "ina",
  "1688": "IT",
  "1689": "ー",
  "1690": "ni",
  "1691": "ody",
  "1692": "-m",
  "1693": "ref",
  "1694": " org",
  "1695": " htt",
  "1696": " some",
  "1697": "ased",
  "1698": " pol",
  "1699": "21",
  "1700": "-t",
  "1701": "ule",
  "1702": " та",
  "1703": " una",
  "1704": "27",
  "1705": "play",
  "1706": " ein",
  "1707": "ateg",
  "1708": "�",
  "1709": " stud",
  "1710": " Tr",
  "1711": " mon",
  "1712": " las",
  "1713": "CT",
  "1714": "ار",
  "1715": "人",
  "1716": "')",
  "1717": "la",
  "1718": "ные",
  "1719": " may",
  "1720": "ั",
  "1721": "ween",
  "1722": "value",
  "1723": " using",
  "1724": "ugh",
  "1725": "kt",
  "1726": "ня",
  "1727": "-d",
  "1728": "ую",
  "1729": " ve",
  "1730": "�",
  "1731": "щи",
  "1732": " ed",
  "1733": "ו�",
  "1734": " car",
  "1735": "เ�",
  "1736": "      ",
  "1737": "ern",
  "1738": "-b",
  "1739": "ames",
  "1740": " then",
  "1741": "Se",
  "1742": "26",
  "1743": "().",
  "1744": "�",
  "1745": " his",
  "1746": "га",
  "1747": " ind",
  "1748": "ES",
  "1749": "ature",
  "1750": " list",
  "1751": "air",
  "1752": " rec",
  "1753": " our",
  "1754": "je",
  "1755": "cript",
  "1756": "(f",
  "1757": "ices",
  "1758": "�",
  "1759": "া",
  "1760": "den",
  "1761": "01",
  "1762": "owing",
  "1763": "ấ",
  "1764": "ets",
  "1765": "ای",
  "1766": "ponent",
  "1767": "var",
  "1768": " string",
  "1769": "word",
  "1770": "��",
  "1771": "ე�",
  "1772": " De",
  "1773": "ffect",
  "1774": "const",
  "1775": "ities",
  "1776": " real",
  "1777": " gener",
  "1778": "ivers",
  "1779": "ко",
  "1780": " what",
  "1781": " sign",
  "1782": ".j",
  "1783": "ren",
  "1784": " ж",
  "1785": " �",
  "1786": "amet",
  "1787": "print",
  "1788": "rr",
  "1789": " each",
  "1790": "za",
  "1791": " po",
  "1792": " used",
  "1793": "Par",
  "1794": " ک",
  "1795": "string",
  "1796": " kn",
  "1797": " spec",
  "1798": "lick",
  "1799": "roid",
  "1800": "bu",
  "1801": " inform",
  "1802": "fore",
  "1803": "idad",
  "1804": "로",
  "1805": "stat",
  "1806": " been",
  "1807": "י�",
  "1808": " would",
  "1809": " only",
  "1810": "С",
  "1811": " method",
  "1812": "ი�",
  "1813": "29",
  "1814": " men",
  "1815": "ms",
  "1816": "_C",
  "1817": "ka",
  "1818": " К",
  "1819": "ify",
  "1820": "ane",
  "1821": "��",
  "1822": "ش",
  "1823": "Item",
  "1824": "hen",
  "1825": "�",
  "1826": "мен",
  "1827": "ี",
  "1828": "�",
  "1829": " system",
  "1830": ".,",
  "1831": "vert",
  "1832": "pre",
  "1833": " let",
  "1834": "त",
  "1835": " off",
  "1836": "ğ",
  "1837": "erg",
  "1838": "ational",
  "1839": "                           ",
  "1840": " fil",
  "1841": " ا�",
  "1842": "한",
  "1843": "ел",
  "1844": " те",
  "1845": "po",
  "1846": "ś",
  "1847": "О",
  "1848": " char",
  "1849": "px",
  "1850": "ши",
  "1851": " find",
  "1852": " under",
  "1853": " со",
  "1854": " dec",
  "1855": " τ",
  "1856": "ments",
  "1857": "ق",
  "1858": "了",
  "1859": "amb",
  "1860": " En",
  "1861": "�",
  "1862": " If",
  "1863": "ply",
  "1864": "č",
  "1865": "iệ",
  "1866": "RO",
  "1867": " between",
  "1868": "ender",
  "1869": "item",
  "1870": "arch",
  "1871": "\treturn",
  "1872": "に",
  "1873": "../",
  "1874": "ố",
  "1875": "],",
  "1876": "Tr",
  "1877": " ت",
  "1878": "**\n",
  "1879": "ás",
  "1880": "ious",
  "1881": "++",
  "1882": " fr",
  "1883": " rem",
  "1884": "';\n",
  "1885": " vari",
  "1886": " aut",
  "1887": "By",
  "1888": "org",
  "1889": " dur",
  "1890": " case",
  "1891": "Im",
  "1892": "td",
  "1893": "ม",
  "1894": "iven",
  "1895": "�",
  "1896": " dem",
  "1897": "ote",
  "1898": "大",
  "1899": "IC",
  "1900": "uss",
  "1901": " where",
  "1902": " Q",
  "1903": "ined",
  "1904": "ando",
  "1905": "�",
  "1906": "Value",
  "1907": "�",
  "1908": "ộ",
  "1909": "ember",
  "1910": " just",
  "1911": "Bo",
  "1912": "net",
  "1913": "-f",
  "1914": "arget",
  "1915": "64",
  "1916": "An",
  "1917": ".D",
  "1918": "\")\n",
  "1919": "ional",
  "1920": "UL",
  "1921": " br",
  "1922": "33",
  "1923": "reg",
  "1924": " her",
  "1925": " ह",
  "1926": " final",
  "1927": "ют",
  "1928": "ý",
  "1929": "rite",
  "1930": "pend",
  "1931": "uy",
  "1932": " &&",
  "1933": " like",
  "1934": "�",
  "1935": "λ",
  "1936": " long",
  "1937": "ف",
  "1938": "П",
  "1939": "和",
  "1940": "ере",
  "1941": " user",
  "1942": "�",
  "1943": ".b",
  "1944": "�",
  "1945": "icht",
  "1946": "_{",
  "1947": "ced",
  "1948": " Le",
  "1949": "�",
  "1950": "gram",
  "1951": "umn",
  "1952": "па",
  "1953": "�",
  "1954": "estion",
  "1955": "order",
  "1956": ").\n",
  "1957": "い",
  "1958": " van",
  "1959": "af",
  "1960": "):\n",
  "1961": "ния",
  "1962": "zy",
  "1963": "ще",
  "1964": "AM",
  "1965": " start",
  "1966": "ene",
  "1967": "র",
  "1968": "ется",
  "1969": "�",
  "1970": "�다",
  "1971": " .\n",
  "1972": " For",
  "1973": " bel",
  "1974": "κ",
  "1975": "ек",
  "1976": " },\n",
  "1977": " раз",
  "1978": " line",
  "1979": "지",
  "1980": "cept",
  "1981": "rough",
  "1982": "80",
  "1983": "rc",
  "1984": " static",
  "1985": "99",
  "1986": " �",
  "1987": "swer",
  "1988": " !=",
  "1989": "э",
  "1990": "199",
  "1991": "key",
  "1992": "ION",
  "1993": " Sh",
  "1994": "ato",
  "1995": "oug",
  "1996": " non",
  "1997": " je",
  "1998": "以",
  "1999": "];\n",
  "2000": "ros",
  "2001": "'\n",
  "2002": "DE",
  "2003": "ero",
  "2004": " dan",
  "2005": "�",
  "2006": "(t",
  "2007": "�",
  "2008": "ativ",
  "2009": "ür",
  "2010": "�",
  "2011": "-l",
  "2012": "оди",
  "2013": "�",
  "2014": "고",
  "2015": " О",
  "2016": "Form",
  "2017": " file",
  "2018": " back",
  "2019": "し",
  "2020": "ico",
  "2021": "�",
  "2022": "ный",
  "2023": "ores",
  "2024": " --",
  "2025": " os",
  "2026": " под",
  "2027": "В",
  "2028": "ccess",
  "2029": "iment",
  "2030": " х",
  "2031": "る",
  "2032": " text",
  "2033": "ti",
  "2034": "ants",
  "2035": "[i",
  "2036": " should",
  "2037": " these",
  "2038": " log",
  "2039": "ante",
  "2040": "sert",
  "2041": "ism",
  "2042": "_in",
  "2043": " vol",
  "2044": "ines",
  "2045": "umber",
  "2046": "Object",
  "2047": "='",
  "2048": "μ",
  "2049": "ados",
  "2050": "'t",
  "2051": "ล",
  "2052": "ET",
  "2053": "。\n",
  "2054": " sk",
  "2055": " He",
  "2056": "ί",
  "2057": " Р",
  "2058": "));\n",
  "2059": "ông",
  "2060": "�",
  "2061": "very",
  "2062": "param",
  "2063": " require",
  "2064": " had",
  "2065": " sm",
  "2066": "�",
  "2067": "lar",
  "2068": ");",
  "2069": "rop",
  "2070": "ту",
  "2071": ".g",
  "2072": "rem",
  "2073": "_b",
  "2074": "_S",
  "2075": "ции",
  "2076": "sk",
  "2077": "ì",
  "2078": "State",
  "2079": "ác",
  "2080": "35",
  "2081": "load",
  "2082": "AS",
  "2083": "�",
  "2084": " person",
  "2085": "ja",
  "2086": "ron",
  "2087": "ủ",
  "2088": "са",
  "2089": "ana",
  "2090": "во",
  "2091": "�i",
  "2092": " hel",
  "2093": " them",
  "2094": " ма",
  "2095": "ayer",
  "2096": "rag",
  "2097": " ho",
  "2098": "�",
  "2099": "hr",
  "2100": " process",
  "2101": "ве",
  "2102": "____",
  "2103": "ocument",
  "2104": "ว",
  "2105": "ptions",
  "2106": "ме",
  "2107": " pass",
  "2108": "�",
  "2109": "：",
  "2110": " ke",
  "2111": " dr",
  "2112": "án",
  "2113": "ン",
  "2114": " प",
  "2115": "ć",
  "2116": "iet",
  "2117": " who",
  "2118": " và",
  "2119": "ку",
  "2120": "�",
  "2121": " �",
  "2122": "right",
  "2123": "ful",
  "2124": "ে",
  "2125": "_P",
  "2126": "reak",
  "2127": "45",
  "2128": "do",
  "2129": "adi",
  "2130": "を",
  "2131": " incl",
  "2132": "rror",
  "2133": " Qu",
  "2134": "include",
  "2135": " comple",
  "2136": "url",
  "2137": " म",
  "2138": "ione",
  "2139": "�",
  "2140": "ör",
  "2141": " cap",
  "2142": " М",
  "2143": "    \n",
  "2144": "****************",
  "2145": "ло",
  "2146": "�",
  "2147": " Н",
  "2148": "ency",
  "2149": "ido",
  "2150": "要",
  "2151": "era",
  "2152": "User",
  "2153": "ustom",
  "2154": "ậ",
  "2155": "reat",
  "2156": "face",
  "2157": "anag",
  "2158": "ized",
  "2159": "hed",
  "2160": " key",
  "2161": " \\(",
  "2162": " что",
  "2163": "ara",
  "2164": "で",
  "2165": "action",
  "2166": "가",
  "2167": " most",
  "2168": "}\\",
  "2169": "ơ",
  "2170": " make",
  "2171": "ector",
  "2172": "�",
  "2173": "сто",
  "2174": "/m",
  "2175": "се",
  "2176": " cent",
  "2177": "AC",
  "2178": "tn",
  "2179": "ía",
  "2180": " yang",
  "2181": "ital",
  "2182": " following",
  "2183": "tal",
  "2184": "ду",
  "2185": " through",
  "2186": "स",
  "2187": " fin",
  "2188": " As",
  "2189": " пол",
  "2190": "ल",
  "2191": "上",
  "2192": "行",
  "2193": "Un",
  "2194": " sin",
  "2195": " current",
  "2196": "ars",
  "2197": ".P",
  "2198": "velop",
  "2199": "(m",
  "2200": "ha",
  "2201": " oper",
  "2202": "と",
  "2203": " such",
  "2204": "serv",
  "2205": "Get",
  "2206": "��",
  "2207": "Exception",
  "2208": "ér",
  "2209": "rac",
  "2210": "лу",
  "2211": " ge",
  "2212": "span",
  "2213": "��",
  "2214": "ream",
  "2215": " mat",
  "2216": "unc",
  "2217": "ization",
  "2218": "�",
  "2219": "�",
  "2220": "্",
  "2221": "ров",
  "2222": "))\n",
  "2223": "```\n",
  "2224": " vis",
  "2225": "ры",
  "2226": "ott",
  "2227": " ca",
  "2228": " ma",
  "2229": "using",
  "2230": "ward",
  "2231": " Cl",
  "2232": " hand",
  "2233": " many",
  "2234": "ты",
  "2235": "�",
  "2236": " To",
  "2237": " And",
  "2238": "\t\t\t\t\t",
  "2239": "ın",
  "2240": "ures",
  "2241": "年",
  "2242": " v�",
  "2243": "file",
  "2244": " high",
  "2245": " mult",
  "2246": "uble",
  "2247": "す",
  "2248": "�",
  "2249": "ux",
  "2250": "ə",
  "2251": "�",
  "2252": " Res",
  "2253": "05",
  "2254": " бы",
  "2255": "Bu",
  "2256": "Time",
  "2257": "�",
  "2258": "ks",
  "2259": "ด",
  "2260": "ayout",
  "2261": "ñ",
  "2262": "But",
  "2263": "个",
  "2264": "ared",
  "2265": " art",
  "2266": "сь",
  "2267": "itor",
  "2268": "amil",
  "2269": " produ",
  "2270": "生",
  "2271": "https",
  "2272": "log",
  "2273": "Set",
  "2274": " https",
  "2275": "ush",
  "2276": "ente",
  "2277": " post",
  "2278": " anal",
  "2279": " exper",
  "2280": "kan",
  "2281": "ential",
  "2282": "),\n",
  "2283": " для",
  "2284": "perty",
  "2285": " �",
  "2286": "–",
  "2287": "ior",
  "2288": "ز",
  "2289": " Pl",
  "2290": " —",
  "2291": "ě",
  "2292": "De",
  "2293": " son",
  "2294": "ume",
  "2295": "ги",
  "2296": "为",
  "2297": "IS",
  "2298": "aut",
  "2299": "imes",
  "2300": "�",
  "2301": "は",
  "2302": ".C",
  "2303": "可",
  "2304": " fact",
  "2305": ">\n\n",
  "2306": "�",
  "2307": "ح",
  "2308": "ода",
  "2309": "õ",
  "2310": "90",
  "2311": "36",
  "2312": " cu",
  "2313": "ό",
  "2314": "ici",
  "2315": "А",
  "2316": "press",
  "2317": ".M",
  "2318": "�",
  "2319": ".in",
  "2320": "Key",
  "2321": "AD",
  "2322": "ocation",
  "2323": "分",
  "2324": "ु",
  "2325": "');\n",
  "2326": "Н",
  "2327": "iver",
  "2328": " пред",
  "2329": "ย",
  "2330": "31",
  "2331": " term",
  "2332": "[]",
  "2333": "گ",
  "2334": " sl",
  "2335": "를",
  "2336": "til",
  "2337": " dat",
  "2338": "cription",
  "2339": "ै",
  "2340": "�",
  "2341": " som",
  "2342": "_n",
  "2343": "37",
  "2344": "ited",
  "2345": " das",
  "2346": "plication",
  "2347": "은",
  "2348": "�",
  "2349": "leg",
  "2350": " appro",
  "2351": " до",
  "2352": " vers",
  "2353": " problem",
  "2354": "서",
  "2355": "기",
  "2356": "�",
  "2357": "erc",
  "2358": "back",
  "2359": "UR",
  "2360": " don",
  "2361": " cho",
  "2362": ".w",
  "2363": "/s",
  "2364": "方",
  "2365": "els",
  "2366": "ackage",
  "2367": "earch",
  "2368": " calcul",
  "2369": " я",
  "2370": " partic",
  "2371": "،",
  "2372": "iter",
  "2373": "orld",
  "2374": "oh",
  "2375": "the",
  "2376": "_T",
  "2377": " she",
  "2378": "((",
  "2379": " �",
  "2380": "34",
  "2381": " aw",
  "2382": "da",
  "2383": " object",
  "2384": ".add",
  "2385": " gl",
  "2386": " size",
  "2387": "ท",
  "2388": "ida",
  "2389": "ables",
  "2390": " after",
  "2391": "К",
  "2392": " pour",
  "2393": "fr",
  "2394": "lection",
  "2395": " read",
  "2396": "unt",
  "2397": "て",
  "2398": " dé",
  "2399": " tak",
  "2400": "ople",
  "2401": "He",
  "2402": "ج",
  "2403": " How",
  "2404": ".L",
  "2405": "能",
  "2406": " does",
  "2407": "mp",
  "2408": " th�",
  "2409": " pat",
  "2410": "た",
  "2411": " Ph",
  "2412": "iles",
  "2413": " print",
  "2414": " да",
  "2415": "-c",
  "2416": "chn",
  "2417": "пи",
  "2418": "ability",
  "2419": "ross",
  "2420": "ิ",
  "2421": "loat",
  "2422": " dev",
  "2423": "struct",
  "2424": "ầ",
  "2425": "�",
  "2426": "ision",
  "2427": "){\n",
  "2428": " como",
  "2429": "inc",
  "2430": "arn",
  "2431": " same",
  "2432": " second",
  "2433": " right",
  "2434": " �",
  "2435": "отор",
  "2436": " tri",
  "2437": "left",
  "2438": "UT",
  "2439": " gu",
  "2440": " zu",
  "2441": " cas",
  "2442": "mon",
  "2443": "же",
  "2444": " î",
  "2445": " von",
  "2446": "�",
  "2447": " fo",
  "2448": " А",
  "2449": "зи",
  "2450": "inter",
  "2451": "ique",
  "2452": "not",
  "2453": " Pr",
  "2454": "met",
  "2455": "数",
  "2456": "land",
  "2457": " different",
  "2458": "�",
  "2459": " pas",
  "2460": "File",
  "2461": "());\n",
  "2462": "oad",
  "2463": "Error",
  "2464": "38",
  "2465": "Pl",
  "2466": "ito",
  "2467": " while",
  "2468": "04",
  "2469": " là",
  "2470": "�",
  "2471": "ह",
  "2472": "void",
  "2473": " What",
  "2474": "—",
  "2475": "�",
  "2476": "gen",
  "2477": "men",
  "2478": "ân",
  "2479": " �",
  "2480": " ///",
  "2481": "php",
  "2482": "ков",
  "2483": " You",
  "2484": "ED",
  "2485": " event",
  "2486": "が",
  "2487": "ā",
  "2488": "ales",
  "2489": "gs",
  "2490": "ister",
  "2491": " run",
  "2492": "AP",
  "2493": " poss",
  "2494": "时",
  "2495": "ivity",
  "2496": "บ",
  "2497": "�",
  "2498": "出",
  "2499": "input",
  "2500": " max",
  "2501": "ting",
  "2502": "ains",
  "2503": " t�",
  "2504": "wn",
  "2505": " On",
  "2506": "Button",
  "2507": "ности",
  "2508": " cost",
  "2509": "try",
  "2510": "by",
  "2511": "म",
  "2512": "Event",
  "2513": "):",
  "2514": "},",
  "2515": " well",
  "2516": "ά",
  "2517": " ]",
  "2518": " field",
  "2519": "ride",
  "2520": " help",
  "2521": "Al",
  "2522": "mit",
  "2523": "itial",
  "2524": "�",
  "2525": "ffer",
  "2526": " New",
  "2527": "fe",
  "2528": "ends",
  "2529": "ini",
  "2530": "75",
  "2531": " mark",
  "2532": " ter",
  "2533": "ios",
  "2534": "це",
  "2535": "ura",
  "2536": "ি",
  "2537": "�",
  "2538": "></",
  "2539": "OM",
  "2540": "self",
  "2541": "学",
  "2542": " ins",
  "2543": " product",
  "2544": "iones",
  "2545": "्र",
  "2546": "Service",
  "2547": " си",
  "2548": "OT",
  "2549": " có",
  "2550": "result",
  "2551": "wh",
  "2552": "Info",
  "2553": "vir",
  "2554": "vol",
  "2555": " )\n",
  "2556": " see",
  "2557": " q",
  "2558": " Т",
  "2559": "ам",
  "2560": " pot",
  "2561": "06",
  "2562": " down",
  "2563": "ua",
  "2564": "US",
  "2565": " Д",
  "2566": "том",
  "2567": "ral",
  "2568": "�",
  "2569": "な",
  "2570": "�",
  "2571": "�",
  "2572": " ->",
  "2573": "lear",
  "2574": "ats",
  "2575": "ше",
  "2576": "ου",
  "2577": " state",
  "2578": "For",
  "2579": "other",
  "2580": " incre",
  "2581": "man",
  "2582": " pod",
  "2583": "�",
  "2584": "type",
  "2585": "ส",
  "2586": " Be",
  "2587": "ama",
  "2588": "해",
  "2589": " item",
  "2590": "ние",
  "2591": "ну",
  "2592": " ме",
  "2593": " <<",
  "2594": "�",
  "2595": "(x",
  "2596": "ต",
  "2597": "ias",
  "2598": " ||",
  "2599": " ...",
  "2600": " Te",
  "2601": "pen",
  "2602": "рав",
  "2603": " ин",
  "2604": "umm",
  "2605": " س",
  "2606": "lete",
  "2607": " mo",
  "2608": "া�",
  "2609": " know",
  "2610": " gi",
  "2611": "por",
  "2612": "ync",
  "2613": "70",
  "2614": "ام",
  "2615": " ist",
  "2616": "zen",
  "2617": " given",
  "2618": " default",
  "2619": "Or",
  "2620": "�",
  "2621": " order",
  "2622": "On",
  "2623": "作",
  "2624": "aterial",
  "2625": "ki",
  "2626": "bs",
  "2627": "_M",
  "2628": "oci",
  "2629": " ;",
  "2630": " ang",
  "2631": "ном",
  "2632": "্�",
  "2633": " inte",
  "2634": "ita",
  "2635": " total",
  "2636": "IM",
  "2637": "�",
  "2638": "ours",
  "2639": " much",
  "2640": "iế",
  "2641": " ли",
  "2642": "vo",
  "2643": " error",
  "2644": " ви",
  "2645": " could",
  "2646": "/c",
  "2647": "ste",
  "2648": " cond",
  "2649": "ano",
  "2650": "ườ",
  "2651": " java",
  "2652": "(c",
  "2653": "_name",
  "2654": "AG",
  "2655": " show",
  "2656": "-p",
  "2657": "下",
  "2658": "Color",
  "2659": "39",
  "2660": "................",
  "2661": "une",
  "2662": " ن",
  "2663": " �",
  "2664": " pop",
  "2665": "lex",
  "2666": "Model",
  "2667": " includ",
  "2668": "}{",
  "2669": "ო",
  "2670": "roller",
  "2671": " seg",
  "2672": "ス",
  "2673": "лен",
  "2674": "�",
  "2675": "\tpublic",
  "2676": "tes",
  "2677": " mem",
  "2678": " try",
  "2679": "                               ",
  "2680": "成",
  "2681": "--------------------------------",
  "2682": "്",
  "2683": " group",
  "2684": "ically",
  "2685": ".W",
  "2686": " look",
  "2687": " vo",
  "2688": " information",
  "2689": "math",
  "2690": "ella",
  "2691": "ken",
  "2692": " Col",
  "2693": "bar",
  "2694": "　",
  "2695": "ك",
  "2696": "><",
  "2697": "жи",
  "2698": " best",
  "2699": ".e",
  "2700": "lected",
  "2701": " în",
  "2702": "present",
  "2703": "Le",
  "2704": "chen",
  "2705": "’t",
  "2706": " cr",
  "2707": "ified",
  "2708": "�",
  "2709": " Im",
  "2710": "।",
  "2711": " years",
  "2712": "�",
  "2713": " div",
  "2714": " �",
  "2715": "ough",
  "2716": "�",
  "2717": " Fr",
  "2718": " une",
  "2719": "ino",
  "2720": "И",
  "2721": " people",
  "2722": " �",
  "2723": " Gr",
  "2724": "rap",
  "2725": " every",
  "2726": "ак",
  "2727": " pu",
  "2728": "imal",
  "2729": " three",
  "2730": " present",
  "2731": "�",
  "2732": "리",
  "2733": "[\"",
  "2734": " want",
  "2735": "Field",
  "2736": "(n",
  "2737": "')\n",
  "2738": " element",
  "2739": "asure",
  "2740": "ар",
  "2741": " effect",
  "2742": "55",
  "2743": " local",
  "2744": "OL",
  "2745": " La",
  "2746": "yl",
  "2747": "ference",
  "2748": "ะ",
  "2749": " ce",
  "2750": "法",
  "2751": "#include",
  "2752": "ides",
  "2753": "ства",
  "2754": " ر",
  "2755": " ol",
  "2756": "到",
  "2757": "abil",
  "2758": "ula",
  "2759": "ache",
  "2760": "object",
  "2761": "ences",
  "2762": "도",
  "2763": "(self",
  "2764": " ف",
  "2765": "ř",
  "2766": " now",
  "2767": "icle",
  "2768": "48",
  "2769": " 이",
  "2770": "button",
  "2771": " direct",
  "2772": " prof",
  "2773": "va",
  "2774": "ife",
  "2775": " mit",
  "2776": "ium",
  "2777": "uthor",
  "2778": "ii",
  "2779": " α",
  "2780": "Р",
  "2781": "át",
  "2782": " mak",
  "2783": " Ad",
  "2784": "ormal",
  "2785": "Sh",
  "2786": "Index",
  "2787": "alth",
  "2788": " котор",
  "2789": "/l",
  "2790": " Is",
  "2791": "ploy",
  "2792": " US",
  "2793": " serv",
  "2794": "ird",
  "2795": " π",
  "2796": "lease",
  "2797": " check",
  "2798": "ủa",
  "2799": " top",
  "2800": "irc",
  "2801": " struct",
  "2802": "�",
  "2803": ".st",
  "2804": " style",
  "2805": "ffic",
  "2806": "ार",
  "2807": "Stat",
  "2808": "rm",
  "2809": "�",
  "2810": "理",
  "2811": "ogle",
  "2812": "anager",
  "2813": "########",
  "2814": "day",
  "2815": "日",
  "2816": "oken",
  "2817": " Ap",
  "2818": " ha",
  "2819": "uro",
  "2820": "(p",
  "2821": "ま",
  "2822": " rest",
  "2823": "ainer",
  "2824": " );\n",
  "2825": "ات",
  "2826": "ENT",
  "2827": "](",
  "2828": "�",
  "2829": " мож",
  "2830": " của",
  "2831": "oto",
  "2832": "这",
  "2833": " ou",
  "2834": "08",
  "2835": "ствен",
  "2836": "�",
  "2837": "ые",
  "2838": "�",
  "2839": "acter",
  "2840": "amente",
  "2841": "жа",
  "2842": "itions",
  "2843": "Request",
  "2844": " prote",
  "2845": " way",
  "2846": "cause",
  "2847": "�",
  "2848": "yd",
  "2849": "sole",
  "2850": "rain",
  "2851": "code",
  "2852": " contin",
  "2853": "over",
  "2854": "ω",
  "2855": "Box",
  "2856": " ref",
  "2857": " ос",
  "2858": " both",
  "2859": "44",
  "2860": "ora",
  "2861": "export",
  "2862": " values",
  "2863": " here",
  "2864": " σ",
  "2865": "定",
  "2866": "ых",
  "2867": "�",
  "2868": "indow",
  "2869": "indows",
  "2870": "ground",
  "2871": ".T",
  "2872": "ș",
  "2873": " soc",
  "2874": "ql",
  "2875": "国",
  "2876": " dans",
  "2877": "asi",
  "2878": "ượ",
  "2879": "ค",
  "2880": "会",
  "2881": "!\n",
  "2882": "ists",
  "2883": "omet",
  "2884": "Element",
  "2885": " create",
  "2886": "                 ",
  "2887": "Map",
  "2888": " су",
  "2889": " ^{",
  "2890": "Context",
  "2891": " corre",
  "2892": "html",
  "2893": "nect",
  "2894": "én",
  "2895": " because",
  "2896": "////////",
  "2897": " И",
  "2898": " table",
  "2899": "�",
  "2900": "isk",
  "2901": "www",
  "2902": "�",
  "2903": "文",
  "2904": "нов",
  "2905": "ails",
  "2906": "�",
  "2907": "ever",
  "2908": "ù",
  "2909": "med",
  "2910": "':",
  "2911": " color",
  "2912": "IL",
  "2913": "Т",
  "2914": "лю",
  "2915": "ved",
  "2916": "�",
  "2917": " input",
  "2918": " word",
  "2919": " Sch",
  "2920": "();\n\n",
  "2921": " Mar",
  "2922": "As",
  "2923": "AB",
  "2924": " consider",
  "2925": " call",
  "2926": " break",
  "2927": " pres",
  "2928": "из",
  "2929": "ным",
  "2930": "）",
  "2931": " Or",
  "2932": "500",
  "2933": "alt",
  "2934": "�",
  "2935": " develop",
  "2936": " fa",
  "2937": " expect",
  "2938": "प",
  "2939": "本",
  "2940": "ln",
  "2941": "°",
  "2942": "्य",
  "2943": " lim",
  "2944": "_D",
  "2945": "wa",
  "2946": "\n\n\n",
  "2947": " се",
  "2948": "시",
  "2949": "ất",
  "2950": " �",
  "2951": "pace",
  "2952": "ная",
  "2953": "uf",
  "2954": " last",
  "2955": " ع",
  "2956": "�",
  "2957": "�",
  "2958": " sem",
  "2959": " auf",
  "2960": " Bo",
  "2961": "09",
  "2962": "andom",
  "2963": " code",
  "2964": "ห",
  "2965": "enn",
  "2966": "ное",
  "2967": "\t\t\t\t\t\t\t\t",
  "2968": " program",
  "2969": "ology",
  "2970": "iness",
  "2971": "我",
  "2972": "LO",
  "2973": "್",
  "2974": "02",
  "2975": "come",
  "2976": "（",
  "2977": "Size",
  "2978": " path",
  "2979": "ason",
  "2980": "obal",
  "2981": "�",
  "2982": "ilder",
  "2983": "Add",
  "2984": "ность",
  "2985": "Int",
  "2986": "from",
  "2987": "uj",
  "2988": "�",
  "2989": " как",
  "2990": " invest",
  "2991": "We",
  "2992": " view",
  "2993": "ification",
  "2994": "แ",
  "2995": "CH",
  "2996": "plate",
  "2997": "\"]",
  "2998": "rix",
  "2999": "인",
  "3000": "тив",
  "3001": "ר",
  "3002": "iy",
  "3003": "ów",
  "3004": ".F",
  "3005": " mill",
  "3006": "对",
  "3007": " });\n",
  "3008": "content",
  "3009": "arm",
  "3010": " ه",
  "3011": " IN",
  "3012": "�",
  "3013": "_F",
  "3014": "enu",
  "3015": " level",
  "3016": " р",
  "3017": " het",
  "3018": " support",
  "3019": "ại",
  "3020": " before",
  "3021": " �",
  "3022": "07",
  "3023": " stand",
  "3024": " El",
  "3025": "사",
  "3026": "чески",
  "3027": " even",
  "3028": "地",
  "3029": "hip",
  "3030": " found",
  "3031": "mat",
  "3032": " perform",
  "3033": "create",
  "3034": "�",
  "3035": " के",
  "3036": " сп",
  "3037": "�",
  "3038": " Б",
  "3039": "omb",
  "3040": "IG",
  "3041": "ga",
  "3042": " Me",
  "3043": " net",
  "3044": " very",
  "3045": " �",
  "3046": "бо",
  "3047": " prim",
  "3048": " child",
  "3049": " good",
  "3050": " organ",
  "3051": "�",
  "3052": "pert",
  "3053": "Em",
  "3054": "ret",
  "3055": " port",
  "3056": "ска",
  "3057": " ش",
  "3058": "${",
  "3059": " determ",
  "3060": " {\n\n",
  "3061": "================",
  "3062": " Cont",
  "3063": " mag",
  "3064": "olean",
  "3065": "Path",
  "3066": " must",
  "3067": "vis",
  "3068": " кон",
  "3069": " در",
  "3070": "ysis",
  "3071": "(d",
  "3072": "�",
  "3073": "ß",
  "3074": "ination",
  "3075": "ih",
  "3076": " так",
  "3077": ".log",
  "3078": "ться",
  "3079": "ő",
  "3080": "Date",
  "3081": " main",
  "3082": "­",
  "3083": " expl",
  "3084": "ო�",
  "3085": " elect",
  "3086": "itu",
  "3087": "ULL",
  "3088": "stance",
  "3089": "ulation",
  "3090": "pose",
  "3091": " pa",
  "3092": "UN",
  "3093": "자",
  "3094": "Over",
  "3095": "�",
  "3096": " said",
  "3097": "sc",
  "3098": "ée",
  "3099": "ें",
  "3100": "工",
  "3101": "ה",
  "3102": " array",
  "3103": "ples",
  "3104": "多",
  "3105": "version",
  "3106": " ()",
  "3107": "ING",
  "3108": "ission",
  "3109": "сс",
  "3110": "스",
  "3111": " Par",
  "3112": "ols",
  "3113": "pi",
  "3114": "stand",
  "3115": "itch",
  "3116": ".n",
  "3117": "�",
  "3118": " href",
  "3119": "خ",
  "3120": "quare",
  "3121": " conf",
  "3122": "img",
  "3123": " bus",
  "3124": "Group",
  "3125": "Class",
  "3126": "opy",
  "3127": "ameter",
  "3128": "cz",
  "3129": " did",
  "3130": " �",
  "3131": " /**\n",
  "3132": " ident",
  "3133": " h�",
  "3134": "ص",
  "3135": "pty",
  "3136": "box",
  "3137": " де",
  "3138": "api",
  "3139": " energ",
  "3140": "-g",
  "3141": "ness",
  "3142": "label",
  "3143": "list",
  "3144": "ration",
  "3145": "�",
  "3146": "έ",
  "3147": "ação",
  "3148": " или",
  "3149": "test",
  "3150": " />\n",
  "3151": "./",
  "3152": "으",
  "3153": "198",
  "3154": "OS",
  "3155": "ense",
  "3156": "ò",
  "3157": "ез",
  "3158": "Array",
  "3159": "older",
  "3160": "itive",
  "3161": "###",
  "3162": " бу",
  "3163": "][",
  "3164": " mov",
  "3165": " ком",
  "3166": "icon",
  "3167": "03",
  "3168": " answer",
  "3169": "ị",
  "3170": "ー�",
  "3171": " dos",
  "3172": "orn",
  "3173": "(this",
  "3174": "Message",
  "3175": " *\n",
  "3176": "ingle",
  "3177": "ident",
  "3178": "EL",
  "3179": " od",
  "3180": "(),",
  "3181": "Up",
  "3182": "лед",
  "3183": " Wh",
  "3184": "ét",
  "3185": " है",
  "3186": "ally",
  "3187": " ‘",
  "3188": "_st",
  "3189": "iqu",
  "3190": "ario",
  "3191": "ba",
  "3192": "undred",
  "3193": " Br",
  "3194": "Val",
  "3195": "65",
  "3196": " spe",
  "3197": "аль",
  "3198": "iod",
  "3199": " �",
  "3200": "Log",
  "3201": "ypes",
  "3202": " mot",
  "3203": " een",
  "3204": "All",
  "3205": " κ",
  "3206": "zi",
  "3207": "장",
  "3208": "来",
  "3209": "ware",
  "3210": " rate",
  "3211": " request",
  "3212": " play",
  "3213": " List",
  "3214": "igned",
  "3215": "ually",
  "3216": " err",
  "3217": "ões",
  "3218": "니다",
  "3219": "合",
  "3220": "ской",
  "3221": "config",
  "3222": "发",
  "3223": "index",
  "3224": " open",
  "3225": "ee",
  "3226": "_N",
  "3227": " vi",
  "3228": "�",
  "3229": "Test",
  "3230": "pres",
  "3231": "This",
  "3232": "        ",
  "3233": " +=",
  "3234": " example",
  "3235": " count",
  "3236": " qui",
  "3237": "irm",
  "3238": " bas",
  "3239": "�",
  "3240": " Sp",
  "3241": "ailable",
  "3242": "�",
  "3243": "ל",
  "3244": " config",
  "3245": "lt",
  "3246": ".id",
  "3247": "lich",
  "3248": "ives",
  "3249": " care",
  "3250": "mand",
  "3251": " __",
  "3252": "്�",
  "3253": "�",
  "3254": "lev",
  "3255": "ram",
  "3256": "Of",
  "3257": "�",
  "3258": " ü",
  "3259": "ран",
  "3260": " disc",
  "3261": "ط",
  "3262": "trans",
  "3263": " ret",
  "3264": "alk",
  "3265": "ather",
  "3266": " control",
  "3267": "SS",
  "3268": "apt",
  "3269": "._",
  "3270": "eta",
  "3271": "\t\n",
  "3272": "bers",
  "3273": "icro",
  "3274": " �",
  "3275": "新",
  "3276": " ber",
  "3277": " bir",
  "3278": "ags",
  "3279": "PE",
  "3280": "reate",
  "3281": "Image",
  "3282": " \n",
  "3283": " hist",
  "3284": "66",
  "3285": "Ad",
  "3286": " document",
  "3287": "�",
  "3288": "��",
  "3289": "else",
  "3290": "ben",
  "3291": " results",
  "3292": " place",
  "3293": " Bl",
  "3294": "‌",
  "3295": "heck",
  "3296": "off",
  "3297": " ब",
  "3298": "γ",
  "3299": "47",
  "3300": "char",
  "3301": "Node",
  "3302": "49",
  "3303": "http",
  "3304": "}}",
  "3305": "Result",
  "3306": " base",
  "3307": "ilter",
  "3308": "oss",
  "3309": "она",
  "3310": " hundred",
  "3311": " оп",
  "3312": "cal",
  "3313": "Config",
  "3314": "став",
  "3315": "pond",
  "3316": ".print",
  "3317": "Д",
  "3318": " No",
  "3319": "Code",
  "3320": "Mod",
  "3321": " next",
  "3322": "  \n",
  "3323": "ى",
  "3324": " sal",
  "3325": "ift",
  "3326": "EM",
  "3327": "aster",
  "3328": "�",
  "3329": " :=",
  "3330": "ients",
  "3331": "тор",
  "3332": " change",
  "3333": "function",
  "3334": "自",
  "3335": "�",
  "3336": " Г",
  "3337": "�",
  "3338": " пре",
  "3339": "imum",
  "3340": "ụ",
  "3341": "plement",
  "3342": " ل",
  "3343": "uid",
  "3344": "如",
  "3345": " ε",
  "3346": "uration",
  "3347": "ots",
  "3348": "elle",
  "3349": " ré",
  "3350": " Cal",
  "3351": " So",
  "3352": " index",
  "3353": "\",\"",
  "3354": " dom",
  "3355": " width",
  "3356": "riter",
  "3357": " again",
  "3358": " Ob",
  "3359": "мо",
  "3360": "Is",
  "3361": "tre",
  "3362": " project",
  "3363": "query",
  "3364": " day",
  "3365": "�",
  "3366": " being",
  "3367": " qual",
  "3368": " (!",
  "3369": "್�",
  "3370": "len",
  "3371": " image",
  "3372": "ग",
  "3373": " take",
  "3374": " Ind",
  "3375": "\tc",
  "3376": "nal",
  "3377": "би",
  "3378": "ή",
  "3379": "ови",
  "3380": "package",
  "3381": "sub",
  "3382": "ende",
  "3383": "ategory",
  "3384": " famil",
  "3385": " page",
  "3386": "acc",
  "3387": " std",
  "3388": "gl",
  "3389": "ko",
  "3390": " om",
  "3391": "Act",
  "3392": " super",
  "3393": "arr",
  "3394": " power",
  "3395": " Ver",
  "3396": "aces",
  "3397": "otal",
  "3398": "igen",
  "3399": "高",
  "3400": " hab",
  "3401": " range",
  "3402": "mod",
  "3403": " Go",
  "3404": "اد",
  "3405": "image",
  "3406": "stru",
  "3407": " app",
  "3408": "性",
  "3409": "(new",
  "3410": "Component",
  "3411": "ự",
  "3412": "Pr",
  "3413": "ves",
  "3414": " fre",
  "3415": "ря",
  "3416": "color",
  "3417": " Am",
  "3418": "�",
  "3419": " target",
  "3420": "cha",
  "3421": " пере",
  "3422": " measure",
  "3423": "�",
  "3424": "assword",
  "3425": "子",
  "3426": "ati",
  "3427": " water",
  "3428": " �",
  "3429": "ент",
  "3430": "idget",
  "3431": "ummary",
  "3432": "�",
  "3433": "(int",
  "3434": "II",
  "3435": "posit",
  "3436": "cer",
  "3437": " small",
  "3438": " ज",
  "3439": "于",
  "3440": " dire",
  "3441": "46",
  "3442": "88",
  "3443": "-w",
  "3444": "ension",
  "3445": " throw",
  "3446": " enc",
  "3447": "ideo",
  "3448": " opt",
  "3449": " plus",
  "3450": " All",
  "3451": " uma",
  "3452": "status",
  "3453": " build",
  "3454": "pression",
  "3455": "unic",
  "3456": "�",
  "3457": " mil",
  "3458": "valid",
  "3459": "nen",
  "3460": "вер",
  "3461": "95",
  "3462": " ben",
  "3463": " alg",
  "3464": "nection",
  "3465": "ство",
  "3466": "check",
  "3467": "рова",
  "3468": "anel",
  "3469": ".”",
  "3470": "Des",
  "3471": "оги",
  "3472": "αι",
  "3473": "ena",
  "3474": "·",
  "3475": ".B",
  "3476": " Reg",
  "3477": " �",
  "3478": " _{",
  "3479": "ribute",
  "3480": "oin",
  "3481": " based",
  "3482": "gy",
  "3483": "าร",
  "3484": "verage",
  "3485": "фи",
  "3486": "业",
  "3487": " cell",
  "3488": ".re",
  "3489": "му",
  "3490": "Manager",
  "3491": "ones",
  "3492": ".R",
  "3493": "面",
  "3494": "ке",
  "3495": " response",
  "3496": "isplay",
  "3497": "ใ",
  "3498": " solution",
  "3499": "true",
  "3500": " Fl",
  "3501": "�",
  "3502": "rt",
  "3503": " ה",
  "3504": "cia",
  "3505": " made",
  "3506": "ї",
  "3507": "ал",
  "3508": "encia",
  "3509": "か",
  "3510": " ц",
  "3511": "ided",
  "3512": "_re",
  "3513": " то",
  "3514": " pay",
  "3515": "ump",
  "3516": "IR",
  "3517": " rece",
  "3518": " Des",
  "3519": "�",
  "3520": "ور",
  "3521": " ir",
  "3522": "head",
  "3523": "\"></",
  "3524": "вет",
  "3525": " arg",
  "3526": " воз",
  "3527": "_w",
  "3528": ".util",
  "3529": "раз",
  "3530": " imp",
  "3531": "adas",
  "3532": "ivo",
  "3533": "就",
  "3534": " leg",
  "3535": "�",
  "3536": "ources",
  "3537": " height",
  "3538": "М",
  "3539": "orth",
  "3540": " chang",
  "3541": "idade",
  "3542": "Page",
  "3543": " util",
  "3544": " four",
  "3545": " /*",
  "3546": "ند",
  "3547": "ț",
  "3548": "define",
  "3549": "yt",
  "3550": " न",
  "3551": "sg",
  "3552": " beg",
  "3553": "With",
  "3554": "イ",
  "3555": "ít",
  "3556": "�",
  "3557": " Ass",
  "3558": " exist",
  "3559": "position",
  "3560": "Е",
  "3561": "χ",
  "3562": "�",
  "3563": " signific",
  "3564": "ku",
  "3565": "ira",
  "3566": "ắ",
  "3567": "ubl",
  "3568": " ste",
  "3569": " those",
  "3570": " ста",
  "3571": "apter",
  "3572": " ми",
  "3573": " �",
  "3574": " für",
  "3575": " entre",
  "3576": "ponents",
  "3577": "android",
  "3578": "append",
  "3579": "ards",
  "3580": "_B",
  "3581": "book",
  "3582": "/d",
  "3583": "ameters",
  "3584": " ess",
  "3585": " quest",
  "3586": ".;",
  "3587": "Input",
  "3588": "ি�",
  "3589": " sz",
  "3590": "tings",
  "3591": "入",
  "3592": "Sc",
  "3593": "后",
  "3594": " Per",
  "3595": "व",
  "3596": "Not",
  "3597": "viron",
  "3598": "qual",
  "3599": "ede",
  "3600": "ji",
  "3601": " \"\"",
  "3602": " report",
  "3603": "ances",
  "3604": "Hand",
  "3605": " mar",
  "3606": " orig",
  "3607": " �",
  "3608": "Table",
  "3609": ".org",
  "3610": " все",
  "3611": " Get",
  "3612": "How",
  "3613": "月",
  "3614": " cur",
  "3615": "mo",
  "3616": " व",
  "3617": " dest",
  "3618": "��",
  "3619": " „",
  "3620": "ité",
  "3621": "iề",
  "3622": " exp",
  "3623": " message",
  "3624": "ych",
  "3625": " redu",
  "3626": " comput",
  "3627": "FF",
  "3628": "abase",
  "3629": " equal",
  "3630": "ima",
  "3631": " ш",
  "3632": " left",
  "3633": " пос",
  "3634": "ция",
  "3635": "utes",
  "3636": "ый",
  "3637": "�",
  "3638": " month",
  "3639": "conom",
  "3640": "…\n",
  "3641": " represent",
  "3642": "чен",
  "3643": " nie",
  "3644": "If",
  "3645": " nicht",
  "3646": " map",
  "3647": "ases",
  "3648": " cert",
  "3649": " below",
  "3650": " У",
  "3651": " Univers",
  "3652": "mi",
  "3653": "java",
  "3654": "Be",
  "3655": "less",
  "3656": "array",
  "3657": "小",
  "3658": " during",
  "3659": " Ab",
  "3660": "_h",
  "3661": " Do",
  "3662": " अ",
  "3663": "egin",
  "3664": " content",
  "3665": "他",
  "3666": ".r",
  "3667": "OD",
  "3668": "What",
  "3669": "ali",
  "3670": "ela",
  "3671": "            ",
  "3672": " sw",
  "3673": "ứ",
  "3674": "度",
  "3675": "js",
  "3676": " mean",
  "3677": "rav",
  "3678": " android",
  "3679": "df",
  "3680": "valu",
  "3681": "85",
  "3682": " các",
  "3683": "ao",
  "3684": " ча",
  "3685": " area",
  "3686": ".pro",
  "3687": "ू",
  "3688": "rl",
  "3689": "ules",
  "3690": " step",
  "3691": ".is",
  "3692": "cur",
  "3693": " prop",
  "3694": "Layout",
  "3695": "之",
  "3696": " But",
  "3697": "ト",
  "3698": " gen",
  "3699": " |\n",
  "3700": " dig",
  "3701": "ML",
  "3702": "�",
  "3703": "angu",
  "3704": "全",
  "3705": "oud",
  "3706": " μ",
  "3707": "원",
  "3708": " mass",
  "3709": " length",
  "3710": " DE",
  "3711": " mais",
  "3712": " ide",
  "3713": "同",
  "3714": "Bl",
  "3715": "ival",
  "3716": "ories",
  "3717": "-in",
  "3718": " mu",
  "3719": "igure",
  "3720": " neg",
  "3721": " **",
  "3722": "Ed",
  "3723": "\").",
  "3724": "ige",
  "3725": " output",
  "3726": "ไ",
  "3727": " Int",
  "3728": "家",
  "3729": "({",
  "3730": " è",
  "3731": " kom",
  "3732": "bed",
  "3733": " convert",
  "3734": "perties",
  "3735": "\t\t\t\t\t\t",
  "3736": "ilar",
  "3737": "�",
  "3738": "fic",
  "3739": "จ",
  "3740": " dal",
  "3741": " There",
  "3742": " own",
  "3743": "ình",
  "3744": "creen",
  "3745": "으로",
  "3746": "Out",
  "3747": " sob",
  "3748": "द",
  "3749": " src",
  "3750": " به",
  "3751": "れ",
  "3752": " sich",
  "3753": "mente",
  "3754": " Pol",
  "3755": "ibr",
  "3756": "Override",
  "3757": "��",
  "3758": "ria",
  "3759": " este",
  "3760": "者",
  "3761": "Def",
  "3762": " points",
  "3763": "42",
  "3764": "�",
  "3765": "IP",
  "3766": " og",
  "3767": "ternal",
  "3768": "ಿ",
  "3769": "前",
  "3770": "ili",
  "3771": "La",
  "3772": "ё",
  "3773": "ynam",
  "3774": "iem",
  "3775": "No",
  "3776": "    ",
  "3777": "加",
  "3778": " 수",
  "3779": "정",
  "3780": "ya",
  "3781": "Trans",
  "3782": " sus",
  "3783": "arge",
  "3784": "所",
  "3785": " comb",
  "3786": " him",
  "3787": "ained",
  "3788": "part",
  "3789": "表",
  "3790": " NULL",
  "3791": "ading",
  "3792": "化",
  "3793": "ป",
  "3794": " ev",
  "3795": "ador",
  "3796": " �",
  "3797": "ries",
  "3798": "�",
  "3799": "eter",
  "3800": " Co",
  "3801": " أ",
  "3802": ">>",
  "3803": "\\)",
  "3804": "67",
  "3805": "市",
  "3806": " important",
  "3807": " wer",
  "3808": "ении",
  "3809": " beh",
  "3810": "과",
  "3811": "oment",
  "3812": "amento",
  "3813": "300",
  "3814": ",\"",
  "3815": " ...\n",
  "3816": "라",
  "3817": " world",
  "3818": "�",
  "3819": " account",
  "3820": "bol",
  "3821": " position",
  "3822": " más",
  "3823": "place",
  "3824": "어",
  "3825": "vious",
  "3826": "nie",
  "3827": " ut",
  "3828": "des",
  "3829": "_r",
  "3830": "chool",
  "3831": " sum",
  "3832": "Controller",
  "3833": " experi",
  "3834": "urch",
  "3835": "pons",
  "3836": " study",
  "3837": "oke",
  "3838": " خ",
  "3839": "uz",
  "3840": "ходи",
  "3841": "ột",
  "3842": "公",
  "3843": " �",
  "3844": "odes",
  "3845": "也",
  "3846": "оле",
  "3847": "ialog",
  "3848": "endo",
  "3849": "Status",
  "3850": "ược",
  "3851": "},\n",
  "3852": "通",
  "3853": "ø",
  "3854": " required",
  "3855": "asy",
  "3856": " �",
  "3857": " Set",
  "3858": " az",
  "3859": "ят",
  "3860": "过",
  "3861": "divid",
  "3862": "动",
  "3863": " come",
  "3864": "uto",
  "3865": " think",
  "3866": "\\\\",
  "3867": " percent",
  "3868": "ут",
  "3869": "ál",
  "3870": ".length",
  "3871": "ні",
  "3872": "cel",
  "3873": "�",
  "3874": "ща",
  "3875": "script",
  "3876": "�",
  "3877": " Car",
  "3878": " Add",
  "3879": "ural",
  "3880": "är",
  "3881": "argin",
  "3882": " amount",
  "3883": "ém",
  "3884": " nu",
  "3885": " context",
  "3886": "оли",
  "3887": "ived",
  "3888": " (\n",
  "3889": "abor",
  "3890": " cour",
  "3891": " pred",
  "3892": "CC",
  "3893": "iled",
  "3894": " equation",
  "3895": " book",
  "3896": "일",
  "3897": "atures",
  "3898": " free",
  "3899": "зы",
  "3900": " arr",
  "3901": " sch",
  "3902": "сли",
  "3903": "Ph",
  "3904": "dev",
  "3905": " without",
  "3906": "ід",
  "3907": "Response",
  "3908": " ö",
  "3909": " ल",
  "3910": "ering",
  "3911": "unk",
  "3912": "り",
  "3913": " energy",
  "3914": "itional",
  "3915": "最",
  "3916": " sam",
  "3917": "ista",
  "3918": "ის",
  "3919": " ни",
  "3920": "PI",
  "3921": "ү",
  "3922": " \\\n",
  "3923": "77",
  "3924": " gre",
  "3925": " custom",
  "3926": "Count",
  "3927": " har",
  "3928": "map",
  "3929": " Cent",
  "3930": "�",
  "3931": "대",
  "3932": "atic",
  "3933": "59",
  "3934": "стви",
  "3935": " Data",
  "3936": "部",
  "3937": " At",
  "3938": "mt",
  "3939": "件",
  "3940": "에서",
  "3941": "стан",
  "3942": "ining",
  "3943": "jet",
  "3944": "atter",
  "3945": " Sc",
  "3946": "rid",
  "3947": " 사",
  "3948": " это",
  "3949": "HE",
  "3950": "ского",
  "3951": "ày",
  "3952": " week",
  "3953": "kl",
  "3954": ".x",
  "3955": "ッ",
  "3956": "ικ",
  "3957": " hum",
  "3958": "teger",
  "3959": " द",
  "3960": "ца",
  "3961": "ี่",
  "3962": " indic",
  "3963": "进",
  "3964": ".out",
  "3965": " temper",
  "3966": "Sub",
  "3967": "aper",
  "3968": "र्�",
  "3969": "Label",
  "3970": "်",
  "3971": " interest",
  "3972": "事",
  "3973": "ograph",
  "3974": "ока",
  "3975": " ===",
  "3976": "Click",
  "3977": "%%",
  "3978": "          ",
  "3979": " initial",
  "3980": "ุ",
  "3981": "        \n",
  "3982": " mus",
  "3983": "\\n",
  "3984": " 대",
  "3985": " пра",
  "3986": "(i",
  "3987": "                                   ",
  "3988": "ways",
  "3989": "�",
  "3990": "َ",
  "3991": "68",
  "3992": "-n",
  "3993": "ün",
  "3994": "option",
  "3995": "EX",
  "3996": "init",
  "3997": "(String",
  "3998": "-se",
  "3999": "ود",
  "4000": "อง",
  "4001": "�",
  "4002": "197",
  "4003": "<?",
  "4004": "ND",
  "4005": "än",
  "4006": "(e",
  "4007": " आ",
  "4008": "么",
  "4009": " say",
  "4010": "Content",
  "4011": "next",
  "4012": " اس",
  "4013": " �",
  "4014": " less",
  "4015": "uer",
  "4016": "ön",
  "4017": "ύ",
  "4018": "pring",
  "4019": "ữ",
  "4020": "ื",
  "4021": "UE",
  "4022": "incip",
  "4023": " occ",
  "4024": "ATE",
  "4025": " font",
  "4026": "ებ",
  "4027": "�",
  "4028": "rame",
  "4029": " trong",
  "4030": "eder",
  "4031": " Est",
  "4032": "ान",
  "4033": "ления",
  "4034": "iento",
  "4035": " tro",
  "4036": " quant",
  "4037": " الم",
  "4038": " Ge",
  "4039": "iving",
  "4040": "41",
  "4041": " double",
  "4042": " als",
  "4043": "�",
  "4044": " eine",
  "4045": " plan",
  "4046": "�",
  "4047": "ở",
  "4048": "yc",
  "4049": " mi",
  "4050": "ข",
  "4051": " Sup",
  "4052": " available",
  "4053": "plit",
  "4054": "名",
  "4055": "ika",
  "4056": "ished",
  "4057": " await",
  "4058": "�",
  "4059": "elt",
  "4060": "Inter",
  "4061": " block",
  "4062": " iss",
  "4063": "xim",
  "4064": " Mon",
  "4065": " ج",
  "4066": " title",
  "4067": ".)",
  "4068": "кон",
  "4069": " Em",
  "4070": "ungen",
  "4071": "�",
  "4072": "pecial",
  "4073": "43",
  "4074": "Att",
  "4075": "py",
  "4076": "使",
  "4077": " within",
  "4078": "At",
  "4079": " distribut",
  "4080": "../../",
  "4081": "comp",
  "4082": "Pos",
  "4083": "_data",
  "4084": " không",
  "4085": "量",
  "4086": "ani",
  "4087": "alle",
  "4088": " ja",
  "4089": " access",
  "4090": " پ",
  "4091": " game",
  "4092": "ية",
  "4093": "​",
  "4094": " depend",
  "4095": " war",
  "4096": "ход",
  "4097": " question",
  "4098": "El",
  "4099": "أ",
  "4100": "Line",
  "4101": " Ser",
  "4102": "ami",
  "4103": "ixed",
  "4104": "57",
  "4105": "ら",
  "4106": "zt",
  "4107": " र",
  "4108": "abled",
  "4109": "ções",
  "4110": " graph",
  "4111": " Min",
  "4112": "OP",
  "4113": " label",
  "4114": " record",
  "4115": "机",
  "4116": " km",
  "4117": "ера",
  "4118": " Dec",
  "4119": "bit",
  "4120": " price",
  "4121": "�",
  "4122": "And",
  "4123": "amespace",
  "4124": "��",
  "4125": "ове",
  "4126": " estim",
  "4127": " ann",
  "4128": "Det",
  "4129": "link",
  "4130": "idd",
  "4131": " ве",
  "4132": "tual",
  "4133": " row",
  "4134": " around",
  "4135": " �",
  "4136": "ands",
  "4137": "мер",
  "4138": "table",
  "4139": " social",
  "4140": "System",
  "4141": " och",
  "4142": "�",
  "4143": "ольз",
  "4144": " http",
  "4145": "ocus",
  "4146": "').",
  "4147": "�",
  "4148": " �",
  "4149": "aving",
  "4150": "ệ",
  "4151": " multi",
  "4152": " Med",
  "4153": " ((",
  "4154": "ા",
  "4155": "ites",
  "4156": "_type",
  "4157": " bar",
  "4158": " possible",
  "4159": "ately",
  "4160": " inc",
  "4161": " pi",
  "4162": "IV",
  "4163": "formation",
  "4164": "体",
  "4165": " kon",
  "4166": "ое",
  "4167": " �",
  "4168": "zo",
  "4169": ".ex",
  "4170": "主",
  "4171": "post",
  "4172": " па",
  "4173": " آ",
  "4174": " design",
  "4175": " eng",
  "4176": "rist",
  "4177": " link",
  "4178": "тов",
  "4179": " się",
  "4180": " assert",
  "4181": "Number",
  "4182": " material",
  "4183": " unit",
  "4184": "程",
  "4185": " mes",
  "4186": " service",
  "4187": " unt",
  "4188": " great",
  "4189": "ithub",
  "4190": "�",
  "4191": "New",
  "4192": " success",
  "4193": "א",
  "4194": "db",
  "4195": " above",
  "4196": "title",
  "4197": "ights",
  "4198": "Question",
  "4199": " сво",
  "4200": "力",
  "4201": " Ste",
  "4202": "_g",
  "4203": " aus",
  "4204": "resh",
  "4205": "\".",
  "4206": "δ",
  "4207": "Ent",
  "4208": "annel",
  "4209": "ottom",
  "4210": "engan",
  "4211": " Đ",
  "4212": " cm",
  "4213": "Client",
  "4214": "rel",
  "4215": " home",
  "4216": "�",
  "4217": "点",
  "4218": "ief",
  "4219": "好",
  "4220": "��",
  "4221": "其",
  "4222": "Ser",
  "4223": " din",
  "4224": " market",
  "4225": "unity",
  "4226": "-h",
  "4227": "ис",
  "4228": " Af",
  "4229": "�",
  "4230": "orage",
  "4231": " में",
  "4232": "ní",
  "4233": " được",
  "4234": " head",
  "4235": "ilt",
  "4236": " inf",
  "4237": " Bu",
  "4238": "58",
  "4239": " 있",
  "4240": " individ",
  "4241": " ç",
  "4242": " red",
  "4243": " short",
  "4244": "ướ",
  "4245": " action",
  "4246": "cted",
  "4247": "stit",
  "4248": "icy",
  "4249": "gress",
  "4250": " ор",
  "4251": ".to",
  "4252": "ει",
  "4253": "ania",
  "4254": "ators",
  "4255": "े�",
  "4256": " ح",
  "4257": "({\n",
  "4258": " console",
  "4259": "n't",
  "4260": "�",
  "4261": " исп",
  "4262": "sl",
  "4263": " source",
  "4264": " descri",
  "4265": "��",
  "4266": " Eng",
  "4267": " pri",
  "4268": " obt",
  "4269": "static",
  "4270": "400",
  "4271": " Er",
  "4272": " hal",
  "4273": "())",
  "4274": " meng",
  "4275": " appe",
  "4276": " put",
  "4277": "si",
  "4278": " loc",
  "4279": " respect",
  "4280": " alt",
  "4281": "φ",
  "4282": " date",
  "4283": "Wh",
  "4284": "ugg",
  "4285": "ches",
  "4286": "umer",
  "4287": "și",
  "4288": "point",
  "4289": "ươ",
  "4290": "相",
  "4291": "Action",
  "4292": " од",
  "4293": "78",
  "4294": ".G",
  "4295": "isc",
  "4296": " still",
  "4297": " sym",
  "4298": " sent",
  "4299": "ette",
  "4300": "omen",
  "4301": "board",
  "4302": " life",
  "4303": " ($",
  "4304": " ant",
  "4305": "果",
  "4306": "ша",
  "4307": "Ap",
  "4308": "default",
  "4309": "change",
  "4310": "こ",
  "4311": " space",
  "4312": "ges",
  "4313": "ур",
  "4314": " move",
  "4315": "angle",
  "4316": " normal",
  "4317": "rack",
  "4318": "ala",
  "4319": "得",
  "4320": "�",
  "4321": " match",
  "4322": "์",
  "4323": "ần",
  "4324": "akan",
  "4325": "#define",
  "4326": " З",
  "4327": "�",
  "4328": "ements",
  "4329": "56",
  "4330": "hel",
  "4331": "center",
  "4332": " times",
  "4333": "ety",
  "4334": "respond",
  "4335": "重",
  "4336": " period",
  "4337": " ú",
  "4338": "等",
  "4339": "ī",
  "4340": "金",
  "4341": " deg",
  "4342": " ва",
  "4343": "UM",
  "4344": "ood",
  "4345": " manag",
  "4346": "�",
  "4347": "Builder",
  "4348": "vironment",
  "4349": " ру",
  "4350": "private",
  "4351": "iff",
  "4352": " fun",
  "4353": "éd",
  "4354": "бот",
  "4355": " св",
  "4356": "内",
  "4357": "iện",
  "4358": "Listener",
  "4359": "ete",
  "4360": "�",
  "4361": " Amer",
  "4362": " �",
  "4363": "ille",
  "4364": "�",
  "4365": "open",
  "4366": "�",
  "4367": "ба",
  "4368": " Ed",
  "4369": "avor",
  "4370": " tu",
  "4371": " vir",
  "4372": " analysis",
  "4373": " body",
  "4374": " Sol",
  "4375": "θ",
  "4376": " một",
  "4377": "式",
  "4378": "оду",
  "4379": " dim",
  "4380": "acy",
  "4381": "�",
  "4382": " display",
  "4383": "Reg",
  "4384": " ear",
  "4385": " но",
  "4386": " grow",
  "4387": " coun",
  "4388": "可以",
  "4389": ".println",
  "4390": "/*",
  "4391": "________",
  "4392": " press",
  "4393": "ras",
  "4394": "rodu",
  "4395": "azione",
  "4396": " catch",
  "4397": " 기",
  "4398": " valid",
  "4399": " general",
  "4400": " \\\\",
  "4401": "лек",
  "4402": "my",
  "4403": "성",
  "4404": ";->",
  "4405": " fra",
  "4406": "�",
  "4407": "\"\n\n",
  "4408": "дет",
  "4409": "outh",
  "4410": " …",
  "4411": " ST",
  "4412": "天",
  "4413": "ounds",
  "4414": " including",
  "4415": "ặ",
  "4416": " whe",
  "4417": " [\n",
  "4418": "pu",
  "4419": "�",
  "4420": "ling",
  "4421": " address",
  "4422": "ett",
  "4423": "ست",
  "4424": "期",
  "4425": " abs",
  "4426": "RA",
  "4427": "っ",
  "4428": " numbers",
  "4429": "aining",
  "4430": " і",
  "4431": " Ne",
  "4432": "ную",
  "4433": " его",
  "4434": "ily",
  "4435": "부",
  "4436": "ды",
  "4437": " memb",
  "4438": "gi",
  "4439": "App",
  "4440": " include",
  "4441": "rawing",
  "4442": " tre",
  "4443": "们",
  "4444": " Е",
  "4445": "ires",
  "4446": "ת",
  "4447": "�",
  "4448": "ний",
  "4449": "ape",
  "4450": " fac",
  "4451": "Rec",
  "4452": "Us",
  "4453": "uit",
  "4454": " company",
  "4455": "IF",
  "4456": "��",
  "4457": "Util",
  "4458": "开",
  "4459": "context",
  "4460": " �",
  "4461": "_L",
  "4462": ".data",
  "4463": " low",
  "4464": " della",
  "4465": "�",
  "4466": "��",
  "4467": "pa",
  "4468": "�",
  "4469": " full",
  "4470": "obj",
  "4471": " business",
  "4472": "uh",
  "4473": "ttp",
  "4474": "ジ",
  "4475": "实",
  "4476": " activ",
  "4477": " sens",
  "4478": "pat",
  "4479": " bool",
  "4480": "ө",
  "4481": "现",
  "4482": "MA",
  "4483": "orith",
  "4484": "�",
  "4485": "�",
  "4486": " ur",
  "4487": "It",
  "4488": "-st",
  "4489": "制",
  "4490": " another",
  "4491": "ched",
  "4492": "�",
  "4493": "�",
  "4494": "_IN",
  "4495": " air",
  "4496": "є",
  "4497": "间",
  "4498": "request",
  "4499": "य",
  "4500": " health",
  "4501": "kn",
  "4502": "From",
  "4503": "ordin",
  "4504": " moment",
  "4505": " fut",
  "4506": " adv",
  "4507": "ande",
  "4508": "CE",
  "4509": " techn",
  "4510": " integr",
  "4511": "ений",
  "4512": "---",
  "4513": "(\\",
  "4514": " due",
  "4515": "anguage",
  "4516": " độ",
  "4517": " Ф",
  "4518": " version",
  "4519": "adding",
  "4520": "物",
  "4521": " prom",
  "4522": "олько",
  "4523": "]]",
  "4524": "json",
  "4525": " Not",
  "4526": "�",
  "4527": "bra",
  "4528": " ای",
  "4529": "ır",
  "4530": " Trans",
  "4531": "も",
  "4532": ",”",
  "4533": "тся",
  "4534": "eturn",
  "4535": "mathrm",
  "4536": "ona",
  "4537": "•",
  "4538": "iro",
  "4539": "�",
  "4540": "jo",
  "4541": "zer",
  "4542": " pen",
  "4543": "сту",
  "4544": "提",
  "4545": "HT",
  "4546": " circ",
  "4547": "select",
  "4548": "98",
  "4549": " impro",
  "4550": " node",
  "4551": "ів",
  "4552": "ಿ�",
  "4553": "ন",
  "4554": " va",
  "4555": "mes",
  "4556": "水",
  "4557": " single",
  "4558": "-e",
  "4559": "ười",
  "4560": "aps",
  "4561": " sobre",
  "4562": "ク",
  "4563": " near",
  "4564": " من",
  "4565": "ành",
  "4566": " ди",
  "4567": "heet",
  "4568": ":\n\n",
  "4569": " called",
  "4570": "据",
  "4571": " maj",
  "4572": "ル",
  "4573": " Intern",
  "4574": ")(",
  "4575": ".append",
  "4576": "ض",
  "4577": "рем",
  "4578": " på",
  "4579": "лей",
  "4580": " bro",
  "4581": "保",
  "4582": "意",
  "4583": " dies",
  "4584": "解",
  "4585": "ọ",
  "4586": "(l",
  "4587": " می",
  "4588": "uring",
  "4589": " não",
  "4590": "う",
  "4591": "uel",
  "4592": "ég",
  "4593": "ye",
  "4594": "都",
  "4595": " common",
  "4596": "ು",
  "4597": "与",
  "4598": " options",
  "4599": " Part",
  "4600": "ades",
  "4601": "ющи",
  "4602": "                     ",
  "4603": "(b",
  "4604": "들",
  "4605": " echo",
  "4606": "상",
  "4607": " update",
  "4608": " зна",
  "4609": "្�",
  "4610": "cht",
  "4611": "而",
  "4612": " �",
  "4613": "용",
  "4614": "way",
  "4615": "\t\t\n",
  "4616": "ready",
  "4617": "ден",
  "4618": "150",
  "4619": " hat",
  "4620": " Text",
  "4621": " since",
  "4622": "********************************",
  "4623": " дол",
  "4624": "�",
  "4625": " large",
  "4626": "avax",
  "4627": "update",
  "4628": " 지",
  "4629": " sat",
  "4630": "─",
  "4631": " ко",
  "4632": "ère",
  "4633": "�",
  "4634": "位",
  "4635": " side",
  "4636": "�",
  "4637": "udio",
  "4638": "xy",
  "4639": "cope",
  "4640": "수",
  "4641": " mer",
  "4642": "eld",
  "4643": "�",
  "4644": "lean",
  "4645": "Fl",
  "4646": "ون",
  "4647": " They",
  "4648": " standard",
  "4649": " во",
  "4650": "iên",
  "4651": " turn",
  "4652": "关",
  "4653": "Style",
  "4654": "ifier",
  "4655": "手",
  "4656": "ются",
  "4657": " writ",
  "4658": "стоя",
  "4659": "minist",
  "4660": " ق",
  "4661": "rio",
  "4662": "You",
  "4663": " дру",
  "4664": "frac",
  "4665": "应",
  "4666": "block",
  "4667": "�",
  "4668": "면",
  "4669": "yles",
  "4670": "У",
  "4671": " nil",
  "4672": " pers",
  "4673": "oriz",
  "4674": "iti",
  "4675": " days",
  "4676": "fficient",
  "4677": "ู",
  "4678": "pository",
  "4679": "akt",
  "4680": " za",
  "4681": " untuk",
  "4682": " Us",
  "4683": " Cor",
  "4684": "!--",
  "4685": "фор",
  "4686": " weight",
  "4687": " ngh",
  "4688": "Query",
  "4689": "ों",
  "4690": " Sim",
  "4691": "_V",
  "4692": "제",
  "4693": "Control",
  "4694": "że",
  "4695": "avig",
  "4696": "ải",
  "4697": "ison",
  "4698": "agn",
  "4699": " eff",
  "4700": "Column",
  "4701": "aint",
  "4702": "utions",
  "4703": "ком",
  "4704": "depend",
  "4705": "目",
  "4706": " provide",
  "4707": " search",
  "4708": "при",
  "4709": "道",
  "4710": "�",
  "4711": " Test",
  "4712": "ា",
  "4713": " și",
  "4714": "OST",
  "4715": "ường",
  "4716": "/\n",
  "4717": "�",
  "4718": " column",
  "4719": " By",
  "4720": " Pre",
  "4721": "istic",
  "4722": "aim",
  "4723": " character",
  "4724": "اب",
  "4725": " light",
  "4726": " App",
  "4727": "inh",
  "4728": "ương",
  "4729": "нии",
  "4730": "ů",
  "4731": "SON",
  "4732": "iar",
  "4733": "UI",
  "4734": " Log",
  "4735": " models",
  "4736": " func",
  "4737": " Find",
  "4738": "std",
  "4739": "istem",
  "4740": "？",
  "4741": " correct",
  "4742": "KE",
  "4743": ".\"",
  "4744": "{\\",
  "4745": " average",
  "4746": " сам",
  "4747": "oot",
  "4748": " None",
  "4749": "oper",
  "4750": " associ",
  "4751": "aciones",
  "4752": " load",
  "4753": "ince",
  "4754": " •",
  "4755": " dengan",
  "4756": " »",
  "4757": " از",
  "4758": "�",
  "4759": " select",
  "4760": "ipp",
  "4761": "�",
  "4762": " för",
  "4763": "}\\)",
  "4764": "_pro",
  "4765": "format",
  "4766": "ohn",
  "4767": "�",
  "4768": "�",
  "4769": "ibility",
  "4770": " слу",
  "4771": "              ",
  "4772": "ending",
  "4773": " Can",
  "4774": " princip",
  "4775": " random",
  "4776": "мы",
  "4777": "적",
  "4778": " float",
  "4779": " prz",
  "4780": " University",
  "4781": "Per",
  "4782": "eler",
  "4783": " ba",
  "4784": "�",
  "4785": " Form",
  "4786": "ón",
  "4787": " �",
  "4788": "Г",
  "4789": "TE",
  "4790": "/b",
  "4791": "ınd",
  "4792": "ensity",
  "4793": " Die",
  "4794": " với",
  "4795": "Б",
  "4796": "icas",
  "4797": "iple",
  "4798": "69",
  "4799": "email",
  "4800": "path",
  "4801": "comm",
  "4802": " When",
  "4803": "lig",
  "4804": "summary",
  "4805": "parent",
  "4806": "quals",
  "4807": "��",
  "4808": " infl",
  "4809": "나",
  "4810": " ax",
  "4811": ".de",
  "4812": " extends",
  "4813": "iều",
  "4814": " Inter",
  "4815": "uccess",
  "4816": "်�",
  "4817": ".cl",
  "4818": "adius",
  "4819": "_e",
  "4820": " means",
  "4821": "height",
  "4822": "size",
  "4823": "oz",
  "4824": " might",
  "4825": "posed",
  "4826": " ten",
  "4827": "uments",
  "4828": " ä",
  "4829": "args",
  "4830": "比",
  "4831": " May",
  "4832": " ta",
  "4833": " त",
  "4834": " exam",
  "4835": "ści",
  "4836": "max",
  "4837": ".png",
  "4838": "第",
  "4839": "取",
  "4840": " á",
  "4841": "设",
  "4842": "�",
  "4843": " fund",
  "4844": " Л",
  "4845": " prec",
  "4846": "fect",
  "4847": "istance",
  "4848": "ively",
  "4849": "ques",
  "4850": "aan",
  "4851": " ya",
  "4852": " −",
  "4853": "及",
  "4854": " τη",
  "4855": " të",
  "4856": "情",
  "4857": "atal",
  "4858": " است",
  "4859": "iction",
  "4860": "isp",
  "4861": "inary",
  "4862": "iente",
  "4863": " пе",
  "4864": "rict",
  "4865": "Select",
  "4866": "react",
  "4867": "196",
  "4868": "��",
  "4869": "Ã",
  "4870": "ун",
  "4871": "area",
  "4872": "-M",
  "4873": " boolean",
  "4874": " Il",
  "4875": "down",
  "4876": "raft",
  "4877": " mas",
  "4878": "();",
  "4879": "安",
  "4880": " 전",
  "4881": "ラ",
  "4882": ".create",
  "4883": "ай",
  "4884": " nov",
  "4885": " Gener",
  "4886": "opt",
  "4887": "};\n",
  "4888": " �",
  "4889": "ky",
  "4890": "ired",
  "4891": "Instance",
  "4892": "信",
  "4893": " Mark",
  "4894": " bit",
  "4895": "қ",
  "4896": " ，",
  "4897": "リ",
  "4898": " пер",
  "4899": "字",
  "4900": "рос",
  "4901": " status",
  "4902": " My",
  "4903": "ran",
  "4904": "�",
  "4905": "/g",
  "4906": "уж",
  "4907": "ended",
  "4908": "ια",
  "4909": "anto",
  "4910": "\tthis",
  "4911": " Sub",
  "4912": "ที่",
  "4913": " �",
  "4914": "การ",
  "4915": " observ",
  "4916": "iva",
  "4917": "tex",
  "4918": "�",
  "4919": "zie",
  "4920": " With",
  "4921": " allow",
  "4922": "明",
  "4923": "nt",
  "4924": "зна",
  "4925": " же",
  "4926": "PS",
  "4927": "�",
  "4928": " necess",
  "4929": "ording",
  "4930": " Man",
  "4931": "_list",
  "4932": "Point",
  "4933": " bes",
  "4934": "Str",
  "4935": " situ",
  "4936": " pract",
  "4937": " sever",
  "4938": "True",
  "4939": "ţ",
  "4940": "ി",
  "4941": " Comp",
  "4942": "ube",
  "4943": "idades",
  "4944": "atio",
  "4945": " की",
  "4946": "ē",
  "4947": "_RE",
  "4948": " better",
  "4949": " pel",
  "4950": "ذ",
  "4951": "nya",
  "4952": "ıl",
  "4953": "ản",
  "4954": " א",
  "4955": "ither",
  "4956": "isi",
  "4957": "주",
  "4958": " cult",
  "4959": "!!",
  "4960": " ens",
  "4961": " network",
  "4962": "response",
  "4963": "atform",
  "4964": "cher",
  "4965": "mas",
  "4966": "anh",
  "4967": "一个",
  "4968": "�",
  "4969": " understand",
  "4970": " specific",
  "4971": "\":\"",
  "4972": "ți",
  "4973": "Pre",
  "4974": "ными",
  "4975": "ät",
  "4976": " few",
  "4977": "thon",
  "4978": "rs",
  "4979": " shown",
  "4980": "建",
  "4981": " implement",
  "4982": "ersion",
  "4983": "actory",
  "4984": "Answer",
  "4985": "ول",
  "4986": "active",
  "4987": " ş",
  "4988": "/t",
  "4989": "iể",
  "4990": "ips",
  "4991": ">(",
  "4992": ".Get",
  "4993": "ώ",
  "4994": "-S",
  "4995": " ot",
  "4996": " δ",
  "4997": "','",
  "4998": "전",
  "4999": " auch",
  "5000": "ài",
  "5001": "接",
  "5002": " ID",
  "5003": "ے",
  "5004": "τα",
  "5005": " vel",
  "5006": "아",
  "5007": "\tfor",
  "5008": "entes",
  "5009": "�",
  "5010": "vern",
  "5011": " })\n",
  "5012": " 가",
  "5013": " Ag",
  "5014": "chan",
  "5015": ".N",
  "5016": "ving",
  "5017": "�",
  "5018": " User",
  "5019": "обы",
  "5020": "Url",
  "5021": "트",
  "5022": " ),\n",
  "5023": "52",
  "5024": "web",
  "5025": "ń",
  "5026": "ban",
  "5027": " bi",
  "5028": "vi",
  "5029": "ées",
  "5030": "вля",
  "5031": "�",
  "5032": "……",
  "5033": " Gu",
  "5034": " going",
  "5035": " },",
  "5036": "Property",
  "5037": "(R",
  "5038": "uck",
  "5039": "ares",
  "5040": "게",
  "5041": " Act",
  "5042": " too",
  "5043": " conc",
  "5044": "ention",
  "5045": "oms",
  "5046": " sie",
  "5047": "lin",
  "5048": "mission",
  "5049": " пом",
  "5050": "прав",
  "5051": " old",
  "5052": "urg",
  "5053": "umb",
  "5054": " deb",
  "5055": "IO",
  "5056": "нима",
  "5057": " Dr",
  "5058": "心",
  "5059": "verse",
  "5060": "120",
  "5061": "лем",
  "5062": "��",
  "5063": "_H",
  "5064": "ા�",
  "5065": "ета",
  "5066": "æ",
  "5067": " application",
  "5068": "ething",
  "5069": "โ",
  "5070": " students",
  "5071": " vs",
  "5072": " always",
  "5073": "quence",
  "5074": " sure",
  "5075": "�",
  "5076": "itude",
  "5077": "idence",
  "5078": "rea",
  "5079": " instance",
  "5080": "ین",
  "5081": " research",
  "5082": "body",
  "5083": "습",
  "5084": "اه",
  "5085": "-r",
  "5086": "或",
  "5087": "esta",
  "5088": "Ref",
  "5089": " $(",
  "5090": "三",
  "5091": " simple",
  "5092": "िय",
  "5093": " option",
  "5094": " clear",
  "5095": "<div",
  "5096": " في",
  "5097": "经",
  "5098": "你",
  "5099": "inder",
  "5100": "imento",
  "5101": " người",
  "5102": ".Add",
  "5103": " tim",
  "5104": " Let",
  "5105": "/p",
  "5106": "ہ",
  "5107": "ช",
  "5108": "З",
  "5109": "Do",
  "5110": " connect",
  "5111": " particular",
  "5112": "cd",
  "5113": "พ",
  "5114": "oj",
  "5115": " Det",
  "5116": "ola",
  "5117": " �",
  "5118": "TO",
  "5119": "_v",
  "5120": "ầu",
  "5121": "nes",
  "5122": " online",
  "5123": "Handler",
  "5124": " На",
  "5125": "اس",
  "5126": " speed",
  "5127": " �",
  "5128": "97",
  "5129": "更",
  "5130": "ename",
  "5131": "idos",
  "5132": " CO",
  "5133": "产",
  "5134": "(a",
  "5135": "izer",
  "5136": ".value",
  "5137": "品",
  "5138": " individual",
  "5139": "wing",
  "5140": "当",
  "5141": " RE",
  "5142": "ids",
  "5143": "уль",
  "5144": " بر",
  "5145": " Bar",
  "5146": " mel",
  "5147": "ます",
  "5148": "NS",
  "5149": "clus",
  "5150": " может",
  "5151": " larg",
  "5152": "ury",
  "5153": " कर",
  "5154": " structure",
  "5155": "AME",
  "5156": "ė",
  "5157": " sche",
  "5158": "éc",
  "5159": "cience",
  "5160": " tw",
  "5161": "Stream",
  "5162": " Э",
  "5163": "ità",
  "5164": " Mat",
  "5165": "ці",
  "5166": "ា�",
  "5167": " volume",
  "5168": "”,",
  "5169": "plied",
  "5170": " special",
  "5171": "ב",
  "5172": " kan",
  "5173": "thing",
  "5174": "())\n",
  "5175": " mal",
  "5176": " exec",
  "5177": " lead",
  "5178": "чно",
  "5179": "54",
  "5180": "Ф",
  "5181": "86",
  "5182": "管",
  "5183": "回",
  "5184": "TH",
  "5185": " Date",
  "5186": " ग",
  "5187": "Link",
  "5188": "num",
  "5189": "amework",
  "5190": "국",
  "5191": " approach",
  "5192": "Token",
  "5193": "ports",
  "5194": "ises",
  "5195": "rab",
  "5196": " sample",
  "5197": "бе",
  "5198": " employ",
  "5199": "aya",
  "5200": "�",
  "5201": " bal",
  "5202": "осси",
  "5203": "�",
  "5204": "Entity",
  "5205": " happ",
  "5206": " law",
  "5207": " frequ",
  "5208": " distance",
  "5209": "ittle",
  "5210": " write",
  "5211": "ftware",
  "5212": " ל",
  "5213": " ele",
  "5214": " natur",
  "5215": " np",
  "5216": " border",
  "5217": "etch",
  "5218": "ischen",
  "5219": "51",
  "5220": "\tf",
  "5221": " avec",
  "5222": " жи",
  "5223": " };\n",
  "5224": ".js",
  "5225": " property",
  "5226": "็",
  "5227": "\tm",
  "5228": ".html",
  "5229": "53",
  "5230": " Up",
  "5231": "ำ",
  "5232": " Jan",
  "5233": " ka",
  "5234": " ini",
  "5235": " полу",
  "5236": " However",
  "5237": "antes",
  "5238": "회",
  "5239": "िक",
  "5240": "just",
  "5241": "�",
  "5242": "Menu",
  "5243": "QL",
  "5244": "ley",
  "5245": " View",
  "5246": " via",
  "5247": " similar",
  "5248": " thous",
  "5249": "where",
  "5250": "тери",
  "5251": "fa",
  "5252": "una",
  "5253": " Rec",
  "5254": " 시",
  "5255": "ев",
  "5256": "assert",
  "5257": "ogn",
  "5258": " client",
  "5259": "ored",
  "5260": "(&",
  "5261": "하는",
  "5262": "ách",
  "5263": "кра",
  "5264": " methods",
  "5265": " mach",
  "5266": "iam",
  "5267": "Л",
  "5268": " �",
  "5269": "්",
  "5270": "ça",
  "5271": " autom",
  "5272": "\t\t\t\t\t\t\t",
  "5273": "server",
  "5274": "──",
  "5275": "동",
  "5276": "isa",
  "5277": " пов",
  "5278": "ника",
  "5279": "width",
  "5280": "Check",
  "5281": " least",
  "5282": ".”\n",
  "5283": "�",
  "5284": "³",
  "5285": "het",
  "5286": "begin",
  "5287": "�",
  "5288": " пла",
  "5289": "IZ",
  "5290": " give",
  "5291": "style",
  "5292": "教",
  "5293": "ಾ",
  "5294": " continu",
  "5295": "外",
  "5296": "';\n\n",
  "5297": "�",
  "5298": " Object",
  "5299": "常",
  "5300": "тер",
  "5301": "раж",
  "5302": "IB",
  "5303": " werden",
  "5304": "さ",
  "5305": " five",
  "5306": "gt",
  "5307": "оро",
  "5308": ".find",
  "5309": " को",
  "5310": "因",
  "5311": " url",
  "5312": " really",
  "5313": " task",
  "5314": "])",
  "5315": "state",
  "5316": " cam",
  "5317": "inn",
  "5318": "_size",
  "5319": "�",
  "5320": "ने",
  "5321": "Start",
  "5322": " zero",
  "5323": " far",
  "5324": "«",
  "5325": " \\(\\",
  "5326": " difference",
  "5327": "arning",
  "5328": " background",
  "5329": "parse",
  "5330": ".y",
  "5331": "代",
  "5332": "科",
  "5333": " terms",
  "5334": " lib",
  "5335": "��",
  "5336": " These",
  "5337": "FA",
  "5338": "pha",
  "5339": " contr",
  "5340": " Sie",
  "5341": " typ",
  "5342": " Gl",
  "5343": "ạn",
  "5344": "ước",
  "5345": "ikan",
  "5346": "ब",
  "5347": "ận",
  "5348": " respons",
  "5349": "uan",
  "5350": " indust",
  "5351": "CO",
  "5352": "보",
  "5353": " ell",
  "5354": "ès",
  "5355": "ungs",
  "5356": " mai",
  "5357": " square",
  "5358": "ieve",
  "5359": "ATION",
  "5360": "idden",
  "5361": " Art",
  "5362": " significant",
  "5363": "�",
  "5364": "ouse",
  "5365": "��",
  "5366": " Def",
  "5367": "pload",
  "5368": "лож",
  "5369": "将",
  "5370": " ~",
  "5371": " team",
  "5372": " install",
  "5373": "itar",
  "5374": "field",
  "5375": "ills",
  "5376": " center",
  "5377": "anie",
  "5378": "する",
  "5379": ".name",
  "5380": " javax",
  "5381": " potential",
  "5382": "�",
  "5383": "ijn",
  "5384": " I'",
  "5385": "置",
  "5386": ".sh",
  "5387": "amos",
  "5388": " nach",
  "5389": "Change",
  "5390": "ignment",
  "5391": "PL",
  "5392": "Vis",
  "5393": " ي",
  "5394": " phys",
  "5395": "ज",
  "5396": "product",
  "5397": "oria",
  "5398": " clos",
  "5399": "说",
  "5400": "च",
  "5401": "�",
  "5402": "ে�",
  "5403": "ony",
  "5404": " original",
  "5405": " боль",
  "5406": "дар",
  "5407": " �",
  "5408": " offer",
  "5409": "igr",
  "5410": " financ",
  "5411": "96",
  "5412": "control",
  "5413": " job",
  "5414": " children",
  "5415": " tax",
  "5416": " ${",
  "5417": "ische",
  "5418": " complet",
  "5419": "sch",
  "5420": " global",
  "5421": "};\n\n",
  "5422": "\\\"",
  "5423": "ление",
  "5424": ".Form",
  "5425": ".Drawing",
  "5426": "ે",
  "5427": "ети",
  "5428": "ट",
  "5429": " ing",
  "5430": " done",
  "5431": "àn",
  "5432": " фи",
  "5433": "ican",
  "5434": "([",
  "5435": " ב",
  "5436": "abe",
  "5437": " factor",
  "5438": " benef",
  "5439": "itted",
  "5440": " Web",
  "5441": "些",
  "5442": "igher",
  "5443": "wer",
  "5444": "pc",
  "5445": "_to",
  "5446": "MS",
  "5447": " lik",
  "5448": "87",
  "5449": "urope",
  "5450": ".Text",
  "5451": " rad",
  "5452": "ха",
  "5453": " keep",
  "5454": " Str",
  "5455": "google",
  "5456": "\ts",
  "5457": " сред",
  "5458": "тр",
  "5459": " ה�",
  "5460": "Bar",
  "5461": ".v",
  "5462": "quired",
  "5463": " گ",
  "5464": " econom",
  "5465": "################",
  "5466": " site",
  "5467": " dalam",
  "5468": "ioni",
  "5469": "istics",
  "5470": "rip",
  "5471": "种",
  "5472": "di",
  "5473": "{{",
  "5474": "ρο",
  "5475": " <=",
  "5476": "asing",
  "5477": " Fe",
  "5478": "ड",
  "5479": "edia",
  "5480": " formula",
  "5481": "abl",
  "5482": "гу",
  "5483": " component",
  "5484": " Prob",
  "5485": "ید",
  "5486": "ota",
  "5487": "icos",
  "5488": "   ",
  "5489": " web",
  "5490": "��",
  "5491": "aff",
  "5492": " kt",
  "5493": "iki",
  "5494": "్",
  "5495": " ao",
  "5496": "////////////////",
  "5497": "ень",
  "5498": " Ang",
  "5499": " whether",
  "5500": "plac",
  "5501": "pg",
  "5502": " voor",
  "5503": "구",
  "5504": " dar",
  "5505": "ptr",
  "5506": "vider",
  "5507": "atabase",
  "5508": "το",
  "5509": "่า�",
  "5510": "soft",
  "5511": " against",
  "5512": "二",
  "5513": " variable",
  "5514": "imo",
  "5515": "رد",
  "5516": "build",
  "5517": " She",
  "5518": "만",
  "5519": "き",
  "5520": "mm",
  "5521": " uns",
  "5522": " along",
  "5523": "화",
  "5524": "anz",
  "5525": "osp",
  "5526": "lation",
  "5527": "ego",
  "5528": " ask",
  "5529": "看",
  "5530": " Nov",
  "5531": "Acc",
  "5532": " big",
  "5533": " limit",
  "5534": " million",
  "5535": "++)",
  "5536": "然",
  "5537": "UP",
  "5538": " ris",
  "5539": "ật",
  "5540": " kil",
  "5541": "End",
  "5542": "eli",
  "5543": " лю",
  "5544": " six",
  "5545": "特",
  "5546": "search",
  "5547": "iddle",
  "5548": "元",
  "5549": "次",
  "5550": " refer",
  "5551": " hours",
  "5552": "正",
  "5553": " able",
  "5554": "ಾ�",
  "5555": " surface",
  "5556": "time",
  "5557": "пол",
  "5558": "需",
  "5559": " tamb",
  "5560": "iler",
  "5561": " thể",
  "5562": " auto",
  "5563": "оку",
  "5564": " coll",
  "5565": "あ",
  "5566": "rypt",
  "5567": "电",
  "5568": " nos",
  "5569": "header",
  "5570": " trad",
  "5571": " []",
  "5572": "ori",
  "5573": "upport",
  "5574": "obile",
  "5575": "TER",
  "5576": "пу",
  "5577": "ник",
  "5578": "root",
  "5579": "................................",
  "5580": "/h",
  "5581": " force",
  "5582": " pag",
  "5583": "uv",
  "5584": "ính",
  "5585": " ا�",
  "5586": "plications",
  "5587": "ought",
  "5588": " उ",
  "5589": ".H",
  "5590": " wy",
  "5591": "atar",
  "5592": " functions",
  "5593": " ay",
  "5594": "uns",
  "5595": "�",
  "5596": "до",
  "5597": " Es",
  "5598": " certain",
  "5599": "astic",
  "5600": "ây",
  "5601": "\"><",
  "5602": " és",
  "5603": " их",
  "5604": " relations",
  "5605": "стра",
  "5606": "ению",
  "5607": " evalu",
  "5608": " root",
  "5609": "                                       ",
  "5610": "este",
  "5611": " �",
  "5612": " Pa",
  "5613": " jed",
  "5614": "�",
  "5615": " One",
  "5616": " async",
  "5617": " complex",
  "5618": "平",
  "5619": "ster",
  "5620": " conversion",
  "5621": "ų",
  "5622": "ות",
  "5623": " cos",
  "5624": "start",
  "5625": "く",
  "5626": "して",
  "5627": "aux",
  "5628": "md",
  "5629": "ocket",
  "5630": " section",
  "5631": " something",
  "5632": " correspond",
  "5633": "olar",
  "5634": "rec",
  "5635": "uter",
  "5636": " �",
  "5637": "DB",
  "5638": " sort",
  "5639": "・",
  "5640": "actions",
  "5641": "bb",
  "5642": "(C",
  "5643": "ctor",
  "5644": "сов",
  "5645": " Росси",
  "5646": "ования",
  "5647": "gn",
  "5648": "型",
  "5649": "چ",
  "5650": " Google",
  "5651": " vor",
  "5652": " II",
  "5653": "格",
  "5654": " len",
  "5655": "ismo",
  "5656": " box",
  "5657": " без",
  "5658": "−",
  "5659": "「",
  "5660": ".J",
  "5661": " 것",
  "5662": " oder",
  "5663": "dir",
  "5664": "업",
  "5665": " performance",
  "5666": "ết",
  "5667": "сы",
  "5668": "hemat",
  "5669": "PT",
  "5670": "ís",
  "5671": "uri",
  "5672": " temperature",
  "5673": "rup",
  "5674": " constant",
  "5675": " polit",
  "5676": "lib",
  "5677": "�",
  "5678": "�",
  "5679": "lim",
  "5680": "」",
  "5681": "ably",
  "5682": "YPE",
  "5683": " begin",
  "5684": " transform",
  "5685": "side",
  "5686": "利",
  "5687": "hand",
  "5688": "EC",
  "5689": " shows",
  "5690": "iga",
  "5691": "(data",
  "5692": " already",
  "5693": " lot",
  "5694": "务",
  "5695": "使用",
  "5696": "base",
  "5697": "ים",
  "5698": "params",
  "5699": "计",
  "5700": "습니다",
  "5701": " invol",
  "5702": ".class",
  "5703": "hi",
  "5704": "起",
  "5705": " stop",
  "5706": " sel",
  "5707": " previous",
  "5708": "стем",
  "5709": "IST",
  "5710": "ア",
  "5711": " known",
  "5712": " command",
  "5713": "Rout",
  "5714": "icial",
  "5715": " врем",
  "5716": "ث",
  "5717": " über",
  "5718": "ipo",
  "5719": " capac",
  "5720": " discuss",
  "5721": " things",
  "5722": "udi",
  "5723": "TT",
  "5724": " орга",
  "5725": " sind",
  "5726": " experience",
  "5727": "SP",
  "5728": "基",
  "5729": " til",
  "5730": " sn",
  "5731": "ised",
  "5732": "вы",
  "5733": " से",
  "5734": " caus",
  "5735": "page",
  "5736": " camp",
  "5737": " ni",
  "5738": "系",
  "5739": "�",
  "5740": "-to",
  "5741": "\tint",
  "5742": ".size",
  "5743": " files",
  "5744": " particip",
  "5745": "ững",
  "5746": " обла",
  "5747": "rat",
  "5748": "рам",
  "5749": " it's",
  "5750": " lat",
  "5751": "inition",
  "5752": " vert",
  "5753": " Dep",
  "5754": "wi",
  "5755": "struction",
  "5756": "Mode",
  "5757": "ín",
  "5758": " series",
  "5759": "년",
  "5760": "ổ",
  "5761": "\tprivate",
  "5762": "iden",
  "5763": " �",
  "5764": " nă",
  "5765": "orithm",
  "5766": "angan",
  "5767": "(-",
  "5768": "mark",
  "5769": " sont",
  "5770": "ibrary",
  "5771": " 그",
  "5772": " ש",
  "5773": " ле",
  "5774": ")/",
  "5775": " expected",
  "5776": " использ",
  "5777": " changes",
  "5778": " conditions",
  "5779": "gu",
  "5780": " ich",
  "5781": " button",
  "5782": "bsp",
  "5783": "�",
  "5784": "ин",
  "5785": "נ",
  "5786": "Back",
  "5787": " Use",
  "5788": "Source",
  "5789": " $\\",
  "5790": " jest",
  "5791": " services",
  "5792": " hard",
  "5793": "/w",
  "5794": " mode",
  "5795": "لى",
  "5796": "�",
  "5797": "Update",
  "5798": " он",
  "5799": "abs",
  "5800": " margin",
  "5801": " cross",
  "5802": " email",
  "5803": "Base",
  "5804": "cular",
  "5805": "ls",
  "5806": " flex",
  "5807": "oi",
  "5808": " questions",
  "5809": "ến",
  "5810": "(_",
  "5811": " role",
  "5812": " jak",
  "5813": "github",
  "5814": "指",
  "5815": " dass",
  "5816": " соб",
  "5817": " vous",
  "5818": "255",
  "5819": " Math",
  "5820": "ологи",
  "5821": "»,",
  "5822": " Jul",
  "5823": "CL",
  "5824": "ين",
  "5825": " systems",
  "5826": " types",
  "5827": "клю",
  "5828": "什",
  "5829": "ook",
  "5830": "ney",
  "5831": "ვ",
  "5832": " như",
  "5833": "riend",
  "5834": " ::",
  "5835": "iding",
  "5836": "=>",
  "5837": "ker",
  "5838": "�",
  "5839": "600",
  "5840": " obj",
  "5841": "лы",
  "5842": "чение",
  "5843": " defined",
  "5844": " works",
  "5845": "示",
  "5846": "ULT",
  "5847": "ibil",
  "5848": "Product",
  "5849": " parameters",
  "5850": "race",
  "5851": "_W",
  "5852": "model",
  "5853": " >=",
  "5854": "ử",
  "5855": "ово",
  "5856": " handle",
  "5857": "Valid",
  "5858": "時",
  "5859": "Read",
  "5860": "blic",
  "5861": "ello",
  "5862": "Order",
  "5863": " don't",
  "5864": "IA",
  "5865": "sz",
  "5866": "_G",
  "5867": "Tem",
  "5868": " args",
  "5869": "elling",
  "5870": "DF",
  "5871": " ×",
  "5872": "och",
  "5873": " higher",
  "5874": " gas",
  "5875": " matrix",
  "5876": " separ",
  "5877": "ി�",
  "5878": " State",
  "5879": "_ST",
  "5880": "Ext",
  "5881": " प्र",
  "5882": "ाल",
  "5883": "stract",
  "5884": " Mod",
  "5885": ".Windows",
  "5886": " round",
  "5887": "мож",
  "5888": "ournal",
  "5889": "/f",
  "5890": "ност",
  "5891": " ав",
  "5892": " vector",
  "5893": " ак",
  "5894": "ils",
  "5895": " compar",
  "5896": "存",
  "5897": "]);\n",
  "5898": "iene",
  "5899": " ]\n",
  "5900": " calculate",
  "5901": " wie",
  "5902": " distribution",
  "5903": " parte",
  "5904": "вод",
  "5905": " numer",
  "5906": " recent",
  "5907": " construct",
  "5908": "rib",
  "5909": "owa",
  "5910": "()\n\n",
  "5911": "цион",
  "5912": " linear",
  "5913": "raf",
  "5914": "器",
  "5915": "/j",
  "5916": "apping",
  "5917": " sistem",
  "5918": "料",
  "5919": "tml",
  "5920": "xx",
  "5921": " conse",
  "5922": "'re",
  "5923": " family",
  "5924": "kin",
  "5925": "izar",
  "5926": " protected",
  "5927": "(r",
  "5928": "_path",
  "5929": " review",
  "5930": "ע",
  "5931": " syn",
  "5932": " tut",
  "5933": "flow",
  "5934": " số",
  "5935": " follow",
  "5936": "ului",
  "5937": "asta",
  "5938": " express",
  "5939": "ERT",
  "5940": " sig",
  "5941": " č",
  "5942": " paper",
  "5943": " server",
  "5944": "gan",
  "5945": " units",
  "5946": "ром",
  "5947": " pur",
  "5948": "194",
  "5949": " bei",
  "5950": "°C",
  "5951": "Post",
  "5952": "cu",
  "5953": "76",
  "5954": "\tvar",
  "5955": "ها",
  "5956": "ono",
  "5957": "чения",
  "5958": "-de",
  "5959": " why",
  "5960": "auth",
  "5961": "Call",
  "5962": " flow",
  "5963": "知",
  "5964": "реб",
  "5965": " strateg",
  "5966": "огда",
  "5967": " მ",
  "5968": ".push",
  "5969": "195",
  "5970": " Stud",
  "5971": " won",
  "5972": "した",
  "5973": "از",
  "5974": " Cons",
  "5975": " औ",
  "5976": " treat",
  "5977": " �",
  "5978": " personal",
  "5979": "_R",
  "5980": "소",
  "5981": " lower",
  "5982": "remove",
  "5983": "τη",
  "5984": "vest",
  "5985": " fur",
  "5986": "�",
  "5987": " Array",
  "5988": " ба",
  "5989": "�",
  "5990": " items",
  "5991": " са",
  "5992": "with",
  "5993": " dir",
  "5994": " pal",
  "5995": " ét",
  "5996": "}$",
  "5997": " dam",
  "5998": "/lang",
  "5999": " Vol",
  "6000": " ih",
  "6001": "Create",
  "6002": "�",
  "6003": "ekt",
  "6004": " Val",
  "6005": " está",
  "6006": "Default",
  "6007": " card",
  "6008": "区",
  "6009": "atan",
  "6010": "%\n",
  "6011": " đã",
  "6012": "ła",
  "6013": "anced",
  "6014": "(M",
  "6015": " problems",
  "6016": " got",
  "6017": " investig",
  "6018": " Je",
  "6019": " pent",
  "6020": " Apr",
  "6021": "-B",
  "6022": "Width",
  "6023": " human",
  "6024": " course",
  "6025": " development",
  "6026": " mm",
  "6027": "터",
  "6028": "URL",
  "6029": " य",
  "6030": " food",
  "6031": " until",
  "6032": " kar",
  "6033": "ロ",
  "6034": " window",
  "6035": " пи",
  "6036": "्त",
  "6037": "结",
  "6038": " tod",
  "6039": "ugin",
  "6040": " exc",
  "6041": "原",
  "6042": "Icon",
  "6043": "类",
  "6044": "Options",
  "6045": " ach",
  "6046": "cs",
  "6047": "TR",
  "6048": " United",
  "6049": " стра",
  "6050": " working",
  "6051": "show",
  "6052": "enter",
  "6053": "资",
  "6054": "zn",
  "6055": " often",
  "6056": "드",
  "6057": "raint",
  "6058": " Net",
  "6059": " vot",
  "6060": " little",
  "6061": " video",
  "6062": "local",
  "6063": " increase",
  "6064": "ns",
  "6065": "ј",
  "6066": "dated",
  "6067": "Sp",
  "6068": "250",
  "6069": " ci",
  "6070": "(L",
  "6071": "olo",
  "6072": "(),\n",
  "6073": " Stat",
  "6074": "PC",
  "6075": " фор",
  "6076": " impact",
  "6077": "annot",
  "6078": "\tb",
  "6079": "ynamic",
  "6080": "Ass",
  "6081": " Acc",
  "6082": " created",
  "6083": "Command",
  "6084": "$(",
  "6085": "ण",
  "6086": "DA",
  "6087": "iner",
  "6088": " making",
  "6089": "ому",
  "6090": " ·",
  "6091": " और",
  "6092": "180",
  "6093": "oph",
  "6094": "uff",
  "6095": " btn",
  "6096": "カ",
  "6097": "πο",
  "6098": "OC",
  "6099": "�",
  "6100": " aux",
  "6101": "ση",
  "6102": "agen",
  "6103": " environment",
  "6104": " ze",
  "6105": " provided",
  "6106": "Activity",
  "6107": "])\n",
  "6108": "odo",
  "6109": " Red",
  "6110": "交",
  "6111": "²",
  "6112": "와",
  "6113": "stall",
  "6114": "req",
  "6115": " proced",
  "6116": ".io",
  "6117": "ồ",
  "6118": " actual",
  "6119": " ak",
  "6120": "олее",
  "6121": "Edit",
  "6122": " ž",
  "6123": " sau",
  "6124": "dr",
  "6125": " και",
  "6126": " Dis",
  "6127": "});\n",
  "6128": "icrosoft",
  "6129": "жд",
  "6130": " ps",
  "6131": "ging",
  "6132": " произ",
  "6133": " trab",
  "6134": " ),",
  "6135": "àng",
  "6136": "ней",
  "6137": "atas",
  "6138": "-object",
  "6139": " để",
  "6140": "비",
  "6141": "ש",
  "6142": "cor",
  "6143": "里",
  "6144": "ೆ",
  "6145": " भ",
  "6146": " multiple",
  "6147": " location",
  "6148": " mor",
  "6149": "дер",
  "6150": "�",
  "6151": "hal",
  "6152": "�",
  "6153": "endif",
  "6154": "aria",
  "6155": "�",
  "6156": "ış",
  "6157": "strong",
  "6158": "inding",
  "6159": "вать",
  "6160": "level",
  "6161": "SC",
  "6162": "单",
  "6163": "toc",
  "6164": "Title",
  "6165": "ť",
  "6166": " draw",
  "6167": " query",
  "6168": "72",
  "6169": "101",
  "6170": " года",
  "6171": "anks",
  "6172": "env",
  "6173": " Calcul",
  "6174": "дин",
  "6175": "Num",
  "6176": "oles",
  "6177": " learn",
  "6178": " alle",
  "6179": " govern",
  "6180": " several",
  "6181": "ubic",
  "6182": "-y",
  "6183": " intern",
  "6184": "უ�",
  "6185": "section",
  "6186": "�",
  "6187": " './",
  "6188": "并",
  "6189": "89",
  "6190": " Ч",
  "6191": "anch",
  "6192": " either",
  "6193": " hold",
  "6194": "aa",
  "6195": "namespace",
  "6196": " File",
  "6197": "�",
  "6198": " positive",
  "6199": " rot",
  "6200": " selected",
  "6201": "erse",
  "6202": "าม",
  "6203": " amb",
  "6204": " apply",
  "6205": " ko",
  "6206": "pri",
  "6207": "уд",
  "6208": "esch",
  "6209": "-C",
  "6210": " dro",
  "6211": "ার",
  "6212": "长",
  "6213": "OW",
  "6214": " feel",
  "6215": "acional",
  "6216": "ABLE",
  "6217": "null",
  "6218": "此",
  "6219": "unit",
  "6220": "技",
  "6221": " determine",
  "6222": "aring",
  "6223": " region",
  "6224": "alls",
  "6225": "ombre",
  "6226": ".Forms",
  "6227": " properties",
  "6228": "images",
  "6229": "chni",
  "6230": " ν",
  "6231": " minutes",
  "6232": " author",
  "6233": "output",
  "6234": "ev",
  "6235": " Ac",
  "6236": " sav",
  "6237": " CH",
  "6238": "��",
  "6239": "wards",
  "6240": "<<",
  "6241": "ORT",
  "6242": " дан",
  "6243": "eden",
  "6244": " risk",
  "6245": "Null",
  "6246": "ragment",
  "6247": " рас",
  "6248": "�",
  "6249": "ąc",
  "6250": "них",
  "6251": ".swing",
  "6252": "タ",
  "6253": " format",
  "6254": " hom",
  "6255": "ık",
  "6256": " compet",
  "6257": "ρα",
  "6258": " across",
  "6259": " requ",
  "6260": " wird",
  "6261": "bon",
  "6262": "�",
  "6263": " này",
  "6264": "бы",
  "6265": "79",
  "6266": "(g",
  "6267": " device",
  "6268": " iz",
  "6269": "imer",
  "6270": " ус",
  "6271": "�i",
  "6272": " tor",
  "6273": " đị",
  "6274": " систем",
  "6275": "ám",
  "6276": "ured",
  "6277": " Work",
  "6278": "essages",
  "6279": " having",
  "6280": "тия",
  "6281": "Part",
  "6282": "ulti",
  "6283": " dari",
  "6284": "info",
  "6285": "AA",
  "6286": " ok",
  "6287": " Model",
  "6288": " Ma",
  "6289": " player",
  "6290": "800",
  "6291": "chema",
  "6292": ".php",
  "6293": "imin",
  "6294": "anged",
  "6295": "yg",
  "6296": " 제",
  "6297": "pm",
  "6298": " сов",
  "6299": " seem",
  "6300": "aten",
  "6301": "has",
  "6302": " Class",
  "6303": " работ",
  "6304": "OK",
  "6305": " rap",
  "6306": " focus",
  "6307": " strong",
  "6308": " که",
  "6309": "ων",
  "6310": "oma",
  "6311": "τε",
  "6312": " filter",
  "6313": "여",
  "6314": "口",
  "6315": " various",
  "6316": "imate",
  "6317": " sec",
  "6318": " exact",
  "6319": " contact",
  "6320": " major",
  "6321": "标",
  "6322": " educ",
  "6323": "-\n",
  "6324": "ි",
  "6325": "typ",
  "6326": "산",
  "6327": "考",
  "6328": " invoke",
  "6329": ".text",
  "6330": "aba",
  "6331": "Frame",
  "6332": "oding",
  "6333": "ILE",
  "6334": "<String",
  "6335": "áp",
  "6336": " 한",
  "6337": "ocity",
  "6338": "One",
  "6339": "Cell",
  "6340": "�",
  "6341": "ский",
  "6342": "ری",
  "6343": " thousand",
  "6344": " bound",
  "6345": "요",
  "6346": "�",
  "6347": "esis",
  "6348": " approxim",
  "6349": "ũ",
  "6350": " Anal",
  "6351": "defined",
  "6352": "还",
  "6353": "�",
  "6354": "оч",
  "6355": " age",
  "6356": "�",
  "6357": " долж",
  "6358": " این",
  "6359": " Air",
  "6360": " 정",
  "6361": "ged",
  "6362": ".con",
  "6363": "192",
  "6364": "-a",
  "6365": " những",
  "6366": " можно",
  "6367": "’re",
  "6368": "102",
  "6369": " Ber",
  "6370": "оби",
  "6371": "Module",
  "6372": " \\\\\n",
  "6373": "ু",
  "6374": "бли",
  "6375": "})",
  "6376": "ester",
  "6377": "Char",
  "6378": " tid",
  "6379": " reason",
  "6380": " decl",
  "6381": " Out",
  "6382": "uggest",
  "6383": " př",
  "6384": " added",
  "6385": "iu",
  "6386": " kind",
  "6387": "展",
  "6388": "ently",
  "6389": "那",
  "6390": " That",
  "6391": "ระ",
  "6392": "current",
  "6393": " past",
  "6394": " Then",
  "6395": " perm",
  "6396": ".$",
  "6397": "ological",
  "6398": "`\n",
  "6399": "cover",
  "6400": " công",
  "6401": ".on",
  "6402": "thers",
  "6403": " să",
  "6404": " resol",
  "6405": "client",
  "6406": "rie",
  "6407": "EE",
  "6408": " school",
  "6409": " Of",
  "6410": "iger",
  "6411": " Christ",
  "6412": "izing",
  "6413": "向",
  "6414": "_set",
  "6415": " pie",
  "6416": "anda",
  "6417": " nam",
  "6418": "станов",
  "6419": " cred",
  "6420": "Load",
  "6421": "lik",
  "6422": " �",
  "6423": " Aug",
  "6424": "dy",
  "6425": "Am",
  "6426": "medi",
  "6427": "ART",
  "6428": "né",
  "6429": "Te",
  "6430": "event",
  "6431": "alah",
  "6432": " Met",
  "6433": "GB",
  "6434": "rows",
  "6435": "ു",
  "6436": " parent",
  "6437": " variables",
  "6438": "nych",
  "6439": "ops",
  "6440": " track",
  "6441": "uster",
  "6442": "题",
  "6443": "\");\n\n",
  "6444": " John",
  "6445": "ensor",
  "6446": " loss",
  "6447": "Method",
  "6448": "Row",
  "6449": "Address",
  "6450": "onal",
  "6451": " True",
  "6452": "isation",
  "6453": "```\n\n",
  "6454": "iten",
  "6455": " toget",
  "6456": " description",
  "6457": "admin",
  "6458": " needs",
  "6459": "\";\n\n",
  "6460": " объ",
  "6461": "ributes",
  "6462": "printf",
  "6463": "ением",
  "6464": "лов",
  "6465": "�",
  "6466": "''",
  "6467": " �",
  "6468": "sm",
  "6469": " кор",
  "6470": "There",
  "6471": " States",
  "6472": " divers",
  "6473": " together",
  "6474": "求",
  "6475": "Buffer",
  "6476": "Const",
  "6477": "vas",
  "6478": " 위",
  "6479": " gar",
  "6480": "_ex",
  "6481": "cción",
  "6482": " future",
  "6483": " makes",
  "6484": " :\n",
  "6485": "adores",
  "6486": " });\n\n",
  "6487": " direction",
  "6488": "теля",
  "6489": "zz",
  "6490": " إ",
  "6491": "owe",
  "6492": "iert",
  "6493": " maximum",
  "6494": "ात",
  "6495": "ена",
  "6496": " subject",
  "6497": " pair",
  "6498": " NOT",
  "6499": " má",
  "6500": "iến",
  "6501": "غ",
  "6502": " pun",
  "6503": "ус",
  "6504": " angle",
  "6505": "문",
  "6506": "256",
  "6507": "마",
  "6508": "template",
  "6509": "్�",
  "6510": "(S",
  "6511": "场",
  "6512": "AX",
  "6513": "eme",
  "6514": "ित",
  "6515": "cr",
  "6516": "lections",
  "6517": "查",
  "6518": " face",
  "6519": "但",
  "6520": " maint",
  "6521": "apat",
  "6522": " never",
  "6523": "Container",
  "6524": "gle",
  "6525": "undo",
  "6526": " �",
  "6527": " эт",
  "6528": "aging",
  "6529": "ит",
  "6530": "onom",
  "6531": "્",
  "6532": "iết",
  "6533": "(){\n",
  "6534": "Header",
  "6535": "Grid",
  "6536": "63",
  "6537": "(j",
  "6538": " db",
  "6539": "110",
  "6540": " thu",
  "6541": " etc",
  "6542": " рабо",
  "6543": "ahr",
  "6544": "แล",
  "6545": "Block",
  "6546": "alar",
  "6547": "лся",
  "6548": "hem",
  "6549": "illa",
  "6550": " ক",
  "6551": " complete",
  "6552": "계",
  "6553": "_de",
  "6554": "着",
  "6555": "values",
  "6556": "каза",
  "6557": "Factory",
  "6558": " ए",
  "6559": " этом",
  "6560": " fi",
  "6561": "62",
  "6562": " mis",
  "6563": " также",
  "6564": " ['",
  "6565": " το",
  "6566": "host",
  "6567": "_file",
  "6568": "uint",
  "6569": " especial",
  "6570": "数据",
  "6571": " nas",
  "6572": "istry",
  "6573": "click",
  "6574": " mut",
  "6575": "clud",
  "6576": "lu",
  "6577": "adr",
  "6578": " store",
  "6579": " li",
  "6580": "child",
  "6581": "гра",
  "6582": " Port",
  "6583": " uint",
  "6584": "-F",
  "6585": "્�",
  "6586": "три",
  "6587": "ัน",
  "6588": " 주",
  "6589": " �",
  "6590": " añ",
  "6591": " któ",
  "6592": "ball",
  "6593": " του",
  "6594": " образ",
  "6595": "agram",
  "6596": "],\n",
  "6597": "lege",
  "6598": "igo",
  "6599": "rd",
  "6600": " products",
  "6601": "84",
  "6602": "тельно",
  "6603": "enz",
  "6604": " ju",
  "6605": " visit",
  "6606": " elements",
  "6607": " close",
  "6608": "\telse",
  "6609": "ência",
  "6610": "ulo",
  "6611": "стр",
  "6612": " органи",
  "6613": " features",
  "6614": "ALL",
  "6615": " нов",
  "6616": "�",
  "6617": "entic",
  "6618": " host",
  "6619": "Cal",
  "6620": " AND",
  "6621": "ached",
  "6622": "тора",
  "6623": "活",
  "6624": ":\"",
  "6625": " 경",
  "6626": "inde",
  "6627": " einer",
  "6628": " š",
  "6629": " Soc",
  "6630": "ycle",
  "6631": " words",
  "6632": " relationship",
  "6633": " hot",
  "6634": "去",
  "6635": " wa",
  "6636": "よ",
  "6637": "رو",
  "6638": "inen",
  "6639": " continue",
  "6640": "ジ�",
  "6641": " needed",
  "6642": "swers",
  "6643": " 아",
  "6644": "้า�",
  "6645": "�",
  "6646": "aking",
  "6647": " 보",
  "6648": "}/",
  "6649": "ých",
  "6650": " later",
  "6651": "ło",
  "6652": "ried",
  "6653": "ể",
  "6654": " -->\n",
  "6655": "ensive",
  "6656": "Dec",
  "6657": " ig",
  "6658": "ju",
  "6659": " switch",
  "6660": " इ",
  "6661": " land",
  "6662": " till",
  "6663": "lam",
  "6664": "ycl",
  "6665": "ン�",
  "6666": "рак",
  "6667": " Cre",
  "6668": " enter",
  "6669": " mind",
  "6670": "61",
  "6671": "eline",
  "6672": "하고",
  "6673": "UB",
  "6674": "cret",
  "6675": "ức",
  "6676": "μα",
  "6677": "asa",
  "6678": "β",
  "6679": "ometry",
  "6680": " consist",
  "6681": "ROM",
  "6682": " ی",
  "6683": " tur",
  "6684": "息",
  "6685": "�",
  "6686": "options",
  "6687": " поз",
  "6688": "omin",
  "6689": " money",
  "6690": " member",
  "6691": "false",
  "6692": "осу",
  "6693": "很",
  "6694": "mos",
  "6695": "container",
  "6696": "anger",
  "6697": " pack",
  "6698": "itter",
  "6699": "图",
  "6700": " crit",
  "6701": "aves",
  "6702": "wise",
  "6703": "message",
  "6704": " send",
  "6705": " γ",
  "6706": " Windows",
  "6707": ".put",
  "6708": " lu",
  "6709": "ề",
  "6710": "ία",
  "6711": " hour",
  "6712": " temp",
  "6713": "没",
  "6714": " feet",
  "6715": " Time",
  "6716": "/v",
  "6717": " introdu",
  "6718": "ising",
  "6719": "оми",
  "6720": " addition",
  "6721": "curity",
  "6722": " half",
  "6723": "sa",
  "6724": " eight",
  "6725": "omain",
  "6726": "NA",
  "6727": " related",
  "6728": "bor",
  "6729": "��",
  "6730": "无",
  "6731": "ับ",
  "6732": "reen",
  "6733": "fort",
  "6734": "func",
  "6735": " miss",
  "6736": "ву",
  "6737": "-v",
  "6738": "================================",
  "6739": "�",
  "6740": " pressure",
  "6741": " auth",
  "6742": "andid",
  "6743": "tab",
  "6744": "unch",
  "6745": "Child",
  "6746": "ursor",
  "6747": " pow",
  "6748": "�",
  "6749": "193",
  "6750": " Sm",
  "6751": " React",
  "6752": "》",
  "6753": "core",
  "6754": " diff",
  "6755": " users",
  "6756": " ск",
  "6757": "entity",
  "6758": "할",
  "6759": " extra",
  "6760": " media",
  "6761": "car",
  "6762": "зыва",
  "6763": "font",
  "6764": "ontal",
  "6765": " Pat",
  "6766": "Gener",
  "6767": "then",
  "6768": " json",
  "6769": "él",
  "6770": "�",
  "6771": " consum",
  "6772": "illion",
  "6773": "idas",
  "6774": "ceed",
  "6775": "bool",
  "6776": " về",
  "6777": "ensions",
  "6778": "тобы",
  "6779": " Post",
  "6780": "《",
  "6781": "аз",
  "6782": " San",
  "6783": " render",
  "6784": " cz",
  "6785": "eren",
  "6786": " altern",
  "6787": " bil",
  "6788": "ogy",
  "6789": "oved",
  "6790": " production",
  "6791": "TC",
  "6792": "AND",
  "6793": "ERR",
  "6794": "group",
  "6795": " parameter",
  "6796": "сте",
  "6797": "Position",
  "6798": "�",
  "6799": "选",
  "6800": "Attribute",
  "6801": " roz",
  "6802": "Task",
  "6803": " density",
  "6804": " contains",
  "6805": "али",
  "6806": "duc",
  "6807": " Type",
  "6808": " dei",
  "6809": " явля",
  "6810": "ội",
  "6811": "包",
  "6812": "Repository",
  "6813": "ause",
  "6814": "light",
  "6815": "ơn",
  "6816": "何",
  "6817": "ập",
  "6818": " eas",
  "6819": " kg",
  "6820": " sua",
  "6821": "enta",
  "6822": "ి",
  "6823": " sil",
  "6824": "问",
  "6825": "del",
  "6826": "uge",
  "6827": "容",
  "6828": " पर",
  "6829": "So",
  "6830": "组",
  "6831": "从",
  "6832": " Create",
  "6833": " probability",
  "6834": "ד",
  "6835": "Hel",
  "6836": " rep",
  "6837": " once",
  "6838": " CON",
  "6839": " among",
  "6840": "流",
  "6841": "做",
  "6842": "apan",
  "6843": "uje",
  "6844": "циаль",
  "6845": "}</",
  "6846": " �",
  "6847": " họ",
  "6848": " patients",
  "6849": "Height",
  "6850": "方法",
  "6851": " away",
  "6852": " \"/",
  "6853": " '@",
  "6854": " l�",
  "6855": "fol",
  "6856": " ο",
  "6857": "공",
  "6858": "ukan",
  "6859": "ERS",
  "6860": "ford",
  "6861": "001",
  "6862": "Integer",
  "6863": "holder",
  "6864": " cover",
  "6865": "由",
  "6866": "                         ",
  "6867": " мог",
  "6868": " zijn",
  "6869": " OF",
  "6870": " только",
  "6871": "ẽ",
  "6872": " ren",
  "6873": "Dialog",
  "6874": "}^{",
  "6875": " predict",
  "6876": "Panel",
  "6877": "CM",
  "6878": "orem",
  "6879": "81",
  "6880": "注",
  "6881": " Return",
  "6882": "�",
  "6883": " password",
  "6884": "umin",
  "6885": "ledge",
  "6886": "�",
  "6887": " throws",
  "6888": "치",
  "6889": "ใน",
  "6890": " AS",
  "6891": " stock",
  "6892": " им",
  "6893": "Empty",
  "6894": " Sec",
  "6895": "Open",
  "6896": " ik",
  "6897": "хи",
  "6898": "ществ",
  "6899": "ская",
  "6900": " ont",
  "6901": "empl",
  "6902": "ùng",
  "6903": "值",
  "6904": "icles",
  "6905": " từ",
  "6906": "есп",
  "6907": "лись",
  "6908": "raz",
  "6909": " signal",
  "6910": "sv",
  "6911": "�",
  "6912": "/**\n",
  "6913": "?.",
  "6914": " pada",
  "6915": " associated",
  "6916": "ích",
  "6917": "undle",
  "6918": " Rob",
  "6919": "iques",
  "6920": " При",
  "6921": " ratio",
  "6922": " 다",
  "6923": "LECT",
  "6924": "esso",
  "6925": "าก",
  "6926": "RL",
  "6927": "ван",
  "6928": "/?",
  "6929": " behav",
  "6930": " provides",
  "6931": "<T",
  "6932": "ova",
  "6933": "artment",
  "6934": "ython",
  "6935": " Sw",
  "6936": " concent",
  "6937": "oo",
  "6938": " experiment",
  "6939": " ep",
  "6940": " Oct",
  "6941": " article",
  "6942": "�",
  "6943": "ū",
  "6944": "ums",
  "6945": " Europe",
  "6946": "Provider",
  "6947": " share",
  "6948": " IS",
  "6949": "-D",
  "6950": "encies",
  "6951": " Key",
  "6952": "Equal",
  "6953": "ounter",
  "6954": " pattern",
  "6955": "enden",
  "6956": " Open",
  "6957": "Stack",
  "6958": " чел",
  "6959": " dep",
  "6960": " conduct",
  "6961": " today",
  "6962": " End",
  "6963": "udo",
  "6964": "nav",
  "6965": " <!--",
  "6966": "column",
  "6967": " מ�",
  "6968": "��",
  "6969": "author",
  "6970": "ells",
  "6971": " grad",
  "6972": "space",
  "6973": "vey",
  "6974": " save",
  "6975": " equations",
  "6976": "lor",
  "6977": " sen",
  "6978": "被",
  "6979": " organiz",
  "6980": "amm",
  "6981": "cos",
  "6982": "btn",
  "6983": "少",
  "6984": "ını",
  "6985": "align",
  "6986": ".user",
  "6987": "IZE",
  "6988": " lines",
  "6989": " Na",
  "6990": " equival",
  "6991": "fully",
  "6992": " webs",
  "6993": "�",
  "6994": "erd",
  "6995": "jang",
  "6996": " city",
  "6997": " Х",
  "6998": " click",
  "6999": "引",
  "7000": "чет",
  "7001": " population",
  "7002": " Techn",
  "7003": "chaft",
  "7004": "-re",
  "7005": "aks",
  "7006": " meet",
  "7007": "auto",
  "7008": "prim",
  "7009": " är",
  "7010": "持",
  "7011": " را",
  "7012": ".net",
  "7013": "�",
  "7014": "шен",
  "7015": "진",
  "7016": " ord",
  "7017": "Net",
  "7018": "\"))",
  "7019": " Pres",
  "7020": " cir",
  "7021": " ses",
  "7022": "When",
  "7023": "ẩ",
  "7024": " easy",
  "7025": "now",
  "7026": "Filter",
  "7027": " Di",
  "7028": " profession",
  "7029": "่อ",
  "7030": "pare",
  "7031": "///",
  "7032": "î",
  "7033": ".model",
  "7034": " ger",
  "7035": " ale",
  "7036": "(v",
  "7037": " solid",
  "7038": " cannot",
  "7039": " factors",
  "7040": "ائ",
  "7041": "山",
  "7042": "Auth",
  "7043": "imiento",
  "7044": "ental",
  "7045": "END",
  "7046": "кой",
  "7047": "收",
  "7048": " случа",
  "7049": "fs",
  "7050": "\t   ",
  "7051": " 인",
  "7052": " 자",
  "7053": "oder",
  "7054": " пор",
  "7055": "uple",
  "7056": "AY",
  "7057": " align",
  "7058": "출",
  "7059": "Off",
  "7060": "opp",
  "7061": " ill",
  "7062": " win",
  "7063": "Http",
  "7064": " >\n",
  "7065": " quality",
  "7066": "想",
  "7067": " которые",
  "7068": " history",
  "7069": " suggest",
  "7070": " accept",
  "7071": " sv",
  "7072": "안",
  "7073": " expression",
  "7074": " events",
  "7075": " Id",
  "7076": "ESS",
  "7077": " tal",
  "7078": "간",
  "7079": " Rem",
  "7080": "ействи",
  "7081": "Fe",
  "7082": "우",
  "7083": "190",
  "7084": " interface",
  "7085": "atory",
  "7086": "roy",
  "7087": "ध",
  "7088": " transfer",
  "7089": "imation",
  "7090": "82",
  "7091": "cast",
  "7092": "；",
  "7093": " bre",
  "7094": " гор",
  "7095": " iç",
  "7096": " mechan",
  "7097": "adata",
  "7098": "να",
  "7099": "ords",
  "7100": " đến",
  "7101": " natural",
  "7102": " необ",
  "7103": "acion",
  "7104": " �",
  "7105": "ında",
  "7106": " techni",
  "7107": " Your",
  "7108": " further",
  "7109": " Fin",
  "7110": "ან",
  "7111": " diffic",
  "7112": " months",
  "7113": " condition",
  "7114": " Ng",
  "7115": " Name",
  "7116": " Check",
  "7117": "hl",
  "7118": "\"/",
  "7119": " override",
  "7120": "items",
  "7121": "aman",
  "7122": "怎",
  "7123": " love",
  "7124": " International",
  "7125": "edit",
  "7126": " dụ",
  "7127": "лос",
  "7128": " ],\n",
  "7129": " ;\n",
  "7130": "_A",
  "7131": "actor",
  "7132": "�",
  "7133": " fast",
  "7134": "路",
  "7135": "hib",
  "7136": ".\"\n",
  "7137": "}>\n",
  "7138": "网",
  "7139": "(false",
  "7140": " cases",
  "7141": " influ",
  "7142": "ін",
  "7143": "ỉ",
  "7144": " bul",
  "7145": " bud",
  "7146": " comment",
  "7147": " doc",
  "7148": "attr",
  "7149": " gi�",
  "7150": "uper",
  "7151": " dell",
  "7152": "uts",
  "7153": "anner",
  "7154": " мо",
  "7155": "пе",
  "7156": "Resource",
  "7157": " Ze",
  "7158": "AGE",
  "7159": "ASE",
  "7160": " ).",
  "7161": " copy",
  "7162": "Down",
  "7163": "uda",
  "7164": " будет",
  "7165": " проце",
  "7166": " whole",
  "7167": "Player",
  "7168": "-pro",
  "7169": " delete",
  "7170": "})\n",
  "7171": "ebru",
  "7172": "าย",
  "7173": "weight",
  "7174": " 등",
  "7175": "aus",
  "7176": " univers",
  "7177": " enough",
  "7178": " 중",
  "7179": "�",
  "7180": "anti",
  "7181": "usion",
  "7182": "Ste",
  "7183": "ership",
  "7184": "�",
  "7185": " kl",
  "7186": " prime",
  "7187": " note",
  "7188": " transport",
  "7189": "_time",
  "7190": "Search",
  "7191": " scale",
  "7192": "adem",
  "7193": "71",
  "7194": "�",
  "7195": "isf",
  "7196": "样",
  "7197": "ydro",
  "7198": "iệt",
  "7199": " ك",
  "7200": "_key",
  "7201": " 的",
  "7202": " quick",
  "7203": " �",
  "7204": " City",
  "7205": "لی",
  "7206": " Pe",
  "7207": " å",
  "7208": " Char",
  "7209": " ở",
  "7210": "신",
  "7211": "民",
  "7212": "'),\n",
  "7213": "Web",
  "7214": " основ",
  "7215": "_ID",
  "7216": "                ",
  "7217": " ок",
  "7218": "�",
  "7219": "Output",
  "7220": " looking",
  "7221": " esta",
  "7222": " remove",
  "7223": "任",
  "7224": "double",
  "7225": "aron",
  "7226": "can",
  "7227": "美",
  "7228": " decre",
  "7229": "род",
  "7230": " pentru",
  "7231": "lood",
  "7232": " bien",
  "7233": " token",
  "7234": "volution",
  "7235": "123",
  "7236": "83",
  "7237": " zur",
  "7238": "player",
  "7239": " 공",
  "7240": "bi",
  "7241": "74",
  "7242": "ër",
  "7243": "Card",
  "7244": "ifi",
  "7245": "components",
  "7246": ".se",
  "7247": " prior",
  "7248": " tag",
  "7249": "Me",
  "7250": " concept",
  "7251": "oe",
  "7252": "enda",
  "7253": "Max",
  "7254": "kg",
  "7255": "istory",
  "7256": "_DE",
  "7257": " country",
  "7258": "IX",
  "7259": ".ap",
  "7260": " database",
  "7261": " padding",
  "7262": " compr",
  "7263": "count",
  "7264": " priv",
  "7265": "ു�",
  "7266": " =\n",
  "7267": "форма",
  "7268": "�",
  "7269": "�",
  "7270": " engine",
  "7271": " श",
  "7272": "ких",
  "7273": "(function",
  "7274": "ене",
  "7275": " мет",
  "7276": "ां",
  "7277": "რ",
  "7278": "Format",
  "7279": "\"\"",
  "7280": "Top",
  "7281": "海",
  "7282": "стави",
  "7283": " \n\n",
  "7284": "191",
  "7285": "什么",
  "7286": "場",
  "7287": " meg",
  "7288": "社",
  "7289": " according",
  "7290": "92",
  "7291": " unique",
  "7292": " claim",
  "7293": "ん",
  "7294": "�",
  "7295": " \",",
  "7296": " 하",
  "7297": " travel",
  "7298": "  \n",
  "7299": "명",
  "7300": " гру",
  "7301": "Version",
  "7302": " hay",
  "7303": "rad",
  "7304": " kann",
  "7305": " figure",
  "7306": "room",
  "7307": " affect",
  "7308": "ক",
  "7309": "allel",
  "7310": "arts",
  "7311": "直",
  "7312": "%d",
  "7313": "\tcase",
  "7314": " assum",
  "7315": " დ",
  "7316": " Table",
  "7317": "Server",
  "7318": " publ",
  "7319": "�",
  "7320": "node",
  "7321": "last",
  "7322": "اع",
  "7323": " theory",
  "7324": "igger",
  "7325": "128",
  "7326": "Oper",
  "7327": "シ",
  "7328": " optim",
  "7329": " быть",
  "7330": "-P",
  "7331": "styles",
  "7332": "处",
  "7333": "Ver",
  "7334": " More",
  "7335": "।\n",
  "7336": "ാ",
  "7337": " +\n",
  "7338": "elen",
  "7339": "ODE",
  "7340": " accur",
  "7341": "ога",
  "7342": "�",
  "7343": "Let",
  "7344": "户",
  "7345": "具",
  "7346": "！",
  "7347": "дов",
  "7348": " groups",
  "7349": " время",
  "7350": " свя",
  "7351": " স",
  "7352": "线",
  "7353": " World",
  "7354": " buy",
  "7355": "北",
  "7356": "Utils",
  "7357": "особ",
  "7358": "INT",
  "7359": " era",
  "7360": "elij",
  "7361": " tom",
  "7362": "िए",
  "7363": "号",
  "7364": " الت",
  "7365": "色",
  "7366": " का",
  "7367": " phot",
  "7368": " solutions",
  "7369": "행",
  "7370": " gra",
  "7371": "身",
  "7372": " independ",
  "7373": " tab",
  "7374": " room",
  "7375": " become",
  "7376": " forma",
  "7377": "-based",
  "7378": "形",
  "7379": "�",
  "7380": "ु�",
  "7381": "rij",
  "7382": " fail",
  "7383": "ốc",
  "7384": "only",
  "7385": " ('",
  "7386": " (\"",
  "7387": "ham",
  "7388": "(const",
  "7389": " tar",
  "7390": " returns",
  "7391": "aker",
  "7392": "73",
  "7393": "phone",
  "7394": " الأ",
  "7395": "服",
  "7396": "су",
  "7397": "urt",
  "7398": "ris",
  "7399": " Nam",
  "7400": "했다",
  "7401": "ာ",
  "7402": " Equ",
  "7403": "�",
  "7404": " West",
  "7405": " мы",
  "7406": "999",
  "7407": "gebra",
  "7408": "已",
  "7409": "Ab",
  "7410": "Connection",
  "7411": " рез",
  "7412": "рук",
  "7413": " bis",
  "7414": " details",
  "7415": "orizontal",
  "7416": "感",
  "7417": " Sal",
  "7418": "tx",
  "7419": "known",
  "7420": "ming",
  "7421": " York",
  "7422": "เป",
  "7423": "模",
  "7424": "%,",
  "7425": "aga",
  "7426": " За",
  "7427": "变",
  "7428": "sets",
  "7429": "olt",
  "7430": "ึ",
  "7431": "/S",
  "7432": "ව",
  "7433": "leep",
  "7434": " foot",
  "7435": " gia",
  "7436": " imm",
  "7437": " сооб",
  "7438": "им",
  "7439": "西",
  "7440": " False",
  "7441": " yet",
  "7442": " SE",
  "7443": "мот",
  "7444": "\tp",
  "7445": " additional",
  "7446": " pes",
  "7447": " arch",
  "7448": "цию",
  "7449": "ığ",
  "7450": "Items",
  "7451": " durch",
  "7452": " dise",
  "7453": "rica",
  "7454": "_add",
  "7455": " mole",
  "7456": "ül",
  "7457": "ún",
  "7458": "ير",
  "7459": "ím",
  "7460": "我们",
  "7461": " init",
  "7462": " aan",
  "7463": "fter",
  "7464": "apa",
  "7465": " pou",
  "7466": " active",
  "7467": "Window",
  "7468": " third",
  "7469": "ถ",
  "7470": "़",
  "7471": "ా",
  "7472": " ব",
  "7473": " esc",
  "7474": " interval",
  "7475": " language",
  "7476": "sum",
  "7477": "्ट",
  "7478": "ufact",
  "7479": "需要",
  "7480": "IE",
  "7481": "bf",
  "7482": "�",
  "7483": " fields",
  "7484": " тем",
  "7485": " clean",
  "7486": " growth",
  "7487": " khi",
  "7488": " име",
  "7489": " From",
  "7490": "arios",
  "7491": " nem",
  "7492": " house",
  "7493": "display",
  "7494": "Option",
  "7495": " favor",
  "7496": "шения",
  "7497": "bes",
  "7498": "司",
  "7499": "南",
  "7500": "ческих",
  "7501": "(name",
  "7502": "ाम",
  "7503": "ila",
  "7504": "CTION",
  "7505": "рии",
  "7506": "AV",
  "7507": "配",
  "7508": "Case",
  "7509": "()->",
  "7510": "esse",
  "7511": " тех",
  "7512": "дения",
  "7513": " conver",
  "7514": "�",
  "7515": "izes",
  "7516": "ść",
  "7517": " TH",
  "7518": " \"\"\"\n",
  "7519": " aff",
  "7520": "ugar",
  "7521": "ს",
  "7522": "hing",
  "7523": " spect",
  "7524": "ariable",
  "7525": "_x",
  "7526": "اف",
  "7527": "унк",
  "7528": "cing",
  "7529": " regist",
  "7530": "nbsp",
  "7531": " кра",
  "7532": " pet",
  "7533": "Use",
  "7534": "Po",
  "7535": "/in",
  "7536": "cm",
  "7537": "ρι",
  "7538": "立",
  "7539": " session",
  "7540": "framework",
  "7541": "riteria",
  "7542": " plant",
  "7543": "Min",
  "7544": "工作",
  "7545": "(T",
  "7546": " च",
  "7547": "ôi",
  "7548": "izz",
  "7549": " đó",
  "7550": " fall",
  "7551": " administ",
  "7552": "ién",
  "7553": " connection",
  "7554": "统",
  "7555": "【",
  "7556": " software",
  "7557": "aran",
  "7558": "Password",
  "7559": " popular",
  "7560": "합",
  "7561": "peed",
  "7562": " pul",
  "7563": "igt",
  "7564": "{\"",
  "7565": " пока",
  "7566": "レ",
  "7567": " desc",
  "7568": "�",
  "7569": "ęd",
  "7570": "ставля",
  "7571": "コ",
  "7572": "91",
  "7573": "-L",
  "7574": "icture",
  "7575": "】",
  "7576": "월",
  "7577": "uni",
  "7578": " TR",
  "7579": " Count",
  "7580": " প",
  "7581": " Number",
  "7582": " community",
  "7583": "echo",
  "7584": " einen",
  "7585": "=True",
  "7586": " God",
  "7587": "amin",
  "7588": "න",
  "7589": " teach",
  "7590": "ái",
  "7591": "_se",
  "7592": " coe",
  "7593": "先",
  "7594": " American",
  "7595": "most",
  "7596": "msg",
  "7597": "uga",
  "7598": " heat",
  "7599": "imet",
  "7600": " learning",
  "7601": "ega",
  "7602": "eni",
  "7603": "只",
  "7604": " опред",
  "7605": "doc",
  "7606": "||",
  "7607": "isch",
  "7608": "며",
  "7609": " ان",
  "7610": " uses",
  "7611": "úblic",
  "7612": "Mon",
  "7613": " Les",
  "7614": "ದ",
  "7615": "embly",
  "7616": "위",
  "7617": " Some",
  "7618": "FT",
  "7619": "OG",
  "7620": "INE",
  "7621": "�",
  "7622": " plac",
  "7623": "oom",
  "7624": "放",
  "7625": " algorithm",
  "7626": "ASS",
  "7627": "oon",
  "7628": "から",
  "7629": " feature",
  "7630": "改",
  "7631": "ük",
  "7632": "\n//",
  "7633": "ель",
  "7634": " уча",
  "7635": "进行",
  "7636": " Aust",
  "7637": "дан",
  "7638": " با",
  "7639": "gg",
  "7640": "itation",
  "7641": "-A",
  "7642": " screen",
  "7643": " Sk",
  "7644": " others",
  "7645": "ellen",
  "7646": " эк",
  "7647": "ях",
  "7648": "ằ",
  "7649": "ustomer",
  "7650": " комп",
  "7651": ".spring",
  "7652": " inn",
  "7653": "що",
  "7654": " Comput",
  "7655": "áng",
  "7656": " gro",
  "7657": "员",
  "7658": "rees",
  "7659": "fin",
  "7660": "業",
  "7661": "mu",
  "7662": " costs",
  "7663": "rapper",
  "7664": " lang",
  "7665": " volt",
  "7666": "тра",
  "7667": "top",
  "7668": "han",
  "7669": " info",
  "7670": " ground",
  "7671": "cribe",
  "7672": "emp",
  "7673": "算",
  "7674": "체",
  "7675": "ead",
  "7676": "러",
  "7677": "ರ",
  "7678": "plete",
  "7679": " coordin",
  "7680": "اش",
  "7681": "ు",
  "7682": " Comm",
  "7683": "SD",
  "7684": ".Size",
  "7685": " hy",
  "7686": " };\n\n",
  "7687": "ח",
  "7688": "입",
  "7689": "ता",
  "7690": "Unit",
  "7691": " vào",
  "7692": " AD",
  "7693": "usiness",
  "7694": "ק",
  "7695": " вер",
  "7696": "”\n",
  "7697": " Der",
  "7698": "term",
  "7699": "рок",
  "7700": "Types",
  "7701": "打",
  "7702": "け",
  "7703": "aje",
  "7704": " Here",
  "7705": "unn",
  "7706": "และ",
  "7707": " door",
  "7708": " purch",
  "7709": "pret",
  "7710": "OB",
  "7711": " recomm",
  "7712": " AB",
  "7713": "时间",
  "7714": " отно",
  "7715": " расп",
  "7716": "ught",
  "7717": " nel",
  "7718": "�",
  "7719": "áo",
  "7720": "Dev",
  "7721": " negative",
  "7722": " emb",
  "7723": " micro",
  "7724": " Sl",
  "7725": "PP",
  "7726": "Rem",
  "7727": "iform",
  "7728": " charge",
  "7729": "ظ",
  "7730": "ück",
  "7731": "see",
  "7732": " если",
  "7733": "Params",
  "7734": "CD",
  "7735": "º",
  "7736": "�",
  "7737": "qrt",
  "7738": "(true",
  "7739": "세",
  "7740": "empty",
  "7741": "参",
  "7742": " miles",
  "7743": " National",
  "7744": " thing",
  "7745": " regular",
  "7746": "amily",
  "7747": " sono",
  "7748": "ingen",
  "7749": " chall",
  "7750": " Group",
  "7751": "ত",
  "7752": " нас",
  "7753": "CK",
  "7754": " effects",
  "7755": " động",
  "7756": "\"));\n",
  "7757": "Co",
  "7758": " hac",
  "7759": "imit",
  "7760": " fore",
  "7761": "used",
  "7762": "find",
  "7763": " ს",
  "7764": "十",
  "7765": "商",
  "7766": " veh",
  "7767": " pick",
  "7768": " management",
  "7769": "ativa",
  "7770": " Rel",
  "7771": " dit",
  "7772": "rial",
  "7773": " По",
  "7774": "            \n",
  "7775": "yr",
  "7776": ".jpg",
  "7777": " reference",
  "7778": " że",
  "7779": "Ч",
  "7780": "运",
  "7781": " student",
  "7782": " Note",
  "7783": "sten",
  "7784": " более",
  "7785": "reet",
  "7786": " After",
  "7787": " Over",
  "7788": "ERE",
  "7789": "ối",
  "7790": " takes",
  "7791": "CR",
  "7792": "_info",
  "7793": " Av",
  "7794": "nej",
  "7795": " Method",
  "7796": "ady",
  "7797": "My",
  "7798": "功",
  "7799": "ым",
  "7800": "(id",
  "7801": "~~",
  "7802": "late",
  "7803": "除",
  "7804": "ью",
  "7805": " statement",
  "7806": " bed",
  "7807": "%%%%",
  "7808": "onstr",
  "7809": "관",
  "7810": " AM",
  "7811": "kom",
  "7812": "支",
  "7813": " quy",
  "7814": "irection",
  "7815": "یم",
  "7816": "ôn",
  "7817": " Result",
  "7818": "oir",
  "7819": " необходи",
  "7820": " absol",
  "7821": " kön",
  "7822": "XX",
  "7823": "цы",
  "7824": "(\"#",
  "7825": "Length",
  "7826": " Mc",
  "7827": "CS",
  "7828": " front",
  "7829": " ki",
  "7830": " frequency",
  "7831": " με",
  "7832": "etic",
  "7833": "ему",
  "7834": " ز",
  "7835": "ု",
  "7836": "idge",
  "7837": "ambda",
  "7838": ".*",
  "7839": " frame",
  "7840": " wait",
  "7841": "��",
  "7842": "PR",
  "7843": "gb",
  "7844": " digital",
  "7845": "itas",
  "7846": " пу",
  "7847": " чтобы",
  "7848": "ете",
  "7849": "ivos",
  "7850": "93",
  "7851": "160",
  "7852": "asc",
  "7853": ">();\n",
  "7854": " Will",
  "7855": "_value",
  "7856": " Function",
  "7857": "_str",
  "7858": "Level",
  "7859": "ły",
  "7860": " pan",
  "7861": "main",
  "7862": " �",
  "7863": "ATH",
  "7864": "ró",
  "7865": "规",
  "7866": " peng",
  "7867": "报",
  "7868": "POST",
  "7869": "경",
  "7870": " Si",
  "7871": "untime",
  "7872": "price",
  "7873": "angular",
  "7874": "ague",
  "7875": " Long",
  "7876": "��",
  "7877": "tur",
  "7878": "女",
  "7879": " cut",
  "7880": " ა�",
  "7881": "False",
  "7882": "تر",
  "7883": "gal",
  "7884": "cie",
  "7885": " EX",
  "7886": "Lo",
  "7887": "受",
  "7888": "Mat",
  "7889": "完",
  "7890": "berg",
  "7891": "िल",
  "7892": " demand",
  "7893": " Po",
  "7894": " Map",
  "7895": "政",
  "7896": "ieren",
  "7897": "94",
  "7898": " zw",
  "7899": " nur",
  "7900": " �",
  "7901": "111",
  "7902": "ી",
  "7903": " други",
  "7904": "яв",
  "7905": "己",
  "7906": " lic",
  "7907": "netic",
  "7908": "́",
  "7909": " running",
  "7910": "效",
  "7911": "oman",
  "7912": "�",
  "7913": ")=",
  "7914": " pub",
  "7915": " прави",
  "7916": "ography",
  "7917": "anagement",
  "7918": "aily",
  "7919": " issue",
  "7920": " API",
  "7921": " delle",
  "7922": " vez",
  "7923": "院",
  "7924": " icon",
  "7925": " puede",
  "7926": "调",
  "7927": " memory",
  "7928": "ũng",
  "7929": "�",
  "7930": "Thread",
  "7931": "่ง",
  "7932": "ds",
  "7933": " că",
  "7934": " Program",
  "7935": " tool",
  "7936": "though",
  "7937": "্র",
  "7938": " seu",
  "7939": "Location",
  "7940": "mb",
  "7941": " reaction",
  "7942": "src",
  "7943": "   ",
  "7944": "ас",
  "7945": " components",
  "7946": "ব",
  "7947": " instead",
  "7948": "集",
  "7949": " ص",
  "7950": " sẽ",
  "7951": " aber",
  "7952": " obtained",
  "7953": "术",
  "7954": " ​",
  "7955": "----------------------------------------------------------------",
  "7956": " thought",
  "7957": "ლ",
  "7958": " black",
  "7959": "по",
  "7960": "aki",
  "7961": " Color",
  "7962": " training",
  "7963": " capital",
  "7964": "两",
  "7965": "ט",
  "7966": "oung",
  "7967": "utor",
  "7968": "осудар",
  "7969": " 일",
  "7970": " tree",
  "7971": " states",
  "7972": " hor",
  "7973": "こと",
  "7974": "ующи",
  "7975": "rar",
  "7976": " Bel",
  "7977": " Her",
  "7978": "лі",
  "7979": "lichen",
  "7980": "Dr",
  "7981": "ox",
  "7982": "ourse",
  "7983": " cause",
  "7984": "ecute",
  "7985": " Mal",
  "7986": "例",
  "7987": "                                           ",
  "7988": "]]>",
  "7989": " bad",
  "7990": " activity",
  "7991": "comes",
  "7992": "ım",
  "7993": "#if",
  "7994": "++;\n",
  "7995": " định",
  "7996": "700",
  "7997": ".label",
  "7998": " це",
  "7999": " please",
  "8000": "vention",
  "8001": " alla",
  "8002": "ональ",
  "8003": "ল",
  "8004": "itos",
  "8005": "äl",
  "8006": "#endif",
  "8007": "esto",
  "8008": " South",
  "8009": "orig",
  "8010": " Phys",
  "8011": "conds",
  "8012": "adow",
  "8013": "ajo",
  "8014": " Har",
  "8015": "ży",
  "8016": "Email",
  "8017": "空",
  "8018": " module",
  "8019": "grad",
  "8020": " stra",
  "8021": " più",
  "8022": "ervices",
  "8023": "_E",
  "8024": "pir",
  "8025": "_com",
  "8026": "だ",
  "8027": "项",
  "8028": " phase",
  "8029": "}_{",
  "8030": " relative",
  "8031": "grid",
  "8032": "fil",
  "8033": " wir",
  "8034": " steps",
  "8035": "如果",
  "8036": ".write",
  "8037": "ских",
  "8038": "pected",
  "8039": " THE",
  "8040": "Function",
  "8041": ".To",
  "8042": " Value",
  "8043": " wel",
  "8044": "edi",
  "8045": "CA",
  "8046": "rect",
  "8047": " regard",
  "8048": "Current",
  "8049": " cook",
  "8050": "Widget",
  "8051": " High",
  "8052": "��",
  "8053": " norm",
  "8054": "ilor",
  "8055": " Event",
  "8056": " seen",
  "8057": " від",
  "8058": "sen",
  "8059": " \"\\",
  "8060": "�c",
  "8061": "ago",
  "8062": "�",
  "8063": "وم",
  "8064": "anya",
  "8065": "ailed",
  "8066": ".next",
  "8067": " wur",
  "8068": "iệc",
  "8069": "жду",
  "8070": ".V",
  "8071": "ening",
  "8072": "ному",
  "8073": " وال",
  "8074": " Hand",
  "8075": " fig",
  "8076": " Information",
  "8077": "動",
  "8078": " हो",
  "8079": "*/\n",
  "8080": " says",
  "8081": "Work",
  "8082": " See",
  "8083": " Att",
  "8084": " cel",
  "8085": " resource",
  "8086": " actually",
  "8087": "anning",
  "8088": "arrow",
  "8089": " �",
  "8090": "uta",
  "8091": "력",
  "8092": "emos",
  "8093": "ág",
  "8094": " cup",
  "8095": "되",
  "8096": "思",
  "8097": " virtual",
  "8098": "-size",
  "8099": " 상",
  "8100": "iste",
  "8101": "Del",
  "8102": "rics",
  "8103": "rowser",
  "8104": " solve",
  "8105": "hn",
  "8106": "פ",
  "8107": " includes",
  "8108": "てい",
  "8109": " trên",
  "8110": "מ�",
  "8111": " tel",
  "8112": " prefer",
  "8113": " score",
  "8114": " liter",
  "8115": " seven",
  "8116": " bank",
  "8117": " ê",
  "8118": "های",
  "8119": "зации",
  "8120": "tocol",
  "8121": "Phone",
  "8122": "oli",
  "8123": " live",
  "8124": "rz",
  "8125": "tag",
  "8126": "atu",
  "8127": "ാ�",
  "8128": "请",
  "8129": " AL",
  "8130": "PA",
  "8131": " ```\n",
  "8132": " hiện",
  "8133": "管理",
  "8134": " tại",
  "8135": " taken",
  "8136": "First",
  "8137": "virtual",
  "8138": "้น",
  "8139": "ન",
  "8140": ".cont",
  "8141": " necessary",
  "8142": "GET",
  "8143": " ans",
  "8144": " website",
  "8145": "源",
  "8146": "ของ",
  "8147": "�",
  "8148": " compared",
  "8149": "avigation",
  "8150": "’est",
  "8151": " Dav",
  "8152": "(value",
  "8153": "_url",
  "8154": " ON",
  "8155": " Science",
  "8156": "(w",
  "8157": " Sa",
  "8158": " tidak",
  "8159": " velocity",
  "8160": "Param",
  "8161": "各",
  "8162": "телей",
  "8163": "UD",
  "8164": ".</",
  "8165": "annotation",
  "8166": " tele",
  "8167": " einem",
  "8168": "SET",
  "8169": " $$",
  "8170": "card",
  "8171": "iano",
  "8172": "inger",
  "8173": "개",
  "8174": " though",
  "8175": "消",
  "8176": " ball",
  "8177": " entry",
  "8178": "�",
  "8179": " financial",
  "8180": "öz",
  "8181": " PM",
  "8182": " гла",
  "8183": "Comp",
  "8184": "ット",
  "8185": " platform",
  "8186": "rak",
  "8187": "aka",
  "8188": "ِ",
  "8189": "bot",
  "8190": "iểm",
  "8191": "お",
  "8192": "Api",
  "8193": " Now",
  "8194": "め",
  "8195": " season",
  "8196": "조",
  "8197": " '/",
  "8198": " Image",
  "8199": " �",
  "8200": "enty",
  "8201": " early",
  "8202": ".status",
  "8203": "�",
  "8204": " Ein",
  "8205": "пре",
  "8206": "フ",
  "8207": " electron",
  "8208": " han",
  "8209": " ti",
  "8210": " difficult",
  "8211": "rot",
  "8212": "уч",
  "8213": "ahan",
  "8214": " inside",
  "8215": " seb",
  "8216": "یر",
  "8217": " communic",
  "8218": " considered",
  "8219": " Sur",
  "8220": "loc",
  "8221": " issues",
  "8222": "anges",
  "8223": "amera",
  "8224": ".springframework",
  "8225": " comes",
  "8226": " Ben",
  "8227": "olid",
  "8228": "列",
  "8229": " Mac",
  "8230": "야",
  "8231": "yz",
  "8232": "中国",
  "8233": " OR",
  "8234": " Del",
  "8235": "ACK",
  "8236": " cop",
  "8237": "бор",
  "8238": "joy",
  "8239": "kat",
  "8240": " women",
  "8241": " пот",
  "8242": "转",
  "8243": "iny",
  "8244": " UI",
  "8245": "оля",
  "8246": ".txt",
  "8247": "loor",
  "8248": " levels",
  "8249": "usr",
  "8250": "节",
  "8251": " film",
  "8252": "ober",
  "8253": "ário",
  "8254": " после",
  "8255": "anta",
  "8256": " math",
  "8257": " 부",
  "8258": " �",
  "8259": "(\"/",
  "8260": " >>",
  "8261": "EXT",
  "8262": "nik",
  "8263": "整",
  "8264": "лось",
  "8265": "aries",
  "8266": " treatment",
  "8267": " Park",
  "8268": "EST",
  "8269": " stream",
  "8270": "ulations",
  "8271": "number",
  "8272": "amiento",
  "8273": " fem",
  "8274": "备",
  "8275": "\tt",
  "8276": " rule",
  "8277": "foot",
  "8278": "ORD",
  "8279": " written",
  "8280": " First",
  "8281": "ের",
  "8282": " register",
  "8283": "ผ",
  "8284": "óg",
  "8285": "orte",
  "8286": "nost",
  "8287": ",'",
  "8288": "선",
  "8289": "На",
  "8290": "Pol",
  "8291": "km",
  "8292": " fit",
  "8293": "Json",
  "8294": " tan",
  "8295": " →",
  "8296": " allows",
  "8297": " bag",
  "8298": " government",
  "8299": "('/",
  "8300": " �",
  "8301": " opport",
  "8302": "issions",
  "8303": " perfect",
  "8304": "endar",
  "8305": "urrency",
  "8306": "hold",
  "8307": " idea",
  "8308": " Just",
  "8309": "�",
  "8310": "125",
  "8311": "ئ",
  "8312": " след",
  "8313": "emo",
  "8314": " Mag",
  "8315": "そ",
  "8316": " поп",
  "8317": "stream",
  "8318": " nó",
  "8319": "зан",
  "8320": "BU",
  "8321": " Ent",
  "8322": "证",
  "8323": " ```",
  "8324": "imi",
  "8325": " viol",
  "8326": " năm",
  "8327": "TP",
  "8328": " Mill",
  "8329": "Store",
  "8330": " ו",
  "8331": " tit",
  "8332": "ีย",
  "8333": "四",
  "8334": "ремен",
  "8335": " прог",
  "8336": " pode",
  "8337": " meas",
  "8338": "dz",
  "8339": " να",
  "8340": " parts",
  "8341": " Integer",
  "8342": "�",
  "8343": " разви",
  "8344": "价",
  "8345": " */\n\n",
  "8346": " equivalent",
  "8347": " ##",
  "8348": "ือ",
  "8349": " Direct",
  "8350": " params",
  "8351": "재",
  "8352": " ",
  "8353": "zione",
  "8354": "wner",
  "8355": "etime",
  "8356": " lie",
  "8357": " нача",
  "8358": "отов",
  "8359": " likely",
  "8360": "_count",
  "8361": "las",
  "8362": " Start",
  "8363": " zum",
  "8364": "aur",
  "8365": " Ke",
  "8366": ".json",
  "8367": "aling",
  "8368": " �",
  "8369": "íst",
  "8370": "-x",
  "8371": "140",
  "8372": "ospital",
  "8373": "始",
  "8374": "個",
  "8375": "cat",
  "8376": " dụng",
  "8377": "atives",
  "8378": "ульта",
  "8379": "OV",
  "8380": " conv",
  "8381": "니",
  "8382": "Parameter",
  "8383": " applied",
  "8384": " charg",
  "8385": "êu",
  "8386": "iber",
  "8387": " reach",
  "8388": "ặc",
  "8389": " 있다",
  "8390": " *)",
  "8391": "级",
  "8392": " images",
  "8393": "ăng",
  "8394": " fol",
  "8395": "aven",
  "8396": " aj",
  "8397": "plot",
  "8398": "êm",
  "8399": "ด้",
  "8400": "iser",
  "8401": " WH",
  "8402": "Init",
  "8403": "atz",
  "8404": "球",
  "8405": "rupt",
  "8406": "-k",
  "8407": " General",
  "8408": "('#",
  "8409": ".\\",
  "8410": " empres",
  "8411": "ය",
  "8412": "Game",
  "8413": "_get",
  "8414": " white",
  "8415": " edit",
  "8416": "-md",
  "8417": "CI",
  "8418": "Tag",
  "8419": " пров",
  "8420": " ai",
  "8421": "ته",
  "8422": "率",
  "8423": "ξ",
  "8424": " members",
  "8425": "lish",
  "8426": "lie",
  "8427": " assess",
  "8428": " story",
  "8429": " 의",
  "8430": "password",
  "8431": " internal",
  "8432": "process",
  "8433": " contra",
  "8434": " �",
  "8435": "=\"#",
  "8436": "間",
  "8437": "]\n\n",
  "8438": "++)\n",
  "8439": " Square",
  "8440": "boot",
  "8441": ")*",
  "8442": "det",
  "8443": "ома",
  "8444": "eda",
  "8445": "ạo",
  "8446": "itting",
  "8447": " 개",
  "8448": "овать",
  "8449": "ực",
  "8450": " �",
  "8451": "自己",
  "8452": " làm",
  "8453": " iter",
  "8454": "_user",
  "8455": "pol",
  "8456": " operation",
  "8457": " caso",
  "8458": " getting",
  "8459": "личи",
  "8460": " download",
  "8461": " resources",
  "8462": " nine",
  "8463": "ống",
  "8464": " building",
  "8465": " greater",
  "8466": "ển",
  "8467": " �",
  "8468": "-content",
  "8469": "äng",
  "8470": "ogen",
  "8471": "asic",
  "8472": ".Name",
  "8473": "ORM",
  "8474": " contract",
  "8475": "first",
  "8476": " Fre",
  "8477": "ာ�",
  "8478": "�",
  "8479": " sự",
  "8480": "ATA",
  "8481": " foi",
  "8482": " соз",
  "8483": " fill",
  "8484": " Mus",
  "8485": "aire",
  "8486": " Tra",
  "8487": " Home",
  "8488": "tegr",
  "8489": " тру",
  "8490": "です",
  "8491": ".E",
  "8492": "每",
  "8493": " ар",
  "8494": ".css",
  "8495": "Art",
  "8496": " �",
  "8497": " simpl",
  "8498": "фек",
  "8499": " menu",
  "8500": "Account",
  "8501": "根",
  "8502": "_con",
  "8503": "PU",
  "8504": "็น",
  "8505": "ederal",
  "8506": "Process",
  "8507": " έ",
  "8508": "сси",
  "8509": "プ",
  "8510": "yy",
  "8511": "otion",
  "8512": "Sl",
  "8513": "aste",
  "8514": " layer",
  "8515": "�়",
  "8516": " đầu",
  "8517": " cả",
  "8518": "ган",
  "8519": "必",
  "8520": "dis",
  "8521": "�",
  "8522": " हैं",
  "8523": " entire",
  "8524": "ческой",
  "8525": "Đ",
  "8526": "buffer",
  "8527": " rect",
  "8528": "-group",
  "8529": " chem",
  "8530": "ң",
  "8531": "ций",
  "8532": " Using",
  "8533": "service",
  "8534": " prev",
  "8535": " cart",
  "8536": "-sm",
  "8537": "iety",
  "8538": " prze",
  "8539": " cells",
  "8540": " вс",
  "8541": "ấy",
  "8542": " I'm",
  "8543": " (-",
  "8544": "ន",
  "8545": "».",
  "8546": " uit",
  "8547": "дера",
  "8548": " specified",
  "8549": " нуж",
  "8550": " того",
  "8551": " Error",
  "8552": "130",
  "8553": "Entry",
  "8554": "emory",
  "8555": " ти",
  "8556": "_index",
  "8557": "uw",
  "8558": "lan",
  "8559": " 모",
  "8560": " talk",
  "8561": "ответ",
  "8562": " Tem",
  "8563": "cut",
  "8564": "':\n",
  "8565": " disp",
  "8566": " trav",
  "8567": "条",
  "8568": " shape",
  "8569": "台",
  "8570": "ели",
  "8571": " Gi",
  "8572": ".Data",
  "8573": "��",
  "8574": "вши",
  "8575": "气",
  "8576": ".end",
  "8577": "析",
  "8578": "-G",
  "8579": "änd",
  "8580": "home",
  "8581": " эти",
  "8582": "ár",
  "8583": " wr",
  "8584": "anal",
  "8585": " Off",
  "8586": "ket",
  "8587": " niet",
  "8588": ".col",
  "8589": ".read",
  "8590": "aha",
  "8591": "tot",
  "8592": "omic",
  "8593": "Э",
  "8594": ".sub",
  "8595": "‘",
  "8596": " applications",
  "8597": " configuration",
  "8598": " req",
  "8599": "��",
  "8600": " grup",
  "8601": "(!",
  "8602": " areas",
  "8603": "float",
  "8604": "��",
  "8605": " são",
  "8606": " kun",
  "8607": "alpha",
  "8608": "ctx",
  "8609": " doing",
  "8610": " Rep",
  "8611": "assets",
  "8612": "hape",
  "8613": "ников",
  "8614": "plan",
  "8615": "Next",
  "8616": " Instit",
  "8617": "造",
  "8618": " России",
  "8619": "ượng",
  "8620": "교",
  "8621": "つ",
  "8622": " firm",
  "8623": "length",
  "8624": "icha",
  "8625": " θ",
  "8626": "ా�",
  "8627": "------------",
  "8628": "yes",
  "8629": " decimal",
  "8630": " cũng",
  "8631": "device",
  "8632": " -\n",
  "8633": "车",
  "8634": " Code",
  "8635": "arter",
  "8636": " sequence",
  "8637": "гов",
  "8638": "/String",
  "8639": "Script",
  "8640": "anies",
  "8641": " ul",
  "8642": " radi",
  "8643": "Red",
  "8644": "ipe",
  "8645": " 유",
  "8646": "增",
  "8647": "Arg",
  "8648": "Find",
  "8649": " fixed",
  "8650": "стро",
  "8651": " prem",
  "8652": " Div",
  "8653": " akt",
  "8654": " обра",
  "8655": "egen",
  "8656": " ?\n",
  "8657": "າ",
  "8658": "供",
  "8659": "aca",
  "8660": " follows",
  "8661": "шение",
  "8662": "яви",
  "8663": "万",
  "8664": "nu",
  "8665": "        ",
  "8666": "νο",
  "8667": " đồ",
  "8668": "pet",
  "8669": "ර",
  "8670": "auf",
  "8671": " Read",
  "8672": "’ve",
  "8673": " PRO",
  "8674": "ategories",
  "8675": "Adapter",
  "8676": "”.",
  "8677": " 나",
  "8678": " 관",
  "8679": "offset",
  "8680": "Sim",
  "8681": " спе",
  "8682": " establ",
  "8683": "jen",
  "8684": " sein",
  "8685": "acity",
  "8686": "清",
  "8687": "ступ",
  "8688": " satisf",
  "8689": "-control",
  "8690": " ха",
  "8691": " wave",
  "8692": " sul",
  "8693": " aspect",
  "8694": "/android",
  "8695": "inner",
  "8696": "(user",
  "8697": "ना",
  "8698": "传",
  "8699": "Die",
  "8700": "iche",
  "8701": "ları",
  "8702": "象",
  "8703": "MP",
  "8704": " bond",
  "8705": "��",
  "8706": "Access",
  "8707": " ded",
  "8708": "ishing",
  "8709": "afe",
  "8710": "?:",
  "8711": " cer",
  "8712": "aja",
  "8713": "-center",
  "8714": "API",
  "8715": "                    ",
  "8716": " buffer",
  "8717": "ble",
  "8718": "кры",
  "8719": " �",
  "8720": " Lcom",
  "8721": " Our",
  "8722": " ensure",
  "8723": "ẫ",
  "8724": " Microsoft",
  "8725": "ECT",
  "8726": "рия",
  "8727": " thành",
  "8728": " empty",
  "8729": "eller",
  "8730": " minimum",
  "8731": "质",
  "8732": "Left",
  "8733": "ấp",
  "8734": " hier",
  "8735": "eros",
  "8736": "Each",
  "8737": "グ",
  "8738": "inin",
  "8739": "Args",
  "8740": "Il",
  "8741": " todo",
  "8742": " started",
  "8743": "\n\n\n\n",
  "8744": " oc",
  "8745": "temp",
  "8746": " terr",
  "8747": "sta",
  "8748": " ways",
  "8749": "imm",
  "8750": ".min",
  "8751": " mol",
  "8752": " voc",
  "8753": "лови",
  "8754": "under",
  "8755": "ក",
  "8756": ".google",
  "8757": "公司",
  "8758": "ো",
  "8759": " ку",
  "8760": "lock",
  "8761": "omial",
  "8762": "ده",
  "8763": "anno",
  "8764": "Obj",
  "8765": " چ",
  "8766": "%)",
  "8767": "-H",
  "8768": "案",
  "8769": "alla",
  "8770": "्व",
  "8771": " m�",
  "8772": "ativo",
  "8773": "Session",
  "8774": " included",
  "8775": "ғ",
  "8776": " practice",
  "8777": " capt",
  "8778": " Pal",
  "8779": " Game",
  "8780": "ymbol",
  "8781": " IP",
  "8782": "account",
  "8783": "esh",
  "8784": "FAULT",
  "8785": " difer",
  "8786": " kur",
  "8787": " anim",
  "8788": "role",
  "8789": " tend",
  "8790": "urance",
  "8791": "Book",
  "8792": "bug",
  "8793": "没有",
  "8794": ".state",
  "8795": " Problem",
  "8796": "âm",
  "8797": "жен",
  "8798": ")}",
  "8799": " мн",
  "8800": " however",
  "8801": " việc",
  "8802": "(()",
  "8803": "_log",
  "8804": " ago",
  "8805": "ribution",
  "8806": " bij",
  "8807": "ager",
  "8808": " Dist",
  "8809": " resid",
  "8810": " template",
  "8811": " script",
  "8812": " стан",
  "8813": "确",
  "8814": "icio",
  "8815": ".view",
  "8816": "register",
  "8817": " equip",
  "8818": " choose",
  "8819": "лет",
  "8820": "اء",
  "8821": "미",
  "8822": " msg",
  "8823": "Description",
  "8824": " mid",
  "8825": "ald",
  "8826": "uary",
  "8827": " fraction",
  "8828": "urop",
  "8829": "iri",
  "8830": " Figure",
  "8831": "VID",
  "8832": "ър",
  "8833": "%.",
  "8834": "/M",
  "8835": "世",
  "8836": "ạt",
  "8837": ".parse",
  "8838": " Los",
  "8839": " School",
  "8840": " Line",
  "8841": " );\n\n",
  "8842": "ð",
  "8843": "생",
  "8844": "оне",
  "8845": " yield",
  "8846": " instit",
  "8847": " Dan",
  "8848": " appropri",
  "8849": "iej",
  "8850": "Last",
  "8851": "ào",
  "8852": " subs",
  "8853": "iệu",
  "8854": " integer",
  "8855": "ု�",
  "8856": "imp",
  "8857": " возмож",
  "8858": "研",
  "8859": "lice",
  "8860": " answers",
  "8861": "它",
  "8862": "ĩ",
  "8863": " peut",
  "8864": "Ind",
  "8865": " nature",
  "8866": "ческ",
  "8867": "liche",
  "8868": "מ",
  "8869": "श",
  "8870": "ads",
  "8871": " Elect",
  "8872": " recon",
  "8873": "*\n",
  "8874": "’ll",
  "8875": " machine",
  "8876": " desde",
  "8877": "τικ",
  "8878": "ayers",
  "8879": " Mart",
  "8880": " bạn",
  "8881": "إ",
  "8882": "рован",
  "8883": " Research",
  "8884": " hyp",
  "8885": " cada",
  "8886": "ນ",
  "8887": "ास",
  "8888": "εί",
  "8889": "vector",
  "8890": " feed",
  "8891": "ා",
  "8892": "entry",
  "8893": "project",
  "8894": " comme",
  "8895": "-up",
  "8896": " Inc",
  "8897": "非",
  "8898": "osta",
  "8899": " JSON",
  "8900": "щего",
  "8901": " në",
  "8902": "Body",
  "8903": "users",
  "8904": " received",
  "8905": " sit",
  "8906": "kr",
  "8907": "plicit",
  "8908": " �",
  "8909": "(N",
  "8910": " ط",
  "8911": "ervlet",
  "8912": " histor",
  "8913": "复",
  "8914": "Total",
  "8915": " quan",
  "8916": "학",
  "8917": ".query",
  "8918": "Project",
  "8919": "rown",
  "8920": "식",
  "8921": "urity",
  "8922": "awa",
  "8923": "ele",
  "8924": " এ",
  "8925": " contain",
  "8926": " labor",
  "8927": "щей",
  "8928": "ivil",
  "8929": " nom",
  "8930": "dule",
  "8931": " ś",
  "8932": " AR",
  "8933": "тя",
  "8934": " jo",
  "8935": " 비",
  "8936": "िस",
  "8937": "jango",
  "8938": "Ljava",
  "8939": " déc",
  "8940": " EN",
  "8941": " bottom",
  "8942": "FL",
  "8943": " domain",
  "8944": " bị",
  "8945": " NS",
  "8946": " pero",
  "8947": "plet",
  "8948": "embre",
  "8949": "_i",
  "8950": "arc",
  "8951": " би",
  "8952": "修",
  "8953": " Aut",
  "8954": ")\n\n\n",
  "8955": " verb",
  "8956": " ny",
  "8957": "ảo",
  "8958": "agem",
  "8959": " Page",
  "8960": "venue",
  "8961": "'ll",
  "8962": " ever",
  "8963": "(h",
  "8964": "йте",
  "8965": "Reader",
  "8966": "тели",
  "8967": "$$",
  "8968": " adalah",
  "8969": "پ",
  "8970": "�",
  "8971": "rum",
  "8972": " collection",
  "8973": "enza",
  "8974": "Details",
  "8975": "ço",
  "8976": "素",
  "8977": " knowledge",
  "8978": "단",
  "8979": "íc",
  "8980": " cru",
  "8981": "utt",
  "8982": " Service",
  "8983": "-item",
  "8984": " Lu",
  "8985": " grand",
  "8986": "분",
  "8987": " forward",
  "8988": "while",
  "8989": " sex",
  "8990": " послед",
  "8991": " Center",
  "8992": "sin",
  "8993": " Cap",
  "8994": " directly",
  "8995": " bin",
  "8996": "pack",
  "8997": "别",
  "8998": " Product",
  "8999": "اق",
  "9000": "оды",
  "9001": "πό",
  "9002": "Dis",
  "9003": " Exception",
  "9004": " том",
  "9005": " stress",
  "9006": "ality",
  "9007": " grid",
  "9008": " aqu",
  "9009": " noch",
  "9010": " Main",
  "9011": "organ",
  "9012": "grams",
  "9013": " relev",
  "9014": "ahl",
  "9015": "ента",
  "9016": " proces",
  "9017": " header",
  "9018": "ाय",
  "9019": "至",
  "9020": " nous",
  "9021": " fue",
  "9022": "Storage",
  "9023": "ensional",
  "9024": " Ha",
  "9025": "무",
  "9026": " они",
  "9027": "_sh",
  "9028": "िन",
  "9029": "йн",
  "9030": ":(",
  "9031": " choice",
  "9032": "GE",
  "9033": "`,",
  "9034": "影",
  "9035": "�",
  "9036": " income",
  "9037": "え",
  "9038": " Health",
  "9039": " aplic",
  "9040": "рави",
  "9041": "ptember",
  "9042": "fg",
  "9043": " му",
  "9044": "áv",
  "9045": "�",
  "9046": "_SIZE",
  "9047": "ög",
  "9048": "aby",
  "9049": "ancel",
  "9050": " policy",
  "9051": " ek",
  "9052": "leh",
  "9053": "[:",
  "9054": "É",
  "9055": " demonstr",
  "9056": " kor",
  "9057": "MENT",
  "9058": "限",
  "9059": " lại",
  "9060": " fn",
  "9061": "ожи",
  "9062": "URE",
  "9063": "лась",
  "9064": "\t ",
  "9065": " Max",
  "9066": " jour",
  "9067": "ilit",
  "9068": "keit",
  "9069": "úng",
  "9070": "DS",
  "9071": "=\"/",
  "9072": " ker",
  "9073": "步",
  "9074": "Met",
  "9075": " />",
  "9076": " walk",
  "9077": " errors",
  "9078": "RI",
  "9079": " industry",
  "9080": "_by",
  "9081": " basic",
  "9082": " της",
  "9083": " Top",
  "9084": "iza",
  "9085": " tables",
  "9086": "raction",
  "9087": " было",
  "9088": " North",
  "9089": "ование",
  "9090": " rather",
  "9091": " nhiều",
  "9092": "该",
  "9093": "ITY",
  "9094": " 조",
  "9095": "ম",
  "9096": " taking",
  "9097": "oring",
  "9098": "uma",
  "9099": "dk",
  "9100": " être",
  "9101": "(P",
  "9102": " Ener",
  "9103": "%a",
  "9104": "oni",
  "9105": "108",
  "9106": "认",
  "9107": " gib",
  "9108": " ru",
  "9109": " rates",
  "9110": "後",
  "9111": " nue",
  "9112": "ulate",
  "9113": "ías",
  "9114": "Sup",
  "9115": "plies",
  "9116": "专",
  "9117": " Aus",
  "9118": "OUT",
  "9119": "Settings",
  "9120": " todos",
  "9121": " simply",
  "9122": "dom",
  "9123": "(err",
  "9124": " Ка",
  "9125": "易",
  "9126": " decision",
  "9127": "头",
  "9128": ";;",
  "9129": "phere",
  "9130": "역",
  "9131": " primary",
  "9132": " გ",
  "9133": "105",
  "9134": "                  ",
  "9135": " calculated",
  "9136": "Selector",
  "9137": "iation",
  "9138": " progress",
  "9139": "avas",
  "9140": " Bet",
  "9141": "ición",
  "9142": " pom",
  "9143": " inches",
  "9144": " tests",
  "9145": "SELECT",
  "9146": "едера",
  "9147": "िया",
  "9148": "-T",
  "9149": "ર",
  "9150": " solo",
  "9151": " Su",
  "9152": "-R",
  "9153": " перв",
  "9154": "pli",
  "9155": " вла",
  "9156": " एक",
  "9157": " cin",
  "9158": " channel",
  "9159": ";\n\n/",
  "9160": " ''",
  "9161": " вос",
  "9162": "민",
  "9163": " gives",
  "9164": "Interface",
  "9165": "ikt",
  "9166": "Cre",
  "9167": "900",
  "9168": "ắc",
  "9169": "可能",
  "9170": " ku",
  "9171": " except",
  "9172": "城",
  "9173": " April",
  "9174": "ческого",
  "9175": "hood",
  "9176": " board",
  "9177": " China",
  "9178": " computer",
  "9179": "яд",
  "9180": "router",
  "9181": "ême",
  "9182": " generate",
  "9183": "试",
  "9184": " music",
  "9185": " проб",
  "9186": "_ch",
  "9187": "oro",
  "9188": " sales",
  "9189": " Oper",
  "9190": " objects",
  "9191": " Kar",
  "9192": " principal",
  "9193": "ُ",
  "9194": "され",
  "9195": "DR",
  "9196": "ăn",
  "9197": "rate",
  "9198": " studies",
  "9199": "Application",
  "9200": "ulated",
  "9201": " fire",
  "9202": "�p",
  "9203": ".res",
  "9204": "(get",
  "9205": " ful",
  "9206": "eles",
  "9207": " Public",
  "9208": " Stand",
  "9209": "(*",
  "9210": " ++",
  "9211": "Route",
  "9212": "login",
  "9213": "כ",
  "9214": "eh",
  "9215": " radius",
  "9216": " durante",
  "9217": "ifest",
  "9218": "ilib",
  "9219": "今",
  "9220": " чем",
  "9221": "buf",
  "9222": "Sign",
  "9223": "為",
  "9224": "装",
  "9225": "TA",
  "9226": "rik",
  "9227": "eno",
  "9228": "cial",
  "9229": " Prof",
  "9230": " prevent",
  "9231": "elles",
  "9232": "_test",
  "9233": ")-",
  "9234": " apr",
  "9235": "ountry",
  "9236": " COM",
  "9237": " multiply",
  "9238": "льно",
  "9239": "byte",
  "9240": " sets",
  "9241": "posite",
  "9242": "строй",
  "9243": ".map",
  "9244": "oggle",
  "9245": " technology",
  "9246": " central",
  "9247": " generated",
  "9248": "\"),\n",
  "9249": "vez",
  "9250": " chỉ",
  "9251": " является",
  "9252": "close",
  "9253": " Sam",
  "9254": "esp",
  "9255": "ိ",
  "9256": "ә",
  "9257": "된",
  "9258": " государ",
  "9259": "记",
  "9260": "门",
  "9261": " على",
  "9262": "bre",
  "9263": " области",
  "9264": " improve",
  "9265": "eds",
  "9266": "ernel",
  "9267": "ằng",
  "9268": " electric",
  "9269": "QU",
  "9270": "ない",
  "9271": "ど",
  "9272": "osa",
  "9273": "ให",
  "9274": "�",
  "9275": " lui",
  "9276": " че",
  "9277": " described",
  "9278": "×",
  "9279": "强",
  "9280": " matter",
  "9281": " AN",
  "9282": " cette",
  "9283": " security",
  "9284": "éri",
  "9285": "inu",
  "9286": "');\n\n",
  "9287": "   \n",
  "9288": "Delete",
  "9289": "placement",
  "9290": ".assert",
  "9291": "_y",
  "9292": "));\n\n",
  "9293": "пер",
  "9294": "则",
  "9295": "write",
  "9296": "??",
  "9297": "inux",
  "9298": "ền",
  "9299": "-color",
  "9300": " operator",
  "9301": " effective",
  "9302": "astr",
  "9303": "gent",
  "9304": " doll",
  "9305": "стве",
  "9306": " способ",
  "9307": " plane",
  "9308": " β",
  "9309": " argument",
  "9310": "ческие",
  "9311": ".path",
  "9312": "ジノ",
  "9313": "*/",
  "9314": "布",
  "9315": "eln",
  "9316": "itud",
  "9317": " 。",
  "9318": " corresponding",
  "9319": "�ი",
  "9320": "그",
  "9321": "uman",
  "9322": "금",
  "9323": " container",
  "9324": " Cr",
  "9325": "asp",
  "9326": " saf",
  "9327": "Vector",
  "9328": " physical",
  "9329": " loop",
  "9330": " UN",
  "9331": " night",
  "9332": " przy",
  "9333": " band",
  "9334": "\\end",
  "9335": "码",
  "9336": "τι",
  "9337": "bin",
  "9338": "界",
  "9339": " settings",
  "9340": "给",
  "9341": " Lo",
  "9342": "chi",
  "9343": "van",
  "9344": " FROM",
  "9345": " tent",
  "9346": "description",
  "9347": "cy",
  "9348": " Russ",
  "9349": "omas",
  "9350": " ее",
  "9351": "oco",
  "9352": "icker",
  "9353": " stay",
  "9354": "Target",
  "9355": " между",
  "9356": " mir",
  "9357": "))\n\n",
  "9358": "property",
  "9359": " nj",
  "9360": "状",
  "9361": "Que",
  "9362": " basis",
  "9363": " candid",
  "9364": " Ba",
  "9365": " faz",
  "9366": "zą",
  "9367": "mar",
  "9368": " için",
  "9369": " Point",
  "9370": " Company",
  "9371": " kont",
  "9372": "refix",
  "9373": " Dev",
  "9374": "strap",
  "9375": "'\n\n",
  "9376": "\td",
  "9377": "[j",
  "9378": " June",
  "9379": "ವ",
  "9380": "кие",
  "9381": " thread",
  "9382": "enses",
  "9383": " también",
  "9384": " закон",
  "9385": "’un",
  "9386": "再",
  "9387": "�",
  "9388": "нг",
  "9389": "erman",
  "9390": "ій",
  "9391": "�",
  "9392": " ej",
  "9393": "long",
  "9394": " train",
  "9395": " лет",
  "9396": "Collection",
  "9397": "кти",
  "9398": " esp",
  "9399": "_CON",
  "9400": " egy",
  "9401": "Eng",
  "9402": "imest",
  "9403": "asil",
  "9404": " exerc",
  "9405": "rier",
  "9406": " Ho",
  "9407": "rome",
  "9408": "导",
  "9409": "lay",
  "9410": " Person",
  "9411": " เ�",
  "9412": " avoid",
  "9413": "言",
  "9414": "ો",
  "9415": " March",
  "9416": " Link",
  "9417": "反",
  "9418": "연",
  "9419": "려",
  "9420": "ณ",
  "9421": "ixel",
  "9422": "构",
  "9423": "module",
  "9424": " proper",
  "9425": "(B",
  "9426": "hell",
  "9427": "presents",
  "9428": " parse",
  "9429": " param",
  "9430": " Department",
  "9431": "Dep",
  "9432": " Den",
  "9433": "hu",
  "9434": "acht",
  "9435": " Mor",
  "9436": " akan",
  "9437": "():\n",
  "9438": "�",
  "9439": "ép",
  "9440": " []\n",
  "9441": " usually",
  "9442": "ánh",
  "9443": "abilities",
  "9444": "Ne",
  "9445": " menj",
  "9446": "duction",
  "9447": " games",
  "9448": ")\\",
  "9449": " ע",
  "9450": " Az",
  "9451": "’m",
  "9452": " مع",
  "9453": "iana",
  "9454": "ouch",
  "9455": "GL",
  "9456": "Right",
  "9457": " �",
  "9458": "_LO",
  "9459": "ně",
  "9460": " Hel",
  "9461": " fix",
  "9462": " currently",
  "9463": "cale",
  "9464": " rules",
  "9465": "Helper",
  "9466": " concern",
  "9467": "าน",
  "9468": " acid",
  "9469": "raphics",
  "9470": " đề",
  "9471": "iciency",
  "9472": "ifying",
  "9473": " manufact",
  "9474": " TV",
  "9475": "او",
  "9476": " degree",
  "9477": " increased",
  "9478": " الع",
  "9479": "费",
  "9480": "校",
  "9481": "plements",
  "9482": "нали",
  "9483": "нее",
  "9484": "ита",
  "9485": "ัง",
  "9486": "source",
  "9487": " есть",
  "9488": "TS",
  "9489": "eri",
  "9490": " Engine",
  "9491": " gest",
  "9492": "Op",
  "9493": "/C",
  "9494": " доп",
  "9495": " magn",
  "9496": "aged",
  "9497": " Об",
  "9498": " neces",
  "9499": " Fig",
  "9500": " Power",
  "9501": "ස",
  "9502": " electr",
  "9503": "нан",
  "9504": "ientes",
  "9505": "akes",
  "9506": "hol",
  "9507": "кла",
  "9508": " behavior",
  "9509": "ayment",
  "9510": " уже",
  "9511": "�",
  "9512": " ign",
  "9513": " drug",
  "9514": "nia",
  "9515": "ened",
  "9516": " bring",
  "9517": " выс",
  "9518": " useful",
  "9519": "ں",
  "9520": " <?",
  "9521": " motor",
  "9522": " �",
  "9523": "总",
  "9524": "-sh",
  "9525": " pap",
  "9526": " appear",
  "9527": "Price",
  "9528": "ander",
  "9529": "ictionary",
  "9530": "coming",
  "9531": "属",
  "9532": "チ",
  "9533": "Dir",
  "9534": "ס",
  "9535": "施",
  "9536": "老",
  "9537": " detect",
  "9538": "ေ",
  "9539": "arth",
  "9540": "stant",
  "9541": "isions",
  "9542": "당",
  "9543": "ನ",
  "9544": " bon",
  "9545": "�",
  "9546": "'est",
  "9547": "}\n\n//",
  "9548": "ventory",
  "9549": " balance",
  "9550": "upload",
  "9551": "rá",
  "9552": " chi",
  "9553": " κα",
  "9554": " Gal",
  "9555": "्ष",
  "9556": "信息",
  "9557": "ộc",
  "9558": " Ter",
  "9559": " phải",
  "9560": "води",
  "9561": "öl",
  "9562": " nú",
  "9563": " operations",
  "9564": "Port",
  "9565": " ngày",
  "9566": "igration",
  "9567": "\t\t\t\n",
  "9568": "ERROR",
  "9569": "Я",
  "9570": "Rect",
  "9571": "�",
  "9572": "мет",
  "9573": " Real",
  "9574": "Effect",
  "9575": " dapat",
  "9576": " соответ",
  "9577": "ellow",
  "9578": " unter",
  "9579": "ez",
  "9580": " Ext",
  "9581": " [\"",
  "9582": " Market",
  "9583": " sound",
  "9584": "None",
  "9585": "食",
  "9586": "Return",
  "9587": " nhân",
  "9588": "-th",
  "9589": "لي",
  "9590": "_NAME",
  "9591": " deriv",
  "9592": "ği",
  "9593": "nis",
  "9594": "itz",
  "9595": "Login",
  "9596": " Book",
  "9597": "ári",
  "9598": "Tree",
  "9599": " кар",
  "9600": " uk",
  "9601": " hợp",
  "9602": " 연",
  "9603": " 오",
  "9604": "pling",
  "9605": "语",
  "9606": " 소",
  "9607": "tu",
  "9608": " shall",
  "9609": "ْ",
  "9610": "пла",
  "9611": ".In",
  "9612": " vec",
  "9613": " Don",
  "9614": " Franc",
  "9615": " Show",
  "9616": " names",
  "9617": " ###",
  "9618": "育",
  "9619": "录",
  "9620": "los",
  "9621": ".Set",
  "9622": " atau",
  "9623": " Bank",
  "9624": "вает",
  "9625": "istas",
  "9626": "nap",
  "9627": " upon",
  "9628": "ం",
  "9629": "共",
  "9630": " fat",
  "9631": " дет",
  "9632": " cele",
  "9633": " pré",
  "9634": " tempor",
  "9635": " Non",
  "9636": "ού",
  "9637": " package",
  "9638": "_string",
  "9639": "ето",
  "9640": "速",
  "9641": "�",
  "9642": "acters",
  "9643": " бол",
  "9644": "Ш",
  "9645": "enti",
  "9646": " seconds",
  "9647": " customer",
  "9648": " 해",
  "9649": "ícul",
  "9650": "ним",
  "9651": " diagn",
  "9652": "_state",
  "9653": "\tbreak",
  "9654": " был",
  "9655": " году",
  "9656": "region",
  "9657": "มี",
  "9658": "amples",
  "9659": " Journal",
  "9660": "                             ",
  "9661": "ws",
  "9662": " took",
  "9663": "ّ",
  "9664": " رو",
  "9665": " nhất",
  "9666": " itself",
  "9667": "рен",
  "9668": " gal",
  "9669": "(res",
  "9670": " ،",
  "9671": "роп",
  "9672": " í",
  "9673": " �",
  "9674": " şi",
  "9675": " recogn",
  "9676": "itect",
  "9677": " hon",
  "9678": "òng",
  "9679": " URL",
  "9680": "投",
  "9681": " category",
  "9682": "imb",
  "9683": "Press",
  "9684": " dil",
  "9685": "imeter",
  "9686": " Pet",
  "9687": " этого",
  "9688": "dat",
  "9689": " ty",
  "9690": " могут",
  "9691": " medic",
  "9692": " developed",
  "9693": "Es",
  "9694": " attack",
  "9695": "pped",
  "9696": "________________",
  "9697": "Selected",
  "9698": "azon",
  "9699": "东",
  "9700": "lat",
  "9701": "crete",
  "9702": "Files",
  "9703": ".error",
  "9704": " War",
  "9705": "alled",
  "9706": "ამ",
  "9707": " học",
  "9708": " haben",
  "9709": "风",
  "9710": "Category",
  "9711": " merc",
  "9712": "영",
  "9713": "Values",
  "9714": "FO",
  "9715": " setting",
  "9716": "idente",
  "9717": "片",
  "9718": "义",
  "9719": "_code",
  "9720": "テ",
  "9721": " исто",
  "9722": "riends",
  "9723": " monitor",
  "9724": "uyên",
  "9725": "ержа",
  "9726": " ду",
  "9727": "hematics",
  "9728": "ız",
  "9729": ".current",
  "9730": "}\n\n\n",
  "9731": " !==",
  "9732": "이다",
  "9733": "LS",
  "9734": "段",
  "9735": " Update",
  "9736": "enced",
  "9737": " enjoy",
  "9738": " mga",
  "9739": " friend",
  "9740": "भ",
  "9741": "_date",
  "9742": "Cons",
  "9743": " offers",
  "9744": "্য",
  "9745": "бу",
  "9746": "。\n\n",
  "9747": "光",
  "9748": "(D",
  "9749": " visual",
  "9750": " longer",
  "9751": "=\\",
  "9752": "เป็น",
  "9753": " Bro",
  "9754": "ники",
  "9755": " valor",
  "9756": ".aw",
  "9757": "acebook",
  "9758": "olve",
  "9759": " examples",
  "9760": " поли",
  "9761": "ño",
  "9762": " strength",
  "9763": "Active",
  "9764": "防",
  "9765": "чита",
  "9766": " mehr",
  "9767": " тер",
  "9768": " uz",
  "9769": "lang",
  "9770": "Changed",
  "9771": "�",
  "9772": "真",
  "9773": " Bi",
  "9774": "مان",
  "9775": "ري",
  "9776": "strument",
  "9777": " objet",
  "9778": "企",
  "9779": " grav",
  "9780": "tempt",
  "9781": " defin",
  "9782": " ton",
  "9783": " located",
  "9784": " Por",
  "9785": " storage",
  "9786": "_text",
  "9787": " Dem",
  "9788": "enge",
  "9789": " 구",
  "9790": " offset",
  "9791": " sistema",
  "9792": "esi",
  "9793": "fü",
  "9794": "ims",
  "9795": "ם",
  "9796": " país",
  "9797": " hit",
  "9798": " mà",
  "9799": " exception",
  "9800": " É",
  "9801": "准",
  "9802": " Это",
  "9803": "article",
  "9804": "Font",
  "9805": " existing",
  "9806": "linear",
  "9807": " oun",
  "9808": "iders",
  "9809": "五",
  "9810": "怎么",
  "9811": "\"),",
  "9812": "ós",
  "9813": " Я",
  "9814": "'.",
  "9815": "112",
  "9816": "access",
  "9817": " came",
  "9818": " матери",
  "9819": "や",
  "9820": " increasing",
  "9821": " Ц",
  "9822": ".a",
  "9823": "거",
  "9824": " hydro",
  "9825": "ィ",
  "9826": "cert",
  "9827": "운",
  "9828": " segu",
  "9829": "unda",
  "9830": "command",
  "9831": "atively",
  "9832": " liqu",
  "9833": " chính",
  "9834": " apro",
  "9835": " respectively",
  "9836": "ерез",
  "9837": " anche",
  "9838": " Jun",
  "9839": "<td",
  "9840": " sing",
  "9841": " η",
  "9842": " heart",
  "9843": " �",
  "9844": " été",
  "9845": " CD",
  "9846": "ees",
  "9847": "Local",
  "9848": " measurement",
  "9849": "лия",
  "9850": " Land",
  "9851": "ooth",
  "9852": " kw",
  "9853": "BO",
  "9854": " deal",
  "9855": "yk",
  "9856": "Show",
  "9857": "vg",
  "9858": " mac",
  "9859": "103",
  "9860": ".-",
  "9861": " none",
  "9862": "까",
  "9863": "nego",
  "9864": " define",
  "9865": "중",
  "9866": "asse",
  "9867": "unities",
  "9868": " इस",
  "9869": "유",
  "9870": " Base",
  "9871": "cket",
  "9872": "exp",
  "9873": "治",
  "9874": "文件",
  "9875": "uar",
  "9876": "CON",
  "9877": " pros",
  "9878": " pp",
  "9879": "Props",
  "9880": " İ",
  "9881": " incor",
  "9882": "Close",
  "9883": "開",
  "9884": "ን",
  "9885": " materials",
  "9886": "cape",
  "9887": " song",
  "9888": " modern",
  "9889": " cubic",
  "9890": " pra",
  "9891": " bez",
  "9892": "REF",
  "9893": " Rout",
  "9894": " ple",
  "9895": "ucture",
  "9896": "SA",
  "9897": " release",
  "9898": " Cam",
  "9899": "emy",
  "9900": "序",
  "9901": " mg",
  "9902": "Configuration",
  "9903": "ству",
  "9904": "低",
  "9905": " Phil",
  "9906": "олов",
  "9907": "__(",
  "9908": " Project",
  "9909": "ках",
  "9910": "war",
  "9911": " adjust",
  "9912": "common",
  "9913": "ski",
  "9914": "ाव",
  "9915": " cual",
  "9916": "\tSystem",
  "9917": "zia",
  "9918": "ington",
  "9919": "atura",
  "9920": "transform",
  "9921": " tot",
  "9922": " html",
  "9923": " λ",
  "9924": " especially",
  "9925": "address",
  "9926": " ”",
  "9927": " чис",
  "9928": "âu",
  "9929": "JSON",
  "9930": " starting",
  "9931": "(result",
  "9932": " sust",
  "9933": "论",
  "9934": " grams",
  "9935": " сто",
  "9936": "未",
  "9937": "ACE",
  "9938": " reduce",
  "9939": "=$",
  "9940": ".z",
  "9941": " proposed",
  "9942": "props",
  "9943": " sun",
  "9944": "ες",
  "9945": " cit",
  "9946": " Das",
  "9947": " Day",
  "9948": " сл",
  "9949": "Can",
  "9950": " realiz",
  "9951": " naj",
  "9952": " collect",
  "9953": "ól",
  "9954": " ने",
  "9955": "лич",
  "9956": "har",
  "9957": "KEY",
  "9958": "/n",
  "9959": "오",
  "9960": "告",
  "9961": "\":\n",
  "9962": " itu",
  "9963": " squ",
  "9964": "år",
  "9965": " rele",
  "9966": " nước",
  "9967": ".Group",
  "9968": "ảng",
  "9969": " информа",
  "9970": " thực",
  "9971": "_TYPE",
  "9972": "istor",
  "9973": " ..",
  "9974": "创",
  "9975": "คว",
  "9976": " hogy",
  "9977": " acceler",
  "9978": " }\n\n\n",
  "9979": " drop",
  "9980": " который",
  "9981": " PR",
  "9982": " sé",
  "9983": "BA",
  "9984": "Record",
  "9985": " symbol",
  "9986": "orge",
  "9987": "ações",
  "9988": " результа",
  "9989": "argo",
  "9990": " Final",
  "9991": " jud",
  "9992": "types",
  "9993": " Gen",
  "9994": "EG",
  "9995": "测",
  "9996": "quis",
  "9997": "ед",
  "9998": " core",
  "9999": "ará",
  "10000": "ịch",
  "10001": " съ",
  "10002": " mys",
  "10003": "fix",
  "10004": " everything",
  "10005": "ίν",
  "10006": " gel",
  "10007": "(A",
  "10008": "тому",
  "10009": "Template",
  "10010": "神",
  "10011": "delete",
  "10012": " designed",
  "10013": " represents",
  "10014": "(:",
  "10015": "вания",
  "10016": " trying",
  "10017": " oz",
  "10018": "CP",
  "10019": "命",
  "10020": ".remove",
  "10021": " produce",
  "10022": " exchange",
  "10023": "石",
  "10024": "르",
  "10025": "úc",
  "10026": "Run",
  "10027": "Step",
  "10028": "gun",
  "10029": ".key",
  "10030": "ками",
  "10031": " axis",
  "10032": "añ",
  "10033": " adapt",
  "10034": "Collections",
  "10035": "104",
  "10036": " работа",
  "10037": "360",
  "10038": "”.\n",
  "10039": "った",
  "10040": " watch",
  "10041": " automat",
  "10042": " Tw",
  "10043": " прав",
  "10044": "Hash",
  "10045": "ring",
  "10046": " Vis",
  "10047": " tout",
  "10048": "otes",
  "10049": " origin",
  "10050": " ты",
  "10051": " alert",
  "10052": "Go",
  "10053": " लिए",
  "10054": " xu",
  "10055": "чень",
  "10056": "burg",
  "10057": "\".\n",
  "10058": ".annotation",
  "10059": "окумен",
  "10060": " 발",
  "10061": "amma",
  "10062": "დ",
  "10063": "нен",
  "10064": "Write",
  "10065": " thứ",
  "10066": "问题",
  "10067": "nek",
  "10068": " Input",
  "10069": " 여",
  "10070": "-year",
  "10071": "호",
  "10072": " occur",
  "10073": "(string",
  "10074": " 선",
  "10075": "近",
  "10076": "��",
  "10077": "究",
  "10078": "Users",
  "10079": "connect",
  "10080": " â",
  "10081": "ಲ",
  "10082": " proport",
  "10083": "Mark",
  "10084": " sed",
  "10085": "\\t",
  "10086": "¿",
  "10087": " 마",
  "10088": "’é",
  "10089": " Black",
  "10090": "推",
  "10091": "花",
  "10092": "heit",
  "10093": " 고",
  "10094": "iền",
  "10095": "Х",
  "10096": "ued",
  "10097": "_.",
  "10098": "排",
  "10099": " essential",
  "10100": " phone",
  "10101": " vent",
  "10102": " ft",
  "10103": ".app",
  "10104": " Укра",
  "10105": " cơ",
  "10106": " ult",
  "10107": " компа",
  "10108": " reported",
  "10109": "ले",
  "10110": " особ",
  "10111": "щения",
  "10112": "_dir",
  "10113": " تو",
  "10114": "ат",
  "10115": "ών",
  "10116": " appropriate",
  "10117": "üt",
  "10118": "mut",
  "10119": " route",
  "10120": "('.",
  "10121": "льного",
  "10122": " ett",
  "10123": "uses",
  "10124": " 있는",
  "10125": "프",
  "10126": "师",
  "10127": " receive",
  "10128": "jection",
  "10129": " news",
  "10130": "ancy",
  "10131": " Mo",
  "10132": "елен",
  "10133": "�",
  "10134": "Enabled",
  "10135": "arga",
  "10136": " Brit",
  "10137": ")$",
  "10138": " Vector",
  "10139": " prod",
  "10140": " Tur",
  "10141": " companies",
  "10142": "}`",
  "10143": " places",
  "10144": " August",
  "10145": "ercial",
  "10146": " Which",
  "10147": "Range",
  "10148": "�",
  "10149": "ème",
  "10150": "_{\\",
  "10151": " asked",
  "10152": " Sign",
  "10153": "prise",
  "10154": " fait",
  "10155": " ud",
  "10156": " national",
  "10157": "RES",
  "10158": " FC",
  "10159": " tick",
  "10160": "음",
  "10161": "(in",
  "10162": "obil",
  "10163": "щен",
  "10164": "\tString",
  "10165": " pelo",
  "10166": " byte",
  "10167": " January",
  "10168": "Home",
  "10169": " Ital",
  "10170": " nombre",
  "10171": "ebug",
  "10172": "按",
  "10173": "ục",
  "10174": " Kom",
  "10175": " nghiệ",
  "10176": "态",
  "10177": "alan",
  "10178": " την",
  "10179": " ile",
  "10180": " Please",
  "10181": " pens",
  "10182": " img",
  "10183": "axis",
  "10184": ".new",
  "10185": "189",
  "10186": "��",
  "10187": "ermine",
  "10188": " Lear",
  "10189": " вз",
  "10190": " können",
  "10191": " outside",
  "10192": " classes",
  "10193": " cum",
  "10194": " fu",
  "10195": " zn",
  "10196": " effort",
  "10197": " Hot",
  "10198": "дела",
  "10199": "데",
  "10200": ".ch",
  "10201": "dt",
  "10202": " 방",
  "10203": " sense",
  "10204": "Serial",
  "10205": "ingu",
  "10206": "роб",
  "10207": "_of",
  "10208": "нь",
  "10209": "atie",
  "10210": " Nh",
  "10211": "输",
  "10212": "icz",
  "10213": " сер",
  "10214": "越",
  "10215": " nav",
  "10216": " requires",
  "10217": "Modal",
  "10218": ")+",
  "10219": " env",
  "10220": " Sen",
  "10221": " insert",
  "10222": "arse",
  "10223": "});\n\n",
  "10224": "ತ",
  "10225": "_back",
  "10226": "Found",
  "10227": "타",
  "10228": " motion",
  "10229": "gression",
  "10230": "ię",
  "10231": " situation",
  "10232": "SQL",
  "10233": " soll",
  "10234": "白",
  "10235": "Msg",
  "10236": " almost",
  "10237": " sab",
  "10238": "elijk",
  "10239": " Year",
  "10240": " Java",
  "10241": " mü",
  "10242": " lock",
  "10243": " действи",
  "10244": " you're",
  "10245": "Visible",
  "10246": "Equals",
  "10247": "adio",
  "10248": "失",
  "10249": " №",
  "10250": " nhà",
  "10251": "اری",
  "10252": ")).",
  "10253": "FC",
  "10254": " III",
  "10255": " Two",
  "10256": "就是",
  "10257": "avascript",
  "10258": "林",
  "10259": " sou",
  "10260": "ech",
  "10261": "ත",
  "10262": "HP",
  "10263": "make",
  "10264": "ANT",
  "10265": "�",
  "10266": "ностью",
  "10267": "essa",
  "10268": " py",
  "10269": ".string",
  "10270": " jog",
  "10271": " �",
  "10272": "=(",
  "10273": " therm",
  "10274": "把",
  "10275": " Since",
  "10276": " understanding",
  "10277": " someone",
  "10278": "�",
  "10279": " Config",
  "10280": " commit",
  "10281": "�",
  "10282": "iments",
  "10283": "Gl",
  "10284": "şt",
  "10285": "white",
  "10286": "ặt",
  "10287": "tty",
  "10288": "words",
  "10289": "isis",
  "10290": " fundament",
  "10291": "较",
  "10292": "osen",
  "10293": "стов",
  "10294": " Mad",
  "10295": "ते",
  "10296": "application",
  "10297": "вор",
  "10298": " sud",
  "10299": " Analysis",
  "10300": " ¦",
  "10301": "اح",
  "10302": " observed",
  "10303": " nou",
  "10304": "通过",
  "10305": ".md",
  "10306": " County",
  "10307": "Build",
  "10308": "DD",
  "10309": " NO",
  "10310": " depart",
  "10311": " $_",
  "10312": "�",
  "10313": " Option",
  "10314": " camb",
  "10315": ".k",
  "10316": " anything",
  "10317": "-N",
  "10318": " Ant",
  "10319": "Device",
  "10320": " ability",
  "10321": " Da",
  "10322": " datas",
  "10323": "reshold",
  "10324": "primary",
  "10325": " moving",
  "10326": " cou",
  "10327": " counter",
  "10328": " reading",
  "10329": "xture",
  "10330": " помо",
  "10331": " Mer",
  "10332": " directory",
  "10333": ".close",
  "10334": " raz",
  "10335": "بر",
  "10336": "료",
  "10337": "(@",
  "10338": " cat",
  "10339": "否",
  "10340": "cons",
  "10341": "реди",
  "10342": " sy",
  "10343": "]}",
  "10344": "bum",
  "10345": " ры",
  "10346": "────",
  "10347": " Task",
  "10348": " spr",
  "10349": "-of",
  "10350": "unicip",
  "10351": " votre",
  "10352": "uli",
  "10353": " [[",
  "10354": "Long",
  "10355": "ซ",
  "10356": "cp",
  "10357": "сно",
  "10358": " bah",
  "10359": " đồng",
  "10360": " edge",
  "10361": " DO",
  "10362": " ^",
  "10363": "ור",
  "10364": "iek",
  "10365": "ได้",
  "10366": "_k",
  "10367": "ipping",
  "10368": "acing",
  "10369": " probably",
  "10370": "total",
  "10371": "огов",
  "10372": "udent",
  "10373": " Austral",
  "10374": "-result",
  "10375": " nothing",
  "10376": " geb",
  "10377": " ад",
  "10378": "lij",
  "10379": " Calculate",
  "10380": " tiế",
  "10381": "Enter",
  "10382": " свои",
  "10383": "utter",
  "10384": "HTML",
  "10385": "首",
  "10386": " �",
  "10387": "firm",
  "10388": " writing",
  "10389": "ák",
  "10390": "aro",
  "10391": " 최",
  "10392": " updated",
  "10393": " determin",
  "10394": " green",
  "10395": "'];\n",
  "10396": " larger",
  "10397": "agai",
  "10398": " tip",
  "10399": " earn",
  "10400": " необходимо",
  "10401": "Tab",
  "10402": " Other",
  "10403": " went",
  "10404": " English",
  "10405": "нова",
  "10406": "contr",
  "10407": " ख",
  "10408": " theo",
  "10409": " \"<",
  "10410": "store",
  "10411": "ứng",
  "10412": " stack",
  "10413": " }}",
  "10414": "读",
  "10415": "-K",
  "10416": "방",
  "10417": "mail",
  "10418": "azioni",
  "10419": "Spec",
  "10420": " independent",
  "10421": " pages",
  "10422": " curve",
  "10423": "нию",
  "10424": "称",
  "10425": "ाह",
  "10426": " worth",
  "10427": " 국",
  "10428": "faces",
  "10429": "odule",
  "10430": "neh",
  "10431": " дела",
  "10432": "ferences",
  "10433": " 신",
  "10434": "WS",
  "10435": "uler",
  "10436": "�",
  "10437": "blog",
  "10438": " уг",
  "10439": " eg",
  "10440": "òn",
  "10441": " doesn't",
  "10442": " tour",
  "10443": " anc",
  "10444": " او",
  "10445": "одук",
  "10446": "初",
  "10447": "Core",
  "10448": "plex",
  "10449": " printf",
  "10450": "Async",
  "10451": " san",
  "10452": "Non",
  "10453": " partial",
  "10454": " ga",
  "10455": "otor",
  "10456": " utiliz",
  "10457": "-time",
  "10458": " Free",
  "10459": "中的",
  "10460": " presented",
  "10461": "양",
  "10462": " HT",
  "10463": " {{",
  "10464": " pem",
  "10465": " Write",
  "10466": "aires",
  "10467": "ए",
  "10468": " determined",
  "10469": "hor",
  "10470": "chron",
  "10471": "zenia",
  "10472": "ỏ",
  "10473": "]:",
  "10474": " ри",
  "10475": "дж",
  "10476": " execut",
  "10477": "agg",
  "10478": " whose",
  "10479": " measured",
  "10480": "acji",
  "10481": "ු",
  "10482": " управ",
  "10483": " años",
  "10484": "�",
  "10485": "Main",
  "10486": "ही",
  "10487": "ivery",
  "10488": " फ",
  "10489": " rev",
  "10490": " mort",
  "10491": " гра",
  "10492": "meta",
  "10493": " arm",
  "10494": " 내",
  "10495": " dark",
  "10496": " attempt",
  "10497": " pok",
  "10498": " gli",
  "10499": " руб",
  "10500": "ම",
  "10501": "....\n",
  "10502": " 서",
  "10503": "(`",
  "10504": "Impl",
  "10505": " Answer",
  "10506": " undefined",
  "10507": " constructor",
  "10508": " Mil",
  "10509": " 스",
  "10510": " услови",
  "10511": "อย",
  "10512": "After",
  "10513": "irectory",
  "10514": " players",
  "10515": " tipo",
  "10516": "Med",
  "10517": "Display",
  "10518": " September",
  "10519": " News",
  "10520": " ped",
  "10521": "ähr",
  "10522": " 및",
  "10523": "周",
  "10524": " plot",
  "10525": " wat",
  "10526": " wor",
  "10527": "pass",
  "10528": "تی",
  "10529": "iso",
  "10530": "ODO",
  "10531": "ynamics",
  "10532": " реги",
  "10533": "attle",
  "10534": " жиз",
  "10535": "Convert",
  "10536": " interpret",
  "10537": " \"./",
  "10538": " entity",
  "10539": " dok",
  "10540": " activities",
  "10541": " Cross",
  "10542": "ющих",
  "10543": ";)",
  "10544": "ятель",
  "10545": " uno",
  "10546": " tin",
  "10547": "atos",
  "10548": " quite",
  "10549": " Prom",
  "10550": " exists",
  "10551": "call",
  "10552": "VER",
  "10553": "'))",
  "10554": " statist",
  "10555": "zu",
  "10556": "quer",
  "10557": "oca",
  "10558": " Review",
  "10559": "�",
  "10560": "ests",
  "10561": " Law",
  "10562": " доб",
  "10563": " ven",
  "10564": "Rel",
  "10565": "\")\n\n",
  "10566": "ג",
  "10567": " Ш",
  "10568": " Convert",
  "10569": " सं",
  "10570": "(str",
  "10571": "clos",
  "10572": "vement",
  "10573": "Car",
  "10574": " Control",
  "10575": "Detail",
  "10576": "188",
  "10577": "茶",
  "10578": "ircle",
  "10579": "erve",
  "10580": " Under",
  "10581": "170",
  "10582": " roll",
  "10583": "lad",
  "10584": "ahren",
  "10585": " allowed",
  "10586": "äh",
  "10587": " °",
  "10588": " أن",
  "10589": " Design",
  "10590": "ONE",
  "10591": " треб",
  "10592": "Hz",
  "10593": " death",
  "10594": " �",
  "10595": " \"\n",
  "10596": "통",
  "10597": "uario",
  "10598": "况",
  "10599": " �",
  "10600": " públic",
  "10601": "oration",
  "10602": "seg",
  "10603": " kho",
  "10604": "——",
  "10605": "ện",
  "10606": "*)",
  "10607": " dự",
  "10608": "RED",
  "10609": " últ",
  "10610": " prepar",
  "10611": "цен",
  "10612": " changed",
  "10613": "ución",
  "10614": " SP",
  "10615": " enh",
  "10616": " obtain",
  "10617": " legal",
  "10618": " connected",
  "10619": " tools",
  "10620": "нд",
  "10621": "hs",
  "10622": "äm",
  "10623": " созда",
  "10624": " vit",
  "10625": "رب",
  "10626": " 않",
  "10627": ".body",
  "10628": " degrees",
  "10629": " когда",
  "10630": " evidence",
  "10631": ".show",
  "10632": "raints",
  "10633": " CL",
  "10634": "病",
  "10635": " прод",
  "10636": "(k",
  "10637": "yan",
  "10638": "차",
  "10639": " 미",
  "10640": "%b",
  "10641": "ius",
  "10642": "ű",
  "10643": "SL",
  "10644": "gers",
  "10645": "oose",
  "10646": "iling",
  "10647": "mal",
  "10648": " sor",
  "10649": " получи",
  "10650": " �",
  "10651": " placeholder",
  "10652": ".o",
  "10653": "才",
  "10654": " ?>",
  "10655": " проблем",
  "10656": "ód",
  "10657": ".X",
  "10658": "BC",
  "10659": "ม่",
  "10660": "�",
  "10661": "avy",
  "10662": " blood",
  "10663": " vac",
  "10664": "console",
  "10665": " transition",
  "10666": "ema",
  "10667": " hash",
  "10668": "rim",
  "10669": " bytes",
  "10670": " stage",
  "10671": "ispatch",
  "10672": "με",
  "10673": "래",
  "10674": "<br",
  "10675": "Now",
  "10676": " tell",
  "10677": " flag",
  "10678": "_array",
  "10679": " Kon",
  "10680": "αν",
  "10681": " пар",
  "10682": "Ge",
  "10683": "AST",
  "10684": " ہ",
  "10685": " tempo",
  "10686": ".core",
  "10687": " 도",
  "10688": " credit",
  "10689": "マ",
  "10690": "<p",
  "10691": "Note",
  "10692": "Cache",
  "10693": " cs",
  "10694": "ские",
  "10695": " gö",
  "10696": " đố",
  "10697": "安全",
  "10698": " cov",
  "10699": " Chapter",
  "10700": " cash",
  "10701": " neigh",
  "10702": " '../",
  "10703": "іль",
  "10704": "ाद",
  "10705": "ẫn",
  "10706": "見",
  "10707": " nuc",
  "10708": "unto",
  "10709": " роз",
  "10710": " Ill",
  "10711": "case",
  "10712": " Network",
  "10713": " �",
  "10714": "ском",
  "10715": "ấn",
  "10716": " Develop",
  "10717": " آن",
  "10718": "{tab",
  "10719": "ما",
  "10720": " built",
  "10721": " push",
  "10722": "'un",
  "10723": "огла",
  "10724": "115",
  "10725": " exit",
  "10726": "EP",
  "10727": "xis",
  "10728": " rend",
  "10729": " Expl",
  "10730": "مل",
  "10731": "method",
  "10732": "會",
  "10733": "_start",
  "10734": "ប",
  "10735": " sử",
  "10736": " international",
  "10737": "iale",
  "10738": " oil",
  "10739": " equals",
  "10740": " beaut",
  "10741": "elves",
  "10742": "IGN",
  "10743": " Не",
  "10744": "isto",
  "10745": " вне",
  "10746": ":'",
  "10747": " Sil",
  "10748": " fon",
  "10749": "验",
  "10750": "weet",
  "10751": " wenn",
  "10752": " hàng",
  "10753": " medical",
  "10754": " easily",
  "10755": " leur",
  "10756": "\t\t\t\t\t\t\t\t\t",
  "10757": " triangle",
  "10758": " mention",
  "10759": " importante",
  "10760": " wurde",
  "10761": " қ",
  "10762": "長",
  "10763": "itate",
  "10764": ".type",
  "10765": "erial",
  "10766": "entication",
  "10767": " 어",
  "10768": " Best",
  "10769": "Enc",
  "10770": " §",
  "10771": " nut",
  "10772": " gir",
  "10773": "run",
  "10774": "_num",
  "10775": "itet",
  "10776": "-virtual",
  "10777": "포",
  "10778": "вар",
  "10779": " India",
  "10780": " selection",
  "10781": " pert",
  "10782": " Response",
  "10783": " Also",
  "10784": " led",
  "10785": " join",
  "10786": " wrong",
  "10787": "kit",
  "10788": "äll",
  "10789": "{\n\n",
  "10790": "_a",
  "10791": "λλ",
  "10792": " star",
  "10793": "ności",
  "10794": "rium",
  "10795": "css",
  "10796": "bet",
  "10797": "법",
  "10798": " While",
  "10799": "Est",
  "10800": " emerg",
  "10801": " hơn",
  "10802": " Returns",
  "10803": "ifications",
  "10804": "Render",
  "10805": "太",
  "10806": " December",
  "10807": " прове",
  "10808": "내",
  "10809": "tait",
  "10810": " meaning",
  "10811": " ?>\n",
  "10812": "ının",
  "10813": "eks",
  "10814": " calculator",
  "10815": "При",
  "10816": "{tabular",
  "10817": "вается",
  "10818": "кономи",
  "10819": "控",
  "10820": " profile",
  "10821": " setup",
  "10822": "(key",
  "10823": "alloc",
  "10824": " воп",
  "10825": "OUR",
  "10826": " Os",
  "10827": "element",
  "10828": "osis",
  "10829": " сем",
  "10830": "ếu",
  "10831": " Global",
  "10832": "owy",
  "10833": " расс",
  "10834": " implements",
  "10835": "erta",
  "10836": "rays",
  "10837": "uran",
  "10838": "kel",
  "10839": "ắt",
  "10840": "106",
  "10841": "eneric",
  "10842": " ци",
  "10843": "plus",
  "10844": " young",
  "10845": " هم",
  "10846": "esc",
  "10847": "分析",
  "10848": " goal",
  "10849": " thời",
  "10850": "即",
  "10851": " circuit",
  "10852": "ecn",
  "10853": " definition",
  "10854": " })",
  "10855": " leading",
  "10856": "кі",
  "10857": "물",
  "10858": "Draw",
  "10859": " critical",
  "10860": "客",
  "10861": "terior",
  "10862": "ким",
  "10863": " элек",
  "10864": ".info",
  "10865": " convers",
  "10866": " bur",
  "10867": "olution",
  "10868": " Um",
  "10869": "Controls",
  "10870": ".update",
  "10871": " Apple",
  "10872": " customers",
  "10873": " кол",
  "10874": " כ",
  "10875": " July",
  "10876": " overall",
  "10877": " dog",
  "10878": " elif",
  "10879": "aza",
  "10880": "Screen",
  "10881": "री",
  "10882": "}{\\",
  "10883": " percentage",
  "10884": " vý",
  "10885": "写",
  "10886": " ю",
  "10887": " pela",
  "10888": "érie",
  "10889": " implementation",
  "10890": "サ",
  "10891": " Vir",
  "10892": "')\n\n",
  "10893": " patient",
  "10894": " sea",
  "10895": " Sun",
  "10896": " peu",
  "10897": "kar",
  "10898": "ав",
  "10899": " driver",
  "10900": " bra",
  "10901": "천",
  "10902": " scen",
  "10903": ".Collections",
  "10904": "iera",
  "10905": "局",
  "10906": " describe",
  "10907": "igu",
  "10908": " blog",
  "10909": " education",
  "10910": " vida",
  "10911": " David",
  "10912": "Av",
  "10913": " Op",
  "10914": "ある",
  "10915": "мі",
  "10916": " ces",
  "10917": "ruit",
  "10918": " CM",
  "10919": "Sw",
  "10920": "illing",
  "10921": "Profile",
  "10922": " буду",
  "10923": "uent",
  "10924": "Sec",
  "10925": "DT",
  "10926": "ribu",
  "10927": " वि�",
  "10928": " Process",
  "10929": " Li",
  "10930": " مو",
  "10931": "Var",
  "10932": " ту",
  "10933": " ges",
  "10934": " vertical",
  "10935": "oded",
  "10936": "HA",
  "10937": "127",
  "10938": " \"\"\"",
  "10939": "про",
  "10940": "oda",
  "10941": " �",
  "10942": "GG",
  "10943": " докумен",
  "10944": "оже",
  "10945": "icons",
  "10946": " dob",
  "10947": " agre",
  "10948": "кий",
  "10949": " Bay",
  "10950": " blue",
  "10951": " Section",
  "10952": " điều",
  "10953": "��",
  "10954": "ად",
  "10955": "ウ",
  "10956": "ਾ",
  "10957": "rod",
  "10958": " dynamic",
  "10959": " 생",
  "10960": "ង",
  "10961": " gew",
  "10962": "LL",
  "10963": "û",
  "10964": "hy",
  "10965": " rom",
  "10966": "/include",
  "10967": "მ",
  "10968": "240",
  "10969": "\tconst",
  "10970": " Tor",
  "10971": "Callback",
  "10972": "']\n",
  "10973": "[$",
  "10974": " meters",
  "10975": "(null",
  "10976": "icip",
  "10977": " performed",
  "10978": "RC",
  "10979": "UID",
  "10980": " ام",
  "10981": ")]\n",
  "10982": "ieder",
  "10983": ".send",
  "10984": "断",
  "10985": "ენ",
  "10986": " Each",
  "10987": "크",
  "10988": "impl",
  "10989": " Che",
  "10990": " correlation",
  "10991": "\";",
  "10992": " Wed",
  "10993": " mul",
  "10994": "amen",
  "10995": "нер",
  "10996": "lı",
  "10997": "�",
  "10998": "าง",
  "10999": " тре",
  "11000": " Http",
  "11001": "agy",
  "11002": "-the",
  "11003": " από",
  "11004": "cell",
  "11005": "zw",
  "11006": " харак",
  "11007": "вед",
  "11008": " intent",
  "11009": "hav",
  "11010": "-for",
  "11011": "助",
  "11012": " sides",
  "11013": "tax",
  "11014": " segment",
  "11015": "境",
  "11016": "alance",
  "11017": "CRE",
  "11018": "Offset",
  "11019": " USA",
  "11020": "filter",
  "11021": " через",
  "11022": "eres",
  "11023": "eur",
  "11024": " Back",
  "11025": "109",
  "11026": "ема",
  "11027": "hline",
  "11028": "办",
  "11029": "That",
  "11030": " AP",
  "11031": "Figure",
  "11032": " mej",
  "11033": "aign",
  "11034": "tk",
  "11035": "见",
  "11036": " reserv",
  "11037": " Select",
  "11038": "-top",
  "11039": " lub",
  "11040": "MAKE",
  "11041": "osh",
  "11042": " supply",
  "11043": " fluid",
  "11044": " ό",
  "11045": " tah",
  "11046": "Float",
  "11047": "OF",
  "11048": " kal",
  "11049": "тур",
  "11050": "ər",
  "11051": " неск",
  "11052": " namespace",
  "11053": "Database",
  "11054": "thread",
  "11055": "版",
  "11056": " Leg",
  "11057": "amer",
  "11058": "_error",
  "11059": " mere",
  "11060": "イ�",
  "11061": "\");",
  "11062": ".dart",
  "11063": "这个",
  "11064": ".as",
  "11065": "，但",
  "11066": " Second",
  "11067": " χ",
  "11068": " установ",
  "11069": "пера",
  "11070": " дви",
  "11071": "يد",
  "11072": "ters",
  "11073": " fif",
  "11074": "(y",
  "11075": "실",
  "11076": " metal",
  "11077": "�",
  "11078": " wind",
  "11079": " straight",
  "11080": " deux",
  "11081": " believe",
  "11082": " hành",
  "11083": "iat",
  "11084": "ør",
  "11085": " dre",
  "11086": ".load",
  "11087": "ograf",
  "11088": "encias",
  "11089": " estimate",
  "11090": "赛",
  "11091": " challeng",
  "11092": "спор",
  "11093": "ტ",
  "11094": " méd",
  "11095": "rait",
  "11096": "�",
  "11097": " 통",
  "11098": " nin",
  "11099": "ните",
  "11100": " His",
  "11101": "covery",
  "11102": " tiene",
  "11103": " Down",
  "11104": "权",
  "11105": " America",
  "11106": "achine",
  "11107": " Android",
  "11108": " кла",
  "11109": "Document",
  "11110": " trường",
  "11111": "技术",
  "11112": "候",
  "11113": "密",
  "11114": " exactly",
  "11115": " November",
  "11116": " Lond",
  "11117": "ấu",
  "11118": " pró",
  "11119": " consult",
  "11120": "ätt",
  "11121": " justify",
  "11122": "airs",
  "11123": "350",
  "11124": " каче",
  "11125": "IME",
  "11126": " raise",
  "11127": "เร",
  "11128": "bas",
  "11129": "leri",
  "11130": "Parser",
  "11131": "ocker",
  "11132": " compare",
  "11133": "={{",
  "11134": "cias",
  "11135": " '<",
  "11136": "():",
  "11137": " rat",
  "11138": "eft",
  "11139": " Plan",
  "11140": "音",
  "11141": " conj",
  "11142": "SM",
  "11143": "lope",
  "11144": "vet",
  "11145": "ประ",
  "11146": " сод",
  "11147": " immedi",
  "11148": "igma",
  "11149": " Therefore",
  "11150": "达",
  "11151": " Total",
  "11152": "/core",
  "11153": ".Write",
  "11154": "ivel",
  "11155": " wide",
  "11156": " investment",
  "11157": " mb",
  "11158": " Ins",
  "11159": "/a",
  "11160": "Head",
  "11161": "…………",
  "11162": " коли",
  "11163": "imensional",
  "11164": " juga",
  "11165": "ян",
  "11166": " external",
  "11167": "ী",
  "11168": "igital",
  "11169": "ක",
  "11170": "utils",
  "11171": "uls",
  "11172": "�",
  "11173": "ına",
  "11174": " kas",
  "11175": "ಗ",
  "11176": "107",
  "11177": " failed",
  "11178": "sqrt",
  "11179": "��",
  "11180": " testing",
  "11181": " Node",
  "11182": "Ac",
  "11183": " що",
  "11184": "irit",
  "11185": " College",
  "11186": " produced",
  "11187": "斯",
  "11188": " Card",
  "11189": "�",
  "11190": " parallel",
  "11191": " worden",
  "11192": " cha",
  "11193": " Build",
  "11194": " autor",
  "11195": " Press",
  "11196": "大学",
  "11197": " Japan",
  "11198": "ICE",
  "11199": " aument",
  "11200": "ưở",
  "11201": "nak",
  "11202": "criptor",
  "11203": " kap",
  "11204": " também",
  "11205": "ployee",
  "11206": " drive",
  "11207": " seems",
  "11208": " Bit",
  "11209": "lying",
  "11210": " repe",
  "11211": "_j",
  "11212": " orient",
  "11213": " countries",
  "11214": " Invest",
  "11215": "tor",
  "11216": "<!--",
  "11217": "how",
  "11218": "год",
  "11219": "章",
  "11220": " mater",
  "11221": "�",
  "11222": "scope",
  "11223": " për",
  "11224": ".Is",
  "11225": " ban",
  "11226": " 없",
  "11227": " vie",
  "11228": "，不",
  "11229": "Mapping",
  "11230": " eu",
  "11231": " لل",
  "11232": "220",
  "11233": "€",
  "11234": "ζ",
  "11235": "让",
  "11236": " \\<",
  "11237": "fit",
  "11238": " Seg",
  "11239": "aled",
  "11240": "ynomial",
  "11241": " adult",
  "11242": " lig",
  "11243": " númer",
  "11244": "annels",
  "11245": "тие",
  "11246": " cri",
  "11247": "etes",
  "11248": "ovie",
  "11249": "structions",
  "11250": "require",
  "11251": " weeks",
  "11252": " Server",
  "11253": " Sem",
  "11254": "ej",
  "11255": "Match",
  "11256": "alert",
  "11257": " upper",
  "11258": "這",
  "11259": "amo",
[...]
