{
  "0": "!",
  "1": "\"",
  "2": "#",
  "3": "$",
  "4": "%",
  "5": "&",
  "6": "'",
  "7": "(",
  "8": ")",
  "9": "*",
  "10": "+",
  "11": ",",
  "12": "-",
  "13": ".",
  "14": "/",
  "15": "0",
  "16": "1",
  "17": "2",
  "18": "3",
  "19": "4",
  "20": "5",
  "21": "6",
  "22": "7",
  "23": "8",
  "24": "9",
  "25": ":",
  "26": ";",
  "27": "<",
  "28": "=",
  "29": ">",
  "30": "?",
  "31": "@",
  "32": "A",
  "33": "B",
  "34": "C",
  "35": "D",
  "36": "E",
  "37": "F",
  "38": "G",
  "39": "H",
  "40": "I",
  "41": "J",
  "42": "K",
  "43": "L",
  "44": "M",
  "45": "N",
  "46": "O",
  "47": "P",
  "48": "Q",
  "49": "R",
  "50": "S",
  "51": "T",
  "52": "U",
  "53": "V",
  "54": "W",
  "55": "X",
  "56": "Y",
  "57": "Z",
  "58": "[",
  "59": "\\",
  "60": "]",
  "61": "^",
  "62": "_",
  "63": "`",
  "64": "a",
  "65": "b",
  "66": "c",
  "67": "d",
  "68": "e",
  "69": "f",
  "70": "g",
  "71": "h",
  "72": "i",
  "73": "j",
  "74": "k",
  "75": "l",
  "76": "m",
  "77": "n",
  "78": "o",
  "79": "p",
  "80": "q",
  "81": "r",
  "82": "s",
  "83": "t",
  "84": "u",
  "85": "v",
  "86": "w",
  "87": "x",
  "88": "y",
  "89": "z",
  "90": "{",
  "91": "|",
  "92": "}",
  "93": "~",
  "94": "�",
  "95": "�",
  "96": "�",
  "97": "�",
  "98": "�",
  "99": "�",
  "100": "�",
  "101": "�",
  "102": "�",
  "103": "�",
  "104": "�",
  "105": "�",
  "106": "�",
  "107": "�",
  "108": "�",
  "109": "�",
  "110": "�",
  "111": "�",
  "112": "�",
  "113": "�",
  "114": "�",
  "115": "�",
  "116": "�",
  "117": "�",
  "118": "�",
  "119": "�",
  "120": "�",
  "121": "�",
  "122": "�",
  "123": "�",
  "124": "�",
  "125": "�",
  "126": "�",
  "127": "�",
  "128": "�",
  "129": "�",
  "130": "�",
  "131": "�",
  "132": "�",
  "133": "�",
  "134": "�",
  "135": "�",
  "136": "�",
  "137": "�",
  "138": "�",
  "139": "�",
  "140": "�",
  "141": "�",
  "142": "�",
  "143": "�",
  "144": "�",
  "145": "�",
  "146": "�",
  "147": "�",
  "148": "�",
  "149": "�",
  "150": "�",
  "151": "�",
  "152": "�",
  "153": "�",
  "154": "�",
  "155": "�",
  "156": "�",
  "157": "�",
  "158": "�",
  "159": "�",
  "160": "�",
  "161": "�",
  "162": "�",
  "163": "�",
  "164": "�",
  "165": "�",
  "166": "�",
  "167": "�",
  "168": "�",
  "169": "�",
  "170": "�",
  "171": "�",
  "172": "�",
  "173": "�",
  "174": "�",
  "175": "�",
  "176": "�",
  "177": "�",
  "178": "�",
  "179": "�",
  "180": "�",
  "181": "�",
  "182": "�",
  "183": "�",
  "184": "�",
  "185": "�",
  "186": "�",
  "187": "�",
  "188": "\u0000",
  "189": "\u0001",
  "190": "\u0002",
  "191": "\u0003",
  "192": "\u0004",
  "193": "\u0005",
  "194": "\u0006",
  "195": "\u0007",
  "196": "\b",
  "197": "\t",
  "198": "\n",
  "199": "\u000b",
  "200": "\f",
  "201": "\r",
  "202": "\u000e",
  "203": "\u000f",
  "204": "\u0010",
  "205": "\u0011",
  "206": "\u0012",
  "207": "\u0013",
  "208": "\u0014",
  "209": "\u0015",
  "210": "\u0016",
  "211": "\u0017",
  "212": "\u0018",
  "213": "\u0019",
  "214": "\u001a",
  "215": "\u001b",
  "216": "\u001c",
  "217": "\u001d",
  "218": "\u001e",
  "219": "\u001f",
  "220": " ",
  "221": "",
  "222": "�",
  "223": "�",
  "224": "�",
  "225": "�",
  "226": "�",
  "227": "�",
  "228": "�",
  "229": "�",
  "230": "�",
  "231": "�",
  "232": "�",
  "233": "�",
  "234": "�",
  "235": "�",
  "236": "�",
  "237": "�",
  "238": "�",
  "239": "�",
  "240": "�",
  "241": "�",
  "242": "�",
  "243": "�",
  "244": "�",
  "245": "�",
  "246": "�",
  "247": "�",
  "248": "�",
  "249": "�",
  "250": "�",
  "251": "�",
  "252": "�",
  "253": "�",
  "254": "�",
  "255": "�",
  "256": "  ",
  "257": "    ",
  "258": " t",
  "259": "in",
  "260": "�",
  "261": " a",
  "262": "er",
  "263": "on",
  "264": "re",
  "265": "he",
  "266": "at",
  "267": "�",
  "268": "or",
  "269": "的",
  "270": "st",
  "271": "en",
  "272": "�",
  "273": "�",
  "274": "   ",
  "275": " c",
  "276": " the",
  "277": "it",
  "278": " s",
  "279": "an",
  "280": "ou",
  "281": "le",
  "282": "        ",
  "283": "al",
  "284": " w",
  "285": " f",
  "286": " p",
  "287": "ar",
  "288": "ing",
  "289": "is",
  "290": "es",
  "291": " b",
  "292": "。",
  "293": "�",
  "294": "�",
  "295": "ed",
  "296": "�",
  "297": "ion",
  "298": " o",
  "299": "nd",
  "300": " m",
  "301": "ic",
  "302": "�",
  "303": ";\n",
  "304": " d",
  "305": "et",
  "306": " in",
  "307": "ro",
  "308": " to",
  "309": "�",
  "310": "�",
  "311": "�",
  "312": "ct",
  "313": "�",
  "314": "as",
  "315": "�",
  "316": " and",
  "317": "�",
  "318": " of",
  "319": "ent",
  "320": "�",
  "321": "�",
  "322": "�",
  "323": "el",
  "324": " h",
  "325": "�",
  "326": " n",
  "327": " =",
  "328": "�",
  "329": "om",
  "330": "是",
  "331": "一",
  "332": " th",
  "333": " re",
  "334": "il",
  "335": "�",
  "336": "am",
  "337": "       ",
  "338": "id",
  "339": "�",
  "340": " l",
  "341": ".\n",
  "342": "�",
  "343": "、",
  "344": "--",
  "345": "�",
  "346": "�",
  "347": " (",
  "348": "im",
  "349": "不",
  "350": " e",
  "351": "�",
  "352": "ac",
  "353": "\t\t",
  "354": "se",
  "355": "ur",
  "356": "�",
  "357": "ad",
  "358": "ut",
  "359": "�",
  "360": "ol",
  "361": "if",
  "362": ");\n",
  "363": "有",
  "364": " y",
  "365": " g",
  "366": "ot",
  "367": "ve",
  "368": " S",
  "369": "ig",
  "370": "�",
  "371": "了",
  "372": "�",
  "373": "�",
  "374": " I",
  "375": "在",
  "376": "�",
  "377": " T",
  "378": "，",
  "379": "�",
  "380": "人",
  "381": "**",
  "382": "\n\n",
  "383": "�",
  "384": " {",
  "385": "ay",
  "386": "od",
  "387": " is",
  "388": "�",
  "389": " u",
  "390": "�",
  "391": "ation",
  "392": "�",
  "393": "ag",
  "394": "ow",
  "395": " for",
  "396": " C",
  "397": " *",
  "398": " you",
  "399": "ver",
  "400": " st",
  "401": " A",
  "402": "�",
  "403": "�",
  "404": "ce",
  "405": "ul",
  "406": "�",
  "407": "�",
  "408": "//",
  "409": "ch",
  "410": "ate",
  "411": "��",
  "412": "�",
  "413": " be",
  "414": " \"",
  "415": "�",
  "416": "�",
  "417": "th",
  "418": " on",
  "419": "ly",
  "420": "ith",
  "421": "�",
  "422": ",\n",
  "423": "我",
  "424": "ab",
  "425": "pe",
  "426": "em",
  "427": "           ",
  "428": "�",
  "429": "�",
  "430": "�",
  "431": "ri",
  "432": "�",
  "433": "大",
  "434": "ue",
  "435": "中",
  "436": "�",
  "437": " v",
  "438": ")\n",
  "439": "个",
  "440": " {\n",
  "441": "为",
  "442": "ter",
  "443": "�",
  "444": "这",
  "445": "un",
  "446": "ir",
  "447": "ap",
  "448": "�",
  "449": "�",
  "450": "�",
  "451": "um",
  "452": "�",
  "453": "�",
  "454": " con",
  "455": "oc",
  "456": " M",
  "457": " }",
  "458": "�",
  "459": " P",
  "460": "�",
  "461": "ist",
  "462": "\r\n",
  "463": "上",
  "464": "�",
  "465": "00",
  "466": "�",
  "467": "�",
  "468": "�",
  "469": "us",
  "470": "ort",
  "471": "ex",
  "472": " with",
  "473": " that",
  "474": "时",
  "475": "以",
  "476": "ers",
  "477": "�",
  "478": "��",
  "479": "ew",
  "480": "�",
  "481": "要",
  "482": "op",
  "483": " it",
  "484": "----",
  "485": "�",
  "486": " pro",
  "487": "�",
  "488": "和",
  "489": "�",
  "490": "nt",
  "491": "生",
  "492": "�",
  "493": "�",
  "494": "�",
  "495": "ht",
  "496": "ss",
  "497": "来",
  "498": "ame",
  "499": " al",
  "500": "�",
  "501": "会",
  "502": "到",
  "503": "�",
  "504": "ess",
  "505": "�",
  "506": "�",
  "507": "out",
  "508": "就",
  "509": " B",
  "510": "ke",
  "511": " de",
  "512": "�",
  "513": "our",
  "514": "ub",
  "515": "�",
  "516": "and",
  "517": "end",
  "518": "能",
  "519": " an",
  "520": "ect",
  "521": " r",
  "522": " D",
  "523": "tr",
  "524": " wh",
  "525": "�",
  "526": "�",
  "527": "�",
  "528": " or",
  "529": "ore",
  "530": "                ",
  "531": "pl",
  "532": "年",
  "533": "可",
  "534": "ill",
  "535": "     ",
  "536": "�",
  "537": " F",
  "538": "ain",
  "539": "()",
  "540": "pt",
  "541": " R",
  "542": " '",
  "543": "age",
  "544": "�",
  "545": "�",
  "546": " com",
  "547": " L",
  "548": "urn",
  "549": "国",
  "550": "们",
  "551": " ex",
  "552": "也",
  "553": "’",
  "554": " are",
  "555": " <",
  "556": "port",
  "557": "用",
  "558": " W",
  "559": " as",
  "560": "�",
  "561": "多",
  "562": "�",
  "563": "ment",
  "564": "出",
  "565": "de",
  "566": " this",
  "567": "rom",
  "568": "�",
  "569": "->",
  "570": "对",
  "571": "==",
  "572": "自",
  "573": "�",
  "574": "qu",
  "575": " N",
  "576": "学",
  "577": "20",
  "578": "ure",
  "579": "�",
  "580": "os",
  "581": " if",
  "582": "发",
  "583": "家",
  "584": "iz",
  "585": "�",
  "586": "able",
  "587": "�",
  "588": "�",
  "589": "ity",
  "590": "int",
  "591": "art",
  "592": "后",
  "593": "****",
  "594": "ction",
  "595": "他",
  "596": "ine",
  "597": "�",
  "598": "成",
  "599": "ere",
  "600": "ile",
  "601": "est",
  "602": " H",
  "603": " G",
  "604": "ack",
  "605": "cl",
  "606": " E",
  "607": "�",
  "608": "turn",
  "609": "�",
  "610": "�",
  "611": "ass",
  "612": "下",
  "613": "作",
  "614": "子",
  "615": "地",
  "616": "行",
  "617": "�",
  "618": "get",
  "619": "con",
  "620": "ight",
  "621": "ld",
  "622": "过",
  "623": " at",
  "624": "于",
  "625": "�",
  "626": "ave",
  "627": "业",
  "628": "好",
  "629": "og",
  "630": " tr",
  "631": "�",
  "632": "ant",
  "633": "你",
  "634": "iv",
  "635": " -",
  "636": "per",
  "637": "�",
  "638": "�",
  "639": "all",
  "640": "都",
  "641": "�",
  "642": " O",
  "643": "ive",
  "644": " he",
  "645": " we",
  "646": " The",
  "647": " se",
  "648": "ust",
  "649": "ff",
  "650": " ch",
  "651": " your",
  "652": "ind",
  "653": "方",
  "654": "心",
  "655": " le",
  "656": "现",
  "657": "�",
  "658": " from",
  "659": "�",
  "660": "小",
  "661": "�",
  "662": "说",
  "663": "ata",
  "664": "而",
  "665": "\",",
  "666": "ult",
  "667": " not",
  "668": "得",
  "669": "�",
  "670": "ype",
  "671": "分",
  "672": "ext",
  "673": " by",
  "674": "�",
  "675": "ast",
  "676": "ies",
  "677": "are",
  "678": "ang",
  "679": "天",
  "680": "::",
  "681": " sh",
  "682": "ial",
  "683": "�",
  "684": "经",
  "685": "之",
  "686": "com",
  "687": "ok",
  "688": "orm",
  "689": "ase",
  "690": "..",
  "691": " can",
  "692": "act",
  "693": "动",
  "694": "ice",
  "695": "ode",
  "696": "面",
  "697": "如",
  "698": "�",
  "699": "ip",
  "700": "�",
  "701": " $",
  "702": "               ",
  "703": "ost",
  "704": " :",
  "705": "�",
  "706": "还",
  "707": "高",
  "708": "rou",
  "709": "ard",
  "710": "�",
  "711": "�",
  "712": " j",
  "713": "�",
  "714": " have",
  "715": " +",
  "716": "开",
  "717": "很",
  "718": " k",
  "719": ">\n",
  "720": "ire",
  "721": "�",
  "722": "理",
  "723": "�",
  "724": "工",
  "725": "�",
  "726": " //",
  "727": "av",
  "728": "�",
  "729": "实",
  "730": "�",
  "731": "str",
  "732": "ak",
  "733": "�",
  "734": "力",
  "735": " cl",
  "736": "ide",
  "737": "ime",
  "738": "�",
  "739": " �",
  "740": "ans",
  "741": "�",
  "742": "最",
  "743": " was",
  "744": "看",
  "745": " return",
  "746": "�",
  "747": " us",
  "748": " will",
  "749": "_t",
  "750": "公",
  "751": "--------",
  "752": "进",
  "753": "ork",
  "754": " int",
  "755": "所",
  "756": "体",
  "757": "�",
  "758": "(\"",
  "759": "lic",
  "760": "前",
  "761": "么",
  "762": "法",
  "763": "一个",
  "764": "ace",
  "765": "定",
  "766": "�",
  "767": "In",
  "768": "等",
  "769": "�",
  "770": "�",
  "771": "up",
  "772": "着",
  "773": "lo",
  "774": "同",
  "775": "全",
  "776": "新",
  "777": ":\n",
  "778": "日",
  "779": "点",
  "780": "а",
  "781": "ign",
  "782": "ib",
  "783": "其",
  "784": "没",
  "785": "者",
  "786": "市",
  "787": "one",
  "788": "事",
  "789": "�",
  "790": "�",
  "791": "�",
  "792": "ell",
  "793": " [",
  "794": " U",
  "795": "10",
  "796": "ord",
  "797": "与",
  "798": "##",
  "799": " all",
  "800": "里",
  "801": "然",
  "802": "201",
  "803": "ud",
  "804": "情",
  "805": "本",
  "806": "�",
  "807": "ject",
  "808": "ions",
  "809": "ould",
  "810": "res",
  "811": " }\n",
  "812": "长",
  "813": "性",
  "814": " new",
  "815": "间",
  "816": " pl",
  "817": "�",
  "818": " ad",
  "819": "elf",
  "820": "�",
  "821": "�",
  "822": "ize",
  "823": " res",
  "824": "’s",
  "825": " en",
  "826": "ite",
  "827": "cc",
  "828": " ab",
  "829": "那",
  "830": "ail",
  "831": "ple",
  "832": "我们",
  "833": "因",
  "834": "�",
  "835": "产",
  "836": "主",
  "837": "ath",
  "838": "�",
  "839": "去",
  "840": "import",
  "841": " &",
  "842": "\t\t\t\t",
  "843": "�",
  "844": "ont",
  "845": "合",
  "846": "当",
  "847": "道",
  "848": "化",
  "849": "ount",
  "850": ";\n\n",
  "851": "机",
  "852": "�",
  "853": "种",
  "854": "部",
  "855": "但",
  "856": "！",
  "857": ".s",
  "858": "重",
  "859": " do",
  "860": "ER",
  "861": "品",
  "862": "起",
  "863": "己",
  "864": "？",
  "865": "加",
  "866": "�",
  "867": "pro",
  "868": "ock",
  "869": "alue",
  "870": "ry",
  "871": "无",
  "872": "St",
  "873": "ome",
  "874": "ublic",
  "875": "form",
  "876": "ance",
  "877": "ated",
  "878": "=\"",
  "879": "�",
  "880": "；",
  "881": "�",
  "882": "水",
  "883": "果",
  "884": " �",
  "885": "关",
  "886": "ong",
  "887": "�",
  "888": "自己",
  "889": " Th",
  "890": "IN",
  "891": " ne",
  "892": "月",
  "893": "uct",
  "894": "想",
  "895": "样",
  "896": "}\n",
  "897": "_s",
  "898": "ake",
  "899": "�",
  "900": "ps",
  "901": " J",
  "902": "Re",
  "903": "erv",
  "904": "),",
  "905": "内",
  "906": "ook",
  "907": "hen",
  "908": "文",
  "909": "�",
  "910": "场",
  "911": " cont",
  "912": "美",
  "913": "que",
  "914": "ert",
  "915": "�",
  "916": "ge",
  "917": "度",
  "918": "�",
  "919": "�",
  "920": "19",
  "921": "意",
  "922": " get",
  "923": "可以",
  "924": " has",
  "925": ");\n\n",
  "926": " /",
  "927": "put",
  "928": "********",
  "929": "些",
  "930": "ll",
  "931": "更",
  "932": " V",
  "933": " out",
  "934": "�",
  "935": "通",
  "936": "ild",
  "937": "�",
  "938": "三",
  "939": "常",
  "940": "�",
  "941": "比",
  "942": "ress",
  "943": "ally",
  "944": "fer",
  "945": "',",
  "946": "о",
  "947": "第",
  "948": "�",
  "949": "�",
  "950": " |",
  "951": "车",
  "952": "从",
  "953": "外",
  "954": "====",
  "955": "}\n\n",
  "956": "ary",
  "957": "�",
  "958": "�",
  "959": "ach",
  "960": "�",
  "961": "ber",
  "962": "ull",
  "963": "相",
  "964": "�",
  "965": "入",
  "966": " */",
  "967": "手",
  "968": "做",
  "969": "ich",
  "970": " go",
  "971": " so",
  "972": "明",
  "973": "�",
  "974": "�",
  "975": "将",
  "976": "量",
  "977": "�",
  "978": "位",
  "979": " up",
  "980": "次",
  "981": " ap",
  "982": " str",
  "983": "ear",
  "984": "�",
  "985": "ia",
  "986": "�",
  "987": "�",
  "988": "so",
  "989": "只",
  "990": "ory",
  "991": "ens",
  "992": "ition",
  "993": "</",
  "994": " In",
  "995": "应",
  "996": " but",
  "997": " ar",
  "998": "aram",
  "999": "感",
  "1000": ";\r\n",
  "1001": "�",
  "1002": "�",
  "1003": "ck",
  "1004": "�",
  "1005": "�",
  "1006": "活",
  "1007": "ther",
  "1008": "The",
  "1009": "提",
  "1010": "ie",
  "1011": "资",
  "1012": "oid",
  "1013": "�",
  "1014": "物",
  "1015": "期",
  "1016": "身",
  "1017": "ents",
  "1018": "ft",
  "1019": " me",
  "1020": " un",
  "1021": " }\n\n",
  "1022": "ence",
  "1023": " @",
  "1024": "ree",
  "1025": "__",
  "1026": "е",
  "1027": "te",
  "1028": "{\n",
  "1029": "让",
  "1030": "�",
  "1031": "ob",
  "1032": " i",
  "1033": "没有",
  "1034": "ON",
  "1035": "此",
  "1036": "))",
  "1037": "区",
  "1038": "�",
  "1039": "aw",
  "1040": " K",
  "1041": "ption",
  "1042": "12",
  "1043": "ool",
  "1044": "正",
  "1045": "电",
  "1046": "RE",
  "1047": "保",
  "1048": "'s",
  "1049": "tring",
  "1050": "gh",
  "1051": "�",
  "1052": "_p",
  "1053": "row",
  "1054": " su",
  "1055": "�",
  "1056": "ous",
  "1057": "\"\n",
  "1058": "�",
  "1059": "及",
  "1060": "目",
  "1061": "平",
  "1062": "知",
  "1063": "ا",
  "1064": "very",
  "1065": " im",
  "1066": "金",
  "1067": "老",
  "1068": "并",
  "1069": "pon",
  "1070": " more",
  "1071": "数",
  "1072": "名",
  "1073": "�",
  "1074": "�",
  "1075": "�",
  "1076": "err",
  "1077": "ations",
  "1078": "ep",
  "1079": "建",
  "1080": "iew",
  "1081": "或",
  "1082": "н",
  "1083": ").",
  "1084": "制",
  "1085": "unction",
  "1086": "\t\t\t",
  "1087": "信",
  "1088": " our",
  "1089": "展",
  "1090": "务",
  "1091": "教",
  "1092": "�",
  "1093": "pr",
  "1094": "();\n",
  "1095": "_m",
  "1096": "ink",
  "1097": "表",
  "1098": "own",
  "1099": "ax",
  "1100": "gr",
  "1101": " one",
  "1102": "被",
  "1103": "ose",
  "1104": "安",
  "1105": "_c",
  "1106": " my",
  "1107": "�",
  "1108": "女",
  "1109": "ark",
  "1110": " their",
  "1111": "设",
  "1112": "管",
  "1113": "�",
  "1114": "и",
  "1115": "�",
  "1116": "两",
  "1117": "气",
  "1118": "ors",
  "1119": "已",
  "1120": "给",
  "1121": " .",
  "1122": " per",
  "1123": "р",
  "1124": "ings",
  "1125": "ound",
  "1126": "问",
  "1127": " */\n",
  "1128": "�",
  "1129": " they",
  "1130": "ST",
  "1131": "就是",
  "1132": "她",
  "1133": " work",
  "1134": "vent",
  "1135": "ick",
  "1136": "二",
  "1137": "\",\n",
  "1138": "使",
  "1139": "vers",
  "1140": "                   ",
  "1141": " Y",
  "1142": "特",
  "1143": "民",
  "1144": "les",
  "1145": " sc",
  "1146": "ource",
  "1147": "利",
  "1148": "ove",
  "1149": "_d",
  "1150": ".get",
  "1151": " ==",
  "1152": "name",
  "1153": "т",
  "1154": "�",
  "1155": " which",
  "1156": "真",
  "1157": " dis",
  "1158": "系",
  "1159": " man",
  "1160": "vel",
  "1161": "�",
  "1162": "题",
  "1163": "解",
  "1164": "员",
  "1165": "代",
  "1166": "def",
  "1167": "》",
  "1168": " pr",
  "1169": " time",
  "1170": "《",
  "1171": ".c",
  "1172": " public",
  "1173": "程",
  "1174": "rib",
  "1175": "回",
  "1176": "网",
  "1177": "('",
  "1178": " any",
  "1179": " set",
  "1180": "路",
  "1181": "�",
  "1182": "式",
  "1183": "ef",
  "1184": "十",
  "1185": "别",
  "1186": ".m",
  "1187": "au",
  "1188": "色",
  "1189": "�",
  "1190": "�",
  "1191": "�",
  "1192": "AT",
  "1193": "her",
  "1194": "led",
  "1195": "reat",
  "1196": "少",
  "1197": "�",
  "1198": "_f",
  "1199": "中国",
  "1200": " pre",
  "1201": "原",
  "1202": "32",
  "1203": "lect",
  "1204": "�",
  "1205": "app",
  "1206": "quest",
  "1207": "”",
  "1208": "200",
  "1209": "ec",
  "1210": "add",
  "1211": "结",
  "1212": "atic",
  "1213": " def",
  "1214": " #",
  "1215": " about",
  "1216": "set",
  "1217": "         ",
  "1218": "元",
  "1219": " li",
  "1220": " const",
  "1221": "每",
  "1222": " _",
  "1223": "头",
  "1224": "pec",
  "1225": "Ex",
  "1226": "接",
  "1227": "riv",
  "1228": "11",
  "1229": "yst",
  "1230": " St",
  "1231": "把",
  "1232": "打",
  "1233": "计",
  "1234": "�",
  "1235": "变",
  "1236": " el",
  "1237": "受",
  "1238": " col",
  "1239": " add",
  "1240": "风",
  "1241": "�",
  "1242": "ical",
  "1243": "司",
  "1244": "什",
  "1245": "Pro",
  "1246": "爱",
  "1247": "fo",
  "1248": " comp",
  "1249": "交",
  "1250": "价",
  "1251": "return",
  "1252": "ener",
  "1253": "ays",
  "1254": "EN",
  "1255": "_C",
  "1256": "ient",
  "1257": "强",
  "1258": " part",
  "1259": "放",
  "1260": "��",
  "1261": "ov",
  "1262": "服",
  "1263": "Name",
  "1264": "什么",
  "1265": "atch",
  "1266": "质",
  "1267": "ug",
  "1268": " `",
  "1269": "处",
  "1270": "直",
  "1271": " sa",
  "1272": " \\",
  "1273": "�",
  "1274": "ix",
  "1275": "向",
  "1276": "ty",
  "1277": "需",
  "1278": "tern",
  "1279": "术",
  "1280": " also",
  "1281": "\tif",
  "1282": " !",
  "1283": " des",
  "1284": " sp",
  "1285": "16",
  "1286": "AR",
  "1287": "师",
  "1288": " x",
  "1289": "\":",
  "1290": "线",
  "1291": "eth",
  "1292": "OR",
  "1293": "Id",
  "1294": " te",
  "1295": "再",
  "1296": "с",
  "1297": "西",
  "1298": "工作",
  "1299": "持",
  "1300": "ude",
  "1301": "孩",
  "1302": "fig",
  "1303": "ystem",
  "1304": ".com",
  "1305": "oint",
  "1306": "old",
  "1307": "Type",
  "1308": "15",
  "1309": "iel",
  "1310": "门",
  "1311": "io",
  "1312": " over",
  "1313": "enc",
  "1314": " ro",
  "1315": "ange",
  "1316": "://",
  "1317": "口",
  "1318": " =>",
  "1319": "key",
  "1320": "基",
  "1321": "ely",
  "1322": " when",
  "1323": ".p",
  "1324": "至",
  "1325": "流",
  "1326": "海",
  "1327": "单",
  "1328": " use",
  "1329": " qu",
  "1330": "东",
  "1331": "候",
  "1332": "low",
  "1333": "nder",
  "1334": "AL",
  "1335": "irst",
  "1336": "----------------",
  "1337": "由",
  "1338": "this",
  "1339": "_b",
  "1340": "各",
  "1341": "30",
  "1342": " self",
  "1343": "_S",
  "1344": " It",
  "1345": "收",
  "1346": "这个",
  "1347": "ual",
  "1348": "才",
  "1349": "Th",
  "1350": "hed",
  "1351": "rr",
  "1352": "we",
  "1353": "�",
  "1354": "又",
  "1355": "件",
  "1356": " other",
  "1357": "话",
  "1358": "bject",
  "1359": "万",
  "1360": "�",
  "1361": " bu",
  "1362": " need",
  "1363": " class",
  "1364": " who",
  "1365": "Con",
  "1366": "非",
  "1367": "据",
  "1368": " Ch",
  "1369": "格",
  "1370": "essage",
  "1371": "山",
  "1372": "总",
  "1373": "ield",
  "1374": "技",
  "1375": "任",
  "1376": "科",
  "1377": "val",
  "1378": "�",
  "1379": " This",
  "1380": "IT",
  "1381": "ater",
  "1382": "求",
  "1383": ".t",
  "1384": "cess",
  "1385": "arg",
  "1386": "先",
  "1387": "_l",
  "1388": "政",
  "1389": " year",
  "1390": "л",
  "1391": "运",
  "1392": "选",
  "1393": "alse",
  "1394": "专",
  "1395": "世",
  "1396": "read",
  "1397": " them",
  "1398": "String",
  "1399": " some",
  "1400": "病",
  "1401": "�",
  "1402": "。\"",
  "1403": "完",
  "1404": "医",
  "1405": "公司",
  "1406": "ID",
  "1407": "clude",
  "1408": "导",
  "1409": "ict",
  "1410": "带",
  "1411": "商",
  "1412": "self",
  "1413": "因为",
  "1414": "时候",
  "1415": "pect",
  "1416": "院",
  "1417": "Cont",
  "1418": "今",
  "1419": "ne",
  "1420": " \n",
  "1421": "�",
  "1422": "清",
  "1423": "调",
  "1424": ".h",
  "1425": " �",
  "1426": "认",
  "1427": "记",
  "1428": "18",
  "1429": "heck",
  "1430": " comm",
  "1431": "白",
  "1432": "�",
  "1433": "考",
  "1434": "tt",
  "1435": "�",
  "1436": "节",
  "1437": "sh",
  "1438": " ass",
  "1439": "ven",
  "1440": "花",
  "1441": "�",
  "1442": "觉",
  "1443": "LE",
  "1444": "ish",
  "1445": "odel",
  "1446": " ag",
  "1447": "�",
  "1448": "容",
  "1449": "如果",
  "1450": "////",
  "1451": "效",
  "1452": "�",
  "1453": "25",
  "1454": "reate",
  "1455": "见",
  "1456": "urre",
  "1457": "时间",
  "1458": "造",
  "1459": " there",
  "1460": "他们",
  "1461": "ra",
  "1462": "ific",
  "1463": " fe",
  "1464": "几",
  "1465": "的人",
  "1466": "�",
  "1467": "sc",
  "1468": " off",
  "1469": "书",
  "1470": "round",
  "1471": "标",
  "1472": "影",
  "1473": "报",
  "1474": "anc",
  "1475": "儿",
  "1476": "000",
  "1477": "立",
  "1478": "形",
  "1479": " been",
  "1480": "传",
  "1481": ".\n\n",
  "1482": "光",
  "1483": "inal",
  "1484": " var",
  "1485": " kn",
  "1486": "�",
  "1487": "ng",
  "1488": "eng",
  "1489": "htt",
  "1490": "四",
  "1491": " am",
  "1492": "�",
  "1493": "孩子",
  "1494": " his",
  "1495": " no",
  "1496": "规",
  "1497": "SE",
  "1498": "ribut",
  "1499": "lock",
  "1500": "ator",
  "1501": " We",
  "1502": "治",
  "1503": "ning",
  "1504": "它",
  "1505": "�",
  "1506": "ms",
  "1507": " acc",
  "1508": "统",
  "1509": "ervice",
  "1510": "精",
  "1511": "oy",
  "1512": "cont",
  "1513": "空",
  "1514": "该",
  "1515": "整",
  "1516": " em",
  "1517": " like",
  "1518": "城",
  "1519": "指",
  "1520": "走",
  "1521": " void",
  "1522": "ade",
  "1523": "iss",
  "1524": "快",
  "1525": "ates",
  "1526": " ind",
  "1527": " function",
  "1528": "注",
  "1529": "ise",
  "1530": " name",
  "1531": "房",
  "1532": "rit",
  "1533": "�",
  "1534": "eg",
  "1535": "费",
  "1536": "易",
  "1537": "创",
  "1538": "型",
  "1539": "igh",
  "1540": "吃",
  "1541": " than",
  "1542": "友",
  "1543": ")\n\n",
  "1544": " data",
  "1545": " may",
  "1546": "�",
  "1547": " prov",
  "1548": "太",
  "1549": "类",
  "1550": "dd",
  "1551": "不是",
  "1552": "具",
  "1553": "较",
  "1554": "何",
  "1555": "增",
  "1556": "达",
  "1557": " pe",
  "1558": "_P",
  "1559": "ense",
  "1560": "企",
  "1561": "神",
  "1562": "quire",
  "1563": " else",
  "1564": "ble",
  "1565": " end",
  "1566": "级",
  "1567": "南",
  "1568": " �",
  "1569": "�",
  "1570": "100",
  "1571": "umber",
  "1572": "ser",
  "1573": " what",
  "1574": "Com",
  "1575": "ices",
  "1576": " into",
  "1577": "�",
  "1578": "社",
  "1579": " just",
  "1580": "ault",
  "1581": " inter",
  "1582": "功",
  "1583": "难",
  "1584": "AN",
  "1585": "证",
  "1586": "red",
  "1587": "of",
  "1588": "习",
  "1589": "nc",
  "1590": " would",
  "1591": "),\n",
  "1592": " op",
  "1593": "近",
  "1594": "越",
  "1595": "ments",
  "1596": "ash",
  "1597": "示",
  "1598": "消",
  "1599": " rec",
  "1600": "组",
  "1601": "台",
  "1602": "Res",
  "1603": "lp",
  "1604": "****************",
  "1605": "fter",
  "1606": "List",
  "1607": "观",
  "1608": "sp",
  "1609": " only",
  "1610": "问题",
  "1611": "line",
  "1612": "========",
  "1613": "食",
  "1614": "...",
  "1615": "始",
  "1616": "\treturn",
  "1617": "联",
  "1618": "roup",
  "1619": "这样",
  "1620": "界",
  "1621": "取",
  "1622": "�",
  "1623": "改",
  "1624": "深",
  "1625": "项",
  "1626": "14",
  "1627": "der",
  "1628": " make",
  "1629": "ied",
  "1630": "战",
  "1631": " reg",
  "1632": " how",
  "1633": "进行",
  "1634": "发展",
  "1635": "�",
  "1636": " back",
  "1637": "北",
  "1638": " under",
  "1639": "’t",
  "1640": "投",
  "1641": "]\n",
  "1642": "als",
  "1643": "50",
  "1644": "urrent",
  "1645": "视",
  "1646": " were",
  "1647": "UL",
  "1648": "rivate",
  "1649": "�",
  "1650": " file",
  "1651": "_D",
  "1652": "pos",
  "1653": " true",
  "1654": ".f",
  "1655": "股",
  "1656": "####",
  "1657": "育",
  "1658": "周",
  "1659": "      ",
  "1660": "ner",
  "1661": "条",
  "1662": "�",
  "1663": "Ch",
  "1664": "乐",
  "1665": "ys",
  "1666": "SS",
  "1667": "户",
  "1668": "ph",
  "1669": "且",
  "1670": ".l",
  "1671": "wo",
  "1672": ".d",
  "1673": "装",
  "1674": " “",
  "1675": "ful",
  "1676": "步",
  "1677": " >",
  "1678": "游",
  "1679": "du",
  "1680": "�",
  "1681": "所以",
  "1682": " its",
  "1683": "Data",
  "1684": "ature",
  "1685": "_T",
  "1686": "“",
  "1687": "备",
  "1688": " had",
  "1689": "ton",
  "1690": "反",
  "1691": "ox",
  "1692": "息",
  "1693": "复",
  "1694": "over",
  "1695": "its",
  "1696": "生活",
  "1697": "转",
  "1698": "!\n",
  "1699": "о�",
  "1700": "/*",
  "1701": " first",
  "1702": "确",
  "1703": "养",
  "1704": " null",
  "1705": "ask",
  "1706": "企业",
  "1707": "�",
  "1708": "热",
  "1709": "ل",
  "1710": "ames",
  "1711": "眼",
  "1712": "arch",
  "1713": "推",
  "1714": "准",
  "1715": "duct",
  "1716": "�",
  "1717": "plic",
  "1718": "13",
  "1719": "很多",
  "1720": "_M",
  "1721": "ting",
  "1722": "论",
  "1723": "球",
  "1724": "ues",
  "1725": "ocal",
  "1726": " gr",
  "1727": "ible",
  "1728": "队",
  "1729": "广",
  "1730": "ank",
  "1731": "但是",
  "1732": "ian",
  "1733": "包",
  "1734": " value",
  "1735": "rough",
  "1736": " spec",
  "1737": "�",
  "1738": "客",
  "1739": "思",
  "1740": "ious",
  "1741": "ery",
  "1742": "五",
  "1743": " act",
  "1744": "It",
  "1745": "Cl",
  "1746": "营",
  "1747": "                                ",
  "1748": "ule",
  "1749": "ople",
  "1750": "则",
  "1751": "校",
  "1752": "\");\n",
  "1753": "to",
  "1754": "_n",
  "1755": "便",
  "1756": "已经",
  "1757": " sup",
  "1758": "市场",
  "1759": "优",
  "1760": "张",
  "1761": "�",
  "1762": " ent",
  "1763": " br",
  "1764": "``",
  "1765": " should",
  "1766": "',\n",
  "1767": "宝",
  "1768": "可能",
  "1769": "'t",
  "1770": "办",
  "1771": "ause",
  "1772": "ating",
  "1773": "ek",
  "1774": "集",
  "1775": "领",
  "1776": "还是",
  "1777": "需要",
  "1778": "_in",
  "1779": "研",
  "1780": " then",
  "1781": "�",
  "1782": "-b",
  "1783": " %",
  "1784": "低",
  "1785": "�",
  "1786": "ages",
  "1787": "CT",
  "1788": "));\n",
  "1789": "ader",
  "1790": "环",
  "1791": "az",
  "1792": "决",
  "1793": "像",
  "1794": "即",
  "1795": "必",
  "1796": "ility",
  "1797": "air",
  "1798": " type",
  "1799": " look",
  "1800": "料",
  "1801": "](",
  "1802": "cri",
  "1803": "64",
  "1804": " start",
  "1805": " bet",
  "1806": "值",
  "1807": "ities",
  "1808": "include",
  "1809": "华",
  "1810": "17",
  "1811": "干",
  "1812": " test",
  "1813": "ics",
  "1814": "(\n",
  "1815": " her",
  "1816": "源",
  "1817": "AD",
  "1818": " sub",
  "1819": "param",
  "1820": "?\n",
  "1821": "fr",
  "1822": "识",
  "1823": "片",
  "1824": " z",
  "1825": " inst",
  "1826": "自己的",
  "1827": "struct",
  "1828": " rem",
  "1829": " Re",
  "1830": "ream",
  "1831": "喜",
  "1832": "参",
  "1833": " help",
  "1834": "根",
  "1835": "�",
  "1836": "满",
  "1837": "nect",
  "1838": "现在",
  "1839": "oth",
  "1840": "ood",
  "1841": "防",
  "1842": "边",
  "1843": " &&",
  "1844": "erm",
  "1845": "共",
  "1846": "ception",
  "1847": "人的",
  "1848": " err",
  "1849": "ann",
  "1850": " list",
  "1851": " through",
  "1852": "红",
  "1853": "布",
  "1854": "pp",
  "1855": "字",
  "1856": "态",
  "1857": "也是",
  "1858": " ph",
  "1859": " :=",
  "1860": "望",
  "1861": "ale",
  "1862": "�",
  "1863": "()\n",
  "1864": "引",
  "1865": " !=",
  "1866": "往",
  "1867": " most",
  "1868": " –",
  "1869": "住",
  "1870": "支",
  "1871": " ac",
  "1872": " false",
  "1873": " people",
  "1874": "�",
  "1875": "ier",
  "1876": "除",
  "1877": "To",
  "1878": "work",
  "1879": " dif",
  "1880": " know",
  "1881": "续",
  "1882": "配",
  "1883": "IC",
  "1884": " You",
  "1885": "_id",
  "1886": "未",
  "1887": "any",
  "1888": "�",
  "1889": " org",
  "1890": " trans",
  "1891": "ts",
  "1892": " If",
  "1893": "的时候",
  "1894": "马",
  "1895": " Pro",
  "1896": "olor",
  "1897": "px",
  "1898": "却",
  "1899": "atus",
  "1900": " rel",
  "1901": "许",
  "1902": "男",
  "1903": "24",
  "1904": "况",
  "1905": "显",
  "1906": "mer",
  "1907": "图",
  "1908": "速",
  "1909": "к",
  "1910": "\\x",
  "1911": " val",
  "1912": ".S",
  "1913": " want",
  "1914": " aut",
  "1915": "reak",
  "1916": " well",
  "1917": "cre",
  "1918": "王",
  "1919": "ative",
  "1920": "素",
  "1921": "�",
  "1922": " every",
  "1923": "试",
  "1924": "都是",
  "1925": "irect",
  "1926": "离",
  "1927": "https",
  "1928": "ethod",
  "1929": "Tr",
  "1930": "查",
  "1931": "ower",
  "1932": "у",
  "1933": "象",
  "1934": " result",
  "1935": "欢",
  "1936": "的一",
  "1937": "opy",
  "1938": "服务",
  "1939": "命",
  "1940": "供",
  "1941": "é",
  "1942": "ular",
  "1943": "const",
  "1944": "局",
  "1945": "clud",
  "1946": " these",
  "1947": "告",
  "1948": ".b",
  "1949": "ن",
  "1950": "势",
  "1951": "_F",
  "1952": "date",
  "1953": "']",
  "1954": "                       ",
  "1955": "void",
  "1956": "知道",
  "1957": "失",
  "1958": "足",
  "1959": "Get",
  "1960": "ache",
  "1961": "_re",
  "1962": "�",
  "1963": "و",
  "1964": "买",
  "1965": " id",
  "1966": " cons",
  "1967": "存",
  "1968": "ы",
  "1969": "ength",
  "1970": "致",
  "1971": "formation",
  "1972": "ustom",
  "1973": "class",
  "1974": "ر",
  "1975": "�",
  "1976": "aut",
  "1977": ":\"",
  "1978": "段",
  "1979": "随",
  "1980": "ample",
  "1981": "助",
  "1982": " char",
  "1983": "血",
  "1984": "号",
  "1985": "ily",
  "1986": "超",
  "1987": "妈",
  "1988": "Value",
  "1989": "适",
  "1990": "day",
  "1991": "照",
  "1992": " Un",
  "1993": " case",
  "1994": " Com",
  "1995": "疗",
  "1996": "RO",
  "1997": "首",
  "1998": "ider",
  "1999": " Q",
  "2000": "开始",
  "2001": "wn",
  "2002": "�",
  "2003": "und",
  "2004": "权",
  "2005": " att",
  "2006": "view",
  "2007": "arget",
  "2008": " wor",
  "2009": " where",
  "2010": "lean",
  "2011": "大家",
  "2012": "省",
  "2013": "�",
  "2014": "众",
  "2015": "son",
  "2016": "abel",
  "2017": "护",
  "2018": "oss",
  "2019": "rap",
  "2020": ",\"",
  "2021": " long",
  "2022": "赛",
  "2023": "erson",
  "2024": "言",
  "2025": "ey",
  "2026": "fore",
  "2027": "断",
  "2028": "ough",
  "2029": " right",
  "2030": "验",
  "2031": "油",
  "2032": " read",
  "2033": "string",
  "2034": "define",
  "2035": "value",
  "2036": "军",
  "2037": "م",
  "2038": "极",
  "2039": "团",
  "2040": " used",
  "2041": " *\n",
  "2042": "境",
  "2043": "够",
  "2044": "百",
  "2045": "indow",
  "2046": "ik",
  "2047": "yp",
  "2048": "升",
  "2049": "uff",
  "2050": " see",
  "2051": "的是",
  "2052": " min",
  "2053": "切",
  "2054": "历",
  "2055": "trans",
  "2056": "称",
  "2057": "play",
  "2058": "�",
  "2059": "))\n",
  "2060": "火",
  "2061": "通过",
  "2062": "排",
  "2063": "管理",
  "2064": "到了",
  "2065": "ی",
  "2066": "请",
  "2067": " aw",
  "2068": "连",
  "2069": " two",
  "2070": "iness",
  "2071": "早",
  "2072": "**\n",
  "2073": "产品",
  "2074": "亲",
  "2075": "gram",
  "2076": "率",
  "2077": "icense",
  "2078": " </",
  "2079": "../",
  "2080": " sm",
  "2081": "远",
  "2082": "器",
  "2083": "ased",
  "2084": "好的",
  "2085": "idth",
  "2086": " find",
  "2087": "细",
  "2088": "ets",
  "2089": "oin",
  "2090": "bs",
  "2091": "data",
  "2092": "ET",
  "2093": "�",
  "2094": " exper",
  "2095": "非常",
  "2096": "钱",
  "2097": "40",
  "2098": " very",
  "2099": "呢",
  "2100": "村",
  "2101": "\">",
  "2102": "AM",
  "2103": " fl",
  "2104": "uch",
  "2105": "['",
  "2106": " import",
  "2107": "际",
  "2108": "the",
  "2109": "var",
  "2110": " require",
  "2111": "ee",
  "2112": "ument",
  "2113": "ref",
  "2114": "lection",
  "2115": "语",
  "2116": "ml",
  "2117": "构",
  "2118": " He",
  "2119": "阳",
  "2120": "cond",
  "2121": "-c",
  "2122": "第一",
  "2123": " bl",
  "2124": "仅",
  "2125": "\tp",
  "2126": "款",
  "2127": "响",
  "2128": "(f",
  "2129": "#include",
  "2130": "轻",
  "2131": "议",
  "2132": "().",
  "2133": " many",
  "2134": "置",
  "2135": ");\r\n",
  "2136": "lement",
  "2137": " private",
  "2138": "义",
  "2139": "amp",
  "2140": "yle",
  "2141": "rol",
  "2142": "ED",
  "2143": "微",
  "2144": "药",
  "2145": "(n",
  "2146": "算",
  "2147": "究",
  "2148": "olog",
  "2149": "模",
  "2150": "uild",
  "2151": "这些",
  "2152": "案",
  "2153": "ify",
  "2154": "�",
  "2155": "站",
  "2156": "不能",
  "2157": "ES",
  "2158": "技术",
  "2159": "怎",
  "2160": "克",
  "2161": "获",
  "2162": " bus",
  "2163": "ern",
  "2164": "Set",
  "2165": "ah",
  "2166": "rite",
  "2167": " even",
  "2168": " mem",
  "2169": "米",
  "2170": "温",
  "2171": " after",
  "2172": "使用",
  "2173": "ION",
  "2174": "FF",
  "2175": "施",
  "2176": "ray",
  "2177": " sim",
  "2178": "修",
  "2179": "-s",
  "2180": "br",
  "2181": "ponse",
  "2182": "黄",
  "2183": "济",
  "2184": "维",
  "2185": "UT",
  "2186": "状",
  "2187": " she",
  "2188": "velop",
  "2189": " way",
  "2190": "ody",
  "2191": "itt",
  "2192": " hand",
  "2193": "终",
  "2194": "ife",
  "2195": " stud",
  "2196": "load",
  "2197": "景",
  "2198": "州",
  "2199": "皮",
  "2200": " String",
  "2201": "We",
  "2202": " bec",
  "2203": "ma",
  "2204": " string",
  "2205": "60",
  "2206": " good",
  "2207": "健",
  "2208": "ession",
  "2209": "AC",
  "2210": "约",
  "2211": "限",
  "2212": ".n",
  "2213": "press",
  "2214": "底",
  "2215": " now",
  "2216": " /*",
  "2217": "type",
  "2218": "_st",
  "2219": "一些",
  "2220": "听",
  "2221": "Object",
  "2222": "rc",
  "2223": "�",
  "2224": "ines",
  "2225": " fr",
  "2226": "积",
  "2227": "声",
  "2228": "oo",
  "2229": " ||",
  "2230": "学生",
  "2231": "ym",
  "2232": " Ex",
  "2233": "і",
  "2234": " play",
  "2235": "择",
  "2236": " app",
  "2237": "ins",
  "2238": "perty",
  "2239": "德",
  "2240": "一定",
  "2241": "落",
  "2242": " could",
  "2243": "世界",
  "2244": "olut",
  "2245": " det",
  "2246": "味",
  "2247": "斯",
  "2248": " Con",
  "2249": "�",
  "2250": "销",
  "2251": "IL",
  "2252": " form",
  "2253": "控",
  "2254": " ser",
  "2255": "version",
  "2256": "ait",
  "2257": "ww",
  "2258": "大的",
  "2259": " includ",
  "2260": "星",
  "2261": "士",
  "2262": "预",
  "2263": "找",
  "2264": "#define",
  "2265": "cept",
  "2266": " such",
  "2267": "情况",
  "2268": "ULL",
  "2269": "ware",
  "2270": "22",
  "2271": "back",
  "2272": "�",
  "2273": "ccess",
  "2274": "file",
  "2275": "oad",
  "2276": "д",
  "2277": "right",
  "2278": "国家",
  "2279": "压",
  "2280": "action",
  "2281": "(m",
  "2282": "rror",
  "2283": "写",
  "2284": " run",
  "2285": " years",
  "2286": " size",
  "2287": "],",
  "2288": "责",
  "2289": "ience",
  "2290": "青",
  "2291": " down",
  "2292": "uring",
  "2293": " high",
  "2294": " information",
  "2295": "ational",
  "2296": " differ",
  "2297": ".A",
  "2298": "\r\n\r\n",
  "2299": "80",
  "2300": " static",
  "2301": "ffect",
  "2302": "].",
  "2303": "ement",
  "2304": "江",
  "2305": "vice",
  "2306": " best",
  "2307": "igned",
  "2308": "教育",
  "2309": "社会",
  "2310": "那么",
  "2311": "comm",
  "2312": "演",
  "2313": " Tr",
  "2314": " great",
  "2315": ".j",
  "2316": "酒",
  "2317": "对于",
  "2318": " mod",
  "2319": "ush",
  "2320": "选择",
  "2321": "_B",
  "2322": "unc",
  "2323": "念",
  "2324": "份",
  "2325": "农",
  "2326": " dec",
  "2327": "(s",
  "2328": "�",
  "2329": "($",
  "2330": "重要",
  "2331": "依",
  "2332": "ward",
  "2333": "京",
  "2334": "�",
  "2335": " don",
  "2336": "hes",
  "2337": "职",
  "2338": "采",
  "2339": "属",
  "2340": ");",
  "2341": "母",
  "2342": "跟",
  "2343": " number",
  "2344": "牌",
  "2345": "康",
  "2346": "min",
  "2347": "ars",
  "2348": "other",
  "2349": "同时",
  "2350": "ote",
  "2351": "ren",
  "2352": "福",
  "2353": "De",
  "2354": " does",
  "2355": " key",
  "2356": "++",
  "2357": "lease",
  "2358": "简",
  "2359": "LO",
  "2360": "):\n",
  "2361": "ized",
  "2362": " dist",
  "2363": "MA",
  "2364": "拉",
  "2365": "arn",
  "2366": "let",
  "2367": "ocation",
  "2368": "arent",
  "2369": "ollow",
  "2370": "anag",
  "2371": "石",
  "2372": " fil",
  "2373": "(t",
  "2374": "aking",
  "2375": ".set",
  "2376": "ason",
  "2377": "�",
  "2378": "双",
  "2379": "_N",
  "2380": " co",
  "2381": "园",
  "2382": "音",
  "2383": "委",
  "2384": "raw",
  "2385": "�",
  "2386": "吧",
  "2387": "店",
  "2388": " av",
  "2389": " using",
  "2390": " call",
  "2391": " let",
  "2392": "错",
  "2393": " mark",
  "2394": "成为",
  "2395": " vis",
  "2396": " while",
  "2397": " here",
  "2398": "留",
  "2399": ".g",
  "2400": "板",
  "2401": "方面",
  "2402": "故",
  "2403": " system",
  "2404": "resent",
  "2405": "伤",
  "2406": " mon",
  "2407": "];\n",
  "2408": "读",
  "2409": " own",
  "2410": "层",
  "2411": "半",
  "2412": "香",
  "2413": "险",
  "2414": " ed",
  "2415": "中的",
  "2416": " because",
  "2417": "朋",
  "2418": " before",
  "2419": "View",
  "2420": "经济",
  "2421": "�",
  "2422": " day",
  "2423": "\\n",
  "2424": " show",
  "2425": " Wh",
  "2426": "OD",
  "2427": "ateg",
  "2428": "了一",
  "2429": "lob",
  "2430": "按",
  "2431": "code",
  "2432": " --",
  "2433": "英",
  "2434": "活动",
  "2435": "File",
  "2436": "ouse",
  "2437": "ten",
  "2438": "ptions",
  "2439": "材",
  "2440": "评",
  "2441": " del",
  "2442": "ited",
  "2443": "林",
  "2444": "for",
  "2445": " home",
  "2446": " process",
  "2447": " support",
  "2448": "IS",
  "2449": "(p",
  "2450": "ger",
  "2451": "�",
  "2452": "尔",
  "2453": "我的",
  "2454": "学习",
  "2455": " much",
  "2456": "ined",
  "2457": "less",
  "2458": " each",
  "2459": "死",
  "2460": " <<",
  "2461": "讲",
  "2462": "还有",
  "2463": " person",
  "2464": "             ",
  "2465": "富",
  "2466": "23",
  "2467": "Im",
  "2468": " sk",
  "2469": " state",
  "2470": " line",
  "2471": "不会",
  "2472": "Info",
  "2473": "划",
  "2474": " count",
  "2475": "alth",
  "2476": "出现",
  "2477": "这种",
  "2478": " bel",
  "2479": "是一",
  "2480": "oot",
  "2481": "朋友",
  "2482": "user",
  "2483": "util",
  "2484": "检",
  "2485": "古",
  "2486": "////////",
  "2487": " ?",
  "2488": "尽",
  "2489": "课",
  "2490": "м",
  "2491": " pol",
  "2492": "购",
  "2493": " take",
  "2494": " )",
  "2495": "充",
  "2496": "影响",
  "2497": " comple",
  "2498": "order",
  "2499": "章",
  "2500": "艺",
  "2501": " product",
  "2502": " ins",
  "2503": "alk",
  "2504": "li",
  "2505": "群",
  "2506": " last",
  "2507": "�",
  "2508": "roll",
  "2509": "投资",
  "2510": " business",
  "2511": " pos",
  "2512": "This",
  "2513": " final",
  "2514": "ister",
  "2515": "itle",
  "2516": " ///",
  "2517": "严",
  "2518": "虽",
  "2519": "ava",
  "2520": "Text",
  "2521": "主要",
  "2522": "ces",
  "2523": "Item",
  "2524": "State",
  "2525": " current",
  "2526": "\"。",
  "2527": " ext",
  "2528": "减",
  "2529": "\tc",
  "2530": " car",
  "2531": " said",
  "2532": "初",
  "2533": "ي",
  "2534": "att",
  "2535": "财",
  "2536": "画",
  "2537": "loat",
  "2538": "免",
  "2539": "角",
  "2540": "般",
  "2541": "mp",
  "2542": ".C",
  "2543": "例",
  "2544": "Error",
  "2545": "Un",
  "2546": " provid",
  "2547": "智",
  "2548": "opt",
  "2549": "-t",
  "2550": " gener",
  "2551": "ailable",
  "2552": "益",
  "2553": "土",
  "2554": "gs",
  "2555": "居",
  "2556": "不要",
  "2557": "face",
  "2558": " An",
  "2559": "chn",
  "2560": " program",
  "2561": "PE",
  "2562": "uf",
  "2563": "AS",
  "2564": "岁",
  "2565": " Sh",
  "2566": " top",
  "2567": "ually",
  "2568": "研究",
  "2569": " ا",
  "2570": " build",
  "2571": " fam",
  "2572": "By",
  "2573": "ler",
  "2574": "发现",
  "2575": " De",
  "2576": "uc",
  "2577": "不同",
  "2578": "[i",
  "2579": "ality",
  "2580": "来的",
  "2581": " fin",
  "2582": " develop",
  "2583": "UR",
  "2584": "善",
  "2585": "ouble",
  "2586": "OT",
  "2587": "Param",
  "2588": " },\n",
  "2589": "(c",
  "2590": "设计",
  "2591": " ke",
  "2592": "害",
  "2593": " (!",
  "2594": "怎么",
  "2595": " License",
  "2596": "坚",
  "2597": "Sc",
  "2598": " check",
  "2599": "列",
  "2600": "你的",
  "2601": "安全",
  "2602": " being",
  "2603": "降",
  "2604": "晚",
  "2605": "黑",
  "2606": "Key",
  "2607": " gu",
  "2608": "喜欢",
  "2609": " ob",
  "2610": "IM",
  "2611": "div",
  "2612": "ince",
  "2613": " sur",
  "2614": "Exception",
  "2615": " made",
  "2616": "Ind",
  "2617": "Int",
  "2618": "ags",
  "2619": "reg",
  "2620": "item",
  "2621": " serv",
  "2622": "fl",
  "2623": "arm",
  "2624": "上的",
  "2625": "春",
  "2626": "争",
  "2627": " did",
  "2628": " child",
  "2629": "ends",
  "2630": "范",
  "2631": "�",
  "2632": "ats",
  "2633": " med",
  "2634": "作为",
  "2635": "均",
  "2636": "rem",
  "2637": "之后",
  "2638": "source",
  "2639": "в",
  "2640": "-m",
  "2641": " And",
  "2642": "帮",
  "2643": "_w",
  "2644": " try",
  "2645": " follow",
  "2646": "rt",
  "2647": "止",
  "2648": "：",
  "2649": " For",
  "2650": "ures",
  "2651": "盘",
  "2652": " X",
  "2653": "olum",
  "2654": "\";\n",
  "2655": "融",
  "2656": " break",
  "2657": "比较",
  "2658": "�",
  "2659": "empl",
  "2660": "负",
  "2661": "待",
  "2662": "某",
  "2663": "项目",
  "2664": "龙",
  "2665": "ains",
  "2666": " post",
  "2667": "url",
  "2668": " Al",
  "2669": "ared",
  "2670": "县",
  "2671": " cal",
  "2672": "hip",
  "2673": "其实",
  "2674": "能力",
  "2675": "文化",
  "2676": "print",
  "2677": "起来",
  "2678": "吗",
  "2679": " point",
  "2680": "af",
  "2681": "玩",
  "2682": "千",
  "2683": " found",
  "2684": "史",
  "2685": "李",
  "2686": " free",
  "2687": " those",
  "2688": "28",
  "2689": "否",
  "2690": "\")\n",
  "2691": "enter",
  "2692": "而且",
  "2693": "独",
  "2694": " di",
  "2695": " world",
  "2696": "美国",
  "2697": "ope",
  "2698": "org",
  "2699": "IG",
  "2700": "_h",
  "2701": "�",
  "2702": "父",
  "2703": "系统",
  "2704": " think",
  "2705": "�",
  "2706": "PI",
  "2707": " cor",
  "2708": " custom",
  "2709": "围",
  "2710": " pass",
  "2711": "lation",
  "2712": "班",
  "2713": "或者",
  "2714": "21",
  "2715": "Map",
  "2716": "я",
  "2717": "AB",
  "2718": " art",
  "2719": "Test",
  "2720": "破",
  "2721": " som",
  "2722": "兴",
  "2723": "以及",
  "2724": "�",
  "2725": "imes",
  "2726": " different",
  "2727": "曾",
  "2728": "27",
  "2729": "static",
  "2730": "Pl",
  "2731": "ever",
  "2732": "He",
  "2733": "承",
  "2734": "ween",
  "2735": "河",
  "2736": "击",
  "2737": " same",
  "2738": "chool",
  "2739": " NULL",
  "2740": "哪",
  "2741": "--------------------------------",
  "2742": " user",
  "2743": "部分",
  "2744": "要求",
  "2745": "ght",
  "2746": " must",
  "2747": " Cl",
  "2748": "室",
  "2749": "oard",
  "2750": "pace",
  "2751": "UN",
  "2752": "On",
  "2753": " again",
  "2754": "use",
  "2755": "策",
  "2756": "补",
  "2757": "ails",
  "2758": "ape",
  "2759": "方法",
  "2760": "eter",
  "2761": "信息",
  "2762": "能够",
  "2763": "ants",
  "2764": "':",
  "2765": "index",
  "2766": "六",
  "2767": "ified",
  "2768": "吸",
  "2769": "云",
  "2770": "());\n",
  "2771": " expect",
  "2772": "vert",
  "2773": "患",
  "2774": "希",
  "2775": " project",
  "2776": "(),",
  "2777": " main",
  "2778": "message",
  "2779": "land",
  "2780": "Time",
  "2781": "aining",
  "2782": "'\n",
  "2783": "激",
  "2784": "愿",
  "2785": "他的",
  "2786": "ives",
  "2787": "._",
  "2788": "90",
  "2789": "为了",
  "2790": "akes",
  "2791": " __",
  "2792": "ithub",
  "2793": "突",
  "2794": "AG",
  "2795": "ists",
  "2796": "\"\"",
  "2797": "Sh",
  "2798": "ING",
  "2799": "域",
  "2800": "ather",
  "2801": "送",
  "2802": "肉",
  "2803": "银",
  "2804": "个人",
  "2805": " week",
  "2806": "td",
  "2807": "ns",
  "2808": "互",
  "2809": "差",
  "2810": "ways",
  "2811": "�",
  "2812": "一样",
  "2813": "ت",
  "2814": "方式",
  "2815": "短",
  "2816": "For",
  "2817": "rray",
  "2818": " open",
  "2819": " create",
  "2820": "志",
  "2821": "26",
  "2822": "ential",
  "2823": "umm",
  "2824": "痛",
  "2825": " oper",
  "2826": "\")",
  "2827": "itor",
  "2828": "应该",
  "2829": "测",
  "2830": "普",
  "2831": " object",
  "2832": "博",
  "2833": "lear",
  "2834": "�",
  "2835": "aj",
  "2836": "\t\t\t\t\t",
  "2837": "这一",
  "2838": "ott",
  "2839": "yn",
  "2840": " sign",
  "2841": "par",
  "2842": "售",
  "2843": " allow",
  "2844": " {\r\n",
  "2845": "_r",
  "2846": " disc",
  "2847": "ync",
  "2848": "觉得",
  "2849": " eas",
  "2850": "(b",
  "2851": " life",
  "2852": "ecut",
  "2853": "党",
  "2854": "绝",
  "2855": "官",
  "2856": "ond",
  "2857": " cr",
  "2858": "tect",
  "2859": "utton",
  "2860": "织",
  "2861": "config",
  "2862": "大学",
  "2863": "八",
  "2864": "wh",
  "2865": "come",
  "2866": "hor",
  "2867": "bers",
  "2868": " service",
  "2869": "Se",
  "2870": "提供",
  "2871": "·",
  "2872": "所有",
  "2873": "HE",
  "2874": "另",
  "2875": "府",
  "2876": "((",
  "2877": "ayer",
  "2878": " available",
  "2879": "be",
  "2880": "Wh",
  "2881": "ackage",
  "2882": "�",
  "2883": "笑",
  "2884": "旅",
  "2885": "ftware",
  "2886": "协",
  "2887": "/m",
  "2888": "亚",
  "2889": " rep",
  "2890": "log",
  "2891": "专业",
  "2892": "编",
  "2893": "货",
  "2894": "佛",
  "2895": "ribute",
  "2896": " IN",
  "2897": " next",
  "2898": "_E",
  "2899": "45",
  "2900": "ground",
  "2901": " struct",
  "2902": "建设",
  "2903": " log",
  "2904": "目前",
  "2905": " ret",
  "2906": "word",
  "2907": "季",
  "2908": "_A",
  "2909": "�",
  "2910": "一起",
  "2911": "监",
  "2912": "菜",
  "2913": " text",
  "2914": "虽然",
  "2915": "_type",
  "2916": "ished",
  "2917": " la",
  "2918": "ENT",
  "2919": "ization",
  "2920": "含",
  "2921": "ference",
  "2922": "Config",
  "2923": "�",
  "2924": "举",
  "2925": "ocument",
  "2926": "-f",
  "2927": "OM",
  "2928": "_name",
  "2929": "(self",
  "2930": "须",
  "2931": "律",
  "2932": " without",
  "2933": "一直",
  "2934": "35",
  "2935": "人员",
  "2936": "亿",
  "2937": "刚",
  "2938": "ride",
  "2939": "换",
  "2940": " event",
  "2941": "ric",
  "2942": "婚",
  "2943": "ness",
  "2944": "第二",
  "2945": " �",
  "2946": "\\\\",
  "2947": "etwork",
  "2948": "199",
  "2949": " ->",
  "2950": "[]",
  "2951": " between",
  "2952": "紧",
  "2953": "这是",
  "2954": " place",
  "2955": " around",
  "2956": " order",
  "2957": " both",
  "2958": "================",
  "2959": "Context",
  "2960": "_IN",
  "2961": "享",
  "2962": "慢",
  "2963": "不过",
  "2964": " New",
  "2965": " �",
  "2966": "vis",
  "2967": "认为",
  "2968": "拿",
  "2969": "核",
  "2970": " Z",
  "2971": " local",
  "2972": " design",
  "2973": " System",
  "2974": "urs",
  "2975": "202",
  "2976": "not",
  "2977": "肤",
  "2978": " care",
  "2979": " book",
  "2980": "anager",
  "2981": "cription",
  "2982": "良",
  "2983": "看到",
  "2984": "停",
  "2985": "unity",
  "2986": "-d",
  "2987": "�",
  "2988": "ponent",
  "2989": "座",
  "2990": "},\n",
  "2991": "遇",
  "2992": "甚",
  "2993": " item",
  "2994": "ternal",
  "2995": "环境",
  "2996": "Node",
  "2997": " really",
  "2998": " met",
  "2999": "reen",
  "3000": "发生",
  "3001": " dep",
  "3002": "Event",
  "3003": " request",
  "3004": "99",
  "3005": "苦",
  "3006": " cour",
  "3007": "ret",
  "3008": "久",
  "3009": " writ",
  "3010": "介",
  "3011": " rece",
  "3012": " param",
  "3013": " So",
  "3014": " contin",
  "3015": "uffer",
  "3016": "ina",
  "3017": "%D",
  "3018": ").\n",
  "3019": " real",
  "3020": " Res",
  "3021": "search",
  "3022": "Path",
  "3023": "ump",
  "3024": "plication",
  "3025": "off",
  "3026": "tract",
  "3027": " team",
  "3028": "oci",
  "3029": "With",
  "3030": "dev",
  "3031": "-p",
  "3032": " As",
  "3033": "stance",
  "3034": "_O",
  "3035": "els",
  "3036": "Add",
  "3037": " assert",
  "3038": "飞",
  "3039": " sl",
  "3040": "(&",
  "3041": "iable",
  "3042": " ve",
  "3043": "aster",
  "3044": "招",
  "3045": "啊",
  "3046": "_RE",
  "3047": "块",
  "3048": "�",
  "3049": " direct",
  "3050": "En",
  "3051": " dr",
  "3052": "enu",
  "3053": "治疗",
  "3054": "ross",
  "3055": "其他",
  "3056": "US",
  "3057": "密",
  "3058": " );\n",
  "3059": "假",
  "3060": "一般",
  "3061": "_L",
  "3062": "老师",
  "3063": "健康",
  "3064": "衣",
  "3065": " offer",
  "3066": "An",
  "3067": "数据",
  "3068": "ters",
  "3069": "As",
  "3070": "继",
  "3071": "Index",
  "3072": "70",
  "3073": " default",
  "3074": "ivers",
  "3075": "�",
  "3076": ".st",
  "3077": "init",
  "3078": "test",
  "3079": "戏",
  "3080": "票",
  "3081": "33",
  "3082": "uration",
  "3083": "人民",
  "3084": "担",
  "3085": "静",
  "3086": " pat",
  "3087": " par",
  "3088": "似",
  "3089": "�",
  "3090": "ital",
  "3091": "ced",
  "3092": "版",
  "3093": "夫",
  "3094": "背",
  "3095": " still",
  "3096": "刻",
  "3097": "过程",
  "3098": " std",
  "3099": "�",
  "3100": " ,",
  "3101": "�",
  "3102": "城市",
  "3103": " him",
  "3104": "_g",
  "3105": " Pl",
  "3106": ".w",
  "3107": "########",
  "3108": "今天",
  "3109": " view",
  "3110": "穿",
  "3111": "If",
  "3112": "error",
  "3113": "vir",
  "3114": "29",
  "3115": "中心",
  "3116": "pty",
  "3117": "by",
  "3118": "):",
  "3119": "_e",
  "3120": "Or",
  "3121": "Size",
  "3122": "ology",
  "3123": " All",
  "3124": "د",
  "3125": " model",
  "3126": "只有",
  "3127": " cap",
  "3128": "_V",
  "3129": "医院",
  "3130": "特别",
  "3131": "行业",
  "3132": "诉",
  "3133": "如何",
  "3134": "�",
  "3135": "�",
  "3136": "左",
  "3137": "套",
  "3138": "洗",
  "3139": " techn",
  "3140": " est",
  "3141": " method",
  "3142": " �",
  "3143": " too",
  "3144": "钟",
  "3145": "bl",
  "3146": "emp",
  "3147": "�",
  "3148": " poss",
  "3149": ".add",
  "3150": "最后",
  "3151": "卡",
  "3152": " ev",
  "3153": "ploy",
  "3154": "ctor",
  "3155": "oken",
  "3156": "木",
  "3157": "学校",
  "3158": "';\n",
  "3159": " \\\n",
  "3160": "临",
  "3161": "wit",
  "3162": "(d",
  "3163": "_H",
  "3164": "警",
  "3165": "希望",
  "3166": "奇",
  "3167": "********************************",
  "3168": "录",
  "3169": "cript",
  "3170": "感觉",
  "3171": "ux",
  "3172": "右",
  "3173": "ved",
  "3174": "oolean",
  "3175": "乎",
  "3176": "只是",
  "3177": " Se",
  "3178": "aving",
  "3179": "您",
  "3180": " Ar",
  "3181": " error",
  "3182": "罗",
  "3183": "book",
  "3184": ".D",
  "3185": "me",
  "3186": "raph",
  "3187": "á",
  "3188": "Request",
  "3189": " print",
  "3190": " appro",
  "3191": "lobal",
  "3192": " htt",
  "3193": "叫",
  "3194": "因此",
  "3195": "夜",
  "3196": " level",
  "3197": ".M",
  "3198": "松",
  "3199": " access",
  "3200": "作用",
  "3201": "translation",
  "3202": " pay",
  "3203": ".e",
  "3204": " num",
  "3205": "ift",
  "3206": " field",
  "3207": "组织",
  "3208": "CH",
  "3209": "粉",
  "3210": "OL",
  "3211": "印",
  "3212": "脑",
  "3213": "楼",
  "3214": "\tb",
  "3215": "巴",
  "3216": "github",
  "3217": "ai",
  "3218": "Form",
  "3219": "注意",
  "3220": "的事",
  "3221": "略",
  "3222": "IP",
  "3223": "症",
  "3224": "练",
  "3225": "净",
  "3226": "ency",
  "3227": "自然",
  "3228": "武",
  "3229": "Is",
  "3230": "ission",
  "3231": " happ",
  "3232": "年的",
  "3233": "容易",
  "3234": "rop",
  "3235": " partic",
  "3236": " ref",
  "3237": "ypes",
  "3238": " connect",
  "3239": " version",
  "3240": " always",
  "3241": "n't",
  "3242": " lot",
  "3243": "ases",
  "3244": " cho",
  "3245": "ons",
  "3246": "纪",
  "3247": " beg",
  "3248": ".P",
  "3249": "七",
  "3250": "然后",
  "3251": "```",
  "3252": "卫",
  "3253": " code",
  "3254": " lead",
  "3255": "生产",
  "3256": "�",
  "3257": "imit",
  "3258": " ide",
  "3259": "镇",
  "3260": "铁",
  "3261": " going",
  "3262": "关系",
  "3263": "Class",
  "3264": "emplate",
  "3265": " few",
  "3266": " plan",
  "3267": "ainer",
  "3268": "）",
  "3269": "time",
  "3270": " love",
  "3271": " mat",
  "3272": "根据",
  "3273": "剧",
  "3274": "list",
  "3275": "ittle",
  "3276": "odule",
  "3277": "��",
  "3278": " color",
  "3279": "亮",
  "3280": " Sc",
  "3281": "ui",
  "3282": " On",
  "3283": "Service",
  "3284": "有一",
  "3285": "由于",
  "3286": "='",
  "3287": " sure",
  "3288": " bool",
  "3289": "政府",
  "3290": " Is",
  "3291": "阿",
  "3292": "（",
  "3293": "来说",
  "3294": "这里",
  "3295": "相关",
  "3296": " table",
  "3297": " /**\n",
  "3298": " pur",
  "3299": "波",
  "3300": " feature",
  "3301": "表示",
  "3302": "iving",
  "3303": " fact",
  "3304": "地方",
  "3305": "丰",
  "3306": "();\n\n",
  "3307": " small",
  "3308": " company",
  "3309": "操",
  "3310": "培",
  "3311": "内容",
  "3312": "余",
  "3313": "ingle",
  "3314": "湖",
  "3315": "也不",
  "3316": "价格",
  "3317": "ety",
  "3318": "><",
  "3319": "tings",
  "3320": "ender",
  "3321": "批",
  "3322": "ember",
  "3323": " inv",
  "3324": " prof",
  "3325": "执",
  "3326": " market",
  "3327": " second",
  "3328": "灵",
  "3329": "_R",
  "3330": "丽",
  "3331": "ique",
  "3332": "thing",
  "3333": "�",
  "3334": "erg",
  "3335": " month",
  "3336": "甚至",
  "3337": "幸",
  "3338": "}{",
  "3339": "茶",
  "3340": "ilter",
  "3341": "using",
  "3342": "CE",
  "3343": "付",
  "3344": "毛",
  "3345": "了解",
  "3346": "基本",
  "3347": " et",
  "3348": "oh",
  "3349": " iss",
  "3350": " They",
  "3351": "iven",
  "3352": "ural",
  "3353": "族",
  "3354": " init",
  "3355": " equ",
  "3356": "异",
  "3357": "若",
  "3358": "01",
  "3359": "端",
  "3360": "卖",
  "3361": " perform",
  "3362": "坐",
  "3363": "rist",
  "3364": "牛",
  "3365": "                           ",
  "3366": "lete",
  "3367": "vest",
  "3368": "ries",
  "3369": "其中",
  "3370": "鱼",
  "3371": " organ",
  "3372": "北京",
  "3373": "md",
  "3374": "ename",
  "3375": " Get",
  "3376": " full",
  "3377": "络",
  "3378": "\\\"",
  "3379": "isc",
  "3380": "顺",
  "3381": "aterial",
  "3382": "乡",
  "3383": "uss",
  "3384": "Of",
  "3385": " during",
  "3386": "冷",
  "3387": "ium",
  "3388": " fun",
  "3389": "olution",
  "3390": "【",
  "3391": " head",
  "3392": " )\n",
  "3393": "句",
  "3394": "ь",
  "3395": "/s",
  "3396": "汽",
  "3397": " But",
  "3398": "令",
  "3399": "】",
  "3400": "缺",
  "3401": "esc",
  "3402": "ior",
  "3403": "stand",
  "3404": "roid",
  "3405": "uck",
  "3406": " health",
  "3407": "iled",
  "3408": "man",
  "3409": "奖",
  "3410": " old",
  "3411": " including",
  "3412": "iter",
  "3413": "庭",
  "3414": "ан",
  "3415": "草",
  "3416": " keep",
  "3417": " max",
  "3418": " experience",
  "3419": "_data",
  "3420": "ст",
  "3421": "树",
  "3422": "效果",
  "3423": "Ent",
  "3424": "毒",
  "3425": "拍",
  "3426": "Ar",
  "3427": "ident",
  "3428": "ero",
  "3429": " stand",
  "3430": "idd",
  "3431": " water",
  "3432": "')",
  "3433": "All",
  "3434": " feel",
  "3435": "歌",
  "3436": "inter",
  "3437": "追",
  "3438": "ients",
  "3439": "成功",
  "3440": " manag",
  "3441": "额",
  "3442": "—",
  "3443": " ((",
  "3444": "彩",
  "3445": " page",
  "3446": "�",
  "3447": "36",
  "3448": "稳",
  "3449": " There",
  "3450": "uction",
  "3451": "ending",
  "3452": " provide",
  "3453": "arge",
  "3454": "析",
  "3455": " effect",
  "3456": " things",
  "3457": "Hand",
  "3458": "损",
  "3459": "valid",
  "3460": "贵",
  "3461": "oun",
  "3462": "itions",
  "3463": " path",
  "3464": " throw",
  "3465": " **",
  "3466": "cent",
  "3467": "实现",
  "3468": " put",
  "3469": "],\n",
  "3470": "angu",
  "3471": "س",
  "3472": "脸",
  "3473": "这样的",
  "3474": "itional",
  "3475": "梦",
  "3476": "国际",
  "3477": " Fr",
  "3478": "具有",
  "3479": "User",
  "3480": "ayout",
  "3481": "�",
  "3482": "Over",
  "3483": " produ",
  "3484": " +=",
  "3485": "aces",
  "3486": "品牌",
  "3487": "餐",
  "3488": "med",
  "3489": "result",
  "3490": " config",
  "3491": "Equ",
  "3492": "api",
  "3493": " target",
  "3494": "一次",
  "3495": "Field",
  "3496": "训",
  "3497": "ething",
  "3498": "一下",
  "3499": " three",
  "3500": "身体",
  "3501": "text",
  "3502": "�",
  "3503": "怕",
  "3504": "ibr",
  "3505": "雨",
  "3506": " cost",
  "3507": "永",
  "3508": "_ST",
  "3509": " interest",
  "3510": "必须",
  "3511": "');\n",
  "3512": "ply",
  "3513": "就会",
  "3514": "new",
  "3515": "消费",
  "3516": "东西",
  "3517": "ron",
  "3518": "冲",
  "3519": "Log",
  "3520": " Ind",
  "3521": " exp",
  "3522": "Def",
  "3523": " AN",
  "3524": " group",
  "3525": "饭",
  "3526": "ences",
  "3527": " fri",
  "3528": "谁",
  "3529": "ideo",
  "3530": "[\"",
  "3531": "http",
  "3532": "午",
  "3533": "�",
  "3534": "bug",
  "3535": "笔",
  "3536": "            ",
  "3537": " �",
  "3538": "leg",
  "3539": "ived",
  "3540": " report",
  "3541": " eng",
  "3542": "谢",
  "3543": "多的",
  "3544": "功能",
  "3545": " family",
  "3546": "察",
  "3547": "答",
  "3548": "拥",
  "3549": " better",
  "3550": " left",
  "3551": "TR",
  "3552": "ification",
  "3553": " protect",
  "3554": " chang",
  "3555": "75",
  "3556": "审",
  "3557": " rest",
  "3558": ".is",
  "3559": " quest",
  "3560": "lected",
  "3561": " services",
  "3562": "31",
  "3563": " cond",
  "3564": "ivity",
  "3565": "毕",
  "3566": " come",
  "3567": "不断",
  "3568": "�",
  "3569": " array",
  "3570": "mit",
  "3571": "rec",
  "3572": " little",
  "3573": "提高",
  "3574": "ru",
  "3575": "\tm",
  "3576": "绿",
  "3577": "aff",
  "3578": " proble",
  "3579": "九",
  "3580": "陈",
  "3581": "爸",
  "3582": " ear",
  "3583": "’re",
  "3584": "两个",
  "3585": "睡",
  "3586": "丝",
  "3587": "34",
  "3588": "Up",
  "3589": "},",
  "3590": "副",
  "3591": "直接",
  "3592": "ability",
  "3593": "oll",
  "3594": " change",
  "3595": " important",
  "3596": "EL",
  "3597": "占",
  "3598": "熟",
  "3599": "EM",
  "3600": "存在",
  "3601": "tes",
  "3602": " area",
  "3603": "�",
  "3604": "真的",
  "3605": "靠",
  "3606": "ql",
  "3607": " cert",
  "3608": " range",
  "3609": " п",
  "3610": "з",
  "3611": " special",
  "3612": "括",
  "3613": " input",
  "3614": "ubl",
  "3615": "移",
  "3616": " arg",
  "3617": " copy",
  "3618": "\tpublic",
  "3619": " within",
  "3620": "进入",
  "3621": "Array",
  "3622": "AP",
  "3623": " Set",
  "3624": "涨",
  "3625": "iver",
  "3626": "不仅",
  "3627": "ocus",
  "3628": " power",
  "3629": " school",
  "3630": "ane",
  "3631": "宣",
  "3632": " got",
  "3633": " incre",
  "3634": "ources",
  "3635": "viron",
  "3636": " pop",
  "3637": " say",
  "3638": "Le",
  "3639": "tra",
  "3640": ".org",
  "3641": "出来",
  "3642": "Fr",
  "3643": "pert",
  "3644": "载",
  "3645": ")\r\n",
  "3646": " content",
  "3647": "原因",
  "3648": " �",
  "3649": "顾",
  "3650": "ither",
  "3651": "革",
  "3652": " another",
  "3653": " How",
  "3654": "Al",
  "3655": "Qu",
  "3656": "输",
  "3657": "ral",
  "3658": " sit",
  "3659": "abled",
  "3660": " light",
  "3661": " won",
  "3662": " grow",
  "3663": "At",
  "3664": "ves",
  "3665": "平台",
  "3666": "税",
  "3667": "�",
  "3668": "500",
  "3669": " non",
  "3670": "Result",
  "3671": "Val",
  "3672": "各种",
  "3673": "й",
  "3674": "急",
  "3675": " since",
  "3676": "*/",
  "3677": " address",
  "3678": "\ts",
  "3679": "ately",
  "3680": " success",
  "3681": "cur",
  "3682": "ought",
  "3683": "产业",
  "3684": " might",
  "3685": "indows",
  "3686": "这么",
  "3687": "�",
  "3688": "ours",
  "3689": "谈",
  "3690": "脚",
  "3691": "ism",
  "3692": " something",
  "3693": "秀",
  "3694": "ij",
  "3695": "icle",
  "3696": "Not",
  "3697": "Code",
  "3698": "-l",
  "3699": "ination",
  "3700": " able",
  "3701": "from",
  "3702": "奶",
  "3703": "精神",
  "3704": "ready",
  "3705": "汉",
  "3706": " lo",
  "3707": " big",
  "3708": "IR",
  "3709": "fect",
  "3710": ".in",
  "3711": "38",
  "3712": "/c",
  "3713": " gl",
  "3714": "获得",
  "3715": " uint",
  "3716": "播",
  "3717": "刘",
  "3718": "抗",
  "3719": "map",
  "3720": " tri",
  "3721": "object",
  "3722": " example",
  "3723": "一种",
  "3724": "ATE",
  "3725": "ks",
  "3726": "饮",
  "3727": "退",
  "3728": "倒",
  "3729": "标准",
  "3730": "ه",
  "3731": " mult",
  "3732": "mm",
  "3733": "resh",
  "3734": "鲜",
  "3735": "reated",
  "3736": "工程",
  "3737": "ک",
  "3738": "历史",
  "3739": "ivid",
  "3740": "藏",
  "3741": "频",
  "3742": "成了",
  "3743": "go",
  "3744": " block",
  "3745": "Reg",
  "3746": "网络",
  "3747": "ə",
  "3748": " mov",
  "3749": " Le",
  "3750": "以上",
  "3751": " ^",
  "3752": "ó",
  "3753": "妈妈",
  "3754": "苏",
  "3755": "          ",
  "3756": "_G",
  "3757": " spe",
  "3758": "iff",
  "3759": "Att",
  "3760": "的大",
  "3761": "诗",
  "3762": "胜",
  "3763": "icy",
  "3764": "结果",
  "3765": "Manager",
  "3766": "Out",
  "3767": "orage",
  "3768": "困",
  "3769": "ene",
  "3770": "纳",
  "3771": "orn",
  "3772": " US",
  "3773": "础",
  "3774": "meric",
  "3775": "(this",
  "3776": "Message",
  "3777": "til",
  "3778": "char",
  "3779": " give",
  "3780": "endif",
  "3781": "轮",
  "3782": "质量",
  "3783": "head",
  "3784": "annel",
  "3785": "sg",
  "3786": " Ap",
  "3787": "基础",
  "3788": "-w",
  "3789": "任何",
  "3790": "/**\n",
  "3791": "_de",
  "3792": "ords",
  "3793": " action",
  "3794": "left",
  "3795": "染",
  "3796": "Element",
  "3797": "assert",
  "3798": " game",
  "3799": "怀",
  "3800": " hard",
  "3801": "oney",
  "3802": " options",
  "3803": "ummary",
  "3804": " che",
  "3805": " ال",
  "3806": "ision",
  "3807": "55",
  "3808": "征",
  "3809": " conf",
  "3810": " webs",
  "3811": "�",
  "3812": "蛋",
  "3813": " java",
  "3814": "48",
  "3815": "的话",
  "3816": " online",
  "3817": "ules",
  "3818": "irt",
  "3819": "else",
  "3820": "掉",
  "3821": "竟",
  "3822": "lex",
  "3823": "Build",
  "3824": "ards",
  "3825": "朝",
  "3826": "。(",
  "3827": "解决",
  "3828": "())",
  "3829": " port",
  "3830": "aint",
  "3831": "í",
  "3832": "全国",
  "3833": "ен",
  "3834": "amespace",
  "3835": " job",
  "3836": "Model",
  "3837": "我们的",
  "3838": "街",
  "3839": "劳",
  "3840": "包括",
  "3841": ".re",
  "3842": "PL",
  "3843": "�",
  "3844": "ADD",
  "3845": "单位",
  "3846": " unt",
  "3847": " To",
  "3848": "mb",
  "3849": "vious",
  "3850": "_W",
  "3851": "疑",
  "3852": "人们",
  "3853": "anguage",
  "3854": "ird",
  "3855": "ained",
  "3856": "脱",
  "3857": "增加",
  "3858": "uint",
  "3859": " Or",
  "3860": "ра",
  "3861": "signed",
  "3862": " control",
  "3863": "序",
  "3864": " Cont",
  "3865": "绩",
  "3866": "索",
  "3867": " include",
  "3868": " room",
  "3869": "itive",
  "3870": "兰",
  "3871": " present",
  "3872": "软",
  "3873": "ector",
  "3874": "散",
  "3875": "礼",
  "3876": "的小",
  "3877": "障",
  "3878": "导致",
  "3879": "function",
  "3880": "患者",
  "3881": "place",
  "3882": "ling",
  "3883": "之间",
  "3884": "分析",
  "3885": ".r",
  "3886": " law",
  "3887": "UE",
  "3888": "是否",
  "3889": " less",
  "3890": " loc",
  "3891": "EX",
  "3892": "避",
  "3893": "ension",
  "3894": "comp",
  "3895": "ands",
  "3896": " source",
  "3897": "述",
  "3898": "\n\n\n",
  "3899": "杀",
  "3900": "You",
  "3901": " account",
  "3902": "pons",
  "3903": " mus",
  "3904": "叶",
  "3905": "每天",
  "3906": "IF",
  "3907": " Ad",
  "3908": "istr",
  "3909": "html",
  "3910": "关注",
  "3911": "arr",
  "3912": "�",
  "3913": "Trans",
  "3914": ".pro",
  "3915": " expl",
  "3916": "joy",
  "3917": "�",
  "3918": "37",
  "3919": " creat",
  "3920": "�",
  "3921": " store",
  "3922": "Count",
  "3923": "\",\"",
  "3924": "aps",
  "3925": "ipp",
  "3926": "有的",
  "3927": "�",
  "3928": "申",
  "3929": "宁",
  "3930": "www",
  "3931": "喝",
  "3932": "才能",
  "3933": "欧",
  "3934": "处理",
  "3935": "../../",
  "3936": "仍",
  "3937": "堂",
  "3938": " site",
  "3939": " specific",
  "3940": "(x",
  "3941": "ically",
  "3942": "守",
  "3943": "知识",
  "3944": "跑",
  "3945": " super",
  "3946": "context",
  "3947": "典",
  "3948": "帮助",
  "3949": " never",
  "3950": "夏",
  "3951": "And",
  "3952": "继续",
  "3953": " consider",
  "3954": " sol",
  "3955": "ories",
  "3956": "\"]",
  "3957": "闻",
  "3958": "哈",
  "3959": "有些",
  "3960": "透",
  "3961": "词",
  "3962": "pen",
  "3963": "酸",
  "3964": " required",
  "3965": "Inter",
  "3966": "�",
  "3967": " phot",
  "3968": "沙",
  "3969": "/b",
  "3970": "older",
  "3971": "п",
  "3972": "Group",
  "3973": "表现",
  "3974": "ailed",
  "3975": "为什么",
  "3976": "运动",
  "3977": "room",
  "3978": "液",
  "3979": "gg",
  "3980": "vironment",
  "3981": "部门",
  "3982": "icro",
  "3983": "eters",
  "3984": "ersion",
  "3985": "ute",
  "3986": "ots",
  "3987": "frac",
  "3988": "default",
  "3989": " turn",
  "3990": "ч",
  "3991": " link",
  "3992": "args",
  "3993": "产生",
  "3994": "骨",
  "3995": "_pro",
  "3996": " message",
  "3997": " days",
  "3998": "手机",
  "3999": "控制",
  "4000": "perties",
  "4001": "egr",
  "4002": " index",
  "4003": "Comm",
  "4004": "irc",
  "4005": ".,",
  "4006": "ocial",
  "4007": "struction",
  "4008": "曲",
  "4009": " working",
  "4010": "KE",
  "4011": "44",
  "4012": "渐",
  "4013": "科技",
  "4014": "炎",
  "4015": "代表",
  "4016": " prom",
  "4017": "image",
  "4018": "合作",
  "4019": "39",
  "4020": " invest",
  "4021": "有效",
  "4022": "erver",
  "4023": " software",
  "4024": "odes",
  "4025": " option",
  "4026": " bit",
  "4027": "ances",
  "4028": "第三",
  "4029": "汽车",
  "4030": " bas",
  "4031": "300",
  "4032": "ogle",
  "4033": "分钟",
  "4034": "疾",
  "4035": " orig",
  "4036": "借",
  "4037": " style",
  "4038": "出了",
  "4039": "oud",
  "4040": "/p",
  "4041": " along",
  "4042": " exc",
  "4043": "input",
  "4044": " needs",
  "4045": "无法",
  "4046": "link",
  "4047": "迎",
  "4048": "img",
  "4049": "价值",
  "4050": " Gener",
  "4051": ">\n\n",
  "4052": "用户",
  "4053": ".T",
  "4054": "')\n",
  "4055": "�",
  "4056": " children",
  "4057": "针",
  "4058": " Ph",
  "4059": "行为",
  "4060": "ERT",
  "4061": "圈",
  "4062": "绍",
  "4063": "以后",
  "4064": "顶",
  "4065": "简单",
  "4066": "_size",
  "4067": "阴",
  "4068": "${",
  "4069": "no",
  "4070": "Var",
  "4071": " dem",
  "4072": " es",
  "4073": "伴",
  "4074": "童",
  "4075": " given",
  "4076": "露",
  "4077": "登",
  "4078": " �",
  "4079": "86",
  "4080": "攻",
  "4081": " в",
  "4082": " image",
  "4083": "一点",
  "4084": "CL",
  "4085": "概",
  "4086": " visit",
  "4087": "atform",
  "4088": "aph",
  "4089": " gover",
  "4090": "ormal",
  "4091": "弹",
  "4092": "厂",
  "4093": " Be",
  "4094": "hether",
  "4095": "Color",
  "4096": "机构",
  "4097": "码",
  "4098": "一步",
  "4099": "疫",
  "4100": "港",
  "4101": ".N",
  "4102": "eturn",
  "4103": "Status",
  "4104": "CK",
  "4105": "当然",
  "4106": " dri",
  "4107": "plement",
  "4108": " q",
  "4109": "ended",
  "4110": "OS",
  "4111": " following",
  "4112": " nil",
  "4113": "床",
  "4114": "198",
  "4115": "\tf",
  "4116": " Americ",
  "4117": "ा",
  "4118": "г",
  "4119": "新的",
  "4120": " body",
  "4121": "固",
  "4122": " context",
  "4123": "之前",
  "4124": "roller",
  "4125": "阶",
  "4126": "EF",
  "4127": "资源",
  "4128": "sw",
  "4129": "幅",
  "4130": "true",
  "4131": " quality",
  "4132": "ga",
  "4133": " She",
  "4134": "尚",
  "4135": " distribut",
  "4136": "归",
  "4137": "当时",
  "4138": "From",
  "4139": "ches",
  "4140": "�",
  "4141": "政策",
  "4142": "糖",
  "4143": "只要",
  "4144": "判",
  "4145": "्",
  "4146": "你们",
  "4147": " und",
  "4148": "哥",
  "4149": "/d",
  "4150": "玉",
  "4151": "完成",
  "4152": "雪",
  "4153": "#if",
  "4154": " I'",
  "4155": " pres",
  "4156": "#endif",
  "4157": "航",
  "4158": "促",
  "4159": "orem",
  "4160": "键",
  "4161": "Pos",
  "4162": "得到",
  "4163": "witch",
  "4164": "point",
  "4165": "�",
  "4166": "88",
  "4167": " food",
  "4168": "目标",
  "4169": " already",
  "4170": "  \n",
  "4171": "js",
  "4172": "馆",
  "4173": " products",
  "4174": "istory",
  "4175": "OP",
  "4176": "搭",
  "4177": "uture",
  "4178": "努",
  "4179": " done",
  "4180": " position",
  "4181": "完全",
  "4182": "科学",
  "4183": "][",
  "4184": "_set",
  "4185": "聚",
  "4186": " double",
  "4187": " display",
  "4188": " meet",
  "4189": "宫",
  "4190": "fe",
  "4191": "真正",
  "4192": "></",
  "4193": "家庭",
  "4194": " based",
  "4195": "ention",
  "4196": "救",
  "4197": "鸡",
  "4198": "逐",
  "4199": "危",
  "4200": " Add",
  "4201": "交易",
  "4202": "YPE",
  "4203": "ERR",
  "4204": "content",
  "4205": " enc",
  "4206": "UM",
  "4207": "gether",
  "4208": "客户",
  "4209": "筑",
  "4210": "Util",
  "4211": "lib",
  "4212": "eger",
  "4213": "小时",
  "4214": "_add",
  "4215": " tot",
  "4216": "inc",
  "4217": " base",
  "4218": " cover",
  "4219": "std",
  "4220": "休",
  "4221": " Sp",
  "4222": "宜",
  "4223": "达到",
  "4224": " reason",
  "4225": "竞",
  "4226": "比如",
  "4227": " ask",
  "4228": " Ass",
  "4229": "ieve",
  "4230": ".app",
  "4231": "_v",
  "4232": "erc",
  "4233": " possible",
  "4234": "export",
  "4235": "pression",
  "4236": "ection",
  "4237": "way",
  "4238": " None",
  "4239": "pecial",
  "4240": " adv",
  "4241": "不可",
  "4242": " с",
  "4243": " Pr",
  "4244": " making",
  "4245": " today",
  "4246": " looking",
  "4247": "ured",
  "4248": " either",
  "4249": ".B",
  "4250": "那些",
  "4251": "ids",
  "4252": "射",
  "4253": "argin",
  "4254": " Te",
  "4255": " ben",
  "4256": "icon",
  "4257": "国内",
  "4258": " short",
  "4259": "align",
  "4260": " width",
  "4261": "ORT",
  "4262": "摄",
  "4263": "艺术",
  "4264": ".util",
  "4265": "ب",
  "4266": "ently",
  "4267": "ategory",
  "4268": "65",
  "4269": "综",
  "4270": "规定",
  "4271": "上海",
  "4272": "atab",
  "4273": "cho",
  "4274": " eff",
  "4275": " —",
  "4276": "游戏",
  "4277": "ANT",
  "4278": "姐",
  "4279": "是一个",
  "4280": "误",
  "4281": "%,",
  "4282": "更加",
  "4283": "’ve",
  "4284": "Ap",
  "4285": "保护",
  "4286": " ‘",
  "4287": "实际",
  "4288": "ired",
  "4289": "ilt",
  "4290": " cent",
  "4291": " beh",
  "4292": "iversity",
  "4293": "ole",
  "4294": "除了",
  "4295": "ively",
  "4296": "db",
  "4297": "支持",
  "4298": " students",
  "4299": "杂",
  "4300": "父母",
  "4301": "mt",
  "4302": "04",
  "4303": " List",
  "4304": "虚",
  "4305": "acter",
  "4306": "空间",
  "4307": " {\n\n",
  "4308": "既",
  "4309": "媒",
  "4310": "今年",
  "4311": " move",
  "4312": "02",
  "4313": "ung",
  "4314": "apt",
  "4315": " pract",
  "4316": "跌",
  "4317": ".L",
  "4318": " Bl",
  "4319": " Int",
  "4320": "地区",
  "4321": "有限",
  "4322": "佳",
  "4323": "Response",
  "4324": " until",
  "4325": "生命",
  "4326": " م",
  "4327": "х",
  "4328": " impro",
  "4329": "gress",
  "4330": "颜",
  "4331": " �",
  "4332": " output",
  "4333": "传统",
  "4334": " dev",
  "4335": "启",
  "4336": "累",
  "4337": " appe",
  "4338": "提升",
  "4339": "虑",
  "4340": "趣",
  "4341": "Table",
  "4342": " ste",
  "4343": "्�",
  "4344": "条件",
  "4345": "斗",
  "4346": "努力",
  "4347": ")(",
  "4348": "ights",
  "4349": "是在",
  "4350": "豆",
  "4351": "iod",
  "4352": "met",
  "4353": " property",
  "4354": "银行",
  "4355": "\tcase",
  "4356": "关于",
  "4357": "机会",
  "4358": "orld",
  "4359": "idget",
  "4360": "盖",
  "4361": "植",
  "4362": "润",
  "4363": "Client",
  "4364": "sub",
  "4365": "别人",
  "4366": "\">\n",
  "4367": " enjoy",
  "4368": "ills",
  "4369": "isplay",
  "4370": "////////////////",
  "4371": " course",
  "4372": " website",
  "4373": "灯",
  "4374": "都会",
  "4375": " parent",
  "4376": "ottom",
  "4377": "保持",
  "4378": "皮肤",
  "4379": "签",
  "4380": " fac",
  "4381": "adata",
  "4382": "不到",
  "4383": "威",
  "4384": "_ADD",
  "4385": " buy",
  "4386": " When",
  "4387": " called",
  "4388": " ident",
  "4389": "ably",
  "4390": "如此",
  "4391": "obj",
  "4392": "array",
  "4393": " large",
  "4394": "aim",
  "4395": " indust",
  "4396": "Be",
  "4397": "介绍",
  "4398": " */\n\n",
  "4399": "size",
  "4400": " understand",
  "4401": " research",
  "4402": "询",
  "4403": "kt",
  "4404": "por",
  "4405": "附",
  "4406": "沉",
  "4407": "rl",
  "4408": "б",
  "4409": "ram",
  "4410": "贴",
  "4411": "era",
  "4412": " OR",
  "4413": " sever",
  "4414": "arning",
  "4415": " No",
  "4416": "形成",
  "4417": "outh",
  "4418": " space",
  "4419": "责任",
  "4420": "rix",
  "4421": " map",
  "4422": " ter",
  "4423": "Override",
  "4424": " bro",
  "4425": "也有",
  "4426": "托",
  "4427": ".x",
  "4428": "呼",
  "4429": "专家",
  "4430": "旅游",
  "4431": "�",
  "4432": "escription",
  "4433": "田",
  "4434": " cou",
  "4435": "={",
  "4436": " past",
  "4437": "准备",
  "4438": "thers",
  "4439": " ann",
  "4440": "ensor",
  "4441": "66",
  "4442": " times",
  "4443": "著",
  "4444": " �",
  "4445": ".sh",
  "4446": "INT",
  "4447": "78",
  "4448": "Image",
  "4449": "ides",
  "4450": "side",
  "4451": "可是",
  "4452": "bol",
  "4453": " tool",
  "4454": "open",
  "4455": ">(",
  "4456": " node",
  "4457": "typ",
  "4458": "ta",
  "4459": "许多",
  "4460": "决定",
  "4461": "(l",
  "4462": "造成",
  "4463": "饰",
  "4464": "ops",
  "4465": " learn",
  "4466": "ä",
  "4467": "性的",
  "4468": "\"/",
  "4469": "开发",
  "4470": " leg",
  "4471": " ()",
  "4472": "isk",
  "4473": "illion",
  "4474": "opyright",
  "4475": " employ",
  "4476": " easy",
  "4477": "uments",
  "4478": "创新",
  "4479": "ips",
  "4480": " En",
  "4481": "销售",
  "4482": "肥",
  "4483": "操作",
  "4484": "Ed",
  "4485": "未来",
  "4486": "-in",
  "4487": "ibility",
  "4488": " With",
  "4489": "需求",
  "4490": "惊",
  "4491": "冰",
  "4492": "UP",
  "4493": "box",
  "4494": "下来",
  "4495": "随着",
  "4496": "adi",
  "4497": "延",
  "4498": "Ad",
  "4499": "尤",
  "4500": "模式",
  "4501": "raft",
  "4502": "(int",
  "4503": " response",
  "4504": "坚持",
  "4505": "Aut",
  "4506": "ifier",
  "4507": "巨",
  "4508": "theorem",
  "4509": "增长",
  "4510": "ional",
  "4511": "并且",
  "4512": "洲",
  "4513": "架",
  "4514": "AME",
  "4515": "Input",
  "4516": "                 ",
  "4517": "肌",
  "4518": "acy",
  "4519": "秋",
  "4520": "浪",
  "4521": "    \n",
  "4522": " clear",
  "4523": " profession",
  "4524": "记者",
  "4525": "ording",
  "4526": "unk",
  "4527": "\t\t\t\t\t\t",
  "4528": "node",
  "4529": "orth",
  "4530": "恶",
  "4531": " material",
  "4532": "aper",
  "4533": "时代",
  "4534": "output",
  "4535": "yth",
  "4536": " don't",
  "4537": "坏",
  "4538": " Gr",
  "4539": " kind",
  "4540": "弱",
  "4541": "参加",
  "4542": "材料",
  "4543": "ü",
  "4544": "(new",
  "4545": "电话",
  "4546": "日本",
  "4547": "都有",
  "4548": ".F",
  "4549": " seem",
  "4550": "迷",
  "4551": "左右",
  "4552": "sl",
  "4553": "ш",
  "4554": "业务",
  "4555": "应用",
  "4556": "05",
  "4557": "乱",
  "4558": " away",
  "4559": "\"\n\n",
  "4560": "帝",
  "4561": "client",
  "4562": " together",
  "4563": "public",
  "4564": " fore",
  "4565": "85",
  "4566": "bar",
  "4567": "ер",
  "4568": "女人",
  "4569": "�",
  "4570": "全球",
  "4571": "VE",
  "4572": "派",
  "4573": "state",
  "4574": "(e",
  "4575": "败",
  "4576": "unic",
  "4577": "告诉",
  "4578": "醒",
  "4579": "负责",
  "4580": " search",
  "4581": "ha",
  "4582": "_ex",
  "4583": "来越",
  "4584": "之一",
  "4585": "_to",
  "4586": "释",
  "4587": " occ",
  "4588": "alf",
  "4589": "计划",
  "4590": "\tint",
  "4591": "ividual",
  "4592": " means",
  "4593": "辆",
  "4594": " side",
  "4595": "资金",
  "4596": " share",
  "4597": "Property",
  "4598": "利用",
  "4599": "建议",
  "4600": " money",
  "4601": "惯",
  "4602": "rior",
  "4603": " document",
  "4604": "越来越",
  "4605": "!!",
  "4606": " begin",
  "4607": " red",
  "4608": "采用",
  "4609": "水平",
  "4610": " client",
  "4611": " often",
  "4612": "Call",
  "4613": "ffer",
  "4614": "探",
  "4615": " contact",
  "4616": "Block",
  "4617": "ollection",
  "4618": " auto",
  "4619": "irm",
  "4620": " match",
  "4621": "ike",
  "4622": "cd",
  "4623": "领导",
  "4624": "              ",
  "4625": "Action",
  "4626": " results",
  "4627": "olumn",
  "4628": "不得",
  "4629": "牙",
  "4630": " trad",
  "4631": " background",
  "4632": "过去",
  "4633": "币",
  "4634": "烟",
  "4635": "…",
  "4636": "妇",
  "4637": "经过",
  "4638": " �",
  "4639": "拥有",
  "4640": "挥",
  "4641": "Sub",
  "4642": " Comm",
  "4643": " it's",
  "4644": "暖",
  "4645": " house",
  "4646": " ens",
  "4647": ".ex",
  "4648": "pre",
  "4649": " href",
  "4650": "谓",
  "4651": "adding",
  "4652": "uro",
  "4653": "淡",
  "4654": " intern",
  "4655": "荣",
  "4656": "触",
  "4657": " At",
  "4658": "ов",
  "4659": "�",
  "4660": "金融",
  "4661": " values",
  "4662": "不知道",
  "4663": "の",
  "4664": "anel",
  "4665": " |\n",
  "4666": "Stream",
  "4667": "package",
  "4668": "fs",
  "4669": "庆",
  "4670": "95",
  "4671": "刺",
  "4672": "冬",
  "4673": "count",
  "4674": "ised",
  "4675": "---",
  "4676": "有关",
  "4677": "硬",
  "4678": "umer",
  "4679": "旧",
  "4680": "ada",
  "4681": " above",
  "4682": " pot",
  "4683": "杨",
  "4684": " inc",
  "4685": "那个",
  "4686": "纯",
  "4687": "(const",
  "4688": " low",
  "4689": " �",
  "4690": "束",
  "4691": " against",
  "4692": "折",
  "4693": "央",
  "4694": "野",
  "4695": " update",
  "4696": "actory",
  "4697": "握",
  "4698": " \n\n",
  "4699": " treat",
  "4700": "atabase",
  "4701": " clean",
  "4702": "IB",
  "4703": " imp",
  "4704": " beaut",
  "4705": "距",
  "4706": " hum",
  "4707": "作者",
  "4708": "肯",
  "4709": "inary",
  "4710": "earch",
  "4711": "�",
  "4712": "ı",
  "4713": "(S",
  "4714": " load",
  "4715": "ored",
  "4716": "兵",
  "4717": "积极",
  "4718": " float",
  "4719": "board",
  "4720": "里的",
  "4721": " air",
  "4722": ".length",
  "4723": "ugin",
  "4724": "ART",
  "4725": "cp",
  "4726": " Christ",
  "4727": "format",
  "4728": "ury",
  "4729": "No",
  "4730": " why",
  "4731": "变化",
  "4732": "掌",
  "4733": "aring",
  "4734": " perfect",
  "4735": "�",
  "4736": " });\n",
  "4737": "Instance",
  "4738": "unch",
  "4739": "状态",
  "4740": "imum",
  "4741": " below",
  "4742": "圆",
  "4743": "零",
  "4744": "经常",
  "4745": "忘",
  "4746": "'re",
  "4747": " having",
  "4748": "span",
  "4749": "’ll",
  "4750": ".R",
  "4751": "Em",
  "4752": "omain",
  "4753": "抓",
  "4754": "烈",
  "4755": "yc",
  "4756": "uk",
  "4757": "耳",
  "4758": "厚",
  "4759": " host",
  "4760": " late",
  "4761": "ajor",
  "4762": "ley",
  "4763": "设备",
  "4764": " community",
  "4765": "udio",
  "4766": "�",
  "4767": "钢",
  "4768": "na",
  "4769": " Br",
  "4770": "_info",
  "4771": " four",
  "4772": "Line",
  "4773": "建筑",
  "4774": "400",
  "4775": "(i",
  "4776": "�",
  "4777": " Mar",
  "4778": "ulation",
  "4779": "甲",
  "4780": "明显",
  "4781": "IO",
  "4782": " �",
  "4783": " instance",
  "4784": "plit",
  "4785": "舞",
  "4786": "遗",
  "4787": "rect",
  "4788": "Pr",
  "4789": "幸福",
  "4790": "有人",
  "4791": "lick",
  "4792": "面的",
  "4793": "ар",
  "4794": "ibrary",
  "4795": " personal",
  "4796": "超过",
  "4797": "lin",
  "4798": "ba",
  "4799": " comb",
  "4800": "检查",
  "4801": "封",
  "4802": "贫",
  "4803": "更多",
  "4804": "andom",
  "4805": "ze",
  "4806": "plied",
  "4807": "ograph",
  "4808": "访",
  "4809": " ===",
  "4810": "opp",
  "4811": "vider",
  "4812": " к",
  "4813": " pack",
  "4814": "fort",
  "4815": "岛",
  "4816": " exist",
  "4817": " members",
  "4818": "懂",
  "4819": "作品",
  "4820": "HT",
  "4821": "web",
  "4822": "盛",
  "4823": "相信",
  "4824": "寻",
  "4825": "};\n\n",
  "4826": ">>",
  "4827": "upport",
  "4828": " price",
  "4829": "pc",
  "4830": "改变",
  "4831": "func",
  "4832": " makes",
  "4833": "ones",
  "4834": "予",
  "4835": "yl",
  "4836": "冠",
  "4837": " single",
  "4838": "翻",
  "4839": "uid",
  "4840": "utes",
  "4841": "符",
  "4842": "ODE",
  "4843": "une",
  "4844": "罪",
  "4845": "纸",
  "4846": " write",
  "4847": "偏",
  "4848": "的心",
  "4849": " Can",
  "4850": "ABLE",
  "4851": "皇",
  "4852": "教学",
  "4853": "scri",
  "4854": " thing",
  "4855": " amount",
  "4856": "麻",
  "4857": "Point",
  "4858": "ising",
  "4859": " govern",
  "4860": " complet",
  "4861": "ymbol",
  "4862": "-h",
  "4863": " individual",
  "4864": " �",
  "4865": " device",
  "4866": "只能",
  "4867": "AY",
  "4868": ".to",
  "4869": "IX",
  "4870": " win",
  "4871": "驾",
  "4872": " cur",
  "4873": " comput",
  "4874": " later",
  "4875": "_get",
  "4876": "不少",
  "4877": "也会",
  "4878": "故事",
  "4879": "IZ",
  "4880": " font",
  "4881": "奥",
  "4882": "oor",
  "4883": "爆",
  "4884": " benef",
  "4885": " lik",
  "4886": " opt",
  "4887": "08",
  "4888": "尼",
  "4889": "ead",
  "4890": " near",
  "4891": " web",
  "4892": "开展",
  "4893": " CON",
  "4894": "集团",
  "4895": "Button",
  "4896": " That",
  "4897": "%%",
  "4898": " once",
  "4899": " See",
  "4900": " anal",
  "4901": "ة",
  "4902": "iction",
  "4903": "综合",
  "4904": "Fl",
  "4905": "库",
  "4906": "summary",
  "4907": "侧",
  "4908": "一定要",
  "4909": " �",
  "4910": "授",
  "4911": " redu",
  "4912": " My",
  "4913": "重点",
  "4914": " enough",
  "4915": "诊",
  "4916": "交通",
  "4917": "宽",
  "4918": " become",
  "4919": "蓝",
  "4920": "ML",
  "4921": "风险",
  "4922": "net",
  "4923": "受到",
  "4924": " \"\"",
  "4925": "ls",
  "4926": " Public",
  "4927": ".\"\n",
  "4928": " ver",
  "4929": "缓",
  "4930": "�",
  "4931": "秘",
  "4932": "ал",
  "4933": "ctx",
  "4934": "47",
  "4935": "生的",
  "4936": "’m",
  "4937": " details",
  "4938": "犯",
  "4939": "obile",
  "4940": "弟",
  "4941": "TE",
  "4942": " boolean",
  "4943": "Rec",
  "4944": "connect",
  "4945": " development",
  "4946": "Ref",
  "4947": "雄",
  "4948": "显示",
  "4949": " network",
  "4950": "Box",
  "4951": " Eng",
  "4952": " [\n",
  "4953": "path",
  "4954": "omen",
  "4955": "正常",
  "4956": "桥",
  "4957": "\td",
  "4958": "舒",
  "4959": "厅",
  "4960": "ster",
  "4961": "教师",
  "4962": " focus",
  "4963": ",”",
  "4964": "query",
  "4965": "ney",
  "4966": "avel",
  "4967": "经营",
  "4968": "经验",
  "4969": ".Get",
  "4970": "ixed",
  "4971": "ators",
  "4972": " far",
  "4973": "ounter",
  "4974": " date",
  "4975": " God",
  "4976": " install",
  "4977": "结构",
  "4978": "49",
  "4979": "违",
  "4980": "ialog",
  "4981": "46",
  "4982": " Im",
  "4983": "rew",
  "4984": "雅",
  "4985": "比赛",
  "4986": "oogle",
  "4987": "湿",
  "4988": " н",
  "4989": "按照",
  "4990": "_list",
  "4991": " status",
  "4992": " mean",
  "4993": "多少",
  "4994": "tx",
  "4995": " OF",
  "4996": "avor",
  "4997": " bo",
  "4998": "-st",
  "4999": "接受",
  "5000": "pose",
  "5001": "并不",
  "5002": "197",
  "5003": " opport",
  "5004": "ython",
  "5005": "tain",
  "5006": "eta",
  "5007": "\tfor",
  "5008": "出的",
  "5009": "严重",
  "5010": "洁",
  "5011": " ra",
  "5012": " others",
  "5013": "缘",
  "5014": "ele",
  "5015": "atter",
  "5016": "正在",
  "5017": "())\n",
  "5018": "EB",
  "5019": "讨",
  "5020": "update",
  "5021": "uest",
  "5022": " hold",
  "5023": " desc",
  "5024": "Builder",
  "5025": "于是",
  "5026": " These",
  "5027": "App",
  "5028": ".W",
  "5029": " provided",
  "5030": "ա",
  "5031": "隐",
  "5032": "_se",
  "5033": "ites",
  "5034": "关键",
  "5035": "宗",
  "5036": "私",
  "5037": "让人",
  "5038": "_ch",
  "5039": "疾病",
  "5040": " review",
  "5041": "ino",
  "5042": "ع",
  "5043": "纷",
  "5044": "field",
  "5045": "敢",
  "5046": ".\"",
  "5047": " certain",
  "5048": "curity",
  "5049": " hot",
  "5050": "ework",
  "5051": "址",
  "5052": "万元",
  "5053": " Reg",
  "5054": "###",
  "5055": " publ",
  "5056": "Str",
  "5057": "ा�",
  "5058": " thought",
  "5059": "持续",
  "5060": "ana",
  "5061": "down",
  "5062": " features",
  "5063": "Date",
  "5064": "烧",
  "5065": " continue",
  "5066": "Check",
  "5067": " }\r\n",
  "5068": "്",
  "5069": "Start",
  "5070": "同学",
  "5071": " What",
  "5072": " quick",
  "5073": "发布",
  "5074": "Act",
  "5075": " several",
  "5076": "智能",
  "5077": "xy",
  "5078": "峰",
  "5079": "izer",
  "5080": " across",
  "5081": "dep",
  "5082": " http",
  "5083": " que",
  "5084": "弃",
  "5085": " social",
  "5086": "遍",
  "5087": " clos",
  "5088": " conc",
  "5089": "alt",
  "5090": "/*\n",
  "5091": "领域",
  "5092": "77",
  "5093": "寒",
  "5094": " talk",
  "5095": "阅",
  "5096": " valid",
  "5097": " IS",
  "5098": "....",
  "5099": "整个",
  "5100": "家长",
  "5101": "///",
  "5102": "ponents",
  "5103": "一个人",
  "5104": "active",
  "5105": " height",
  "5106": "י",
  "5107": " live",
  "5108": " General",
  "5109": "最终",
  "5110": "PT",
  "5111": " least",
  "5112": "};\n",
  "5113": " Am",
  "5114": "属于",
  "5115": "下的",
  "5116": "一切",
  "5117": " University",
  "5118": "_of",
  "5119": " label",
  "5120": " future",
  "5121": "后来",
  "5122": "ica",
  "5123": " comes",
  "5124": "info",
  "5125": "iful",
  "5126": "ari",
  "5127": "篇",
  "5128": " fund",
  "5129": "RESS",
  "5130": "used",
  "5131": " total",
  "5132": "妻",
  "5133": "现场",
  "5134": "她的",
  "5135": " Fl",
  "5136": "ocol",
  "5137": " close",
  "5138": "而是",
  "5139": "iles",
  "5140": "男人",
  "5141": " country",
  "5142": "09",
  "5143": "诚",
  "5144": " Do",
  "5145": "的问题",
  "5146": "乳",
  "5147": "个月",
  "5148": "amb",
  "5149": "-g",
  "5150": "oper",
  "5151": "忙",
  "5152": "PC",
  "5153": "席",
  "5154": " sn",
  "5155": "hema",
  "5156": "习惯",
  "5157": " hope",
  "5158": "./",
  "5159": " vari",
  "5160": "Query",
  "5161": " wait",
  "5162": " ele",
  "5163": "建立",
  "5164": "宝宝",
  "5165": "吉",
  "5166": "ging",
  "5167": "height",
  "5168": "conom",
  "5169": "irection",
  "5170": "mark",
  "5171": "链",
  "5172": "川",
  "5173": " environment",
  "5174": "泡",
  "5175": " select",
  "5176": "默",
  "5177": " task",
  "5178": "ounds",
  "5179": "剂",
  "5180": "镜",
  "5181": "媒体",
  "5182": "Read",
  "5183": "03",
  "5184": " whether",
  "5185": " application",
  "5186": " getting",
  "5187": "iple",
  "5188": "暴",
  "5189": " land",
  "5190": " >=",
  "5191": " track",
  "5192": "�",
  "5193": "雷",
  "5194": "Base",
  "5195": " hig",
  "5196": "现代",
  "5197": "汇",
  "5198": " educ",
  "5199": "pring",
  "5200": " initial",
  "5201": "်",
  "5202": "无论",
  "5203": " particular",
  "5204": "滑",
  "5205": " season",
  "5206": "imal",
  "5207": " Copyright",
  "5208": " elect",
  "5209": "ding",
  "5210": "astic",
  "5211": "End",
  "5212": "十分",
  "5213": "anies",
  "5214": "结合",
  "5215": "督",
  "5216": " simple",
  "5217": "da",
  "5218": "ilities",
  "5219": "ц",
  "5220": "Content",
  "5221": " video",
  "5222": "届",
  "5223": "挑",
  "5224": " music",
  "5225": "样的",
  "5226": " ID",
  "5227": ")。",
  "5228": "ocket",
  "5229": "汤",
  "5230": " ant",
  "5231": " teach",
  "5232": " created",
  "5233": "erial",
  "5234": "riter",
  "5235": "联系",
  "5236": "尊",
  "5237": " ever",
  "5238": "孕",
  "5239": "混",
  "5240": "脂",
  "5241": "面对",
  "5242": "rows",
  "5243": " city",
  "5244": "租",
  "5245": "末",
  "5246": "asure",
  "5247": "色的",
  "5248": "缩",
  "5249": "lt",
  "5250": " applic",
  "5251": "ouch",
  "5252": "胃",
  "5253": "Buffer",
  "5254": "urther",
  "5255": "oved",
  "5256": "OW",
  "5257": "洋",
  "5258": "EC",
  "5259": "Number",
  "5260": "锅",
  "5261": "68",
  "5262": "ched",
  "5263": "带来",
  "5264": " problem",
  "5265": "方向",
  "5266": " <=",
  "5267": "Component",
  "5268": " box",
  "5269": "sole",
  "5270": "途",
  "5271": "过程中",
  "5272": " mind",
  "5273": "                               ",
  "5274": " major",
  "5275": "options",
  "5276": " await",
  "5277": ";\r\n\r\n",
  "5278": "Mode",
  "5279": "ken",
  "5280": "-r",
  "5281": " Car",
  "5282": " terms",
  "5283": " Not",
  "5284": "achine",
  "5285": "陆",
  "5286": "期间",
  "5287": " abs",
  "5288": " sw",
  "5289": "sk",
  "5290": "压力",
  "5291": "具体",
  "5292": ":\n\n",
  "5293": "丰富",
  "5294": " Test",
  "5295": "参与",
  "5296": " fre",
  "5297": "箱",
  "5298": "来看",
  "5299": " started",
  "5300": " doing",
  "5301": "屋",
  "5302": "soft",
  "5303": "楚",
  "5304": "杯",
  "5305": " actually",
  "5306": "我国",
  "5307": "挂",
  "5308": " len",
  "5309": "_un",
  "5310": "icult",
  "5311": "电视",
  "5312": "bt",
  "5313": "胡",
  "5314": "ached",
  "5315": " length",
  "5316": " perm",
  "5317": " common",
  "5318": "256",
  "5319": "ALL",
  "5320": "Token",
  "5321": "Handler",
  "5322": "后的",
  "5323": " center",
  "5324": " title",
  "5325": "抱",
  "5326": "','",
  "5327": "%A",
  "5328": "亿元",
  "5329": "Off",
  "5330": "尤其",
  "5331": " \"\\",
  "5332": " email",
  "5333": "){\n",
  "5334": "齐",
  "5335": " walk",
  "5336": "及时",
  "5337": " nat",
  "5338": "MS",
  "5339": "漫",
  "5340": " purch",
  "5341": " border",
  "5342": "电影",
  "5343": "励",
  "5344": " expected",
  "5345": "len",
  "5346": "TH",
  "5347": "(r",
  "5348": "年轻",
  "5349": "ITY",
  "5350": "Options",
  "5351": "事情",
  "5352": "禁",
  "5353": "oe",
  "5354": "max",
  "5355": "TO",
  "5356": " typ",
  "5357": "flow",
  "5358": "erved",
  "5359": "ipe",
  "5360": "引起",
  "5361": "贷",
  "5362": " cell",
  "5363": " term",
  "5364": "调整",
  "5365": " record",
  "5366": "阶段",
  "5367": " step",
  "5368": " activ",
  "5369": ".id",
  "5370": "egin",
  "5371": ".log",
  "5372": "(a",
  "5373": "思想",
  "5374": " Inst",
  "5375": "}}",
  "5376": "What",
  "5377": "ointer",
  "5378": "献",
  "5379": "Sp",
  "5380": ">\r\n",
  "5381": "韩",
  "5382": "首先",
  "5383": " execut",
  "5384": " Our",
  "5385": "圣",
  "5386": " Aut",
  "5387": "总是",
  "5388": " flo",
  "5389": "DB",
  "5390": "长期",
  "5391": "{\r\n",
  "5392": "anks",
  "5393": " Med",
  "5394": "irtual",
  "5395": " files",
  "5396": "Source",
  "5397": "itted",
  "5398": "联网",
  "5399": "qrt",
  "5400": "欲",
  "5401": " tell",
  "5402": "start",
  "5403": "进一步",
  "5404": " recomm",
  "5405": "有限公司",
  "5406": " ",
  "5407": " night",
  "5408": "改革",
  "5409": "位置",
  "5410": "apter",
  "5411": " deal",
  "5412": " yet",
  "5413": "实施",
  "5414": "措",
  "5415": "适合",
  "5416": "收入",
  "5417": "\t   ",
  "5418": "惠",
  "5419": "都不",
  "5420": "巧",
  "5421": " ($",
  "5422": "roups",
  "5423": " cred",
  "5424": "Ph",
  "5425": " https",
  "5426": "文章",
  "5427": "\t\n",
  "5428": "窗",
  "5429": " card",
  "5430": " writing",
  "5431": "扩",
  "5432": "理解",
  "5433": "伙",
  "5434": " complete",
  "5435": "07",
  "5436": " respons",
  "5437": "uster",
  "5438": " mar",
  "5439": "True",
  "5440": " May",
  "5441": "UI",
  "5442": "污",
  "5443": "腿",
  "5444": " bar",
  "5445": "(_",
  "5446": "想要",
  "5447": " dig",
  "5448": "跳",
  "5449": "体验",
  "5450": "arse",
  "5451": " д",
  "5452": " },",
  "5453": "龄",
  "5454": " diff",
  "5455": " catch",
  "5456": "posit",
  "5457": "(C",
  "5458": " ang",
  "5459": ".append",
  "5460": " entry",
  "5461": "offset",
  "5462": " please",
  "5463": " pie",
  "5464": " invol",
  "5465": " mom",
  "5466": " cut",
  "5467": "另外",
  "5468": "ILE",
  "5469": " hours",
  "5470": "考虑",
  "5471": "唱",
  "5472": "There",
  "5473": " author",
  "5474": "脉",
  "5475": "忆",
  "5476": "PO",
  "5477": "andle",
  "5478": "ptr",
  "5479": " compet",
  "5480": ".de",
  "5481": "ilar",
  "5482": "otal",
  "5483": "就可以",
  "5484": "美元",
  "5485": "快乐",
  "5486": " src",
  "5487": "ogn",
  "5488": "mon",
  "5489": "�",
  "5490": "ged",
  "5491": "订",
  "5492": " bring",
  "5493": "\"/>\n",
  "5494": " though",
  "5495": "优势",
  "5496": " =\n",
  "5497": "ev",
  "5498": "UG",
  "5499": "istry",
  "5500": "全面",
  "5501": "most",
  "5502": "墙",
  "5503": "！\"",
  "5504": " apply",
  "5505": "\"),",
  "5506": "_ID",
  "5507": "df",
  "5508": "的情况",
  "5509": "隔",
  "5510": "ued",
  "5511": " story",
  "5512": "42",
  "5513": "震",
  "5514": " events",
  "5515": "胸",
  "5516": "pg",
  "5517": "–",
  "5518": "Hel",
  "5519": "暗",
  "5520": "])",
  "5521": "aken",
  "5522": "唯",
  "5523": "摩",
  "5524": "Connect",
  "5525": " works",
  "5526": "AX",
  "5527": " offers",
  "5528": "fully",
  "5529": "系列",
  "5530": "婆",
  "5531": "imate",
  "5532": "omet",
  "5533": " Co",
  "5534": "json",
  "5535": "ners",
  "5536": "ULT",
  "5537": "uation",
  "5538": "赶",
  "5539": " industry",
  "5540": "涉",
  "5541": "以下",
  "5542": " dest",
  "5543": "恋",
  "5544": " items",
  "5545": " element",
  "5546": "毫",
  "5547": " sum",
  "5548": "ny",
  "5549": "成绩",
  "5550": "ports",
  "5551": "唐",
  "5552": "保证",
  "5553": "AND",
  "5554": "ו",
  "5555": "Us",
  "5556": " ب",
  "5557": "高的",
  "5558": " bed",
  "5559": "Pre",
  "5560": " ک",
  "5561": "有了",
  "5562": "减少",
  "5563": " б",
  "5564": "imer",
  "5565": "Version",
  "5566": "ental",
  "5567": " strong",
  "5568": "讯",
  "5569": " distributed",
  "5570": " minutes",
  "5571": "仪",
  "5572": "心的",
  "5573": " provides",
  "5574": "06",
  "5575": "孙",
  "5576": " period",
  "5577": "icial",
  "5578": "女性",
  "5579": "When",
  "5580": "artment",
  "5581": "不错",
  "5582": " represent",
  "5583": "阵",
  "5584": " However",
  "5585": "ili",
  "5586": "്�",
  "5587": "wards",
  "5588": "幼",
  "5589": " unique",
  "5590": "KEY",
  "5591": " rele",
  "5592": "pare",
  "5593": " needed",
  "5594": "量的",
  "5595": "CC",
  "5596": "共同",
  "5597": "估",
  "5598": " pict",
  "5599": " т",
  "5600": "################",
  "5601": " draw",
  "5602": "鼓",
  "5603": "倍",
  "5604": "\tt",
  "5605": " Mon",
  "5606": " camp",
  "5607": "的事情",
  "5608": "驶",
  "5609": "abs",
  "5610": "ering",
  "5611": "食物",
  "5612": "扬",
  "5613": "膜",
  "5614": " added",
  "5615": ".ap",
  "5616": " о",
  "5617": "不好",
  "5618": "OUT",
  "5619": "曾经",
  "5620": " companies",
  "5621": "脏",
  "5622": " mot",
  "5623": "ор",
  "5624": " known",
  "5625": "uly",
  "5626": "医疗",
  "5627": " received",
  "5628": "UD",
  "5629": "xx",
  "5630": "乘",
  "5631": "ол",
  "5632": "New",
  "5633": " building",
  "5634": "lish",
  "5635": "先生",
  "5636": "my",
  "5637": "co",
  "5638": "ERS",
  "5639": "事业",
  "5640": " server",
  "5641": "uit",
  "5642": ".data",
  "5643": " previous",
  "5644": " download",
  "5645": "学院",
  "5646": " THE",
  "5647": "Method",
  "5648": "勇",
  "5649": "\tg",
  "5650": "心理",
  "5651": " everything",
  "5652": "\\u",
  "5653": "Page",
  "5654": ".y",
  "5655": " training",
  "5656": "/t",
  "5657": "pu",
  "5658": "来自",
  "5659": "NU",
  "5660": "让我",
  "5661": " implement",
  "5662": "恩",
  "5663": " der",
  "5664": "肝",
  "5665": " register",
  "5666": ".size",
  "5667": " due",
  "5668": " original",
  "5669": "oke",
  "5670": " ess",
  "5671": " prob",
  "5672": "以来",
  "5673": "urance",
  "5674": "Equal",
  "5675": "庄",
  "5676": "成本",
  "5677": "_path",
  "5678": "ー",
  "5679": "urch",
  "5680": "ان",
  "5681": " limit",
  "5682": "肠",
  "5683": "储",
  "5684": "ledge",
  "5685": " Cal",
  "5686": "妹",
  "5687": "申请",
  "5688": "![",
  "5689": "做好",
  "5690": " types",
  "5691": "慧",
  "5692": "anch",
  "5693": "System",
  "5694": "150",
  "5695": "ado",
  "5696": " study",
  "5697": "agn",
  "5698": "Gener",
  "5699": " Object",
  "5700": "几个",
  "5701": " pick",
  "5702": " format",
  "5703": " media",
  "5704": "PS",
  "5705": "��",
  "5706": " happen",
  "5707": "目的",
  "5708": " *)",
  "5709": "稳定",
  "5710": " chall",
  "5711": "狗",
  "5712": "Gr",
  "5713": "`,",
  "5714": "Null",
  "5715": "\t\t\t\t\t\t\t\t",
  "5716": "会议",
  "5717": "成长",
  "5718": "诸",
  "5719": " blog",
  "5720": "普通",
  "5721": " stre",
  "5722": "癌",
  "5723": "ining",
  "5724": "加强",
  "5725": " beautiful",
  "5726": " associ",
  "5727": "ITH",
  "5728": "ohn",
  "5729": "dr",
  "5730": " send",
  "5731": "执行",
  "5732": "耐",
  "5733": "认识",
  "5734": "幕",
  "5735": "意识",
  "5736": "_count",
  "5737": "enses",
  "5738": "ervices",
  "5739": " press",
  "5740": "人生",
  "5741": "范围",
  "5742": ".io",
  "5743": "他们的",
  "5744": "Resource",
  "5745": "保障",
  "5746": "ynam",
  "5747": " friend",
  "5748": "衡",
  "5749": "NS",
  "5750": "猪",
  "5751": "趋",
  "5752": " tax",
  "5753": " margin",
  "5754": "敏",
  "5755": "荐",
  "5756": "_work",
  "5757": " Fe",
  "5758": "沟",
  "5759": "尿",
  "5760": " join",
  "5761": "orry",
  "5762": "程度",
  "5763": "amework",
  "5764": "_pl",
  "5765": "local",
  "5766": "法律",
  "5767": " Col",
  "5768": "\tstruct",
  "5769": "iy",
  "5770": "消费者",
  "5771": " pain",
  "5772": " changes",
  "5773": "绪",
  "5774": "Attribute",
  "5775": "电子",
  "5776": " Dr",
  "5777": " customers",
  "5778": "ARR",
  "5779": "imary",
  "5780": "办法",
  "5781": "itc",
  "5782": "num",
  "5783": "84",
  "5784": "196",
  "5785": "的时间",
  "5786": "避免",
  "5787": "说明",
  "5788": "();",
  "5789": "卷",
  "5790": "烦",
  "5791": "location",
  "5792": "潮",
  "5793": " language",
  "5794": " State",
  "5795": " NOT",
  "5796": "amed",
  "5797": " One",
  "5798": "每个",
  "5799": "xt",
  "5800": "是一种",
  "5801": " exact",
  "5802": " location",
  "5803": "level",
  "5804": "全部",
  "5805": "~~",
  "5806": "？\"",
  "5807": "67",
  "5808": "light",
  "5809": "ounc",
  "5810": " lean",
  "5811": " larg",
  "5812": "的高",
  "5813": "凡",
  "5814": ".html",
  "5815": "QL",
  "5816": "hel",
  "5817": " miss",
  "5818": "attr",
  "5819": " Intern",
  "5820": " tre",
  "5821": "\tthis",
  "5822": "》,",
  "5823": "env",
  "5824": " energ",
  "5825": "ancial",
  "5826": "经历",
  "5827": " early",
  "5828": " months",
  "5829": "asing",
  "5830": " ${",
  "5831": "TER",
  "5832": "\telse",
  "5833": "(),\n",
  "5834": " aff",
  "5835": "毕业",
  "5836": "-re",
  "5837": "oute",
  "5838": "IZE",
  "5839": " management",
  "5840": " ensure",
  "5841": "主义",
  "5842": "ools",
  "5843": "aur",
  "5844": "mber",
  "5845": "购买",
  "5846": "pli",
  "5847": "LL",
  "5848": "Frame",
  "5849": " discuss",
  "5850": " command",
  "5851": "甜",
  "5852": "-color",
  "5853": "abor",
  "5854": " mode",
  "5855": "\\\n",
  "5856": "END",
  "5857": " necess",
  "5858": "\tbreak",
  "5859": "保险",
  "5860": "rip",
  "5861": "抽",
  "5862": "ony",
  "5863": " addition",
  "5864": " collection",
  "5865": "ises",
  "5866": "IST",
  "5867": " issues",
  "5868": " technology",
  "5869": "职业",
  "5870": "网站",
  "5871": "%。",
  "5872": "Acc",
  "5873": "\").",
  "5874": "//\n",
  "5875": "sel",
  "5876": " url",
  "5877": "盟",
  "5878": "nown",
  "5879": " autom",
  "5880": "聘",
  "5881": "一天",
  "5882": "胞",
  "5883": " save",
  "5884": "(h",
  "5885": "�",
  "5886": "ACK",
  "5887": "oon",
  "5888": "ат",
  "5889": "Init",
  "5890": "}\r\n",
  "5891": "uary",
  "5892": "凉",
  "5893": "往往",
  "5894": "意义",
  "5895": "pected",
  "5896": "ison",
  "5897": "菌",
  "5898": "++)",
  "5899": " stay",
  "5900": " front",
  "5901": "岗",
  "5902": "池",
  "5903": " subject",
  "5904": "_TYPE",
  "5905": " heart",
  "5906": " points",
  "5907": "Default",
  "5908": "800",
  "5909": "交流",
  "5910": "子的",
  "5911": " click",
  "5912": "atrix",
  "5913": "]);\n",
  "5914": "CTION",
  "5915": " ey",
  "5916": "root",
  "5917": "肯定",
  "5918": "ا�",
  "5919": "ա�",
  "5920": " };\n",
  "5921": "atal",
  "5922": "apping",
  "5923": " improve",
  "5924": " args",
  "5925": "ے",
  "5926": " sell",
  "5927": "然而",
  "5928": "卫生",
  "5929": "just",
  "5930": " various",
  "5931": "竞争",
  "5932": "printf",
  "5933": " ANY",
  "5934": "贝",
  "5935": "制度",
  "5936": "ici",
  "5937": "营养",
  "5938": "uper",
  "5939": "Ass",
  "5940": "旗",
  "5941": "(re",
  "5942": "verse",
  "5943": "Listener",
  "5944": " agre",
  "5945": " users",
  "5946": "整体",
  "5947": "-S",
  "5948": "ہ",
  "5949": "亦",
  "5950": "ume",
  "5951": "斑",
  "5952": " whole",
  "5953": "的地方",
  "5954": "ö",
  "5955": "很多人",
  "5956": "怪",
  "5957": "吴",
  "5958": "档",
  "5959": "促进",
  "5960": "_LO",
  "5961": "Oper",
  "5962": "爱情",
  "5963": "会有",
  "5964": " questions",
  "5965": "最好",
  "5966": "券",
  "5967": "pm",
  "5968": " flow",
  "5969": "亡",
  "5970": " came",
  "5971": " answ",
  "5972": "根本",
  "5973": "债",
  "5974": "encies",
  "5975": "_CON",
  "5976": " Qu",
  "5977": "优秀",
  "5978": "它的",
  "5979": "因素",
  "5980": " global",
  "5981": " young",
  "5982": "vm",
  "5983": "Update",
  "5984": " и",
  "5985": "Command",
  "5986": "(String",
  "5987": "rypt",
  "5988": "纹",
  "5989": "medi",
  "5990": "互联网",
  "5991": "彻",
  "5992": "anced",
  "5993": " м",
  "5994": "oto",
  "5995": "祖",
  "5996": "_key",
  "5997": "_cl",
  "5998": "繁",
  "5999": " Ed",
  "6000": ".create",
  "6001": "aid",
  "6002": "音乐",
  "6003": "�",
  "6004": "也许",
  "6005": "对方",
  "6006": "98",
  "6007": "ysis",
  "6008": " description",
  "6009": "尾",
  "6010": "Factory",
  "6011": " performance",
  "6012": " Min",
  "6013": " history",
  "6014": " Return",
  "6015": " Data",
  "6016": "empt",
  "6017": " million",
  "6018": "Entry",
  "6019": " upd",
  "6020": "oz",
  "6021": "规划",
  "6022": "_value",
  "6023": "clus",
  "6024": "加入",
  "6025": " sent",
  "6026": " says",
  "6027": " professional",
  "6028": " percent",
  "6029": "悉",
  "6030": " handle",
  "6031": " additional",
  "6032": " white",
  "6033": "规模",
  "6034": "How",
  "6035": " ca",
  "6036": "So",
  "6037": "idence",
  "6038": " EX",
  "6039": " determ",
  "6040": "pecially",
  "6041": "分别",
  "6042": "赞",
  "6043": "力量",
  "6044": "团队",
  "6045": "([",
  "6046": "君",
  "6047": "ias",
  "6048": " cannot",
  "6049": "聊",
  "6050": "满足",
  "6051": "手术",
  "6052": " engine",
  "6053": "确定",
  "6054": "以为",
  "6055": "cer",
  "6056": "腹",
  "6057": "================================",
  "6058": " fail",
  "6059": "了一个",
  "6060": "刷",
  "6061": " extends",
  "6062": " filename",
  "6063": " cult",
  "6064": "消息",
  "6065": "湾",
  "6066": "NE",
  "6067": " etc",
  "6068": "cel",
  "6069": "旦",
  "6070": "推荐",
  "6071": "Function",
  "6072": "icrosoft",
  "6073": "amera",
  "6074": " phys",
  "6075": " Des",
  "6076": " took",
  "6077": " ST",
  "6078": "船",
  "6079": " window",
  "6080": "区域",
  "6081": " accept",
  "6082": "\".",
  "6083": "方案",
  "6084": " strateg",
  "6085": " protected",
  "6086": "ributes",
  "6087": "label",
  "6088": "table",
  "6089": "ival",
  "6090": "idden",
  "6091": "萨",
  "6092": " button",
  "6093": "以前",
  "6094": "(struct",
  "6095": "�",
  "6096": "阻",
  "6097": "豪",
  "6098": "谷",
  "6099": "奋",
  "6100": "Vis",
  "6101": "_file",
  "6102": "cast",
  "6103": "oundation",
  "6104": "里面",
  "6105": " friends",
  "6106": "盐",
  "6107": " By",
  "6108": "aced",
  "6109": " cook",
  "6110": " Part",
  "6111": "_str",
  "6112": " running",
  "6113": " colum",
  "6114": "�",
  "6115": "炒",
  "6116": "α",
  "6117": " defined",
  "6118": " ...",
  "6119": "浓",
  "6120": "iday",
  "6121": "120",
  "6122": "体系",
  "6123": "结束",
  "6124": "-y",
  "6125": " vol",
  "6126": " Euro",
  "6127": "ocs",
  "6128": "base",
  "6129": " government",
  "6130": "计算",
  "6131": "cul",
  "6132": " Free",
  "6133": "ق",
  "6134": "gy",
  "6135": "efore",
  "6136": " Type",
  "6137": "截",
  "6138": " choose",
  "6139": "「",
  "6140": " except",
  "6141": " info",
  "6142": " Ste",
  "6143": "柔",
  "6144": " face",
  "6145": "迹",
  "6146": "_reg",
  "6147": " relations",
  "6148": "小编",
  "6149": ".class",
  "6150": " further",
  "6151": " areas",
  "6152": " econom",
  "6153": "」",
  "6154": "SON",
  "6155": "esh",
  "6156": " stop",
  "6157": "Format",
  "6158": "Ob",
  "6159": "大多",
  "6160": " Inc",
  "6161": "eral",
  "6162": " character",
  "6163": " Comp",
  "6164": "取得",
  "6165": " dam",
  "6166": "vector",
  "6167": "Address",
  "6168": "闭",
  "6169": " fit",
  "6170": "宣传",
  "6171": "永远",
  "6172": " os",
  "6173": "iddle",
  "6174": "ourn",
  "6175": "ih",
  "6176": "ATION",
  "6177": "osp",
  "6178": " series",
  "6179": " particip",
  "6180": "基金",
  "6181": "舍",
  "6182": "etch",
  "6183": "posed",
  "6184": " extra",
  "6185": "wise",
  "6186": " energy",
  "6187": "oice",
  "6188": "iting",
  "6189": "快速",
  "6190": "珠",
  "6191": "网友",
  "6192": "aging",
  "6193": ".cl",
  "6194": "eed",
  "6195": "商业",
  "6196": "elt",
  "6197": "也可以",
  "6198": "Layout",
  "6199": "�",
  "6200": " sat",
  "6201": "刀",
  "6202": "磨",
  "6203": "赏",
  "6204": "爷",
  "6205": "考试",
  "6206": " fall",
  "6207": "儿童",
  "6208": "ufact",
  "6209": "olume",
  "6210": " rights",
  "6211": "培养",
  "6212": "食品",
  "6213": "最大",
  "6214": "php",
  "6215": " idea",
  "6216": "enn",
  "6217": " entire",
  "6218": " conditions",
  "6219": " seen",
  "6220": "伟",
  "6221": "core",
  "6222": "珍",
  "6223": "形式",
  "6224": "最近",
  "6225": "change",
  "6226": "Part",
  "6227": "如今",
  "6228": "指导",
  "6229": "_ERR",
  "6230": "莫",
  "6231": "entry",
  "6232": "'),\n",
  "6233": " GNU",
  "6234": " Ab",
  "6235": " α",
  "6236": "ama",
  "6237": "Run",
  "6238": "中央",
  "6239": ".png",
  "6240": " member",
  "6241": "分享",
  "6242": "oom",
  "6243": "重要的",
  "6244": " role",
  "6245": "面积",
  "6246": "现象",
  "6247": "、\"",
  "6248": "Output",
  "6249": "select",
  "6250": " (\n",
  "6251": " includes",
  "6252": " hel",
  "6253": "Label",
  "6254": "anged",
  "6255": "恐",
  "6256": "行动",
  "6257": "Per",
  "6258": "摆",
  "6259": " $(",
  "6260": "即使",
  "6261": "一年",
  "6262": "创业",
  "6263": "不同的",
  "6264": "看看",
  "6265": "quired",
  "6266": "____",
  "6267": "SC",
  "6268": " word",
  "6269": "_ADDRESS",
  "6270": "EMA",
  "6271": "咨",
  "6272": "忍",
  "6273": "孔",
  "6274": " via",
  "6275": "acity",
  "6276": "59",
  "6277": "oring",
  "6278": ".</",
  "6279": "闲",
  "6280": ",\r\n",
  "6281": "俗",
  "6282": "任务",
  "6283": "EST",
  "6284": " Up",
  "6285": "ATA",
  "6286": " circ",
  "6287": "这次",
  "6288": "structor",
  "6289": " taking",
  "6290": "疼",
  "6291": "去了",
  "6292": "潜",
  "6293": " wonder",
  "6294": "悲",
  "6295": "地址",
  "6296": "ka",
  "6297": "�",
  "6298": "(g",
  "6299": " lim",
  "6300": "如果你",
  "6301": "wner",
  "6302": "变得",
  "6303": "cs",
  "6304": "工业",
  "6305": "#align",
  "6306": " []",
  "6307": "ds",
  "6308": "ribe",
  "6309": "dir",
  "6310": "verage",
  "6311": "家的",
  "6312": "降低",
  "6313": "_sh",
  "6314": "还要",
  "6315": " question",
  "6316": "值得",
  "6317": "UB",
  "6318": " Me",
  "6319": "朗",
  "6320": " someone",
  "6321": "羊",
  "6322": "�",
  "6323": " stream",
  "6324": "辛",
  "6325": " human",
  "6326": ".v",
  "6327": "PORT",
  "6328": "群众",
  "6329": "医生",
  "6330": "咨询",
  "6331": "header",
  "6332": " Count",
  "6333": " experi",
  "6334": "创造",
  "6335": " sorry",
  "6336": "几乎",
  "6337": " sort",
  "6338": "()->",
  "6339": "inition",
  "6340": "istic",
  "6341": "INE",
  "6342": "泰",
  "6343": "bed",
  "6344": "突然",
  "6345": "eline",
  "6346": "呈",
  "6347": "赵",
  "6348": " potential",
  "6349": " coll",
  "6350": "充分",
  "6351": " prior",
  "6352": "SD",
  "6353": "诺",
  "6354": "assword",
  "6355": " forward",
  "6356": "政治",
  "6357": "等等",
  "6358": " Per",
  "6359": "来了",
  "6360": "晚上",
  "6361": "姓",
  "6362": " و",
  "6363": " claim",
  "6364": "fg",
  "6365": " android",
  "6366": " living",
  "6367": "olve",
  "6368": " Some",
  "6369": "生态",
  "6370": "namespace",
  "6371": " neg",
  "6372": ".assert",
  "6373": "焦",
  "6374": "hing",
  "6375": "leep",
  "6376": " went",
  "6377": "制造",
  "6378": "river",
  "6379": "oding",
  "6380": "41",
  "6381": "母亲",
  "6382": "Comp",
  "6383": "物质",
  "6384": "更是",
  "6385": "Controller",
  "6386": "oj",
  "6387": "actions",
  "6388": "有点",
  "6389": "从而",
  "6390": " American",
  "6391": " ]",
  "6392": " override",
  "6393": "airs",
  "6394": "inding",
  "6395": "/g",
  "6396": " among",
  "6397": " customer",
  "6398": ".name",
  "6399": "lege",
  "6400": "所谓",
  "6401": "屏",
  "6402": "找到",
  "6403": " ir",
  "6404": "腰",
  "6405": "128",
  "6406": " ~",
  "6407": " men",
  "6408": " black",
  "6409": "针对",
  "6410": "idge",
  "6411": "col",
  "6412": "igr",
  "6413": "昨",
  "6414": "顿",
  "6415": "Local",
  "6416": "ом",
  "6417": "ara",
  "6418": "ball",
  "6419": "Style",
  "6420": "它们",
  "6421": "57",
  "6422": "isp",
  "6423": "自由",
  "6424": " watch",
  "6425": "的新",
  "6426": "战略",
  "6427": "殊",
  "6428": "塔",
  "6429": "不管",
  "6430": " filter",
  "6431": "Create",
  "6432": "issions",
  "6433": "195",
  "6434": "();\r\n",
  "6435": "src",
  "6436": " Fin",
  "6437": "心里",
  "6438": "```\n\n",
  "6439": " Software",
  "6440": "now",
  "6441": " indic",
  "6442": " issue",
  "6443": "<T",
  "6444": "tocol",
  "6445": " wr",
  "6446": "ceed",
  "6447": "扶",
  "6448": " wall",
  "6449": " receive",
  "6450": "empty",
  "6451": "stream",
  "6452": "瓜",
  "6453": "Des",
  "6454": " simply",
  "6455": " Check",
  "6456": " half",
  "6457": "Select",
  "6458": " fire",
  "6459": "emory",
  "6460": "izing",
  "6461": " ach",
  "6462": " travel",
  "6463": "微信",
  "6464": "ttp",
  "6465": " anything",
  "6466": " ℝ",
  "6467": "_state",
  "6468": "ensive",
  "6469": "({",
  "6470": "69",
  "6471": "胎",
  "6472": " enter",
  "6473": "用于",
  "6474": "儿子",
  "6475": "One",
  "6476": "\"))",
  "6477": "娘",
  "6478": " screen",
  "6479": " sugg",
  "6480": "though",
  "6481": "FIG",
  "6482": "动力",
  "6483": ".apache",
  "6484": " bad",
  "6485": "推进",
  "6486": "unities",
  "6487": "body",
  "6488": " section",
  "6489": " variable",
  "6490": "EV",
  "6491": "nov",
  "6492": "肿",
  "6493": "Control",
  "6494": "不了",
  "6495": "胶",
  "6496": "ided",
  "6497": " suggest",
  "6498": "selves",
  "6499": " designed",
  "6500": "ו�",
  "6501": "员工",
  "6502": "哦",
  "6503": "返",
  "6504": "istration",
  "6505": " intro",
  "6506": " currently",
  "6507": "istance",
  "6508": "CP",
  "6509": "速度",
  "6510": "映",
  "6511": "鼻",
  "6512": "为主",
  "6513": " remove",
  "6514": "想到",
  "6515": "鞋",
  "6516": " staff",
  "6517": " а",
  "6518": "Url",
  "6519": "蒙",
  "6520": " security",
  "6521": "培训",
  "6522": "睛",
  "6523": "很好",
  "6524": "_res",
  "6525": "\tvar",
  "6526": "年来",
  "6527": "Mod",
  "6528": "bit",
  "6529": " offset",
  "6530": "仓",
  "6531": " five",
  "6532": " �",
  "6533": " office",
  "6534": "残",
  "6535": "梅",
  "6536": "where",
  "6537": "sm",
  "6538": "ii",
  "6539": "上了",
  "6540": "pository",
  "6541": "�",
  "6542": "од",
  "6543": " rate",
  "6544": "敬",
  "6545": "zz",
  "6546": "(w",
  "6547": "挺",
  "6548": " platform",
  "6549": " Off",
  "6550": " quite",
  "6551": "58",
  "6552": "图片",
  "6553": "/or",
  "6554": " instead",
  "6555": " favor",
  "6556": "腾",
  "6557": "ees",
  "6558": "он",
  "6559": "嘴",
  "6560": "י�",
  "6561": "都在",
  "6562": "null",
  "6563": "Utils",
  "6564": "acing",
  "6565": "迅",
  "6566": " sched",
  "6567": "tn",
  "6568": "Det",
  "6569": "\"></",
  "6570": "孩子的",
  "6571": "TP",
  "6572": "ROM",
  "6573": " grad",
  "6574": " integr",
  "6575": " signific",
  "6576": "olicy",
  "6577": " �",
  "6578": "就像",
  "6579": " board",
  "6580": "ges",
  "6581": "Entity",
  "6582": "Filter",
  "6583": "遇到",
  "6584": "终于",
  "6585": "umb",
  "6586": " temp",
  "6587": "Target",
  "6588": "相对",
  "6589": "自身",
  "6590": "uccess",
  "6591": "/\n",
  "6592": "igger",
  "6593": "build",
  "6594": "pack",
  "6595": "URL",
  "6596": "践",
  "6597": " ful",
  "6598": "ables",
  "6599": " switch",
  "6600": " bal",
  "6601": "43",
  "6602": "igation",
  "6603": "泉",
  "6604": "Order",
  "6605": "抢",
  "6606": " Val",
  "6607": "赚",
  "6608": "<?",
  "6609": "辅",
  "6610": "一位",
  "6611": "理论",
  "6612": " buffer",
  "6613": " believe",
  "6614": " Def",
  "6615": "径",
  "6616": "194",
  "6617": " unsigned",
  "6618": "_time",
  "6619": "辑",
  "6620": "偶",
  "6621": "title",
  "6622": "aste",
  "6623": " natural",
  "6624": "看着",
  "6625": "炼",
  "6626": "msg",
  "6627": "unsigned",
  "6628": " sizeof",
  "6629": "ae",
  "6630": "coming",
  "6631": "Module",
  "6632": " refer",
  "6633": " Your",
  "6634": "同样",
  "6635": "资产",
  "6636": " express",
  "6637": "感情",
  "6638": "阅读",
  "6639": "(*",
  "6640": "账",
  "6641": "EMAIL",
  "6642": "GL",
  "6643": "在一起",
  "6644": " correct",
  "6645": "_i",
  "6646": "ales",
  "6647": "哭",
  "6648": " contract",
  "6649": "ilit",
  "6650": "伊",
  "6651": "化的",
  "6652": "塞",
  "6653": "hem",
  "6654": "eature",
  "6655": " Trans",
  "6656": " arch",
  "6657": "自动",
  "6658": " mor",
  "6659": "细胞",
  "6660": "see",
  "6661": "上市",
  "6662": "ving",
  "6663": "视频",
  "6664": " root",
  "6665": " regard",
  "6666": "Width",
  "6667": "就能",
  "6668": "报告",
  "6669": "忽",
  "6670": " communic",
  "6671": " After",
  "6672": " systems",
  "6673": "魔",
  "6674": "陪",
  "6675": "特点",
  "6676": " pret",
  "6677": "alloc",
  "6678": " especially",
  "6679": "Task",
  "6680": "宋",
  "6681": "ao",
  "6682": " phone",
  "6683": "'ll",
  "6684": "_EX",
  "6685": "主任",
  "6686": "核心",
  "6687": "ASE",
  "6688": " West",
  "6689": " age",
  "6690": " United",
  "6691": "Max",
  "6692": "FO",
  "6693": "Ptr",
  "6694": "123",
  "6695": " ['",
  "6696": "ament",
  "6697": "aker",
  "6698": "打造",
  "6699": "ams",
  "6700": " City",
  "6701": "贸",
  "6702": " women",
  "6703": " loss",
  "6704": "森",
  "6705": "server",
  "6706": "600",
  "6707": "泽",
  "6708": "�乐",
  "6709": "就要",
  "6710": "力的",
  "6711": "做到",
  "6712": " fast",
  "6713": " padding",
  "6714": " third",
  "6715": " Europe",
  "6716": " clients",
  "6717": "祝",
  "6718": "icient",
  "6719": "用的",
  "6720": " ::",
  "6721": "学会",
  "6722": "alled",
  "6723": "255",
  "6724": "Valid",
  "6725": "My",
  "6726": " die",
  "6727": "atas",
  "6728": " Act",
  "6729": "涂",
  "6730": " Ge",
  "6731": "pload",
  "6732": "Ext",
  "6733": "方便",
  "6734": "父亲",
  "6735": " inside",
  "6736": "aged",
  "6737": " interface",
  "6738": "Row",
  "6739": "child",
  "6740": " ways",
  "6741": "ARG",
  "6742": " virtual",
  "6743": "IND",
  "6744": " hom",
  "6745": "Met",
  "6746": "ios",
  "6747": "essages",
  "6748": "afe",
  "6749": " resource",
  "6750": " memory",
  "6751": " saf",
  "6752": "旁",
  "6753": "SP",
  "6754": " yourself",
  "6755": " ready",
  "6756": " problems",
  "6757": " John",
  "6758": "安排",
  "6759": " similar",
  "6760": "津",
  "6761": "人才",
  "6762": "grad",
  "6763": "ores",
  "6764": "情绪",
  "6765": " effort",
  "6766": "quence",
  "6767": "办公",
  "6768": " everyone",
  "6769": "肺",
  "6770": "Child",
  "6771": " File",
  "6772": "ORD",
  "6773": "MD",
  "6774": " oil",
  "6775": " App",
  "6776": "Back",
  "6777": " built",
  "6778": " row",
  "6779": "虎",
  "6780": "ube",
  "6781": "pri",
  "6782": ")、",
  "6783": " obj",
  "6784": " tw",
  "6785": "委员",
  "6786": " difficult",
  "6787": "iet",
  "6788": "证明",
  "6789": "roy",
  "6790": "洞",
  "6791": "_index",
  "6792": "离开",
  "6793": " games",
  "6794": "56",
  "6795": " takes",
  "6796": " Red",
  "6797": "紫",
  "6798": " lower",
  "6799": "就在",
  "6800": "甘",
  "6801": " taken",
  "6802": " Log",
  "6803": "农村",
  "6804": "享受",
  "6805": "说的",
  "6806": " I'm",
  "6807": " standard",
  "6808": "添",
  "6809": "bb",
  "6810": " multiple",
  "6811": " financial",
  "6812": "晨",
  "6813": " included",
  "6814": "特色",
  "6815": "册",
  "6816": "Window",
  "6817": "mod",
  "6818": "症状",
  "6819": "-to",
  "6820": "`\n",
  "6821": "position",
  "6822": "最大的",
  "6823": "的发展",
  "6824": " popular",
  "6825": "现实",
  "6826": "语言",
  "6827": "塑",
  "6828": "制作",
  "6829": "်�",
  "6830": "替",
  "6831": "是什么",
  "6832": " almost",
  "6833": "丹",
  "6834": "恢",
  "6835": "迪",
  "6836": "肾",
  "6837": "伦",
  "6838": "ет",
  "6839": "人体",
  "6840": " query",
  "6841": "only",
  "6842": "爱的",
  "6843": "ming",
  "6844": " returns",
  "6845": "cm",
  "6846": " allows",
  "6847": ".md",
  "6848": "_param",
  "6849": "正确",
  "6850": "                     ",
  "6851": "oes",
  "6852": "-n",
  "6853": "啦",
  "6854": " Cor",
  "6855": "再次",
  "6856": "正式",
  "6857": " learning",
  "6858": "尝",
  "6859": "-size",
  "6860": "腐",
  "6861": "凭",
  "6862": "仙",
  "6863": "option",
  "6864": "人类",
  "6865": "ARRANT",
  "6866": "Link",
  "6867": "赢",
  "6868": "灭",
  "6869": "爸爸",
  "6870": " AND",
  "6871": "color",
  "6872": "uous",
  "6873": "美丽",
  "6874": "当地",
  "6875": "依然",
  "6876": " ;",
  "6877": "eries",
  "6878": "搞",
  "6879": "横",
  "6880": "に",
  "6881": "Arg",
  "6882": "商品",
  "6883": "资料",
  "6884": "遭",
  "6885": "时期",
  "6886": " ge",
  "6887": "itut",
  "6888": "三个",
  "6889": "灾",
  "6890": "rowser",
  "6891": "Vector",
  "6892": "001",
  "6893": "是个",
  "6894": "民族",
  "6895": "}\r\n\r\n",
  "6896": "放在",
  "6897": " WARRANT",
  "6898": " separ",
  "6899": "详",
  "6900": ".k",
  "6901": "符合",
  "6902": " likely",
  "6903": " general",
  "6904": "最高",
  "6905": " player",
  "6906": " module",
  "6907": " veh",
  "6908": "ю",
  "6909": "ipment",
  "6910": "ف",
  "6911": "azing",
  "6912": " →",
  "6913": "成立",
  "6914": " knowledge",
  "6915": " Aust",
  "6916": "RC",
  "6917": "bo",
  "6918": "LAG",
  "6919": " El",
  "6920": "女儿",
  "6921": "adius",
  "6922": "Open",
  "6923": "抵",
  "6924": "olutions",
  "6925": " foot",
  "6926": "79",
  "6927": "猫",
  "6928": "host",
  "6929": " flex",
  "6930": "Offset",
  "6931": "(v",
  "6932": "edia",
  "6933": "薄",
  "6934": "相当",
  "6935": "铺",
  "6936": "RI",
  "6937": " soon",
  "6938": "annot",
  "6939": "措施",
  "6940": "递",
  "6941": "妙",
  "6942": "提出",
  "6943": "}/",
  "6944": "桃",
  "6945": "燃",
  "6946": " regular",
  "6947": "是不是",
  "6948": "股票",
  "6949": " World",
  "6950": "真实",
  "6951": " brand",
  "6952": "ARE",
  "6953": "/v",
  "6954": "鲁",
  "6955": "我想",
  "6956": " ideas",
  "6957": " throws",
  "6958": "是不",
  "6959": "�",
  "6960": " mag",
  "6961": "*/\n",
  "6962": " Class",
  "6963": "izes",
  "6964": " (\"",
  "6965": "----------------------------------------------------------------",
  "6966": "明确",
  "6967": " net",
  "6968": "眼睛",
  "6969": " div",
  "6970": "梁",
  "6971": "是因为",
  "6972": "ua",
  "6973": " however",
  "6974": "ال",
  "6975": " comfort",
  "6976": "循",
  "6977": "Provider",
  "6978": "ini",
  "6979": "仁",
  "6980": "酒店",
  "6981": "胆",
  "6982": " relationship",
  "6983": "imple",
  "6984": "Thread",
  "6985": "Web",
  "6986": "就不",
  "6987": "Length",
  "6988": "即可",
  "6989": "_KEY",
  "6990": " connection",
  "6991": " Real",
  "6992": " rather",
  "6993": "Char",
  "6994": "ин",
  "6995": " deliver",
  "6996": "欢迎",
  "6997": "_workbook",
  "6998": " published",
  "6999": " frame",
  "7000": " depend",
  "7001": "inate",
  "7002": "Num",
  "7003": " DO",
  "7004": ".push",
  "7005": " news",
  "7006": " Us",
  "7007": "社区",
  "7008": " couple",
  "7009": "地产",
  "7010": "发挥",
  "7011": "�",
  "7012": " outside",
  "7013": "URE",
  "7014": "愿意",
  "7015": "丁",
  "7016": "拟",
  "7017": " session",
  "7018": "Server",
  "7019": " Mark",
  "7020": " normal",
  "7021": "Position",
  "7022": "晓",
  "7023": "戴",
  "7024": " Sm",
  "7025": "া",
  "7026": " Foundation",
  "7027": "/pro",
  "7028": "aa",
  "7029": "ursor",
  "7030": " words",
  "7031": "页",
  "7032": "感受",
  "7033": "DF",
  "7034": "推动",
  "7035": " paper",
  "7036": "矿",
  "7037": "�",
  "7038": "沿",
  "7039": "罚",
  "7040": "status",
  "7041": "ск",
  "7042": " weight",
  "7043": "泥",
  "7044": "调查",
  "7045": "Click",
  "7046": "_con",
  "7047": " tag",
  "7048": "author",
  "7049": " increase",
  "7050": "第四",
  "7051": "$(",
  "7052": "合同",
  "7053": "-pro",
  "7054": "泪",
  "7055": " impact",
  "7056": "\");\n\n",
  "7057": " useful",
  "7058": "�",
  "7059": "绕",
  "7060": "也就是",
  "7061": "暂",
  "7062": ".jpg",
  "7063": "不足",
  "7064": "ж",
  "7065": " Inter",
  "7066": "ynamic",
  "7067": "的好",
  "7068": "_X",
  "7069": " fill",
  "7070": "gen",
  "7071": "width",
  "7072": "ك",
  "7073": "新闻",
  "7074": "困难",
  "7075": " +\n",
  "7076": "联合",
  "7077": " �",
  "7078": " active",
  "7079": "句话",
  "7080": "iqu",
  "7081": " located",
  "7082": "(M",
  "7083": "hent",
  "7084": "Rem",
  "7085": "撑",
  "7086": " WITH",
  "7087": "。\n\n",
  "7088": "stract",
  "7089": "惜",
  "7090": "敌",
  "7091": "合理",
  "7092": " Dep",
  "7093": ".value",
  "7094": "ار",
  "7095": "ел",
  "7096": " polit",
  "7097": "身边",
  "7098": " Gu",
  "7099": "恢复",
  "7100": "疫情",
  "7101": "Top",
  "7102": "不知",
  "7103": "行政",
  "7104": "])\n",
  "7105": " resources",
  "7106": "伤害",
  "7107": "remove",
  "7108": "Process",
  "7109": " Par",
  "7110": "Level",
  "7111": " admin",
  "7112": "腺",
  "7113": "车辆",
  "7114": "主动",
  "7115": "另一",
  "7116": "美的",
  "7117": "到底",
  "7118": "�",
  "7119": " probably",
  "7120": "AGE",
  "7121": "rie",
  "7122": " South",
  "7123": " ago",
  "7124": "_eq",
  "7125": "adow",
  "7126": " pred",
  "7127": "azon",
  "7128": "有着",
  "7129": "滴",
  "7130": "ishing",
  "7131": " significant",
  "7132": "嘉",
  "7133": "狂",
  "7134": "描",
  "7135": " School",
  "7136": " deg",
  "7137": "check",
  "7138": "po",
  "7139": "uge",
  "7140": " according",
  "7141": "乏",
  "7142": "icles",
  "7143": "oly",
  "7144": " longer",
  "7145": " road",
  "7146": "家里",
  "7147": "yles",
  "7148": "广告",
  "7149": "开放",
  "7150": " \"\"\"\n",
  "7151": "�",
  "7152": "itchen",
  "7153": " policy",
  "7154": " trying",
  "7155": "�",
  "7156": "section",
  "7157": "aves",
  "7158": "吸引",
  "7159": " related",
  "7160": "51",
  "7161": " National",
  "7162": "距离",
  "7163": "enced",
  "7164": "').",
  "7165": "ि",
  "7166": "unt",
  "7167": "似乎",
  "7168": "蜜",
  "7169": "慢慢",
  "7170": "追求",
  "7171": "明白",
  "7172": "Change",
  "7173": "89",
  "7174": "cell",
  "7175": "漂",
  "7176": "自我",
  "7177": "徐",
  "7178": "骗",
  "7179": "aily",
  "7180": "rs",
  "7181": "课程",
  "7182": " infl",
  "7183": "ensions",
  "7184": "泛",
  "7185": " Ag",
  "7186": "rupt",
  "7187": "妆",
  "7188": "瓶",
  "7189": "with",
  "7190": "愈",
  "7191": " estab",
  "7192": " manufact",
  "7193": "清楚",
  "7194": " er",
  "7195": "的工作",
  "7196": "风格",
  "7197": " storage",
  "7198": " usually",
  "7199": "bool",
  "7200": "istor",
  "7201": "efined",
  "7202": "acket",
  "7203": "oder",
  "7204": "Types",
  "7205": " sample",
  "7206": "()\n\n",
  "7207": "的生活",
  "7208": " ++",
  "7209": " higher",
  "7210": "文件",
  "7211": "训练",
  "7212": "公里",
  "7213": "_x",
  "7214": "SET",
  "7215": "锁",
  "7216": "趋势",
  "7217": ".H",
  "7218": "的一个",
  "7219": "誉",
  "7220": "(data",
  "7221": "aven",
  "7222": " util",
  "7223": "Menu",
  "7224": "ln",
  "7225": " risk",
  "7226": " party",
  "7227": "entity",
  "7228": "搜",
  "7229": "让你",
  "7230": " API",
  "7231": "ç",
  "7232": "、《",
  "7233": "技能",
  "7234": " note",
  "7235": " fig",
  "7236": " throughout",
  "7237": ".js",
  "7238": "Header",
  "7239": " necessary",
  "7240": "parent",
  "7241": "冒",
  "7242": "ONE",
  "7243": " shall",
  "7244": " (*",
  "7245": " RE",
  "7246": " opportunity",
  "7247": "FT",
  "7248": "gt",
  "7249": "瑞",
  "7250": "graph",
  "7251": "ynt",
  "7252": " tem",
  "7253": "下降",
  "7254": "amily",
  "7255": " North",
  "7256": "设置",
  "7257": "current",
  "7258": "\tprivate",
  "7259": "iring",
  "7260": " Park",
  "7261": "朱",
  "7262": "š",
  "7263": "weight",
  "7264": "CI",
  "7265": " projects",
  "7266": "illed",
  "7267": "费用",
  "7268": "确实",
  "7269": "CR",
  "7270": "寿",
  "7271": " skin",
  "7272": "_sub",
  "7273": " insurance",
  "7274": " Open",
  "7275": ".”",
  "7276": "下面",
  "7277": "Height",
  "7278": " nothing",
  "7279": " lock",
  "7280": "才是",
  "7281": "欣",
  "7282": " York",
  "7283": "董",
  "7284": "VAL",
  "7285": " з",
  "7286": "颗",
  "7287": " pretty",
  "7288": "la",
  "7289": "imation",
  "7290": "zero",
  "7291": "扣",
  "7292": "ICE",
  "7293": " ur",
  "7294": "免费",
  "7295": "袋",
  "7296": "aly",
  "7297": " feed",
  "7298": " matter",
  "7299": "uel",
  "7300": "时的",
  "7301": "智慧",
  "7302": "ille",
  "7303": "(R",
  "7304": "\t ",
  "7305": " Sk",
  "7306": "勤",
  "7307": "hentic",
  "7308": " park",
  "7309": "****************************************************************",
  "7310": "扎",
  "7311": "Tag",
  "7312": " written",
  "7313": " uses",
  "7314": " license",
  "7315": "耗",
  "7316": " FOR",
  "7317": "事件",
  "7318": "andid",
  "7319": " Create",
  "7320": "bor",
  "7321": "asc",
  "7322": " tim",
  "7323": "Op",
  "7324": "Cache",
  "7325": " production",
  "7326": "page",
  "7327": "�",
  "7328": " :\n",
  "7329": "氧",
  "7330": "Empty",
  "7331": "位于",
  "7332": " Rem",
  "7333": ",'",
  "7334": " Man",
  "7335": "本身",
  "7336": "拼",
  "7337": "农业",
  "7338": "文明",
  "7339": "侵",
  "7340": " latest",
  "7341": "浮",
  "7342": "Option",
  "7343": " \"\"\"",
  "7344": "_.",
  "7345": "营销",
  "7346": "衣服",
  "7347": "有一个",
  "7348": "道路",
  "7349": "感到",
  "7350": "52",
  "7351": " thread",
  "7352": "aries",
  "7353": "ros",
  "7354": "宇",
  "7355": " cases",
  "7356": "_by",
  "7357": "_ptr",
  "7358": "));\n\n",
  "7359": "ese",
  "7360": " choice",
  "7361": "加上",
  "7362": "资本",
  "7363": " د",
  "7364": " six",
  "7365": "Our",
  "7366": "lim",
  "7367": ".print",
  "7368": "原则",
  "7369": "集中",
  "7370": " coming",
  "7371": "支付",
  "7372": " wanted",
  "7373": "宿",
  "7374": " recogn",
  "7375": " Rec",
  "7376": "裁",
  "7377": "陷",
  "7378": "hp",
  "7379": "req",
  "7380": "郑",
  "7381": "Params",
  "7382": " True",
  "7383": " sec",
  "7384": " arr",
  "7385": " condition",
  "7386": "vision",
  "7387": "二十",
  "7388": "That",
  "7389": " mix",
  "7390": "late",
  "7391": "绝对",
  "7392": "每次",
  "7393": "oman",
  "7394": " Out",
  "7395": ">\\",
  "7396": " avoid",
  "7397": "ernel",
  "7398": "畅",
  "7399": " insp",
  "7400": " Sub",
  "7401": " на",
  "7402": " tree",
  "7403": " gen",
  "7404": " unit",
  "7405": " sound",
  "7406": "很难",
  "7407": "劲",
  "7408": "意思",
  "7409": "ooth",
  "7410": "_EN",
  "7411": " commit",
  "7412": "stant",
  "7413": "ried",
  "7414": "ief",
  "7415": "览",
  "7416": ".\r\n",
  "7417": "行的",
  "7418": "忧",
  "7419": " leave",
  "7420": " cause",
  "7421": " ت",
  "7422": "眠",
  "7423": " recommend",
  "7424": " <-",
  "7425": "内的",
  "7426": " Jan",
  "7427": "仿",
  "7428": "ycle",
  "7429": "rown",
  "7430": "AA",
  "7431": " shows",
  "7432": " Pre",
  "7433": "事实",
  "7434": "Equals",
  "7435": " hit",
  "7436": "召",
  "7437": ":(",
  "7438": "iant",
  "7439": "逐渐",
  "7440": "驾驶",
  "7441": "灰",
  "7442": "碎",
  "7443": " async",
  "7444": "UFF",
  "7445": "此外",
  "7446": "ог",
  "7447": "辈",
  "7448": " reading",
  "7449": " treatment",
  "7450": "也没有",
  "7451": " activities",
  "7452": " skills",
  "7453": " pattern",
  "7454": "处于",
  "7455": "毕竟",
  "7456": "桌",
  "7457": "CD",
  "7458": " sales",
  "7459": " respect",
  "7460": "ン",
  "7461": "thread",
  "7462": "hib",
  "7463": "_I",
  "7464": "改善",
  "7465": "记得",
  "7466": " education",
  "7467": "的重要",
  "7468": " happy",
  "7469": " Em",
  "7470": "荡",
  "7471": "\":\"",
  "7472": "%B",
  "7473": "不再",
  "7474": " Sec",
  "7475": "rief",
  "7476": "yd",
  "7477": "圳",
  "7478": " Bar",
  "7479": "网上",
  "7480": "ο",
  "7481": "书记",
  "7482": "After",
  "7483": "+\\",
  "7484": " mer",
  "7485": "semb",
  "7486": "<String",
  "7487": "alle",
  "7488": "gn",
  "7489": "cret",
  "7490": " release",
  "7491": "Access",
  "7492": " Rep",
  "7493": "uv",
  "7494": " affect",
  "7495": "IES",
  "7496": "土地",
  "7497": " names",
  "7498": " vi",
  "7499": "俄",
  "7500": "refix",
  "7501": "扫",
  "7502": "壁",
  "7503": " approach",
  "7504": "dk",
  "7505": "�",
  "7506": "192",
  "7507": "报道",
  "7508": "麦",
  "7509": " easily",
  "7510": "arter",
  "7511": "GE",
  "7512": "辣",
  "7513": "尤其是",
  "7514": "深圳",
  "7515": "连续",
  "7516": " Pe",
  "7517": "Parameter",
  "7518": "�",
  "7519": " ground",
  "7520": "Settings",
  "7521": "�",
  "7522": "尘",
  "7523": "Container",
  "7524": "_SIZE",
  "7525": "�",
  "7526": "FFFF",
  "7527": "下午",
  "7528": "杰",
  "7529": "一旦",
  "7530": " parts",
  "7531": "\"));\n",
  "7532": "Load",
  "7533": "回家",
  "7534": "运营",
  "7535": " transform",
  "7536": " /**",
  "7537": "(T",
  "7538": "重新",
  "7539": "atory",
  "7540": "87",
  "7541": "_map",
  "7542": "并不是",
  "7543": "ió",
  "7544": "block",
  "7545": " kids",
  "7546": " fix",
  "7547": " images",
  "7548": "闹",
  "7549": " held",
  "7550": "atur",
  "7551": "193",
  "7552": " Please",
  "7553": "қ",
  "7554": " drive",
  "7555": "}\\",
  "7556": "を",
  "7557": " wood",
  "7558": " selected",
  "7559": "_k",
  "7560": "煮",
  "7561": "EBUG",
  "7562": "应当",
  "7563": "aws",
  "7564": "施工",
  "7565": "更多的",
  "7566": " materials",
  "7567": "Par",
  "7568": "oph",
  "7569": "group",
  "7570": "ح",
  "7571": "Col",
  "7572": "倾",
  "7573": "\"、\"",
  "7574": " answer",
  "7575": "ellow",
  "7576": " np",
  "7577": ".Add",
  "7578": " solution",
  "7579": "VER",
  "7580": "erve",
  "7581": "体育",
  "7582": " decl",
  "7583": " article",
  "7584": "必要",
  "7585": "({\n",
  "7586": "kg",
  "7587": "偿",
  "7588": "实践",
  "7589": "照片",
  "7590": "adem",
  "7591": " \r\n",
  "7592": "秒",
  "7593": "废",
  "7594": " round",
  "7595": "生物",
  "7596": "拜",
  "7597": "buf",
  "7598": " TH",
  "7599": "逃",
  "7600": "刑",
  "7601": " package",
  "7602": "颜色",
  "7603": " practice",
  "7604": " region",
  "7605": " Just",
  "7606": "ca",
  "7607": "筹",
  "7608": "尖",
  "7609": " directly",
  "7610": "irectory",
  "7611": "独立",
  "7612": " speed",
  "7613": "恒",
  "7614": "े",
  "7615": "depend",
  "7616": "或许",
  "7617": " aud",
  "7618": " TR",
  "7619": " prevent",
  "7620": "在这",
  "7621": "Dep",
  "7622": " );\n\n",
  "7623": " solid",
  "7624": "小学",
  "7625": " upon",
  "7626": " positive",
  "7627": "apped",
  "7628": " repl",
  "7629": "�",
  "7630": "ф",
  "7631": "并没有",
  "7632": " graph",
  "7633": ".res",
  "7634": " recent",
  "7635": "香港",
  "7636": "思考",
  "7637": "Bar",
  "7638": " Array",
  "7639": "意见",
  "7640": "Work",
  "7641": " credit",
  "7642": "型的",
  "7643": "身上",
  "7644": "ugg",
  "7645": " wide",
  "7646": "aved",
  "7647": "-up",
  "7648": "MP",
  "7649": "event",
  "7650": " film",
  "7651": "孤",
  "7652": " token",
  "7653": ".con",
  "7654": " reach",
  "7655": "iment",
  "7656": "_int",
  "7657": "充满",
  "7658": "记录",
  "7659": " Cent",
  "7660": "不用",
  "7661": "pi",
  "7662": " itself",
  "7663": "_config",
  "7664": "tot",
  "7665": " proper",
  "7666": "Unit",
  "7667": "ida",
  "7668": "Stack",
  "7669": "icens",
  "7670": "EXT",
  "7671": "sum",
  "7672": "女孩",
  "7673": "reet",
  "7674": "投资者",
  "7675": " safe",
  "7676": "设施",
  "7677": "兼",
  "7678": "给我",
  "7679": "程序",
  "7680": "老人",
  "7681": "try",
  "7682": "quare",
  "7683": "Mon",
  "7684": " tick",
  "7685": " van",
  "7686": "aling",
  "7687": " delete",
  "7688": "乌",
  "7689": "干部",
  "7690": " numbers",
  "7691": "空气",
  "7692": "Handle",
  "7693": "隆",
  "7694": " LO",
  "7695": " official",
  "7696": "ership",
  "7697": " tools",
  "7698": "黄金",
  "7699": " sal",
  "7700": " ps",
  "7701": "mas",
  "7702": " growth",
  "7703": " appear",
  "7704": "る",
  "7705": "我就",
  "7706": "态度",
  "7707": " �",
  "7708": "原来",
  "7709": "/f",
  "7710": "do",
  "7711": " da",
  "7712": " س",
  "7713": " mount",
  "7714": " Apr",
  "7715": " internal",
  "7716": "反应",
  "7717": "/**",
  "7718": " moment",
  "7719": "_en",
  "7720": "rapper",
  "7721": "Device",
  "7722": "去年",
  "7723": "ture",
  "7724": "_fl",
  "7725": "搭配",
  "7726": "伸",
  "7727": " resid",
  "7728": "完善",
  "7729": "Interface",
  "7730": " contains",
  "7731": "跨",
  "7732": " User",
  "7733": "augh",
  "7734": "特殊",
  "7735": "中华",
  "7736": "小的",
  "7737": " Now",
  "7738": "劳动",
  "7739": "形象",
  "7740": " behind",
  "7741": "^{",
  "7742": "illa",
  "7743": " hon",
  "7744": "好了",
  "7745": "理念",
  "7746": "(P",
  "7747": " properties",
  "7748": "Script",
  "7749": "rics",
  "7750": "adio",
  "7751": " dog",
  "7752": "世纪",
  "7753": "(name",
  "7754": "ownload",
  "7755": "chan",
  "7756": "奔",
  "7757": "�",
  "7758": " den",
  "7759": "        \n",
  "7760": "安装",
  "7761": "rive",
  "7762": " eval",
  "7763": "增强",
  "7764": ".se",
  "7765": "岸",
  "7766": "ILITY",
  "7767": " specified",
  "7768": "家人",
  "7769": "而言",
  "7770": "对象",
  "7771": " modern",
  "7772": "Json",
  "7773": " Don",
  "7774": "日子",
  "7775": " introdu",
  "7776": "Dir",
  "7777": "声音",
  "7778": "第一次",
  "7779": "RL",
  "7780": " ill",
  "7781": "control",
  "7782": "利益",
  "7783": "身份",
  "7784": "盈",
  "7785": "严格",
  "7786": "None",
  "7787": "č",
  "7788": "create",
  "7789": "突破",
  "7790": "Store",
  "7791": "日常",
  "7792": "è",
  "7793": "彼",
  "7794": "_a",
  "7795": " Web",
  "7796": "Configuration",
  "7797": ".G",
  "7798": " Service",
  "7799": "�",
  "7800": " told",
  "7801": "ENSE",
  "7802": "ological",
  "7803": "-based",
  "7804": " variety",
  "7805": "hs",
  "7806": "(value",
  "7807": "鸟",
  "7808": "我是",
  "7809": " ('",
  "7810": " none",
  "7811": " Use",
  "7812": "主题",
  "7813": "覆",
  "7814": " echo",
  "7815": "ны",
  "7816": "英雄",
  "7817": " .\n",
  "7818": "认真",
  "7819": " template",
  "7820": "Next",
  "7821": "呀",
  "7822": "表达",
  "7823": " setting",
  "7824": "Player",
  "7825": "大量",
  "7826": "年龄",
  "7827": "aby",
  "7828": " structure",
  "7829": "。《",
  "7830": "float",
  "7831": "带着",
  "7832": " du",
  "7833": "can",
  "7834": "采取",
  "7835": "ignment",
  "7836": " High",
  "7837": "(D",
  "7838": "机关",
  "7839": " vers",
  "7840": " notice",
  "7841": " amazing",
  "7842": ".model",
  "7843": " goal",
  "7844": "振",
  "7845": "苗",
  "7846": "汗",
  "7847": "                  ",
  "7848": " worth",
  "7849": "imp",
  "7850": " operation",
  "7851": "天的",
  "7852": "types",
  "7853": "orch",
  "7854": "ج",
  "7855": "inner",
  "7856": "CON",
  "7857": "统一",
  "7858": "acks",
  "7859": " computer",
  "7860": " IP",
  "7861": " crit",
  "7862": " bre",
  "7863": "ë",
  "7864": "壮",
  "7865": "iler",
  "7866": "ре",
  "7867": " elements",
  "7868": "实验",
  "7869": "都要",
  "7870": " sun",
  "7871": "哪些",
  "7872": "term",
  "7873": "(res",
  "7874": " town",
  "7875": "ASS",
  "7876": "ит",
  "7877": " contribut",
  "7878": "space",
  "7879": "qual",
  "7880": "AULT",
  "7881": " weeks",
  "7882": " quickly",
  "7883": " column",
  "7884": "兴趣",
  "7885": "values",
  "7886": "elebr",
  "7887": " immedi",
  "7888": "之外",
  "7889": "也要",
  "7890": "ACE",
  "7891": "裂",
  "7892": "墨",
  "7893": "angle",
  "7894": "规范",
  "7895": " Google",
  "7896": " render",
  "7897": " Acc",
  "7898": "实在",
  "7899": " Pres",
  "7900": "container",
  "7901": "_init",
  "7902": " fields",
  "7903": "instance",
  "7904": "阳光",
  "7905": " excell",
  "7906": "鉴",
  "7907": " stock",
  "7908": "深入",
  "7909": "很大",
  "7910": "上涨",
  "7911": "运行",
  "7912": "氏",
  "7913": "呵",
  "7914": "喷",
  "7915": " na",
  "7916": "的东西",
  "7917": " }\r\n\r\n",
  "7918": "_tr",
  "7919": "Bl",
  "7920": "attern",
  "7921": "ulti",
  "7922": "ORM",
  "7923": " ones",
  "7924": "180",
  "7925": "填",
  "7926": "坦",
  "7927": "CS",
  "7928": " machine",
  "7929": "皆",
  "7930": "bc",
  "7931": " groups",
  "7932": "97",
  "7933": " looks",
  "7934": " ),\n",
  "7935": " sil",
  "7936": " progress",
  "7937": "来源",
  "7938": " �",
  "7939": "\t\t\t\t\t\t\t",
  "7940": "model",
  "7941": "迫",
  "7942": " existing",
  "7943": "品质",
  "7944": " cool",
  "7945": " failed",
  "7946": "移动",
  "7947": "打开",
  "7948": "刺激",
  "7949": " swe",
  "7950": "观察",
  "7951": "untime",
  "7952": " Will",
  "7953": "_string",
  "7954": " concern",
  "7955": "名的",
  "7956": "错误",
  "7957": "Current",
  "7958": "英国",
  "7959": ".core",
  "7960": "But",
  "7961": "�",
  "7962": "'ve",
  "7963": " student",
  "7964": "next",
  "7965": "vents",
  "7966": "urity",
  "7967": "虫",
  "7968": " ability",
  "7969": "滋",
  "7970": "Min",
  "7971": "落实",
  "7972": "uate",
  "7973": "的不",
  "7974": " States",
  "7975": "known",
  "7976": ".find",
  "7977": "最好的",
  "7978": " providing",
  "7979": "overy",
  "7980": "Lo",
  "7981": "怎样",
  "7982": "stall",
  "7983": "EP",
  "7984": "迁",
  "7985": " marketing",
  "7986": "auth",
  "7987": "多了",
  "7988": "贯",
  "7989": "items",
  "7990": "下去",
  "7991": " seems",
  "7992": "uses",
  "7993": "貌",
  "7994": "�",
  "7995": " Center",
  "7996": "有所",
  "7997": "250",
  "7998": " Art",
  "7999": " His",
  "8000": "动作",
  "8001": "\"),\n",
  "8002": "ffff",
  "8003": "悟",
  "8004": "过的",
  "8005": " levels",
  "8006": " fn",
  "8007": "den",
  "8008": " ≤",
  "8009": "63",
  "8010": "植物",
  "8011": "动物",
  "8012": "ci",
  "8013": " nice",
  "8014": "发展的",
  "8015": "宾",
  "8016": " cross",
  "8017": "掌握",
  "8018": " comment",
  "8019": "し",
  "8020": "ND",
  "8021": ")\\",
  "8022": "irth",
  "8023": "aches",
  "8024": "偷",
  "8025": "HER",
  "8026": " dim",
  "8027": "fin",
  "8028": " absolut",
  "8029": " programs",
  "8030": "54",
  "8031": "#ifdef",
  "8032": " books",
  "8033": "剩",
  "8034": "CRE",
  "8035": "ixel",
  "8036": "一条",
  "8037": "\tconst",
  "8038": "数字",
  "8039": "ICENSE",
  "8040": "102",
  "8041": " actual",
  "8042": "?:",
  "8043": " qual",
  "8044": "结婚",
  "8045": " worked",
  "8046": "script",
  "8047": "通常",
  "8048": " });\n\n",
  "8049": " associated",
  "8050": "幻",
  "8051": "Sl",
  "8052": " empty",
  "8053": "幼儿",
  "8054": " VAL",
  "8055": " deep",
  "8056": " remember",
  "8057": "她们",
  "8058": "                    ",
  "8059": "ات",
  "8060": "elling",
  "8061": " po",
  "8062": " :=\n",
  "8063": "{{",
  "8064": " international",
  "8065": "player",
  "8066": "_test",
  "8067": "双方",
  "8068": "的方式",
  "8069": "迅速",
  "8070": "鬼",
  "8071": "所有的",
  "8072": "通知",
  "8073": "碰",
  "8074": "Br",
  "8075": "criptor",
  "8076": "机制",
  "8077": "ECT",
  "8078": " door",
  "8079": " complex",
  "8080": "arden",
  "8081": "Case",
  "8082": " obtain",
  "8083": "ι",
  "8084": "数量",
  "8085": " False",
  "8086": "font",
  "8087": "top",
  "8088": "Connection",
  "8089": "opping",
  "8090": "变成",
  "8091": ".on",
  "8092": "false",
  "8093": "OUN",
  "8094": "称为",
  "8095": "都能",
  "8096": "确保",
  "8097": "评价",
  "8098": ".z",
  "8099": " effective",
  "8100": " mobile",
  "8101": " definit",
  "8102": "报名",
  "8103": ".$",
  "8104": "II",
  "8105": "投入",
  "8106": "OST",
  "8107": "Spec",
  "8108": "aul",
  "8109": "说是",
  "8110": " anyone",
  "8111": "瘦",
  "8112": " methods",
  "8113": "Callback",
  "8114": "仔",
  "8115": "特别是",
  "8116": "能源",
  "8117": "凝",
  "8118": "公共",
  "8119": " layer",
  "8120": "arsh",
  "8121": "相比",
  "8122": "gan",
  "8123": " song",
  "8124": "write",
  "8125": "坛",
  "8126": "actor",
  "8127": "思维",
  "8128": "ala",
  "8129": " blo",
  "8130": "uy",
  "8131": "ि�",
  "8132": "addr",
  "8133": "寸",
  "8134": " leading",
  "8135": " purchase",
  "8136": "anagement",
  "8137": "ades",
  "8138": "ش",
  "8139": " costs",
  "8140": "放弃",
  "8141": "洛",
  "8142": " mass",
  "8143": "拔",
  "8144": "auto",
  "8145": "OK",
  "8146": "rd",
  "8147": "至少",
  "8148": " lives",
  "8149": "广州",
  "8150": " driv",
  "8151": "援",
  "8152": "稍",
  "8153": "-sh",
  "8154": "EFAULT",
  "8155": "usiness",
  "8156": "PU",
  "8157": " Port",
  "8158": "宅",
  "8159": "_REG",
  "8160": "110",
  "8161": "还在",
  "8162": " parameters",
  "8163": " params",
  "8164": "很有",
  "8165": "irit",
  "8166": "籍",
  "8167": "_NAME",
  "8168": "ript",
  "8169": "神经",
  "8170": " bottom",
  "8171": " Str",
  "8172": " bud",
  "8173": " trust",
  "8174": "া�",
  "8175": "unit",
  "8176": "Dec",
  "8177": " medical",
  "8178": " >>",
  "8179": "度的",
  "8180": "rest",
  "8181": " sense",
  "8182": " patients",
  "8183": " component",
  "8184": " {@",
  "8185": "大部分",
  "8186": "这就是",
  "8187": " ..",
  "8188": "粗",
  "8189": "INS",
  "8190": "avior",
  "8191": "itable",
  "8192": " Work",
  "8193": " Read",
  "8194": " selection",
  "8195": "inder",
  "8196": " Ne",
  "8197": "秦",
  "8198": "Range",
  "8199": "组成",
  "8200": "软件",
  "8201": " fine",
  "8202": "有什么",
  "8203": "(void",
  "8204": " changed",
  "8205": ":\r\n",
  "8206": " database",
  "8207": " creating",
  "8208": "module",
  "8209": "ր",
  "8210": "菲",
  "8211": "汁",
  "8212": " settings",
  "8213": "_com",
  "8214": "ия",
  "8215": "邮",
  "8216": " recently",
  "8217": " average",
  "8218": "istics",
  "8219": "穷",
  "8220": "';\n\n",
  "8221": " lib",
  "8222": "isf",
  "8223": "指数",
  "8224": "last",
  "8225": " didn",
  "8226": "十年",
  "8227": "还会",
  "8228": " ep",
  "8229": "段时间",
  "8230": "》、《",
  "8231": " Windows",
  "8232": "post",
  "8233": "iam",
  "8234": "/h",
  "8235": "aign",
  "8236": "插",
  "8237": "夺",
  "8238": "anger",
  "8239": "plete",
  "8240": "cing",
  "8241": "锋",
  "8242": ".*",
  "8243": "升级",
  "8244": "还能",
  "8245": " bi",
  "8246": "令人",
  "8247": "Port",
  "8248": " doesn",
  "8249": "我不",
  "8250": " ple",
  "8251": "房子",
  "8252": "居民",
  "8253": "enge",
  "8254": "ico",
  "8255": "感染",
  "8256": "itude",
  "8257": "Last",
  "8258": " cas",
  "8259": "我在",
  "8260": " touch",
  "8261": "饮食",
  "8262": "工具",
  "8263": "53",
  "8264": "{\"",
  "8265": ".cpp",
  "8266": "姜",
  "8267": "});\n",
  "8268": "Integer",
  "8269": "中医",
  "8270": "重视",
  "8271": " functions",
  "8272": " doc",
  "8273": "_back",
  "8274": " direction",
  "8275": "Reference",
  "8276": "62",
  "8277": "赖",
  "8278": "竹",
  "8279": "_log",
  "8280": "碍",
  "8281": " ball",
  "8282": " AR",
  "8283": "抑",
  "8284": "可能会",
  "8285": "协会",
  "8286": "出来的",
  "8287": "股份",
  "8288": "监督",
  "8289": " wel",
  "8290": " Group",
  "8291": "高速",
  "8292": "内部",
  "8293": "实力",
  "8294": "沟通",
  "8295": "展示",
  "8296": "XX",
  "8297": " exception",
  "8298": " lines",
  "8299": "_TR",
  "8300": "难以",
  "8301": "配置",
  "8302": "sec",
  "8303": "\t\t\n",
  "8304": "经理",
  "8305": " msg",
  "8306": "ivery",
  "8307": "平均",
  "8308": "娱乐",
  "8309": "出版",
  "8310": "attle",
  "8311": "edic",
  "8312": "旺",
  "8313": "strong",
  "8314": " ign",
  "8315": " Mc",
  "8316": " scale",
  "8317": "郁",
  "8318": "大多数",
  "8319": " fresh",
  "8320": ")/",
  "8321": "摇",
  "8322": ".put",
  "8323": "配合",
  "8324": "্",
  "8325": "’d",
  "8326": "gl",
  "8327": "拒",
  "8328": " challeng",
  "8329": "伍",
  "8330": "真是",
  "8331": "名字",
  "8332": "我说",
  "8333": " collect",
  "8334": "fa",
  "8335": " asked",
  "8336": "杜",
  "8337": "角度",
  "8338": "si",
  "8339": "来到",
  "8340": "_PRO",
  "8341": "Column",
  "8342": " digital",
  "8343": "姻",
  "8344": "哪里",
  "8345": "ncy",
  "8346": "教授",
  "8347": "LS",
  "8348": " equipment",
  "8349": "ayers",
  "8350": "之间的",
  "8351": "Widget",
  "8352": "械",
  "8353": "擦",
  "8354": "出去",
  "8355": " bank",
  "8356": "仍然",
  "8357": "Rect",
  "8358": "兄",
  "8359": "扰",
  "8360": " attempt",
  "8361": "itect",
  "8362": " ],\n",
  "8363": "mission",
  "8364": "寺",
  "8365": "_is",
  "8366": " reference",
  "8367": " hor",
  "8368": " script",
  "8369": "_node",
  "8370": " doesn't",
  "8371": "512",
  "8372": " green",
  "8373": "_code",
  "8374": "py",
  "8375": "ATH",
  "8376": " gives",
  "8377": "like",
  "8378": "公开",
  "8379": "allback",
  "8380": " stat",
  "8381": "ик",
  "8382": "平时",
  "8383": "肩",
  "8384": " meeting",
  "8385": "担心",
  "8386": "anges",
  "8387": "炸",
  "8388": "outer",
  "8389": "}\n\n\n",
  "8390": " prefer",
  "8391": " HT",
  "8392": "incip",
  "8393": " From",
  "8394": "gor",
  "8395": "button",
  "8396": "也就",
  "8397": " il",
  "8398": " summer",
  "8399": "伯",
  "8400": "HECK",
  "8401": "让我们",
  "8402": "逆",
  "8403": "时尚",
  "8404": " starting",
  "8405": "重大",
  "8406": "rel",
  "8407": "长的",
  "8408": "弄",
  "8409": "蛋白",
  "8410": "脾",
  "8411": " Austral",
  "8412": "做的",
  "8413": "QU",
  "8414": " plant",
  "8415": " hair",
  "8416": "False",
  "8417": "给你",
  "8418": "Return",
  "8419": "83",
  "8420": "acement",
  "8421": " Oct",
  "8422": "太阳",
  "8423": "接触",
  "8424": "_dir",
  "8425": " UK",
  "8426": "摸",
  "8427": "�",
  "8428": "理想",
  "8429": "衰",
  "8430": "尽管",
  "8431": "比例",
  "8432": " ]\n",
  "8433": " decision",
  "8434": "法院",
  "8435": "吐",
  "8436": "_SH",
  "8437": "亏",
  "8438": " byte",
  "8439": "(pro",
  "8440": "                                   ",
  "8441": " favorite",
  "8442": " imm",
  "8443": " AD",
  "8444": "多年",
  "8445": "先进",
  "8446": "检测",
  "8447": "্�",
  "8448": "中国的",
  "8449": "魂",
  "8450": " AS",
  "8451": "剑",
  "8452": "Me",
  "8453": "hest",
  "8454": " chance",
  "8455": " Ang",
  "8456": "淘",
  "8457": "vas",
  "8458": " raise",
  "8459": "ി",
  "8460": "判断",
  "8461": "het",
  "8462": "(true",
  "8463": " namespace",
  "8464": " dom",
  "8465": "利润",
  "8466": " implied",
  "8467": "药物",
  "8468": "跃",
  "8469": "吹",
  "8470": " resolution",
  "8471": "番",
  "8472": "pliance",
  "8473": "ifest",
  "8474": "_CH",
  "8475": "研发",
  "8476": "概念",
  "8477": "_U",
  "8478": "omb",
  "8479": " April",
  "8480": " fully",
  "8481": "params",
  "8482": "osed",
  "8483": "骑",
  "8484": " sem",
  "8485": "estamp",
  "8486": "的那",
  "8487": "的方法",
  "8488": "UES",
  "8489": " sale",
  "8490": "pha",
  "8491": " channel",
  "8492": "Obj",
  "8493": " console",
  "8494": "预防",
  "8495": " County",
  "8496": " PRO",
  "8497": "abc",
  "8498": "榜",
  "8499": "此次",
  "8500": "request",
  "8501": " war",
  "8502": "复杂",
  "8503": " Pol",
  "8504": "itch",
  "8505": "记忆",
  "8506": "IGHT",
  "8507": "avy",
  "8508": " kitchen",
  "8509": " hol",
  "8510": " transfer",
  "8511": "vey",
  "8512": "参考",
  "8513": " ut",
  "8514": " WITHOUT",
  "8515": "附近",
  "8516": " mut",
  "8517": "很快",
  "8518": " involved",
  "8519": "捷",
  "8520": "轨",
  "8521": "─",
  "8522": " Returns",
  "8523": "////////////////////////////////",
  "8524": " exam",
  "8525": "look",
  "8526": "GB",
  "8527": "_cast",
  "8528": " gir",
  "8529": "PR",
  "8530": "vg",
  "8531": "first",
  "8532": "API",
  "8533": " seek",
  "8534": " successful",
  "8535": "英语",
  "8536": "节目",
  "8537": " Ac",
  "8538": "_ERROR",
  "8539": "uth",
  "8540": "Hash",
  "8541": "acebook",
  "8542": "Am",
  "8543": " \"/",
  "8544": "ә",
  "8545": " Version",
  "8546": "尺",
  "8547": " slow",
  "8548": " Date",
  "8549": "exp",
  "8550": " у",
  "8551": "Enc",
  "8552": "姿",
  "8553": "回来",
  "8554": "etime",
  "8555": " requirements",
  "8556": " highly",
  "8557": " Text",
  "8558": " prec",
  "8559": "otion",
  "8560": " piece",
  "8561": " organization",
  "8562": "成熟",
  "8563": "register",
  "8564": " celebr",
  "8565": " allowed",
  "8566": " mid",
  "8567": "_UN",
  "8568": "杆",
  "8569": " Form",
  "8570": "篮",
  "8571": " inj",
  "8572": "。【",
  "8573": "看来",
  "8574": "一定的",
  "8575": "-e",
  "8576": "最佳",
  "8577": " library",
  "8578": "者的",
  "8579": "Render",
  "8580": "(-",
  "8581": "ims",
  "8582": "ham",
  "8583": "Search",
  "8584": "asic",
  "8585": "-ch",
  "8586": " benefits",
  "8587": "cr",
  "8588": "提醒",
  "8589": " attention",
  "8590": "柱",
  "8591": " encour",
  "8592": "回到",
  "8593": " assist",
  "8594": ";;",
  "8595": "61",
  "8596": "�",
  "8597": "天气",
  "8598": " Then",
  "8599": "资格",
  "8600": "装修",
  "8601": " national",
  "8602": "颈",
  "8603": " flag",
  "8604": "生素",
  "8605": "(j",
  "8606": " seg",
  "8607": "月份",
  "8608": " shape",
  "8609": " extrem",
  "8610": "STR",
  "8611": "acc",
  "8612": "乃",
  "8613": "iding",
  "8614": "晒",
  "8615": "闪",
  "8616": " players",
  "8617": "Values",
  "8618": "Ab",
  "8619": " helps",
  "8620": "轻松",
  "8621": "191",
  "8622": "当前",
  "8623": "拆",
  "8624": "奏",
  "8625": "た",
  "8626": "公安",
  "8627": "ournal",
  "8628": "ien",
  "8629": " It's",
  "8630": " parameter",
  "8631": " ax",
  "8632": "common",
  "8633": "ALSE",
  "8634": "expected",
  "8635": "tk",
  "8636": " son",
  "8637": "解释",
  "8638": "*)",
  "8639": "每年",
  "8640": "昌",
  "8641": "She",
  "8642": "₂",
  "8643": "dom",
  "8644": " activity",
  "8645": " you're",
  "8646": "quals",
  "8647": "ja",
  "8648": "ipping",
  "8649": " Char",
  "8650": "(L",
  "8651": "好像",
  "8652": "pond",
  "8653": "伏",
  "8654": "Execut",
  "8655": " themselves",
  "8656": "Do",
  "8657": "Helper",
  "8658": " pers",
  "8659": "荷",
  "8660": "粒",
  "8661": "多种",
  "8662": "文字",
  "8663": "72",
  "8664": " describ",
  "8665": "Session",
  "8666": "人物",
  "8667": "监管",
  "8668": "frame",
  "8669": " models",
  "8670": "一家",
  "8671": "路上",
  "8672": "Can",
  "8673": " GL",
  "8674": " bath",
  "8675": " fa",
  "8676": "э",
  "8677": "Project",
  "8678": "_read",
  "8679": "澳",
  "8680": "十二",
  "8681": " [\"",
  "8682": "byte",
  "8683": " guest",
  "8684": "190",
  "8685": "裤",
  "8686": " While",
  "8687": " };\n\n",
  "8688": " Day",
  "8689": "mi",
  "8690": " plans",
  "8691": " wrong",
  "8692": "的原因",
  "8693": "(!",
  "8694": "电脑",
  "8695": " wire",
  "8696": "贡",
  "8697": "坡",
  "8698": "inger",
  "8699": " solutions",
  "8700": "腔",
  "8701": "我也",
  "8702": " �",
  "8703": "贷款",
  "8704": "<<",
  "8705": " consist",
  "8706": "署",
  "8707": " lost",
  "8708": " Air",
  "8709": "供应",
  "8710": "�",
  "8711": "ν",
  "8712": "android",
  "8713": "iture",
  "8714": "ipped",
  "8715": "徒",
  "8716": "在于",
  "8717": "辉",
  "8718": " floor",
  "8719": "晶",
  "8720": "130",
  "8721": "定的",
  "8722": "usb",
  "8723": " ten",
  "8724": "fd",
  "8725": " automatic",
  "8726": "进行了",
  "8727": "Properties",
  "8728": "OMP",
  "8729": "绿色",
  "8730": " countries",
  "8731": " giving",
  "8732": " Rob",
  "8733": " daily",
  "8734": "NT",
  "8735": "First",
  "8736": "neg",
  "8737": "edef",
  "8738": "性能",
  "8739": "Cell",
  "8740": "arts",
  "8741": "人士",
  "8742": "指出",
  "8743": "公司的",
  "8744": "污染",
  "8745": " func",
  "8746": "ni",
  "8747": "icensed",
  "8748": "osition",
  "8749": "dest",
  "8750": "orig",
  "8751": "办理",
  "8752": "渠",
  "8753": "eps",
  "8754": "状况",
  "8755": "ABILITY",
  "8756": "BO",
  "8757": " March",
  "8758": "忠",
  "8759": " Sw",
  "8760": "BC",
  "8761": "提前",
  "8762": "戒",
  "8763": "admin",
  "8764": "体现",
  "8765": "井",
  "8766": "支撑",
  "8767": " expert",
  "8768": " La",
  "8769": " discover",
  "8770": ".cn",
  "8771": "images",
  "8772": "之中",
  "8773": "))\n\n",
  "8774": "ians",
  "8775": " applications",
  "8776": " constant",
  "8777": "味道",
  "8778": "上面",
  "8779": "EO",
  "8780": "梦想",
  "8781": " safety",
  "8782": "岁的",
  "8783": "发动",
  "8784": " listen",
  "8785": "烂",
  "8786": "Are",
  "8787": "拓",
  "8788": "да",
  "8789": "老板",
  "8790": "点击",
  "8791": "vant",
  "8792": "------------",
  "8793": "基地",
  "8794": " ف",
  "8795": "hold",
  "8796": "AST",
  "8797": "/w",
  "8798": "浅",
  "8799": "纤",
  "8800": "perature",
  "8801": " morning",
  "8802": "_le",
  "8803": "爽",
  "8804": " rent",
  "8805": "婚姻",
  "8806": "良好的",
  "8807": "_on",
  "8808": "ilename",
  "8809": " Aug",
  "8810": "椒",
  "8811": "开心",
  "8812": "痛苦",
  "8813": " modify",
  "8814": "MAIN",
  "8815": " Map",
  "8816": "常见",
  "8817": "ula",
  "8818": "Icon",
  "8819": "广大",
  "8820": " excellent",
  "8821": "Tree",
  "8822": "vec",
  "8823": "prise",
  "8824": "atives",
  "8825": "公园",
  "8826": "下了",
  "8827": ".read",
  "8828": "ban",
  "8829": "Impl",
  "8830": "nes",
  "8831": "は",
  "8832": " career",
  "8833": "文学",
  "8834": "的感觉",
  "8835": " returned",
  "8836": "柜",
  "8837": "经典",
  "8838": "青年",
  "8839": "失败",
  "8840": "_len",
  "8841": "++;\n",
  "8842": ".txt",
  "8843": " '@",
  "8844": "明星",
  "8845": " header",
  "8846": "で",
  "8847": "arant",
  "8848": "几年",
  "8849": " restaur",
  "8850": "ato",
  "8851": "踏",
  "8852": "elay",
  "8853": " Exception",
  "8854": " interesting",
  "8855": "sqrt",
  "8856": " goes",
  "8857": "胖",
  "8858": "AV",
  "8859": "ondon",
  "8860": "queue",
  "8861": "edding",
  "8862": " parents",
  "8863": "za",
  "8864": " NS",
  "8865": "强的",
  "8866": " mention",
  "8867": "岗位",
  "8868": " pan",
  "8869": " gets",
  "8870": "ociety",
  "8871": "殖",
  "8872": "枪",
  "8873": "comes",
  "8874": "迟",
  "8875": "就业",
  "8876": " Stud",
  "8877": "_error",
  "8878": "还可以",
  "8879": "平方",
  "8880": " owner",
  "8881": "ո",
  "8882": "Iter",
  "8883": " tele",
  "8884": "统计",
  "8885": "在这里",
  "8886": " Dis",
  "8887": "姑",
  "8888": "totype",
  "8889": " db",
  "8890": " Time",
  "8891": " callback",
  "8892": "的作用",
  "8893": " configuration",
  "8894": "谋",
  "8895": " furn",
  "8896": "₁",
  "8897": " saw",
  "8898": "原文",
  "8899": " legal",
  "8900": "=>",
  "8901": " nga",
  "8902": "垃",
  "8903": "ya",
  "8904": "osing",
  "8905": "ž",
  "8906": "工资",
  "8907": " menu",
  "8908": " ing",
  "8909": "都没有",
  "8910": " sus",
  "8911": "ла",
  "8912": " death",
  "8913": "肌肤",
  "8914": "bum",
  "8915": " json",
  "8916": "期待",
  "8917": "枝",
  "8918": "圾",
  "8919": "then",
  "8920": "ercial",
  "8921": "has",
  "8922": "不如",
  "8923": "感谢",
  "8924": "千万",
  "8925": "kit",
  "8926": "堆",
  "8927": "垃圾",
  "8928": "唯一",
  "8929": "粮",
  "8930": " pool",
  "8931": "agment",
  "8932": "road",
  "8933": "期的",
  "8934": "始终",
  "8935": "煤",
  "8936": " Health",
  "8937": " completely",
  "8938": " appropri",
  "8939": "PM",
  "8940": "纵",
  "8941": " TV",
  "8942": "(false",
  "8943": " proced",
  "8944": "arrant",
  "8945": "更好",
  "8946": "怨",
  "8947": "на",
  "8948": "_user",
  "8949": "Location",
  "8950": "rial",
  "8951": "email",
  "8952": " passed",
  "8953": "作业",
  "8954": "例如",
  "8955": "车型",
  "8956": "正是",
  "8957": " analysis",
  "8958": "尽量",
  "8959": "second",
  "8960": "creen",
  "8961": " ok",
  "8962": "Use",
  "8963": ".map",
  "8964": "iate",
  "8965": "+b",
  "8966": " consum",
  "8967": " random",
  "8968": " picture",
  "8969": " basic",
  "8970": " charg",
  "8971": " can't",
  "8972": "while",
  "8973": "斤",
  "8974": "Record",
  "8975": " essential",
  "8976": "urg",
  "8977": "现在的",
  "8978": "LECT",
  "8979": "store",
  "8980": "驱",
  "8981": " decided",
  "8982": "漏",
  "8983": "force",
  "8984": " sens",
  "8985": " photos",
  "8986": "牵",
  "8987": "-year",
  "8988": " bytes",
  "8989": "Args",
  "8990": " pages",
  "8991": "工艺",
  "8992": "wood",
  "8993": " Name",
  "8994": "_sc",
  "8995": "$\n",
  "8996": "运用",
  "8997": " tab",
  "8998": " TO",
  "8999": " Sept",
  "9000": " otherwise",
  "9001": " multi",
  "9002": "peed",
  "9003": " directory",
  "9004": " frequ",
  "9005": " decor",
  "9006": "有时",
  "9007": " contain",
  "9008": "伙伴",
  "9009": " commercial",
  "9010": " train",
  "9011": "impl",
  "9012": " altern",
  "9013": "Ke",
  "9014": "环保",
  "9015": "嫌",
  "9016": "玻",
  "9017": "总结",
  "9018": " streng",
  "9019": "纠",
  "9020": " planning",
  "9021": "饱",
  "9022": " Any",
  "9023": " stage",
  "9024": "Eng",
  "9025": " Build",
  "9026": "观点",
  "9027": "玩家",
  "9028": "朵",
  "9029": "ASK",
  "9030": "�",
  "9031": "fc",
  "9032": " Color",
  "9033": "101",
  "9034": ")).",
  "9035": "姆",
  "9036": "具备",
  "9037": " г",
  "9038": " })\n",
  "9039": "ora",
  "9040": "allow",
  "9041": "在这个",
  "9042": "Left",
  "9043": "彻底",
  "9044": " myself",
  "9045": "ario",
  "9046": " consult",
  "9047": "Description",
  "9048": "SSERT",
  "9049": "target",
  "9050": " neigh",
  "9051": "盾",
  "9052": "nb",
  "9053": "iation",
  "9054": "旋",
  "9055": "acters",
  "9056": "=True",
  "9057": " playing",
  "9058": "浙",
  "9059": " prices",
  "9060": " San",
  "9061": "的美",
  "9062": "天然",
  "9063": "瓦",
  "9064": " Mus",
  "9065": "承担",
  "9066": "有很多",
  "9067": "曼",
  "9068": " America",
  "9069": "IME",
  "9070": "/L",
  "9071": "ş",
  "9072": "呼吸",
  "9073": "给予",
  "9074": "加工",
  "9075": "length",
  "9076": "吸收",
  "9077": "})\n",
  "9078": " drink",
  "9079": "lem",
  "9080": " limited",
  "9081": "strict",
  "9082": " profile",
  "9083": " achieve",
  "9084": "orary",
  "9085": "他说",
  "9086": " trip",
  "9087": "效率",
  "9088": "吨",
  "9089": " Init",
  "9090": "ifi",
  "9091": "apan",
  "9092": "碗",
  "9093": "ORE",
  "9094": " dise",
  "9095": "厨",
  "9096": ");\r\n\r\n",
  "9097": " finally",
  "9098": "ور",
  "9099": " Brit",
  "9100": " firm",
  "9101": " convert",
  "9102": "い",
  "9103": "不住",
  "9104": "半年",
  "9105": "gorith",
  "9106": "command",
  "9107": "ITE",
  "9108": "Dialog",
  "9109": "NULL",
  "9110": "ā",
  "9111": "Space",
  "9112": "干净",
  "9113": "防止",
  "9114": " inform",
  "9115": "_for",
  "9116": "此时",
  "9117": " &&\n",
  "9118": " devices",
  "9119": "推广",
  "9120": "温度",
  "9121": " concept",
  "9122": " huge",
  "9123": "lose",
  "9124": " push",
  "9125": " steps",
  "9126": "公布",
  "9127": "_CL",
  "9128": " Cr",
  "9129": " Home",
  "9130": "青春",
  "9131": "犹",
  "9132": "                         ",
  "9133": "81",
  "9134": "PP",
  "9135": "做法",
  "9136": "强调",
  "9137": " password",
  "9138": " requires",
  "9139": "Account",
  "9140": "_y",
  "9141": " supported",
  "9142": " shared",
  "9143": "ography",
  "9144": " considered",
  "9145": "绘",
  "9146": "\\t",
  "9147": "过了",
  "9148": " gold",
  "9149": "aled",
  "9150": "类型",
  "9151": "Api",
  "9152": " speak",
  "9153": " instruction",
  "9154": "背景",
  "9155": "alar",
  "9156": "haps",
  "9157": "意味",
  "9158": " SO",
  "9159": " English",
  "9160": "%;\n",
  "9161": "拳",
  "9162": " Microsoft",
  "9163": " roll",
  "9164": " innov",
  "9165": " sites",
  "9166": "满意",
  "9167": " Associ",
  "9168": "romise",
  "9169": "缴",
  "9170": "endar",
  "9171": " enable",
  "9172": "(F",
  "9173": " Key",
  "9174": " Sch",
  "9175": "面前",
  "9176": " wish",
  "9177": "avax",
  "9178": " Value",
  "9179": "UID",
  "9180": " House",
  "9181": "血管",
  "9182": "恰",
  "9183": " measure",
  "9184": "ز",
  "9185": " hour",
  "9186": "ME",
  "9187": "/lic",
  "9188": ".net",
  "9189": ".write",
  "9190": " International",
  "9191": "]\n\n",
  "9192": " driver",
  "9193": "人在",
  "9194": "农民",
  "9195": "凤",
  "9196": " core",
  "9197": "ulate",
  "9198": ")\n\n\n",
  "9199": "广东",
  "9200": "omic",
  "9201": "耀",
  "9202": "_pr",
  "9203": "做了",
  "9204": "忌",
  "9205": " traditional",
  "9206": " led",
  "9207": "ota",
  "9208": " physical",
  "9209": "宏",
  "9210": " East",
  "9211": "agram",
  "9212": "盆",
  "9213": "MENT",
  "9214": ".Is",
  "9215": "show",
  "9216": "plicit",
  "9217": "-M",
  "9218": "_,",
  "9219": "と",
  "9220": "苹",
  "9221": "指标",
  "9222": "thern",
  "9223": "璃",
  "9224": "access",
  "9225": "成就",
  "9226": "分为",
  "9227": "招聘",
  "9228": " obs",
  "9229": "勒",
  "9230": " hands",
  "9231": ".php",
  "9232": ".type",
  "9233": "生活中",
  "9234": " First",
  "9235": "CESS",
  "9236": "etimes",
  "9237": " Afr",
  "9238": "Enabled",
  "9239": "-a",
  "9240": "一边",
  "9241": ".out",
  "9242": "nap",
  "9243": "房地产",
  "9244": "style",
  "9245": "160",
  "9246": "使得",
  "9247": " adjust",
  "9248": "的一种",
  "9249": " places",
  "9250": "ে",
  "9251": "DS",
  "9252": "拖",
  "9253": "多个",
  "9254": "糊",
  "9255": " drop",
  "9256": "_err",
  "9257": " rout",
  "9258": "维护",
  "9259": "_url",
  "9260": "地位",
  "9261": "र",
  "9262": " container",
  "9263": "Ident",
  "9264": " developed",
  "9265": "瘤",
  "9266": "illing",
  "9267": "体的",
  "9268": "委员会",
  "9269": "山东",
  "9270": "规则",
  "9271": " More",
  "9272": "reation",
  "9273": " Here",
  "9274": "enty",
  "9275": " Math",
  "9276": "显得",
  "9277": "疲",
  "9278": " Dav",
  "9279": "eb",
  "9280": " tour",
  "9281": "收益",
  "9282": "ictionary",
  "9283": "也很",
  "9284": "ataset",
  "9285": " warm",
  "9286": "て",
  "9287": "ión",
  "9288": "ancy",
  "9289": " Also",
  "9290": " reserved",
  "9291": "至于",
  "9292": " dark",
  "9293": "几天",
  "9294": "元素",
  "9295": "ilies",
  "9296": "heme",
  "9297": "imately",
  "9298": "的影响",
  "9299": "ি",
  "9300": "丈",
  "9301": "驻",
  "9302": " rules",
  "9303": "奉",
  "9304": "|\n",
  "9305": " Direct",
  "9306": "andler",
  "9307": "直到",
  "9308": ".\\",
  "9309": "犯罪",
  "9310": "否则",
  "9311": "本来",
  "9312": "寻找",
  "9313": " construction",
  "9314": "的同时",
  "9315": "真正的",
  "9316": " difference",
  "9317": " priv",
  "9318": "_object",
  "9319": " Make",
  "9320": "uple",
  "9321": "ring",
  "9322": "孩子们",
  "9323": "Sign",
  "9324": " �",
  "9325": " View",
  "9326": "izations",
  "9327": "天下",
  "9328": "/l",
  "9329": "梯",
  "9330": "Core",
  "9331": "洪",
  "9332": "吃饭",
  "9333": "悦",
  "9334": " inline",
  "9335": "苹果",
  "9336": "extern",
  "9337": "上升",
  "9338": "观众",
  "9339": " nature",
  "9340": "Rel",
  "9341": "Bytes",
  "9342": " VALUES",
  "9343": "Title",
  "9344": "insert",
  "9345": " iter",
  "9346": " sou",
  "9347": "_mode",
  "9348": "__(",
  "9349": "匀",
  "9350": "景区",
  "9351": "itute",
  "9352": "_num",
  "9353": ".sub",
  "9354": " cop",
  "9355": "ibly",
  "9356": "ields",
  "9357": " June",
  "9358": "氛",
  "9359": "死亡",
  "9360": "address",
  "9361": " je",
  "9362": "等待",
  "9363": ".sc",
  "9364": " completed",
  "9365": " purpose",
  "9366": "危险",
  "9367": "肪",
  "9368": ".path",
  "9369": "annels",
  "9370": " */\r\n",
  "9371": "就有",
  "9372": "dc",
  "9373": "Post",
  "9374": " moving",
  "9375": "穴",
  "9376": "启动",
  "9377": "不起",
  "9378": "少年",
  "9379": "_iff",
  "9380": " aware",
  "9381": "都可以",
  "9382": "方面的",
  "9383": "志愿",
  "9384": " serious",
  "9385": " sometimes",
  "9386": "qq",
  "9387": "bon",
  "9388": " interested",
  "9389": "脂肪",
  "9390": "Storage",
  "9391": "泄",
  "9392": " {\"",
  "9393": "蒸",
  "9394": "机器",
  "9395": " sleep",
  "9396": " bul",
  "9397": " category",
  "9398": "手段",
  "9399": "平衡",
  "9400": "从事",
  "9401": "鼓励",
  "9402": "wx",
  "9403": " force",
  "9404": "稀",
  "9405": " Germ",
  "9406": "*\n",
  "9407": " India",
  "9408": "mut",
  "9409": "大概",
  "9410": "而不",
  "9411": " primary",
  "9412": "transform",
  "9413": "Let",
  "9414": "Dis",
  "9415": "艾",
  "9416": "FS",
  "9417": " satisf",
  "9418": " hear",
  "9419": "优质",
  "9420": "疏",
  "9421": " Her",
  "9422": ",-",
  "9423": " Code",
  "9424": "想法",
  "9425": "看见",
  "9426": " vehicle",
  "9427": "+c",
  "9428": "凯",
  "9429": "PH",
  "9430": "Channel",
  "9431": "撞",
  "9432": "邀",
  "9433": "AIL",
  "9434": "rame",
  "9435": "帅",
  "9436": "/j",
  "9437": "赔",
  "9438": "isions",
  "9439": " partners",
  "9440": "过来",
  "9441": " towards",
  "9442": " cache",
  "9443": "是有",
  "9444": " Let",
  "9445": "牢",
  "9446": " London",
  "9447": " blue",
  "9448": " meas",
  "9449": "出口",
  "9450": "());\n\n",
  "9451": " ل",
  "9452": " glass",
  "9453": " damage",
  "9454": " warrant",
  "9455": "ycl",
  "9456": "挑战",
  "9457": "RT",
  "9458": "=%",
  "9459": "va",
  "9460": "到的",
  "9461": "(k",
  "9462": ".Set",
  "9463": "公众",
  "9464": "表面",
  "9465": " dry",
  "9466": "FE",
  "9467": " rock",
  "9468": "是我",
  "9469": "Debug",
  "9470": "莱",
  "9471": " Har",
  "9472": " Of",
  "9473": " tests",
  "9474": "\";\n\n",
  "9475": "不够",
  "9476": " !==",
  "9477": " fair",
  "9478": ".test",
  "9479": "独特",
  "9480": "atio",
  "9481": "回答",
  "9482": "怒",
  "9483": "})",
  "9484": "⟩",
  "9485": "_start",
  "9486": "这位",
  "9487": ",b",
  "9488": "适应",
  "9489": "烤",
  "9490": "囊",
  "9491": "凌",
  "9492": "琴",
  "9493": " employees",
  "9494": " af",
  "9495": "zer",
  "9496": "SL",
  "9497": "微博",
  "9498": "ington",
  "9499": "维生素",
  "9500": "时刻",
  "9501": "郭",
  "9502": " ≥",
  "9503": " spend",
  "9504": "ustr",
  "9505": " exactly",
  "9506": "zy",
  "9507": "漂亮",
  "9508": " became",
  "9509": " carry",
  "9510": "Host",
  "9511": "ague",
  "9512": " cast",
  "9513": " heat",
  "9514": "欧洲",
  "9515": " INTO",
  "9516": "休息",
  "9517": "样子",
  "9518": "96",
  "9519": "%%%%",
  "9520": "雕",
  "9521": "角色",
  "9522": "_{",
  "9523": " histor",
  "9524": "�",
  "9525": "hood",
  "9526": ".V",
  "9527": " gar",
  "9528": "Custom",
  "9529": " conduct",
  "9530": "人口",
  "9531": "限制",
  "9532": "iny",
  "9533": "ificate",
  "9534": "岩",
  "9535": "老公",
  "9536": "°",
  "9537": " Option",
  "9538": "协议",
  "9539": "引导",
  "9540": "process",
  "9541": "想象",
  "9542": "ober",
  "9543": "ATUS",
  "9544": "device",
  "9545": " thinking",
  "9546": " Ke",
  "9547": "本次",
  "9548": "Items",
  "9549": "account",
  "9550": "rought",
  "9551": "常常",
  "9552": "_text",
  "9553": "-top",
  "9554": "ε",
  "9555": "测试",
  "9556": "讨论",
  "9557": "variable",
  "9558": "薪",
  "9559": "证券",
  "9560": "(function",
  "9561": " Cons",
  "9562": "蔬",
  "9563": " Call",
  "9564": " stuff",
  "9565": "多次",
  "9566": "将会",
  "9567": "所在",
  "9568": "罗斯",
  "9569": " sym",
  "9570": "Write",
  "9571": "Sec",
  "9572": "市场的",
  "9573": " transport",
  "9574": "ں",
  "9575": " began",
  "9576": "urt",
  "9577": " Project",
  "9578": "内心",
  "9579": " China",
  "9580": "aught",
  "9581": " Black",
  "9582": "lying",
  "9583": "gar",
  "9584": "循环",
  "9585": " Techn",
  "9586": "Expression",
  "9587": "UC",
  "9588": "گ",
  "9589": " guide",
  "9590": "IV",
  "9591": "相应",
  "9592": "OUR",
  "9593": "每一个",
  "9594": ">&",
  "9595": "istribut",
  "9596": "�",
  "9597": "两人",
  "9598": "??",
  "9599": "说话",
  "9600": " (_",
  "9601": "减肥",
  "9602": "Fin",
  "9603": "-time",
  "9604": "Co",
  "9605": "成分",
  "9606": "粉丝",
  "9607": "粘",
  "9608": " objects",
  "9609": "(B",
  "9610": "熟悉",
  "9611": " expand",
  "9612": " surface",
  "9613": "fix",
  "9614": "也能",
  "9615": "ucture",
  "9616": "莲",
  "9617": "_plus",
  "9618": "�",
  "9619": "':\n",
  "9620": " plus",
  "9621": "ipeline",
  "9622": "读书",
  "9623": " Error",
  "9624": "ာ",
  "9625": " campaign",
  "9626": "sembly",
  "9627": " é",
  "9628": "hr",
  "9629": "预计",
  "9630": "orge",
  "9631": " '\\",
  "9632": "足够",
  "9633": "巡",
  "9634": "那样",
  "9635": " reduce",
  "9636": "菩",
  "9637": " businesses",
  "9638": "杭",
  "9639": "82",
  "9640": "||",
  "9641": " charge",
  "9642": "plies",
  "9643": "成员",
  "9644": " photo",
  "9645": "成果",
  "9646": "arp",
  "9647": "生长",
  "9648": ")->",
  "9649": "_MAX",
  "9650": "Que",
  "9651": " influ",
  "9652": "进步",
  "9653": "Each",
  "9654": "ú",
  "9655": "行情",
  "9656": "DA",
  "9657": "IGN",
  "9658": "考生",
  "9659": " rot",
  "9660": "咖",
  "9661": " prem",
  "9662": " classes",
  "9663": "hi",
  "9664": " updated",
  "9665": "Product",
  "9666": " smart",
  "9667": " former",
  "9668": "利于",
  "9669": "理由",
  "9670": "plet",
  "9671": "Changed",
  "9672": " candid",
  "9673": " drug",
  "9674": "phone",
  "9675": "那里",
  "9676": " band",
  "9677": "惑",
  "9678": "INSERT",
  "9679": "ialize",
  "9680": " finish",
  "9681": "awn",
  "9682": "能量",
  "9683": "،",
  "9684": " [[",
  "9685": "�",
  "9686": "Byte",
  "9687": "组合",
  "9688": "陶",
  "9689": " />\n",
  "9690": "飘",
  "9691": " counter",
  "9692": "事故",
  "9693": "诱",
  "9694": " camera",
  "9695": ".a",
  "9696": "临床",
  "9697": "携",
  "9698": "ە",
  "9699": " shown",
  "9700": " advant",
  "9701": "医学",
  "9702": "_per",
  "9703": " master",
  "9704": "晋",
  "9705": " liter",
  "9706": "挖",
  "9707": "ki",
  "9708": "dp",
  "9709": "long",
  "9710": " parse",
  "9711": "沈",
  "9712": "inux",
  "9713": " budget",
  "9714": "聪",
  "9715": "好好",
  "9716": "挡",
  "9717": "ERSION",
  "9718": "卧",
  "9719": "太多",
  "9720": "す",
  "9721": " exerc",
  "9722": " Services",
  "9723": " wonderful",
  "9724": "一件",
  "9725": "恨",
  "9726": "''",
  "9727": "战争",
  "9728": "oday",
  "9729": "sv",
  "9730": "两种",
  "9731": "Dr",
  "9732": "ech",
  "9733": "ITION",
  "9734": " hous",
  "9735": "出生",
  "9736": "制定",
  "9737": "utils",
  "9738": "ем",
  "9739": " maximum",
  "9740": ".text",
  "9741": " opportunities",
  "9742": " sold",
  "9743": "当中",
  "9744": "amm",
  "9745": "工作的",
  "9746": " bound",
  "9747": " inf",
  "9748": " basis",
  "9749": " fab",
  "9750": "高度",
  "9751": "ecause",
  "9752": " IT",
  "9753": "icks",
  "9754": " supply",
  "9755": "佩",
  "9756": " ن",
  "9757": "τ",
  "9758": "700",
  "9759": "                                                                ",
  "9760": " hy",
  "9761": "ACT",
  "9762": "_ADDR",
  "9763": " undefined",
  "9764": "iform",
  "9765": " Apache",
  "9766": "allet",
  "9767": " situation",
  "9768": " aspect",
  "9769": "是最",
  "9770": "witter",
  "9771": "/re",
  "9772": "Names",
  "9773": " nullptr",
  "9774": "丢",
  "9775": "MC",
  "9776": " deb",
  "9777": " healthy",
  "9778": "ר",
  "9779": "台湾",
  "9780": "Template",
  "9781": " prop",
  "9782": "�",
  "9783": "ovember",
  "9784": "有个",
  "9785": " optim",
  "9786": "译",
  "9787": "amples",
  "9788": "性格",
  "9789": "Edit",
  "9790": "恼",
  "9791": "球队",
  "9792": "遵",
  "9793": "cat",
  "9794": "_class",
  "9795": "grade",
  "9796": "_array",
  "9797": "年代",
  "9798": "艳",
  "9799": " Assert",
  "9800": " vert",
  "9801": "加快",
  "9802": " individuals",
  "9803": "补充",
  "9804": "от",
  "9805": "上去",
  "9806": " hash",
  "9807": "lier",
  "9808": " earn",
  "9809": "广泛",
  "9810": "ancel",
  "9811": "弯",
  "9812": "三年",
  "9813": "Reader",
  "9814": ")^",
  "9815": " Dec",
  "9816": "德国",
  "9817": "otes",
  "9818": " definitely",
  "9819": "这款",
  "9820": "---\n",
  "9821": " symbol",
  "9822": "WS",
  "9823": " sha",
  "9824": " Christmas",
  "9825": " stress",
  "9826": "第五",
  "9827": "case",
  "9828": "ри",
  "9829": " viol",
  "9830": "每个人",
  "9831": " \",",
  "9832": "舰",
  "9833": "滚",
  "9834": "醉",
  "9835": "ements",
  "9836": "实际上",
  "9837": "_addr",
  "9838": " emerg",
  "9839": "iling",
  "9840": " origin",
  "9841": "面临",
  "9842": "ste",
  "9843": "ych",
  "9844": " growing",
  "9845": "360",
  "9846": "看起来",
  "9847": "割",
  "9848": ".new",
  "9849": "method",
  "9850": "Exp",
  "9851": " Book",
  "9852": "玻璃",
  "9853": "心情",
  "9854": "Ins",
  "9855": "arily",
  "9856": ".J",
  "9857": "Sk",
  "9858": "缺乏",
  "9859": "ի",
  "9860": " \"\n",
  "9861": "undle",
  "9862": " �",
  "9863": "慈",
  "9864": "运输",
  "9865": "逼",
  "9866": "登记",
  "9867": "ODO",
  "9868": " beginning",
  "9869": ".cont",
  "9870": " Hel",
  "9871": "肚",
  "9872": "涵",
  "9873": "的主",
  "9874": "_device",
  "9875": " soft",
  "9876": "Ag",
  "9877": "注册",
  "9878": "上一",
  "9879": "MT",
  "9880": " understanding",
  "9881": " Sim",
  "9882": " calcul",
  "9883": "che",
  "9884": " align",
  "9885": "main",
  "9886": "Loc",
  "9887": " regarding",
  "9888": "/licenses",
  "9889": " Post",
  "9890": "其它",
  "9891": "不在",
  "9892": "溪",
  "9893": "DC",
  "9894": "mat",
  "9895": "sequ",
  "9896": "物流",
  "9897": "Msg",
  "9898": "ederal",
  "9899": " characters",
  "9900": "IVE",
  "9901": "\"><",
  "9902": "传播",
  "9903": "El",
  "9904": " independ",
  "9905": " Cour",
  "9906": " nav",
  "9907": "urrency",
  "9908": "ек",
  "9909": " states",
  "9910": "inn",
  "9911": "中间",
  "9912": "]]",
  "9913": " Mr",
  "9914": " War",
  "9915": " sets",
  "9916": "template",
  "9917": "商务",
  "9918": " hab",
  "9919": "asy",
  "9920": "fit",
  "9921": "_table",
  "9922": "举办",
  "9923": " ж",
  "9924": "小说",
  "9925": "\tu",
  "9926": " ord",
  "9927": "(id",
  "9928": "Http",
  "9929": "Parameters",
  "9930": "一名",
  "9931": ".ui",
  "9932": " shop",
  "9933": " Are",
  "9934": "_status",
  "9935": " appropriate",
  "9936": " serve",
  "9937": "ordin",
  "9938": "ocker",
  "9939": " gas",
  "9940": " easier",
  "9941": "站在",
  "9942": "cember",
  "9943": "но",
  "9944": "91",
  "9945": "机械",
  "9946": " Facebook",
  "9947": " middle",
  "9948": "的朋友",
  "9949": "猛",
  "9950": "�",
  "9951": "各地",
  "9952": " dream",
  "9953": "葡",
  "9954": "辞",
  "9955": " Att",
  "9956": " released",
  "9957": "Collection",
  "9958": "的前",
  "9959": " medic",
  "9960": "涉及",
  "9961": "那种",
  "9962": " icon",
  "9963": "给了",
  "9964": "今日",
  "9965": " anim",
  "9966": "大会",
  "9967": " goals",
  "9968": "眉",
  "9969": "                      ",
  "9970": " Del",
  "9971": " calls",
  "9972": "_DIR",
  "9973": "oms",
  "9974": "»",
  "9975": "_out",
  "9976": "\tr",
  "9977": "Flags",
  "9978": "不想",
  "9979": "前的",
  "9980": "cb",
  "9981": "iforn",
  "9982": " payment",
  "9983": "_u",
  "9984": "精彩",
  "9985": " eat",
  "9986": "ometry",
  "9987": "垂",
  "9988": " buf",
  "9989": "起了",
  "9990": " stack",
  "9991": "含有",
  "9992": "锻",
  "9993": "获取",
  "9994": "Variable",
  "9995": "gb",
  "9996": "熊",
  "9997": " enh",
  "9998": "Err",
  "9999": "顺利",
  "10000": "奈",
  "10001": ":\\",
  "10002": " operations",
  "10003": "PD",
  "10004": " imag",
  "10005": "ires",
  "10006": "number",
  "10007": "Root",
  "10008": " Design",
  "10009": " dead",
  "10010": "允",
  "10011": " club",
  "10012": " posted",
  "10013": " CL",
  "10014": "融资",
  "10015": " rule",
  "10016": "ano",
  "10017": "他在",
  "10018": " ⟨",
  "10019": " September",
  "10020": "framework",
  "10021": " generate",
  "10022": "76",
  "10023": " birth",
  "10024": "相同",
  "10025": "more",
  "10026": "ura",
  "10027": "oded",
  "10028": "­",
  "10029": "桂",
  "10030": " arriv",
  "10031": ",�",
  "10032": "饼",
  "10033": "_mem",
  "10034": " immediately",
  "10035": "信心",
  "10036": "类似",
  "10037": "的情况下",
  "10038": "atalog",
  "10039": " felt",
  "10040": "一路",
  "10041": " statement",
  "10042": "上午",
  "10043": " numer",
  "10044": "痕",
  "10045": "Ang",
  "10046": " benefit",
  "10047": " belie",
  "10048": "Now",
  "10049": " edge",
  "10050": " vector",
  "10051": "祥",
  "10052": "裙",
  "10053": "瞬",
  "10054": "发表",
  "10055": "锦",
  "10056": "(ctx",
  "10057": "mem",
  "10058": " mask",
  "10059": "自主",
  "10060": "Body",
  "10061": "病毒",
  "10062": "游客",
  "10063": "下跌",
  "10064": "YS",
  "10065": "shot",
  "10066": "周围",
  "10067": "part",
  "10068": "悬",
  "10069": "ror",
  "10070": "PECT",
  "10071": "温暖",
  "10072": " Company",
  "10073": "resource",
  "10074": "_j",
  "10075": "拍摄",
  "10076": "here",
  "10077": "寄",
  "10078": "雾",
  "10079": " esc",
  "10080": "ospital",
  "10081": "听到",
  "10082": "意味着",
  "10083": " \\\"",
  "10084": ")))\n",
  "10085": " investment",
  "10086": " jud",
  "10087": " spr",
  "10088": " hotel",
  "10089": " dedic",
  "10090": "装饰",
  "10091": ".as",
  "10092": "紧张",
  "10093": " effects",
  "10094": "ester",
  "10095": "人民币",
  "10096": " Program",
  "10097": " assess",
  "10098": " gift",
  "10099": "悠",
  "10100": " tmp",
  "10101": " Sund",
  "10102": "相互",
  "10103": "straint",
  "10104": "霸",
  "10105": "慎",
  "10106": "霜",
  "10107": " «",
  "10108": " Jes",
  "10109": "乙",
  "10110": "(get",
  "10111": "++)\n",
  "10112": "ho",
  "10113": " zero",
  "10114": " Note",
  "10115": "overn",
  "10116": "情感",
  "10117": "_lo",
  "10118": " Over",
  "10119": "水果",
  "10120": "缝",
  "10121": "ita",
  "10122": " Mac",
  "10123": "74",
  "10124": "叹",
  "10125": "魅",
  "10126": "iced",
  "10127": "成都",
  "10128": "riend",
  "10129": "可见",
  "10130": "也在",
  "10131": "韩国",
  "10132": "rench",
  "10133": "ി�",
  "10134": "peat",
  "10135": " io",
  "10136": "评论",
  "10137": "_at",
  "10138": "渠道",
  "10139": " Every",
  "10140": " pet",
  "10141": " flags",
  "10142": "葱",
  "10143": "栏",
  "10144": "tee",
  "10145": "porate",
  "10146": " January",
  "10147": " Event",
  "10148": "刚刚",
  "10149": "谐",
  "10150": ".ch",
  "10151": " accur",
  "10152": "EE",
  "10153": "齿",
  "10154": "_block",
  "10155": "。\n",
  "10156": " compliance",
  "10157": "Delete",
  "10158": "abilities",
  "10159": "_lock",
  "10160": "串",
  "10161": " pal",
  "10162": " July",
  "10163": "很好的",
  "10164": " javax",
  "10165": " Met",
  "10166": "#\n",
  "10167": "/M",
  "10168": "各类",
  "10169": " pictures",
  "10170": " errors",
  "10171": " DOMAIN",
  "10172": "第一个",
  "10173": "曹",
  "10174": "anner",
  "10175": "Only",
  "10176": "泌",
  "10177": "瓷",
  "10178": " degree",
  "10179": "燥",
  "10180": "中学",
  "10181": " greater",
  "10182": "sem",
  "10183": "ford",
  "10184": "本人",
  "10185": "把握",
  "10186": "IA",
  "10187": "ط",
  "10188": "铜",
  "10189": "dec",
  "10190": "ndef",
  "10191": ",c",
  "10192": "放入",
  "10193": "案件",
  "10194": "Panel",
  "10195": "Activity",
  "10196": " guarant",
  "10197": "生活的",
  "10198": "ounce",
  "10199": " Custom",
  "10200": "革命",
  "10201": "呈现",
  "10202": " maybe",
  "10203": "SH",
  "10204": "我觉得",
  "10205": " mill",
  "10206": " dro",
  "10207": "�",
  "10208": "License",
  "10209": "append",
  "10210": "begin",
  "10211": "dis",
  "10212": "更新",
  "10213": " President",
  "10214": " strategy",
  "10215": "一场",
  "10216": "och",
  "10217": "onstr",
  "10218": "Real",
  "10219": " families",
  "10220": " paint",
  "10221": " alloc",
  "10222": " WARRANTIES",
  "10223": " pull",
  "10224": "从来",
  "10225": "近日",
  "10226": " argument",
  "10227": " Mich",
  "10228": " paid",
  "10229": "主席",
  "10230": "仰",
  "10231": "92",
  "10232": " \"%",
  "10233": " Mod",
  "10234": "胀",
  "10235": "{\\",
  "10236": "ã",
  "10237": "立即",
  "10238": " pressure",
  "10239": "iques",
  "10240": "Async",
  "10241": "ス",
  "10242": "]:",
  "10243": "ص",
  "10244": "搬",
  "10245": " SH",
  "10246": " actions",
  "10247": "上下",
  "10248": " theme",
  "10249": "\tw",
  "10250": " operator",
  "10251": " Mag",
  "10252": " domain",
  "10253": " copyright",
  "10254": "_from",
  "10255": " award",
  "10256": "百姓",
  "10257": "call",
  "10258": "赋",
  "10259": " Most",
  "10260": "优惠",
  "10261": "UFFIX",
  "10262": "Display",
  "10263": "赛季",
  "10264": "oving",
  "10265": "负责人",
  "10266": " ns",
  "10267": "反映",
  "10268": "yt",
  "10269": " define",
  "10270": "年度",
  "10271": " reported",
  "10272": " \"<",
  "10273": "Parent",
  "10274": ".println",
  "10275": " regul",
  "10276": ")]\n",
  "10277": " internet",
  "10278": " August",
  "10279": "+%",
  "10280": "rier",
  "10281": " ip",
  "10282": "111",
  "10283": "ғ",
  "10284": " temperature",
  "10285": "酱",
  "10286": " trade",
  "10287": "Layer",
  "10288": "成交",
  "10289": "ker",
  "10290": "त",
  "10291": "萄",
  "10292": "legal",
  "10293": "高考",
  "10294": "看了",
  "10295": "Match",
  "10296": " blood",
  "10297": "ой",
  "10298": " testing",
  "10299": "完美",
  "10300": "数学",
  "10301": "的基础",
  "10302": "ê",
  "10303": "ե",
  "10304": "痘",
  "10305": "ifornia",
  "10306": "特征",
  "10307": "ugins",
  "10308": "反弹",
  "10309": "ogg",
  "10310": "Global",
  "10311": "办公室",
  "10312": "CLUD",
  "10313": " culture",
  "10314": " isn",
  "10315": " ctx",
  "10316": "葡萄",
  "10317": "细节",
  "10318": "财富",
  "10319": "olf",
  "10320": "舒适",
  "10321": "环节",
  "10322": " surround",
  "10323": "Ge",
  "10324": "�",
  "10325": "企业的",
  "10326": "贡献",
  "10327": "BJ",
  "10328": "厉",
  "10329": "ocr",
  "10330": "grid",
  "10331": "血液",
  "10332": "tml",
  "10333": "演员",
  "10334": " distance",
  "10335": " attr",
  "10336": " spent",
  "10337": " October",
  "10338": "原文地址",
  "10339": "市民",
  "10340": " offering",
  "10341": "而不是",
  "10342": ".has",
  "10343": "引发",
  "10344": "臭",
  "10345": "婴",
  "10346": " meaning",
  "10347": "ң",
  "10348": "马上",
  "10349": "策略",
  "10350": "损失",
  "10351": "在线",
  "10352": "ums",
  "10353": "EG",
  "10354": " dress",
  "10355": "定位",
  "10356": " Vis",
  "10357": " eye",
  "10358": "有没有",
  "10359": "在我",
  "10360": "Document",
  "10361": "Right",
  "10362": "ө",
  "10363": " produce",
  "10364": "make",
  "10365": "(err",
  "10366": "人家",
  "10367": "Red",
  "10368": "贸易",
  "10369": "小区",
  "10370": "Vert",
  "10371": "才会",
  "10372": ".key",
  "10373": "OC",
  "10374": "造型",
  "10375": " demand",
  "10376": "或是",
  "10377": "抛",
  "10378": " rates",
  "10379": "Lock",
  "10380": "可能是",
  "10381": " finished",
  "10382": " components",
  "10383": " Russ",
  "10384": " Friday",
  "10385": " Department",
  "10386": " delivery",
  "10387": "心中",
  "10388": "董事",
  "10389": "が",
  "10390": " overall",
  "10391": "(key",
  "10392": "道理",
  "10393": "doc",
  "10394": "cons",
  "10395": "燕",
  "10396": "ий",
  "10397": "orial",
  "10398": "Graph",
  "10399": "各个",
  "10400": " env",
  "10401": "毁",
  "10402": "宠",
  "10403": " nut",
  "10404": "_op",
  "10405": " auth",
  "10406": "edit",
  "10407": "Step",
  "10408": "艰",
  "10409": "袭",
  "10410": "integr",
  "10411": "metadata",
  "10412": " prep",
  "10413": " tal",
  "10414": "aml",
  "10415": "大小",
  "10416": "钻",
  "10417": " Japan",
  "10418": "让他",
  "10419": "包装",
  "10420": " '/",
  "10421": "昨天",
  "10422": "轴",
  "10423": "布局",
  "10424": "公路",
  "10425": "ertain",
  "10426": " applicable",
  "10427": "妻子",
  "10428": "推出",
  "10429": "125",
  "10430": ".sqrt",
  "10431": "ael",
  "10432": "(\"%",
  "10433": " attack",
  "10434": " Street",
  "10435": "NA",
  "10436": "_mod",
  "10437": "Const",
  "10438": "哲",
  "10439": "Operation",
  "10440": "你会",
  "10441": "returns",
  "10442": "execut",
  "10443": "连接",
  "10444": "Head",
  "10445": "优化",
  "10446": "ifications",
  "10447": " colors",
  "10448": "_offset",
  "10449": "USE",
  "10450": "弥",
  "10451": "酷",
  "10452": " ع",
  "10453": " score",
  "10454": "rome",
  "10455": " cash",
  "10456": " broad",
  "10457": "在中国",
  "10458": "stack",
  "10459": "竟然",
  "10460": " Config",
  "10461": " King",
  "10462": "浙江",
  "10463": " rev",
  "10464": "很大的",
  "10465": "阔",
  "10466": "lements",
  "10467": "矛",
  "10468": "-\n",
  "10469": "Policy",
  "10470": "MB",
  "10471": "夫妻",
  "10472": "73",
  "10473": "pite",
  "10474": "武汉",
  "10475": "itation",
  "10476": "Application",
  "10477": "第十",
  "10478": "崇",
  "10479": " agreed",
  "10480": "财政",
  "10481": "double",
  "10482": "ն",
  "10483": "突出",
  "10484": " capital",
  "10485": "ws",
  "10486": " Ob",
  "10487": " insert",
  "10488": "je",
  "10489": "Please",
  "10490": "zure",
  "10491": " gave",
  "10492": "在此",
  "10493": "ု",
  "10494": " dir",
  "10495": "贪",
  "10496": "_version",
  "10497": "                        ",
  "10498": "agon",
  "10499": "ashion",
  "10500": " Develop",
  "10501": "随后",
  "10502": "食用",
  "10503": "Active",
  "10504": "有时候",
  "10505": " arguments",
  "10506": "创作",
  "10507": "ounced",
  "10508": "详细",
  "10509": ">();\n",
  "10510": "Long",
  "10511": " interview",
  "10512": "主要是",
  "10513": " named",
  "10514": " responsible",
  "10515": "别的",
  "10516": "违法",
  "10517": "参数",
  "10518": "pute",
  "10519": " Go",
  "10520": " tried",
  "10521": " didn't",
  "10522": " Ant",
  "10523": "andard",
  "10524": "allery",
  "10525": "南京",
  "10526": "unning",
  "10527": "_SET",
  "10528": " pen",
  "10529": " bey",
  "10530": "94",
  "10531": "电动",
  "10532": " provider",
  "10533": "官方",
  "10534": " Top",
  "10535": "ria",
  "10536": "ー�",
  "10537": " Business",
  "10538": "-C",
  "10539": "人工",
  "10540": "剪",
  "10541": "柳",
  "10542": "-v",
  "10543": "************************************************************************",
  "10544": "叔",
  "10545": "aming",
  "10546": " cab",
  "10547": " ON",
  "10548": "众多",
  "10549": "悔",
  "10550": "当年",
  "10551": "bin",
  "10552": "我要",
  "10553": "车的",
  "10554": " advert",
  "10555": "(null",
  "10556": " terr",
  "10557": "aints",
  "10558": "一生",
  "10559": "duc",
  "10560": "重庆",
  "10561": "Rule",
  "10562": "化学",
  "10563": " November",
  "10564": "准确",
  "10565": "Net",
  "10566": "扩大",
  "10567": " pair",
  "10568": "规律",
  "10569": "做出",
  "10570": "foo",
  "10571": "Network",
  "10572": " feeling",
  "10573": "一样的",
  "10574": "=\\\"",
  "10575": "DR",
  "10576": " remain",
  "10577": "至今",
  "10578": "71",
  "10579": " beyond",
  "10580": ".I",
  "10581": " monitor",
  "10582": "ас",
  "10583": " political",
  "10584": "VM",
  "10585": "arrow",
  "10586": " determine",
  "10587": "]+",
  "10588": "添加",
  "10589": "ologies",
  "10590": "碑",
  "10591": "印象",
  "10592": "排名",
  "10593": " Base",
  "10594": "协调",
  "10595": " Other",
  "10596": "专门",
  "10597": "rev",
  "10598": "Metadata",
  "10599": " increasing",
  "10600": "一份",
  "10601": "apply",
  "10602": "稿",
  "10603": "炉",
  "10604": " largest",
  "10605": " balance",
  "10606": " loved",
  "10607": "-left",
  "10608": "[:",
  "10609": "丰富的",
  "10610": "外的",
  "10611": "队伍",
  "10612": " ha",
  "10613": "不多",
  "10614": "lished",
  "10615": "à",
  "10616": "ynch",
  "10617": "谱",
  "10618": "喊",
  "10619": " norm",
  "10620": "Repository",
  "10621": " schools",
  "10622": "Engine",
  "10623": "ав",
  "10624": ".un",
  "10625": " adult",
  "10626": "芳",
  "10627": "大型",
  "10628": "ervation",
  "10629": "scription",
  "10630": "holder",
  "10631": "也没",
  "10632": "Mark",
  "10633": "合适",
  "10634": "Font",
  "10635": "ifying",
  "10636": "'.",
  "10637": " compl",
  "10638": " grand",
  "10639": " offered",
  "10640": "Bit",
  "10641": "ronic",
  "10642": "就算",
  "10643": " feet",
  "10644": "ourney",
  "10645": ".)",
  "10646": "esome",
  "10647": "邻",
  "10648": " URL",
  "10649": "aturday",
  "10650": " PART",
  "10651": "冠军",
  "10652": "羽",
  "10653": " sen",
  "10654": "ു",
  "10655": "othing",
  "10656": ".o",
  "10657": "女士",
  "10658": "州市",
  "10659": "有多",
  "10660": "装备",
  "10661": " ther",
  "10662": "ambda",
  "10663": "探索",
  "10664": " spot",
  "10665": "plements",
  "10666": " weather",
  "10667": "خ",
  "10668": "gest",
  "10669": " entity",
  "10670": " played",
  "10671": " Each",
  "10672": " Function",
  "10673": " court",
  "10674": " patient",
  "10675": "很容易",
  "10676": "──",
  "10677": " views",
  "10678": "SA",
  "10679": "pa",
  "10680": "Track",
  "10681": "-width",
  "10682": " December",
  "10683": "click",
  "10684": "(:",
  "10685": "俄罗斯",
  "10686": "-bottom",
  "10687": "ρ",
  "10688": "Effect",
  "10689": " afford",
  "10690": "疯",
  "10691": "刊",
  "10692": "了很多",
  "10693": "TC",
  "10694": ".json",
  "10695": " advice",
  "10696": "还没有",
  "10697": "上述",
  "10698": "慰",
  "10699": "ł",
  "10700": " truly",
  "10701": "很少",
  "10702": " stories",
  "10703": " equal",
  "10704": "yntax",
  "10705": ".pl",
  "10706": "'),",
  "10707": "爬",
  "10708": "이",
  "10709": " Start",
  "10710": "Grid",
  "10711": " batter",
  "10712": "Float",
  "10713": " born",
  "10714": " apprec",
  "10715": "祛",
  "10716": " heard",
  "10717": "老年",
  "10718": "obs",
  "10719": "iki",
  "10720": "女生",
  "10721": " attribute",
  "10722": "ी",
  "10723": "hab",
  "10724": "谨",
  "10725": "个性",
  "10726": "答案",
  "10727": "background",
  "10728": ".config",
  "10729": " Pat",
  "10730": "avi",
  "10731": " ;\n",
  "10732": " movie",
  "10733": "ULE",
  "10734": "提示",
  "10735": "clusive",
  "10736": " I've",
  "10737": "尊重",
  "10738": " volume",
  "10739": "改造",
  "10740": " College",
  "10741": " certainly",
  "10742": "对手",
  "10743": "Matrix",
  "10744": ".annot",
  "10745": " lots",
  "10746": " mis",
  "10747": "Func",
  "10748": " Great",
  "10749": "亩",
  "10750": "house",
  "10751": " experienced",
  "10752": "带来的",
  "10753": "举行",
  "10754": "ville",
  "10755": " Id",
  "10756": "发动机",
  "10757": "eds",
  "10758": "_with",
  "10759": " highest",
  "10760": "维持",
  "10761": "heel",
  "10762": "oration",
  "10763": "脆",
  "10764": " external",
  "10765": "他人",
  "10766": ")]",
  "10767": "货币",
  "10768": " pointer",
  "10769": " Even",
  "10770": "色彩",
  "10771": "icker",
  "10772": "头发",
  "10773": "anging",
  "10774": "同比",
  "10775": "_result",
  "10776": " removed",
  "10777": ".tr",
  "10778": "Register",
  "10779": " brought",
  "10780": "适当",
  "10781": "find",
  "10782": "四川",
  "10783": "REF",
  "10784": " stra",
  "10785": "-the",
  "10786": "走了",
  "10787": " Ins",
  "10788": "夹",
  "10789": "挤",
  "10790": "ARD",
  "10791": "鸣",
  "10792": "Tool",
  "10793": "依法",
  "10794": "close",
  "10795": "情况下",
  "10796": "ald",
  "10797": "(in",
  "10798": "Invalid",
  "10799": "尝试",
  "10800": "!--",
  "10801": " setup",
  "10802": " coff",
  "10803": "Non",
  "10804": "ă",
  "10805": ".remove",
  "10806": "覆盖",
  "10807": "懂得",
  "10808": "VENT",
  "10809": "世界上",
  "10810": " Long",
  "10811": "流程",
  "10812": " letter",
  "10813": "面试",
  "10814": "嫩",
  "10815": "rot",
  "10816": "不得不",
  "10817": "_buffer",
  "10818": " manager",
  "10819": "FC",
  "10820": "直播",
  "10821": " larger",
  "10822": " spirit",
  "10823": "conf",
  "10824": "素质",
  "10825": "_length",
  "10826": "屈",
  "10827": "依旧",
  "10828": "}\"",
  "10829": " Update",
  "10830": "imestamp",
  "10831": "技巧",
  "10832": "房屋",
  "10833": " Bel",
  "10834": "周期",
  "10835": "课堂",
  "10836": " California",
  "10837": "(result",
  "10838": "淋",
  "10839": "AIN",
  "10840": "锻炼",
  "10841": "工作人员",
  "10842": "娜",
  "10843": "棉",
  "10844": "Profile",
  "10845": "纷纷",
  "10846": " garden",
  "10847": " manage",
  "10848": "vc",
  "10849": "angular",
  "10850": " increased",
  "10851": "Kind",
  "10852": "反而",
  "10853": "-of",
  "10854": " boy",
  "10855": "盒",
  "10856": "Editor",
  "10857": " forms",
  "10858": "'],",
  "10859": " appoint",
  "10860": " Ben",
  "10861": " FROM",
  "10862": "___",
  "10863": "ses",
  "10864": "即将",
  "10865": "filter",
  "10866": "旅行",
  "10867": "zen",
  "10868": "萝",
  "10869": " PC",
  "10870": " Gl",
  "10871": "move",
  "10872": " raw",
  "10873": "Draw",
  "10874": "蔬菜",
  "10875": "ancing",
  "10876": "ris",
  "10877": "PUT",
  "10878": "功效",
  "10879": " collabor",
  "10880": "rey",
  "10881": " ideal",
  "10882": " PM",
  "10883": " messages",
  "10884": "echo",
  "10885": " detail",
  "10886": "失去",
  "10887": "ferences",
  "10888": "大众",
  "10889": "tected",
  "10890": "upported",
  "10891": "ак",
  "10892": "ão",
  "10893": "_group",
  "10894": " links",
  "10895": "~~~~",
  "10896": "表演",
  "10897": "腻",
  "10898": "棒",
  "10899": "help",
  "10900": " rw",
  "10901": "热情",
  "10902": "-SUFFIX",
  "10903": "浴",
  "10904": " implementation",
  "10905": "病人",
  "10906": "主持",
  "10907": "的主要",
  "10908": "Writer",
  "10909": "�",
  "10910": " pub",
  "10911": " homes",
  "10912": "/r",
  "10913": " vict",
  "10914": "atever",
  "10915": "高级",
  "10916": "抹",
  "10917": "幽",
  "10918": " ||\n",
  "10919": "Timeout",
  "10920": " schedule",
  "10921": "Queue",
  "10922": "POSE",
  "10923": "拒绝",
  "10924": " Jesus",
  "10925": " ∧",
  "10926": "Has",
  "10927": "];\n\n",
  "10928": " trend",
  "10929": " micro",
  "10930": "legate",
  "10931": " mother",
  "10932": " secure",
  "10933": ".end",
  "10934": "整理",
  "10935": " grant",
  "10936": " ``",
  "10937": "/n",
  "10938": "bi",
  "10939": "\tC",
  "10940": " challenge",
  "10941": "TS",
  "10942": "affic",
  "10943": ".user",
  "10944": " {}\n",
  "10945": "PIO",
  "10946": "linux",
  "10947": " farm",
  "10948": "mitted",
  "10949": "广场",
  "10950": " moved",
  "10951": " С",
  "10952": "attribute",
  "10953": " ([",
  "10954": "创建",
  "10955": "慕",
  "10956": "一片",
  "10957": "御",
  "10958": "金属",
  "10959": " LL",
  "10960": "冻",
  "10961": " \"$",
  "10962": "atively",
  "10963": "ست",
  "10964": "fn",
  "10965": "Auth",
  "10966": " fight",
  "10967": "ali",
  "10968": "/lib",
  "10969": " partner",
  "10970": "olver",
  "10971": "卜",
  "10972": "ship",
  "10973": "area",
  "10974": "ാ",
  "10975": " cat",
  "10976": "isation",
  "10977": "LOG",
  "10978": "产品的",
  "10979": "ام",
  "10980": " college",
  "10981": "uri",
  "10982": "reshold",
  "10983": "NESS",
  "10984": " economic",
  "10985": "股市",
  "10986": "IRE",
  "10987": "；(",
  "10988": "icious",
  "10989": " Main",
  "10990": "kl",
  "10991": "ona",
  "10992": "蜂",
  "10993": " NO",
  "10994": " {}",
  "10995": "房间",
  "10996": "顾客",
  "10997": " demonstr",
  "10998": "Pool",
  "10999": "郎",
  "11000": "ам",
  "11001": "大利",
  "11002": " eyes",
  "11003": "venue",
  "11004": "(@",
  "11005": "다",
  "11006": " Node",
  "11007": "Down",
  "11008": "uilt",
  "11009": "avour",
  "11010": "tenance",
  "11011": "gorithm",
  "11012": " particularly",
  "11013": "强化",
  "11014": "\tvoid",
  "11015": "这时",
  "11016": "ean",
  "11017": " UN",
  "11018": "Show",
  "11019": ")));\n",
  "11020": " protection",
  "11021": " efficient",
  "11022": "两年",
  "11023": "完整",
  "11024": "对此",
  "11025": "unn",
  "11026": "Desc",
  "11027": " �",
  "11028": "bruary",
  "11029": "哈哈",
  "11030": "遥",
  "11031": "description",
  "11032": "_AL",
  "11033": "卵",
  "11034": " SD",
  "11035": " hop",
  "11036": "_LOG",
  "11037": "contin",
  "11038": " Internet",
  "11039": "iger",
  "11040": "砖",
  "11041": " Sunday",
  "11042": " ol",
  "11043": " teams",
  "11044": "赠",
  "11045": " IO",
  "11046": "ি�",
  "11047": " attend",
  "11048": "[j",
  "11049": "etails",
  "11050": "_item",
  "11051": "高兴",
  "11052": ".Text",
  "11053": "则是",
  "11054": " cards",
  "11055": " baby",
  "11056": " stri",
  "11057": "肖",
  "11058": " automatically",
  "11059": "_max",
  "11060": "一致",
  "11061": " straight",
  "11062": "These",
  "11063": "93",
  "11064": "自行",
  "11065": "矛盾",
  "11066": " turned",
  "11067": "\tS",
  "11068": " incor",
  "11069": "如下",
  "11070": "大家都",
  "11071": " uns",
  "11072": "更好的",
  "11073": " minimum",
  "11074": " à",
  "11075": " contr",
  "11076": " reports",
  "11077": " £",
  "11078": "vention",
  "11079": "清洁",
  "11080": " cloud",
  "11081": "消化",
  "11082": " runs",
  "11083": " guid",
  "11084": " architect",
  "11085": " whose",
  "11086": "学生的",
  "11087": ".api",
  "11088": "出现了",
  "11089": "糕",
  "11090": "orrow",
  "11091": "pret",
  "11092": "练习",
  "11093": "最新",
  "11094": " mechan",
  "11095": "骂",
  "11096": "啥",
  "11097": "dated",
  "11098": ".next",
  "11099": "ils",
  "11100": " adding",
  "11101": "线上",
  "11102": "wargs",
  "11103": "空调",
  "11104": "ого",
  "11105": "lands",
  "11106": "pet",
  "11107": "(std",
  "11108": " USA",
  "11109": "坐在",
  "11110": "-B",
  "11111": "收获",
  "11112": " Che",
  "11113": "_VAL",
  "11114": " CH",
  "11115": " dat",
  "11116": " comfortable",
  "11117": "Plugin",
  "11118": "也不会",
  "11119": " thous",
  "11120": "commit",
  "11121": "\\\":",
  "11122": "曰",
  "11123": "融合",
  "11124": " weekend",
  "11125": "红色",
  "11126": "女子",
  "11127": "ULAR",
  "11128": " thank",
  "11129": "_end",
  "11130": "委会",
  "11131": " \"#",
  "11132": "hy",
  "11133": "ican",
  "11134": " Amazon",
  "11135": "校园",
  "11136": " Line",
  "11137": "ategories",
  "11138": " distribution",
  "11139": " wedding",
  "11140": "留下",
  "11141": " reasons",
  "11142": "大幅",
  "11143": "反复",
  "11144": "河南",
  "11145": " wild",
  "11146": "_write",
  "11147": "usr",
  "11148": "拌",
  "11149": "球员",
  "11150": "[$",
  "11151": "一是",
  "11152": " './",
  "11153": "apy",
  "11154": " Ent",
  "11155": " cmd",
  "11156": "每一",
  "11157": " panel",
  "11158": " warranty",
  "11159": "IE",
  "11160": "党员",
  "11161": "地点",
  "11162": " fixed",
  "11163": " comments",
  "11164": " ج",
  "11165": "_pos",
  "11166": "oves",
  "11167": " End",
  "11168": "140",
  "11169": "堪",
  "11170": "_input",
  "11171": "娃",
  "11172": "}+\\",
  "11173": "Game",
  "11174": " Result",
  "11175": "咱",
  "11176": "的水",
  "11177": " Board",
  "11178": "更有",
  "11179": " bur",
  "11180": "ли",
  "11181": "ais",
  "11182": " secret",
  "11183": " creative",
  "11184": " star",
  "11185": "win",
  "11186": " annual",
  "11187": " helping",
  "11188": " loop",
  "11189": "啡",
  "11190": "摄影",
  "11191": "utter",
  "11192": "osh",
  "11193": " relative",
  "11194": " exists",
  "11195": "晰",
  "11196": ".sina",
  "11197": "免疫",
  "11198": " exit",
  "11199": " reve",
  "11200": " ul",
  "11201": " jobs",
  "11202": "走势",
  "11203": "股东",
  "11204": "诞",
  "11205": "强烈",
  "11206": "Definition",
  "11207": "厌",
  "11208": " topic",
  "11209": " lack",
  "11210": " European",
  "11211": " Default",
  "11212": "高中",
  "11213": " Hol",
  "11214": ".'",
  "11215": "DE",
  "11216": " bow",
  "11217": "002",
  "11218": "固定",
  "11219": "ago",
  "11220": "900",
  "11221": "ky",
  "11222": "^^",
  "11223": "框",
  "11224": "ivil",
  "11225": "esp",
  "11226": "should",
  "11227": " dou",
  "11228": " keys",
  "11229": "浸",
  "11230": "无数",
  "11231": "ollections",
  "11232": " connected",
  "11233": "叉",
  "11234": "玛",
  "11235": "邦",
  "11236": "ktop",
  "11237": " Phil",
  "11238": "wing",
  "11239": " pieces",
  "11240": " thanks",
  "11241": "这也是",
  "11242": "男子",
  "11243": "enum",
  "11244": "无论是",
  "11245": "同事",
  "11246": "GR",
  "11247": "-A",
  "11248": "_inter",
  "11249": "#ifndef",
  "11250": "_model",
  "11251": "关心",
  "11252": " layout",
  "11253": ".google",
  "11254": "自信",
  "11255": "MI",
  "11256": " rank",
  "11257": " processing",
  "11258": "攻击",
  "11259": " conven",
  "11260": "REE",
  "11261": "暑",
  "11262": "PRO",
  "11263": " Oper",
  "11264": "会在",
  "11265": "lay",
  "11266": "宣布",
  "11267": " permissions",
  "11268": " Ir",
  "11269": "ads",
  "11270": " slot",
  "11271": "而在",
  "11272": "成的",
  "11273": "Te",
  "11274": "_val",
  "11275": "999",
  "11276": " expression",
  "11277": "部位",
  "11278": " nation",
  "11279": " convers",
  "11280": "筋",
  "11281": "深刻",
  "11282": "加大",
  "11283": " Saturday",
  "11284": "虾",
  "11285": "四个",
  "11286": ")))",
  "11287": " PUR",
  "11288": "inct",
  "11289": "异常",
  "11290": "会员",
  "11291": "修复",
  "11292": " missing",
  "11293": "逐步",
  "11294": "ORY",
  "11295": "ston",
  "11296": "超级",
  "11297": "治理",
  "11298": "ай",
  "11299": " corres",
  "11300": "便是",
  "11301": "业绩",
  "11302": " Thank",
  "11303": "olumns",
  "11304": " MS",
  "11305": " clin",
  "11306": "ү",
  "11307": "椅",
  "11308": " ·",
  "11309": "mos",
  "11310": "廉",
  "11311": "真的是",
  "11312": "icing",
  "11313": " Ver",
  "11314": "door",
  "11315": "While",
  "11316": "法国",
  "11317": "撒",
  "11318": "typedef",
  "11319": "&&",
  "11320": "acle",
  "11321": ".sinaimg",
  "11322": "不良",
  "11323": "场景",
  "11324": "臣",
  "11325": "陵",
  "11326": "di",
  "11327": "usion",
  "11328": " conv",
  "11329": "rees",
  "11330": "。[",
  "11331": "undred",
  "11332": " Many",
  "11333": " wants",
  "11334": "न",
  "11335": " launch",
  "11336": "és",
  "11337": " Vector",
  "11338": " knew",
  "11339": "require",
  "11340": "];",
  "11341": "anned",
  "11342": "_MASK",
  "11343": " compared",
  "11344": " sust",
  "11345": "hens",
  "11346": "JSON",
  "11347": " seconds",
  "11348": " nor",
  "11349": "components",
  "11350": "\");\r\n",
  "11351": "Note",
  "11352": "。\"\"",
  "11353": "兄弟",
  "11354": "center",
  "11355": "################################",
  "11356": ".github",
  "11357": "/mw",
  "11358": "(context",
  "11359": "_check",
  "11360": " visual",
  "11361": "普遍",
  "11362": "ос",
  "11363": "card",
  "11364": " electric",
  "11365": " coffee",
  "11366": " relax",
  "11367": " attract",
  "11368": "盗",
  "11369": "`.",
  "11370": " TODO",
  "11371": ";&",
  "11372": "/st",
  "11373": " cam",
  "11374": ">,",
  "11375": " remote",
  "11376": "住房",
  "11377": "oma",
  "11378": "aya",
  "11379": "lower",
  "11380": "olved",
  "11381": "property",
  "11382": "黑色",
  "11383": " transaction",
  "11384": "问题的",
  "11385": "睡觉",
  "11386": "确认",
  "11387": "bot",
  "11388": "吊",
  "11389": "咖啡",
  "11390": "display",
  "11391": "寂",
  "11392": "aughter",
  "11393": "徽",
  "11394": "开了",
  "11395": "高校",
  "11396": "ה",
  "11397": " debug",
  "11398": " export",
  "11399": "inet",
  "11400": " race",
  "11401": "预期",
  "11402": "生存",
  "11403": "鸡蛋",
  "11404": " Since",
  "11405": "和谐",
  "11406": "的产品",
  "11407": ".Data",
  "11408": "Transform",
  "11409": "-sc",
  "11410": "fast",
  "11411": "LOCK",
  "11412": " bedroom",
  "11413": "Selector",
  "11414": " Super",
  "11415": "渡",
  "11416": "件事",
  "11417": " Canada",
  "11418": "》《",
  "11419": " JSON",
  "11420": " Network",
  "11421": " $\\",
  "11422": " suffer",
  "11423": " |=",
  "11424": " {{",
  "11425": " matrix",
  "11426": " emb",
  "11427": "分类",
  "11428": " EN",
  "11429": " album",
  "11430": "��",
  "11431": "铁路",
  "11432": "一张",
  "11433": "Ver",
  "11434": "小心",
  "11435": " generated",
[...]
