{
  "0": "!",
  "1": "\"",
  "2": "#",
  "3": "$",
  "4": "%",
  "5": "&",
  "6": "'",
  "7": "(",
  "8": ")",
  "9": "*",
  "10": "+",
  "11": ",",
  "12": "-",
  "13": ".",
  "14": "/",
  "15": "0",
  "16": "1",
  "17": "2",
  "18": "3",
  "19": "4",
  "20": "5",
  "21": "6",
  "22": "7",
  "23": "8",
  "24": "9",
  "25": ":",
  "26": ";",
  "27": "<",
  "28": "=",
  "29": ">",
  "30": "?",
  "31": "@",
  "32": "A",
  "33": "B",
  "34": "C",
  "35": "D",
  "36": "E",
  "37": "F",
  "38": "G",
  "39": "H",
  "40": "I",
  "41": "J",
  "42": "K",
  "43": "L",
  "44": "M",
  "45": "N",
  "46": "O",
  "47": "P",
  "48": "Q",
  "49": "R",
  "50": "S",
  "51": "T",
  "52": "U",
  "53": "V",
  "54": "W",
  "55": "X",
  "56": "Y",
  "57": "Z",
  "58": "[",
  "59": "\\",
  "60": "]",
  "61": "^",
  "62": "_",
  "63": "`",
  "64": "a",
  "65": "b",
  "66": "c",
  "67": "d",
  "68": "e",
  "69": "f",
  "70": "g",
  "71": "h",
  "72": "i",
  "73": "j",
  "74": "k",
  "75": "l",
  "76": "m",
  "77": "n",
  "78": "o",
  "79": "p",
  "80": "q",
  "81": "r",
  "82": "s",
  "83": "t",
  "84": "u",
  "85": "v",
  "86": "w",
  "87": "x",
  "88": "y",
  "89": "z",
  "90": "{",
  "91": "|",
  "92": "}",
  "93": "~",
  "94": "�",
  "95": "�",
  "96": "�",
  "97": "�",
  "98": "�",
  "99": "�",
  "100": "�",
  "101": "�",
  "102": "�",
  "103": "�",
  "104": "�",
  "105": "�",
  "106": "�",
  "107": "�",
  "108": "�",
  "109": "�",
  "110": "�",
  "111": "�",
  "112": "�",
  "113": "�",
  "114": "�",
  "115": "�",
  "116": "�",
  "117": "�",
  "118": "�",
  "119": "�",
  "120": "�",
  "121": "�",
  "122": "�",
  "123": "�",
  "124": "�",
  "125": "�",
  "126": "�",
  "127": "�",
  "128": "�",
  "129": "�",
  "130": "�",
  "131": "�",
  "132": "�",
  "133": "�",
  "134": "�",
  "135": "�",
  "136": "�",
  "137": "�",
  "138": "�",
  "139": "�",
  "140": "�",
  "141": "�",
  "142": "�",
  "143": "�",
  "144": "�",
  "145": "�",
  "146": "�",
  "147": "�",
  "148": "�",
  "149": "�",
  "150": "�",
  "151": "�",
  "152": "�",
  "153": "�",
  "154": "�",
  "155": "�",
  "156": "�",
  "157": "�",
  "158": "�",
  "159": "�",
  "160": "�",
  "161": "�",
  "162": "�",
  "163": "�",
  "164": "�",
  "165": "�",
  "166": "�",
  "167": "�",
  "168": "�",
  "169": "�",
  "170": "�",
  "171": "�",
  "172": "�",
  "173": "�",
  "174": "�",
  "175": "�",
  "176": "�",
  "177": "�",
  "178": "�",
  "179": "�",
  "180": "�",
  "181": "�",
  "182": "�",
  "183": "�",
  "184": "�",
  "185": "�",
  "186": "�",
  "187": "�",
  "188": "\u0000",
  "189": "\u0001",
  "190": "\u0002",
  "191": "\u0003",
  "192": "\u0004",
  "193": "\u0005",
  "194": "\u0006",
  "195": "\u0007",
  "196": "\b",
  "197": "\t",
  "198": "\n",
  "199": "\u000b",
  "200": "\f",
  "201": "\r",
  "202": "\u000e",
  "203": "\u000f",
  "204": "\u0010",
  "205": "\u0011",
  "206": "\u0012",
  "207": "\u0013",
  "208": "\u0014",
  "209": "\u0015",
  "210": "\u0016",
  "211": "\u0017",
  "212": "\u0018",
  "213": "\u0019",
  "214": "\u001a",
  "215": "\u001b",
  "216": "\u001c",
  "217": "\u001d",
  "218": "\u001e",
  "219": "\u001f",
  "220": " ",
  "221": "",
  "222": "�",
  "223": "�",
  "224": "�",
  "225": "�",
  "226": "�",
  "227": "�",
  "228": "�",
  "229": "�",
  "230": "�",
  "231": "�",
  "232": "�",
  "233": "�",
  "234": "�",
  "235": "�",
  "236": "�",
  "237": "�",
  "238": "�",
  "239": "�",
  "240": "�",
  "241": "�",
  "242": "�",
  "243": "�",
  "244": "�",
  "245": "�",
  "246": "�",
  "247": "�",
  "248": "�",
  "249": "�",
  "250": "�",
  "251": "�",
  "252": "�",
  "253": "�",
  "254": "�",
  "255": "�",
  "256": "  ",
  "257": "    ",
  "258": "in",
  "259": " t",
  "260": "        ",
  "261": "er",
  "262": "   ",
  "263": "on",
  "264": " a",
  "265": "re",
  "266": "at",
  "267": "st",
  "268": "en",
  "269": "or",
  "270": " th",
  "271": "\n\n",
  "272": " c",
  "273": "le",
  "274": " s",
  "275": "it",
  "276": "an",
  "277": "ar",
  "278": "al",
  "279": " the",
  "280": " p",
  "281": " f",
  "282": "ou",
  "283": " =",
  "284": "is",
  "285": "       ",
  "286": "ing",
  "287": "es",
  "288": " w",
  "289": "ion",
  "290": "ed",
  "291": "ic",
  "292": " b",
  "293": " d",
  "294": "et",
  "295": " m",
  "296": " o",
  "297": "\t\t",
  "298": "ro",
  "299": "as",
  "300": "el",
  "301": "ct",
  "302": "nd",
  "303": " in",
  "304": " h",
  "305": "ent",
  "306": "id",
  "307": " n",
  "308": "am",
  "309": "           ",
  "310": " to",
  "311": " re",
  "312": "--",
  "313": " {",
  "314": " of",
  "315": "om",
  "316": "im",
  "317": "\r\n",
  "318": " (",
  "319": "il",
  "320": "//",
  "321": " and",
  "322": "ur",
  "323": "se",
  "324": " l",
  "325": "ex",
  "326": " S",
  "327": "ad",
  "328": " \"",
  "329": "ch",
  "330": "ut",
  "331": "if",
  "332": "**",
  "333": " }",
  "334": "em",
  "335": "ol",
  "336": "                ",
  "337": "th",
  "338": " g",
  "339": "ig",
  "340": "iv",
  "341": "ce",
  "342": "od",
  "343": " v",
  "344": "ate",
  "345": " T",
  "346": "ag",
  "347": "ay",
  "348": " *",
  "349": "ot",
  "350": "us",
  "351": " C",
  "352": " st",
  "353": " I",
  "354": "un",
  "355": "ul",
  "356": "ue",
  "357": " A",
  "358": "ow",
  "359": " '",
  "360": "ew",
  "361": " <",
  "362": "ation",
  "363": "()",
  "364": " for",
  "365": "ab",
  "366": "ort",
  "367": "um",
  "368": "ame",
  "369": " is",
  "370": "pe",
  "371": "tr",
  "372": "ck",
  "373": "�",
  "374": " y",
  "375": "ist",
  "376": "----",
  "377": "he",
  "378": " e",
  "379": "lo",
  "380": " M",
  "381": " be",
  "382": "ers",
  "383": " on",
  "384": " con",
  "385": "ap",
  "386": "ub",
  "387": " P",
  "388": "               ",
  "389": "ass",
  "390": "int",
  "391": "ly",
  "392": "urn",
  "393": " $",
  "394": "av",
  "395": "port",
  "396": "ir",
  "397": "->",
  "398": "nt",
  "399": "ction",
  "400": "end",
  "401": " de",
  "402": "ith",
  "403": "out",
  "404": "turn",
  "405": "our",
  "406": "     ",
  "407": "lic",
  "408": "res",
  "409": "pt",
  "410": "==",
  "411": " this",
  "412": " wh",
  "413": " if",
  "414": " D",
  "415": "ver",
  "416": "age",
  "417": " B",
  "418": "ht",
  "419": "ext",
  "420": "=\"",
  "421": " that",
  "422": "****",
  "423": " R",
  "424": " it",
  "425": "ess",
  "426": " F",
  "427": " r",
  "428": "os",
  "429": "and",
  "430": " as",
  "431": "ect",
  "432": "ke",
  "433": "rom",
  "434": " //",
  "435": "con",
  "436": " L",
  "437": "(\"",
  "438": "qu",
  "439": "lass",
  "440": " with",
  "441": "iz",
  "442": "de",
  "443": " N",
  "444": " al",
  "445": "op",
  "446": "up",
  "447": "get",
  "448": "ile",
  "449": " an",
  "450": "ata",
  "451": "ore",
  "452": "ri",
  "453": " pro",
  "454": "\t\t\t\t",
  "455": "ter",
  "456": "ain",
  "457": " W",
  "458": " E",
  "459": " com",
  "460": " return",
  "461": "art",
  "462": " H",
  "463": "ack",
  "464": "import",
  "465": "ublic",
  "466": " or",
  "467": "est",
  "468": "ment",
  "469": " G",
  "470": "able",
  "471": " -",
  "472": "ine",
  "473": "ill",
  "474": "ind",
  "475": "ere",
  "476": "::",
  "477": "ity",
  "478": " +",
  "479": " tr",
  "480": "elf",
  "481": "ight",
  "482": "('",
  "483": "orm",
  "484": "ult",
  "485": "str",
  "486": "..",
  "487": "\",",
  "488": " you",
  "489": "ype",
  "490": "pl",
  "491": " new",
  "492": " j",
  "493": "                   ",
  "494": " from",
  "495": " ex",
  "496": " O",
  "497": "ld",
  "498": " [",
  "499": "oc",
  "500": " se",
  "501": " le",
  "502": "--------",
  "503": ".s",
  "504": "',",
  "505": "ant",
  "506": " at",
  "507": "ase",
  "508": ".c",
  "509": " ch",
  "510": "</",
  "511": "ave",
  "512": "ang",
  "513": " are",
  "514": " int",
  "515": "’",
  "516": "_t",
  "517": "ert",
  "518": "ial",
  "519": "act",
  "520": "ive",
  "521": "ode",
  "522": "ost",
  "523": " class",
  "524": " not",
  "525": "og",
  "526": "ord",
  "527": "alue",
  "528": "all",
  "529": "ff",
  "530": "ont",
  "531": "ime",
  "532": "are",
  "533": " U",
  "534": " pr",
  "535": " :",
  "536": "ies",
  "537": "ize",
  "538": "ure",
  "539": " by",
  "540": "ire",
  "541": ".p",
  "542": " sh",
  "543": "ice",
  "544": "ast",
  "545": "ption",
  "546": "tring",
  "547": "ok",
  "548": "__",
  "549": "cl",
  "550": "##",
  "551": " he",
  "552": "ard",
  "553": ").",
  "554": " @",
  "555": "iew",
  "556": "\t\t\t",
  "557": " was",
  "558": "ip",
  "559": "this",
  "560": " u",
  "561": " The",
  "562": "ide",
  "563": "ace",
  "564": "ib",
  "565": "ac",
  "566": "rou",
  "567": " we",
  "568": "ject",
  "569": " public",
  "570": "ak",
  "571": "ve",
  "572": "ath",
  "573": "oid",
  "574": " =>",
  "575": "ust",
  "576": "que",
  "577": " res",
  "578": "))",
  "579": "'s",
  "580": " k",
  "581": "ans",
  "582": "yst",
  "583": "unction",
  "584": "********",
  "585": " i",
  "586": " us",
  "587": "pp",
  "588": "one",
  "589": "ail",
  "590": "====",
  "591": "name",
  "592": " str",
  "593": " /",
  "594": " &",
  "595": "ach",
  "596": "div",
  "597": "ystem",
  "598": "ell",
  "599": " have",
  "600": "err",
  "601": "ould",
  "602": "ull",
  "603": "pon",
  "604": " J",
  "605": "_p",
  "606": " ==",
  "607": "ign",
  "608": "St",
  "609": " pl",
  "610": "form",
  "611": "put",
  "612": "ount",
  "613": "dd",
  "614": "ite",
  "615": " get",
  "616": "rr",
  "617": "ome",
  "618": " �",
  "619": "aram",
  "620": "cc",
  "621": " */",
  "622": "ER",
  "623": "In",
  "624": "les",
  "625": "_s",
  "626": "ong",
  "627": "ie",
  "628": " can",
  "629": " V",
  "630": "erv",
  "631": "pr",
  "632": " un",
  "633": "row",
  "634": "ber",
  "635": " do",
  "636": "ll",
  "637": " el",
  "638": " self",
  "639": "ated",
  "640": "ary",
  "641": " .",
  "642": "']",
  "643": "ud",
  "644": " en",
  "645": " Th",
  "646": "                       ",
  "647": "te",
  "648": "_c",
  "649": "uct",
  "650": " ab",
  "651": "ork",
  "652": ".get",
  "653": " #",
  "654": "aw",
  "655": "ress",
  "656": "ob",
  "657": "Name",
  "658": "app",
  "659": "['",
  "660": " all",
  "661": "ory",
  "662": "ition",
  "663": "ance",
  "664": "ear",
  "665": " cont",
  "666": "vent",
  "667": "ia",
  "668": " will",
  "669": "IN",
  "670": "         ",
  "671": "return",
  "672": " </",
  "673": "data",
  "674": "Re",
  "675": "ple",
  "676": "ild",
  "677": "ther",
  "678": " your",
  "679": "($",
  "680": " out",
  "681": "),",
  "682": " has",
  "683": "String",
  "684": "so",
  "685": " up",
  "686": "ax",
  "687": " def",
  "688": " bo",
  "689": "ge",
  "690": "alse",
  "691": "ON",
  "692": "per",
  "693": "ich",
  "694": " but",
  "695": " \n",
  "696": " _",
  "697": "_m",
  "698": "add",
  "699": "quest",
  "700": "odel",
  "701": "self",
  "702": "ery",
  "703": "ft",
  "704": "ens",
  "705": "////",
  "706": "ake",
  "707": ".C",
  "708": " go",
  "709": " function",
  "710": " K",
  "711": "ivate",
  "712": " im",
  "713": " const",
  "714": ".t",
  "715": " void",
  "716": " set",
  "717": " System",
  "718": "cri",
  "719": "li",
  "720": "\tif",
  "721": ".m",
  "722": "ally",
  "723": "set",
  "724": "ep",
  "725": "’s",
  "726": "bo",
  "727": "def",
  "728": " me",
  "729": " !",
  "730": "atch",
  "731": "\">",
  "732": "ec",
  "733": " In",
  "734": "ph",
  "735": " |",
  "736": "_f",
  "737": " var",
  "738": "ence",
  "739": "Id",
  "740": "ree",
  "741": "ink",
  "742": "lect",
  "743": "ug",
  "744": "eth",
  "745": " else",
  "746": "----------------",
  "747": "cont",
  "748": " so",
  "749": "atic",
  "750": " lo",
  "751": "pro",
  "752": "ton",
  "753": "ss",
  "754": "own",
  "755": "abel",
  "756": "oint",
  "757": "ous",
  "758": "eld",
  "759": "ST",
  "760": "The",
  "761": "                                ",
  "762": "RE",
  "763": "\":",
  "764": "olor",
  "765": "tp",
  "766": "eg",
  "767": "key",
  "768": "ude",
  "769": " St",
  "770": "ound",
  "771": " ar",
  "772": "ener",
  "773": "ser",
  "774": "bject",
  "775": "essage",
  "776": "fer",
  "777": " more",
  "778": "ations",
  "779": "ents",
  "780": " his",
  "781": " they",
  "782": ".S",
  "783": " Y",
  "784": "use",
  "785": "ne",
  "786": "ish",
  "787": "old",
  "788": "_d",
  "789": "io",
  "790": "ield",
  "791": " per",
  "792": "Cont",
  "793": "ings",
  "794": "####",
  "795": " data",
  "796": " sa",
  "797": "ef",
  "798": "fo",
  "799": " one",
  "800": "eng",
  "801": " dis",
  "802": "AT",
  "803": " name",
  "804": " true",
  "805": "val",
  "806": "led",
  "807": ".f",
  "808": " ne",
  "809": " end",
  "810": ".T",
  "811": "cre",
  "812": "ark",
  "813": "log",
  "814": "Ex",
  "815": "error",
  "816": "_id",
  "817": "urre",
  "818": "ange",
  "819": " null",
  "820": "rray",
  "821": " my",
  "822": "pan",
  "823": "ict",
  "824": "ator",
  "825": "View",
  "826": "List",
  "827": "\treturn",
  "828": "”",
  "829": " pre",
  "830": " x",
  "831": "clude",
  "832": "arg",
  "833": "ov",
  "834": ".h",
  "835": " >",
  "836": " their",
  "837": "')",
  "838": "irst",
  "839": "ick",
  "840": "gh",
  "841": "LE",
  "842": "OR",
  "843": " private",
  "844": "tem",
  "845": "\r\n\r\n",
  "846": "user",
  "847": " )",
  "848": "com",
  "849": ".A",
  "850": " id",
  "851": "read",
  "852": " who",
  "853": "_b",
  "854": " time",
  "855": " man",
  "856": "ry",
  "857": "========",
  "858": "roup",
  "859": "rop",
  "860": "public",
  "861": "vel",
  "862": "umber",
  "863": "ble",
  "864": " which",
  "865": "****************",
  "866": " any",
  "867": " false",
  "868": "we",
  "869": " value",
  "870": " li",
  "871": "\")",
  "872": "nder",
  "873": "gr",
  "874": " no",
  "875": "param",
  "876": "fig",
  "877": ".com",
  "878": " app",
  "879": "_l",
  "880": "ions",
  "881": ".D",
  "882": " Ch",
  "883": " about",
  "884": " add",
  "885": " su",
  "886": " string",
  "887": "ID",
  "888": " over",
  "889": "string",
  "890": ".l",
  "891": "ource",
  "892": "_C",
  "893": " qu",
  "894": " String",
  "895": "ca",
  "896": "SE",
  "897": " ro",
  "898": "sh",
  "899": "ual",
  "900": "Type",
  "901": "son",
  "902": "new",
  "903": "ern",
  "904": " ag",
  "905": "AR",
  "906": "].",
  "907": " ?",
  "908": "ical",
  "909": " des",
  "910": "uth",
  "911": "ix",
  "912": "ays",
  "913": " type",
  "914": "'t",
  "915": "ault",
  "916": " inter",
  "917": "var",
  "918": ".b",
  "919": " part",
  "920": ".d",
  "921": "urrent",
  "922": "IT",
  "923": "EN",
  "924": "enc",
  "925": "(f",
  "926": "ra",
  "927": "value",
  "928": "cho",
  "929": "utton",
  "930": "ose",
  "931": " !=",
  "932": "ater",
  "933": "é",
  "934": "reate",
  "935": "oll",
  "936": "pos",
  "937": "yle",
  "938": "ng",
  "939": "AL",
  "940": "using",
  "941": "ames",
  "942": "ates",
  "943": "ely",
  "944": " work",
  "945": " em",
  "946": "inal",
  "947": " sp",
  "948": " when",
  "949": ".set",
  "950": "      ",
  "951": "to",
  "952": "quire",
  "953": "indow",
  "954": "lement",
  "955": "pect",
  "956": "ash",
  "957": "[i",
  "958": " use",
  "959": ".F",
  "960": "pec",
  "961": " ad",
  "962": "ove",
  "963": "ception",
  "964": "ength",
  "965": "include",
  "966": "ader",
  "967": "                           ",
  "968": "atus",
  "969": "Th",
  "970": "itle",
  "971": "rit",
  "972": "void",
  "973": "().",
  "974": " off",
  "975": " other",
  "976": " &&",
  "977": "ms",
  "978": " been",
  "979": " te",
  "980": "ml",
  "981": "co",
  "982": "nc",
  "983": "ervice",
  "984": " %",
  "985": "ann",
  "986": "ade",
  "987": "\n\n\n\n",
  "988": "lock",
  "989": "const",
  "990": "ponse",
  "991": " sup",
  "992": "++",
  "993": "date",
  "994": " acc",
  "995": " had",
  "996": " bu",
  "997": " Re",
  "998": " were",
  "999": " file",
  "1000": " would",
  "1001": " “",
  "1002": "ven",
  "1003": "iss",
  "1004": " our",
  "1005": "class",
  "1006": "raw",
  "1007": " year",
  "1008": "Data",
  "1009": " val",
  "1010": " some",
  "1011": "fter",
  "1012": "ys",
  "1013": " ///",
  "1014": "round",
  "1015": "view",
  "1016": " pe",
  "1017": " there",
  "1018": " said",
  "1019": "du",
  "1020": "of",
  "1021": "line",
  "1022": "/*",
  "1023": "duct",
  "1024": " her",
  "1025": "             ",
  "1026": "Res",
  "1027": " co",
  "1028": " comm",
  "1029": "ise",
  "1030": "min",
  "1031": "    \n",
  "1032": "#include",
  "1033": "ethod",
  "1034": ".P",
  "1035": "ute",
  "1036": " ass",
  "1037": "Int",
  "1038": "ask",
  "1039": "loc",
  "1040": " like",
  "1041": "ody",
  "1042": " let",
  "1043": "load",
  "1044": " am",
  "1045": "rol",
  "1046": " gr",
  "1047": "yp",
  "1048": " also",
  "1049": " It",
  "1050": "url",
  "1051": "ific",
  "1052": "ors",
  "1053": "_P",
  "1054": "_n",
  "1055": "igh",
  "1056": " than",
  "1057": "Com",
  "1058": "AN",
  "1059": "UL",
  "1060": "ating",
  "1061": " This",
  "1062": "ref",
  "1063": "_S",
  "1064": " static",
  "1065": "roll",
  "1066": " just",
  "1067": " result",
  "1068": "ian",
  "1069": "idth",
  "1070": " them",
  "1071": "der",
  "1072": "reak",
  "1073": "Con",
  "1074": "://",
  "1075": "ule",
  "1076": "...",
  "1077": "arch",
  "1078": "ement",
  "1079": " <<",
  "1080": "ush",
  "1081": "ense",
  "1082": "arr",
  "1083": " into",
  "1084": "cess",
  "1085": "amp",
  "1086": "ied",
  "1087": "ument",
  "1088": " \\",
  "1089": "],",
  "1090": "wo",
  "1091": "als",
  "1092": " what",
  "1093": "anc",
  "1094": "Value",
  "1095": "='",
  "1096": "olum",
  "1097": " pos",
  "1098": "ages",
  "1099": "ayer",
  "1100": " sc",
  "1101": "ues",
  "1102": "_T",
  "1103": " list",
  "1104": "(s",
  "1105": " case",
  "1106": "Ch",
  "1107": "\t\t\t\t\t",
  "1108": "////////",
  "1109": "ponent",
  "1110": " z",
  "1111": " kn",
  "1112": "let",
  "1113": "DE",
  "1114": "red",
  "1115": " fe",
  "1116": " ,",
  "1117": "(t",
  "1118": " first",
  "1119": "word",
  "1120": " import",
  "1121": " act",
  "1122": " char",
  "1123": "CT",
  "1124": " Tr",
  "1125": "ople",
  "1126": "={",
  "1127": "\tf",
  "1128": "ient",
  "1129": "cent",
  "1130": ".j",
  "1131": "lection",
  "1132": " only",
  "1133": " print",
  "1134": "mer",
  "1135": ".W",
  "1136": "ock",
  "1137": " --",
  "1138": "Text",
  "1139": " op",
  "1140": "ank",
  "1141": " its",
  "1142": " back",
  "1143": "[\"",
  "1144": " need",
  "1145": " cl",
  "1146": " sub",
  "1147": " la",
  "1148": "((",
  "1149": ".\"",
  "1150": "Object",
  "1151": " start",
  "1152": "file",
  "1153": "(self",
  "1154": "ner",
  "1155": "ey",
  "1156": " user",
  "1157": " ent",
  "1158": " Com",
  "1159": "its",
  "1160": " Con",
  "1161": "ouble",
  "1162": "ower",
  "1163": "item",
  "1164": "very",
  "1165": " We",
  "1166": "lick",
  "1167": " Q",
  "1168": "php",
  "1169": "ttp",
  "1170": "':",
  "1171": "ics",
  "1172": " under",
  "1173": ".L",
  "1174": ");",
  "1175": "ices",
  "1176": " reg",
  "1177": "\tpublic",
  "1178": "SS",
  "1179": " then",
  "1180": "reat",
  "1181": "ious",
  "1182": ".G",
  "1183": "ek",
  "1184": "irect",
  "1185": "heck",
  "1186": "cript",
  "1187": "ning",
  "1188": " Un",
  "1189": " may",
  "1190": " Wh",
  "1191": "Bo",
  "1192": "Item",
  "1193": "struct",
  "1194": ".st",
  "1195": "ream",
  "1196": "ible",
  "1197": "loat",
  "1198": " org",
  "1199": "und",
  "1200": "sum",
  "1201": "_in",
  "1202": "../",
  "1203": "_M",
  "1204": " how",
  "1205": "rite",
  "1206": "To",
  "1207": "ww",
  "1208": " people",
  "1209": "index",
  "1210": ".n",
  "1211": "http",
  "1212": "(m",
  "1213": "ector",
  "1214": " ind",
  "1215": " jav",
  "1216": " He",
  "1217": "_st",
  "1218": "ful",
  "1219": "ole",
  "1220": " should",
  "1221": "opy",
  "1222": "elp",
  "1223": "ier",
  "1224": "_name",
  "1225": "erson",
  "1226": "ION",
  "1227": "ote",
  "1228": " test",
  "1229": " bet",
  "1230": "rror",
  "1231": "ular",
  "1232": "�",
  "1233": " �",
  "1234": "bs",
  "1235": "ting",
  "1236": " make",
  "1237": "Tr",
  "1238": " after",
  "1239": "arget",
  "1240": "RO",
  "1241": "olumn",
  "1242": "rc",
  "1243": "_re",
  "1244": "define",
  "1245": " right",
  "1246": "right",
  "1247": "day",
  "1248": " long",
  "1249": "[]",
  "1250": "(p",
  "1251": "td",
  "1252": "cond",
  "1253": " Pro",
  "1254": " rem",
  "1255": "ptions",
  "1256": "vid",
  "1257": ".g",
  "1258": " ext",
  "1259": " __",
  "1260": "pace",
  "1261": "mp",
  "1262": " min",
  "1263": "stance",
  "1264": "air",
  "1265": "action",
  "1266": "wh",
  "1267": "type",
  "1268": "util",
  "1269": "ait",
  "1270": "<?",
  "1271": "IC",
  "1272": "text",
  "1273": " ph",
  "1274": " fl",
  "1275": ".M",
  "1276": "ccess",
  "1277": "br",
  "1278": "fore",
  "1279": "ersion",
  "1280": ".re",
  "1281": "ateg",
  "1282": " loc",
  "1283": "ins",
  "1284": "-s",
  "1285": "trib",
  "1286": " Int",
  "1287": " array",
  "1288": ",\"",
  "1289": "Pro",
  "1290": "(c",
  "1291": "ession",
  "1292": " she",
  "1293": "\"]",
  "1294": "aph",
  "1295": " exp",
  "1296": "erty",
  "1297": " Se",
  "1298": " par",
  "1299": "unc",
  "1300": "ET",
  "1301": " read",
  "1302": "print",
  "1303": " rel",
  "1304": " form",
  "1305": " dr",
  "1306": "Exception",
  "1307": "input",
  "1308": " trans",
  "1309": "########",
  "1310": "order",
  "1311": "By",
  "1312": " aw",
  "1313": "ities",
  "1314": "uff",
  "1315": "play",
  "1316": ".add",
  "1317": " –",
  "1318": " want",
  "1319": " comp",
  "1320": "ments",
  "1321": " ||",
  "1322": "az",
  "1323": "be",
  "1324": " number",
  "1325": " require",
  "1326": " Ex",
  "1327": " col",
  "1328": " key",
  "1329": "ember",
  "1330": " two",
  "1331": " size",
  "1332": " where",
  "1333": "UT",
  "1334": "result",
  "1335": "                               ",
  "1336": "ough",
  "1337": "orld",
  "1338": "ood",
  "1339": "uch",
  "1340": "ative",
  "1341": "ger",
  "1342": "arent",
  "1343": " /*",
  "1344": " arg",
  "1345": " while",
  "1346": "(this",
  "1347": " rec",
  "1348": " dif",
  "1349": "State",
  "1350": " spec",
  "1351": "ride",
  "1352": "_F",
  "1353": " look",
  "1354": "AM",
  "1355": "ility",
  "1356": "eter",
  "1357": "’t",
  "1358": "\n\n\n",
  "1359": "ayout",
  "1360": "--------------------------------",
  "1361": "ager",
  "1362": " could",
  "1363": " br",
  "1364": "ends",
  "1365": "ures",
  "1366": " know",
  "1367": "ets",
  "1368": " If",
  "1369": " Sh",
  "1370": ".w",
  "1371": "back",
  "1372": " ser",
  "1373": " +=",
  "1374": " fr",
  "1375": " hand",
  "1376": "Ind",
  "1377": "ULL",
  "1378": "Im",
  "1379": " most",
  "1380": " try",
  "1381": " now",
  "1382": "rough",
  "1383": "ackage",
  "1384": " him",
  "1385": "._",
  "1386": "ify",
  "1387": " break",
  "1388": "ren",
  "1389": "#define",
  "1390": "itt",
  "1391": " ap",
  "1392": "\tc",
  "1393": "(n",
  "1394": " You",
  "1395": "-m",
  "1396": " every",
  "1397": "ustom",
  "1398": "lient",
  "1399": "ocument",
  "1400": "cription",
  "1401": "Error",
  "1402": "-b",
  "1403": "о",
  "1404": "][",
  "1405": "trans",
  "1406": " point",
  "1407": " std",
  "1408": " fil",
  "1409": "Time",
  "1410": " mod",
  "1411": " ->",
  "1412": " error",
  "1413": "ah",
  "1414": " text",
  "1415": "roller",
  "1416": "lose",
  "1417": "ql",
  "1418": " pol",
  "1419": "></",
  "1420": " show",
  "1421": "User",
  "1422": "ased",
  "1423": " find",
  "1424": "а",
  "1425": "ED",
  "1426": "span",
  "1427": "enu",
  "1428": " current",
  "1429": " used",
  "1430": "cept",
  "1431": "clud",
  "1432": " play",
  "1433": " log",
  "1434": "ution",
  "1435": "fl",
  "1436": " see",
  "1437": "indows",
  "1438": " help",
  "1439": " these",
  "1440": " pass",
  "1441": " down",
  "1442": " even",
  "1443": "ason",
  "1444": "uild",
  "1445": "from",
  "1446": "(d",
  "1447": " bl",
  "1448": "label",
  "1449": "else",
  "1450": "е",
  "1451": " (!",
  "1452": "ized",
  "1453": "(),",
  "1454": " ob",
  "1455": " item",
  "1456": "ump",
  "1457": "UR",
  "1458": "orn",
  "1459": " don",
  "1460": "Se",
  "1461": "man",
  "1462": "ample",
  "1463": "tn",
  "1464": "================",
  "1465": "He",
  "1466": "gram",
  "1467": " did",
  "1468": "wn",
  "1469": "_h",
  "1470": "iver",
  "1471": " sm",
  "1472": " through",
  "1473": " An",
  "1474": "che",
  "1475": " inv",
  "1476": "ouse",
  "1477": " es",
  "1478": " New",
  "1479": "export",
  "1480": "mary",
  "1481": "uto",
  "1482": "ler",
  "1483": " last",
  "1484": " event",
  "1485": "try",
  "1486": "�",
  "1487": "ily",
  "1488": "igned",
  "1489": "ines",
  "1490": "ollow",
  "1491": "icense",
  "1492": "sole",
  "1493": "lear",
  "1494": "(int",
  "1495": " again",
  "1496": " high",
  "1497": "html",
  "1498": "Index",
  "1499": "uthor",
  "1500": " line",
  "1501": "Event",
  "1502": "_D",
  "1503": " does",
  "1504": "itial",
  "1505": " cr",
  "1506": "ars",
  "1507": " tem",
  "1508": "cause",
  "1509": "face",
  "1510": " `",
  "1511": "_A",
  "1512": "Button",
  "1513": "ature",
  "1514": "ected",
  "1515": "ES",
  "1516": "ister",
  "1517": "\t\n",
  "1518": " before",
  "1519": "ale",
  "1520": "other",
  "1521": " because",
  "1522": "roid",
  "1523": " ed",
  "1524": "ik",
  "1525": "reg",
  "1526": " De",
  "1527": " dist",
  "1528": " state",
  "1529": " cons",
  "1530": "rint",
  "1531": "att",
  "1532": " here",
  "1533": "ined",
  "1534": " final",
  "1535": " \"\"",
  "1536": "Key",
  "1537": "LO",
  "1538": " del",
  "1539": "pty",
  "1540": "thing",
  "1541": " And",
  "1542": " run",
  "1543": " X",
  "1544": "ym",
  "1545": ".app",
  "1546": " very",
  "1547": "ces",
  "1548": "_N",
  "1549": "ared",
  "1550": "ward",
  "1551": "list",
  "1552": "ited",
  "1553": "olog",
  "1554": "itch",
  "1555": "Box",
  "1556": "ife",
  "1557": " ac",
  "1558": " model",
  "1559": " mon",
  "1560": " way",
  "1561": "lete",
  "1562": " call",
  "1563": " att",
  "1564": " cal",
  "1565": "vert",
  "1566": " dec",
  "1567": "lease",
  "1568": "oun",
  "1569": "fr",
  "1570": "formation",
  "1571": "etail",
  "1572": " num",
  "1573": "aj",
  "1574": "query",
  "1575": " well",
  "1576": " object",
  "1577": " As",
  "1578": " years",
  "1579": "Color",
  "1580": "IS",
  "1581": " default",
  "1582": "Wh",
  "1583": " ins",
  "1584": "aint",
  "1585": " java",
  "1586": " sim",
  "1587": " Ar",
  "1588": "mon",
  "1589": "til",
  "1590": "):",
  "1591": "Set",
  "1592": "atter",
  "1593": " view",
  "1594": " pres",
  "1595": "array",
  "1596": "We",
  "1597": "At",
  "1598": " bel",
  "1599": " many",
  "1600": "Man",
  "1601": "ender",
  "1602": " being",
  "1603": " good",
  "1604": "\t\t\t\t\t\t",
  "1605": "ational",
  "1606": "ware",
  "1607": ".log",
  "1608": " using",
  "1609": "_B",
  "1610": " :=",
  "1611": "_w",
  "1612": "ists",
  "1613": "lish",
  "1614": " stud",
  "1615": " Al",
  "1616": " gu",
  "1617": "config",
  "1618": "uring",
  "1619": "time",
  "1620": "oken",
  "1621": "amespace",
  "1622": " request",
  "1623": " child",
  "1624": " �",
  "1625": "lob",
  "1626": " param",
  "1627": " echo",
  "1628": "function",
  "1629": "********************************",
  "1630": "ps",
  "1631": "Element",
  "1632": "alk",
  "1633": "lication",
  "1634": "by",
  "1635": "Size",
  "1636": "rawing",
  "1637": " person",
  "1638": "                 ",
  "1639": "\\n",
  "1640": "object",
  "1641": "ince",
  "1642": "En",
  "1643": "File",
  "1644": "uf",
  "1645": "ffect",
  "1646": "AC",
  "1647": " style",
  "1648": "summary",
  "1649": " que",
  "1650": "_r",
  "1651": " ($",
  "1652": "Model",
  "1653": "ident",
  "1654": " method",
  "1655": "IL",
  "1656": "ott",
  "1657": "less",
  "1658": "ING",
  "1659": " ()",
  "1660": " expect",
  "1661": "ync",
  "1662": "package",
  "1663": "urs",
  "1664": " prot",
  "1665": "./",
  "1666": "pre",
  "1667": "ma",
  "1668": " sur",
  "1669": " found",
  "1670": "Info",
  "1671": "par",
  "1672": "imes",
  "1673": ".e",
  "1674": "ains",
  "1675": " post",
  "1676": "-d",
  "1677": "olean",
  "1678": " sl",
  "1679": "PE",
  "1680": " such",
  "1681": "select",
  "1682": "ainer",
  "1683": " think",
  "1684": " differ",
  "1685": ".r",
  "1686": "FF",
  "1687": "ool",
  "1688": "plate",
  "1689": "qual",
  "1690": " For",
  "1691": " much",
  "1692": "uc",
  "1693": "(new",
  "1694": "odule",
  "1695": " som",
  "1696": " http",
  "1697": " List",
  "1698": " count",
  "1699": " inst",
  "1700": "char",
  "1701": "mit",
  "1702": ".id",
  "1703": "aking",
  "1704": " gener",
  "1705": "px",
  "1706": "vice",
  "1707": "_data",
  "1708": " NULL",
  "1709": "idd",
  "1710": "。",
  "1711": " med",
  "1712": "org",
  "1713": "ider",
  "1714": "ache",
  "1715": "work",
  "1716": " check",
  "1717": "ween",
  "1718": " ((",
  "1719": "the",
  "1720": "ants",
  "1721": "><",
  "1722": ".B",
  "1723": "-c",
  "1724": " open",
  "1725": " est",
  "1726": "        \n",
  "1727": " next",
  "1728": "IM",
  "1729": "т",
  "1730": "OT",
  "1731": "ó",
  "1732": " follow",
  "1733": "content",
  "1734": "            ",
  "1735": " includ",
  "1736": "HE",
  "1737": " Res",
  "1738": " href",
  "1739": "и",
  "1740": " car",
  "1741": "ypes",
  "1742": "image",
  "1743": "Un",
  "1744": " bool",
  "1745": "AD",
  "1746": " game",
  "1747": ".Form",
  "1748": "rows",
  "1749": "*/",
  "1750": "velop",
  "1751": ".Drawing",
  "1752": " path",
  "1753": "ision",
  "1754": " each",
  "1755": " Pl",
  "1756": "_type",
  "1757": "Path",
  "1758": "nection",
  "1759": " av",
  "1760": "').",
  "1761": " support",
  "1762": "ENT",
  "1763": "rem",
  "1764": "\").",
  "1765": " own",
  "1766": " cor",
  "1767": "count",
  "1768": "miss",
  "1769": "ually",
  "1770": " mem",
  "1771": "std",
  "1772": "ience",
  "1773": "search",
  "1774": "Form",
  "1775": " sex",
  "1776": "ename",
  "1777": " sign",
  "1778": " et",
  "1779": "          ",
  "1780": "','",
  "1781": " App",
  "1782": " those",
  "1783": "off",
  "1784": " err",
  "1785": " system",
  "1786": " best",
  "1787": "code",
  "1788": " same",
  "1789": " di",
  "1790": "uss",
  "1791": " create",
  "1792": "ather",
  "1793": "Array",
  "1794": ".in",
  "1795": "fe",
  "1796": "Service",
  "1797": "UN",
  "1798": "ats",
  "1799": " Z",
  "1800": "alth",
  "1801": " made",
  "1802": "true",
  "1803": "AB",
  "1804": " mark",
  "1805": "rid",
  "1806": "ified",
  "1807": "yn",
  "1808": "press",
  "1809": " group",
  "1810": " fin",
  "1811": " License",
  "1812": "Field",
  "1813": "eger",
  "1814": " world",
  "1815": "iness",
  "1816": "ty",
  "1817": " process",
  "1818": "(b",
  "1819": " cre",
  "1820": "arn",
  "1821": "ives",
  "1822": " main",
  "1823": "ideo",
  "1824": "_g",
  "1825": "AG",
  "1826": "valid",
  "1827": "img",
  "1828": "PI",
  "1829": " color",
  "1830": " report",
  "1831": " take",
  "1832": "rib",
  "1833": "OM",
  "1834": " day",
  "1835": "Request",
  "1836": " sk",
  "1837": "bers",
  "1838": "\ts",
  "1839": ".Add",
  "1840": "oot",
  "1841": "Image",
  "1842": " comple",
  "1843": "ollection",
  "1844": " top",
  "1845": " free",
  "1846": "AS",
  "1847": "De",
  "1848": " On",
  "1849": "IG",
  "1850": "eta",
  "1851": "Date",
  "1852": " action",
  "1853": "Over",
  "1854": "itor",
  "1855": "                                   ",
  "1856": "not",
  "1857": " index",
  "1858": "her",
  "1859": "icon",
  "1860": "On",
  "1861": "ivity",
  "1862": "mand",
  "1863": ".Windows",
  "1864": "OL",
  "1865": " real",
  "1866": " max",
  "1867": "land",
  "1868": "....",
  "1869": "raph",
  "1870": " build",
  "1871": "leg",
  "1872": "assword",
  "1873": "…",
  "1874": "ook",
  "1875": "uck",
  "1876": " message",
  "1877": "test",
  "1878": "ivers",
  "1879": " input",
  "1880": " art",
  "1881": " between",
  "1882": "Get",
  "1883": "enter",
  "1884": "ground",
  "1885": "ene",
  "1886": "á",
  "1887": ".length",
  "1888": "Node",
  "1889": "(i",
  "1890": "Class",
  "1891": "for",
  "1892": " —",
  "1893": "ten",
  "1894": "oin",
  "1895": " ke",
  "1896": "ui",
  "1897": " IN",
  "1898": " table",
  "1899": "sub",
  "1900": " Le",
  "1901": " head",
  "1902": " must",
  "1903": "////////////////",
  "1904": ".util",
  "1905": "Context",
  "1906": " order",
  "1907": " mov",
  "1908": "over",
  "1909": " contin",
  "1910": " say",
  "1911": "static",
  "1912": ".Text",
  "1913": " className",
  "1914": "pany",
  "1915": " ter",
  "1916": "head",
  "1917": "rg",
  "1918": " product",
  "1919": "This",
  "1920": ".”",
  "1921": " But",
  "1922": "loy",
  "1923": " double",
  "1924": "sg",
  "1925": " place",
  "1926": ".x",
  "1927": "message",
  "1928": " information",
  "1929": "private",
  "1930": " oper",
  "1931": "ced",
  "1932": "db",
  "1933": "\"></",
  "1934": "Param",
  "1935": "icle",
  "1936": " week",
  "1937": " prop",
  "1938": "table",
  "1939": "idget",
  "1940": "place",
  "1941": "Prop",
  "1942": " All",
  "1943": "els",
  "1944": "box",
  "1945": ".R",
  "1946": " To",
  "1947": "iter",
  "1948": "Sh",
  "1949": "uration",
  "1950": "older",
  "1951": "_list",
  "1952": "come",
  "1953": " sw",
  "1954": "ization",
  "1955": "\tfor",
  "1956": "bl",
  "1957": " program",
  "1958": "(e",
  "1959": "ape",
  "1960": "check",
  "1961": ".Forms",
  "1962": " und",
  "1963": "ategory",
  "1964": "ags",
  "1965": " response",
  "1966": "US",
  "1967": "request",
  "1968": " struct",
  "1969": "escription",
  "1970": " code",
  "1971": "_H",
  "1972": "uffer",
  "1973": " without",
  "1974": "lobal",
  "1975": "Manager",
  "1976": "ilter",
  "1977": "PO",
  "1978": "\tthis",
  "1979": "option",
  "1980": " sol",
  "1981": " ===",
  "1982": "akes",
  "1983": "Controller",
  "1984": "Message",
  "1985": " ref",
  "1986": "ever",
  "1987": " So",
  "1988": "aining",
  "1989": ".append",
  "1990": " still",
  "1991": " provid",
  "1992": " assert",
  "1993": "med",
  "1994": " cap",
  "1995": "usiness",
  "1996": " rep",
  "1997": "tings",
  "1998": "ved",
  "1999": ".N",
  "2000": "api",
  "2001": "OD",
  "2002": " field",
  "2003": "iven",
  "2004": "oto",
  "2005": "“",
  "2006": "col",
  "2007": "(x",
  "2008": "ght",
  "2009": "Result",
  "2010": "Code",
  "2011": ".is",
  "2012": "link",
  "2013": " cour",
  "2014": "An",
  "2015": " team",
  "2016": "\tint",
  "2017": "ift",
  "2018": " second",
  "2019": " going",
  "2020": " range",
  "2021": "_E",
  "2022": "ness",
  "2023": " fam",
  "2024": " nil",
  "2025": " Cont",
  "2026": "ailable",
  "2027": "utes",
  "2028": "atab",
  "2029": " fact",
  "2030": " vis",
  "2031": "(&",
  "2032": " AN",
  "2033": "Al",
  "2034": "title",
  "2035": " android",
  "2036": "CE",
  "2037": "\\\"",
  "2038": "irt",
  "2039": " writ",
  "2040": "н",
  "2041": "\tm",
  "2042": "ftware",
  "2043": "ond",
  "2044": " ret",
  "2045": "osition",
  "2046": " home",
  "2047": " left",
  "2048": "args",
  "2049": "meric",
  "2050": " direct",
  "2051": "oci",
  "2052": "Pl",
  "2053": "As",
  "2054": "ret",
  "2055": "ado",
  "2056": "Of",
  "2057": "chn",
  "2058": " Get",
  "2059": "ee",
  "2060": "ross",
  "2061": "();",
  "2062": "____",
  "2063": ".ph",
  "2064": "It",
  "2065": "oute",
  "2066": " exper",
  "2067": "chool",
  "2068": "www",
  "2069": "},",
  "2070": " allow",
  "2071": " �",
  "2072": "())",
  "2073": "size",
  "2074": "ism",
  "2075": "ai",
  "2076": "tract",
  "2077": "ane",
  "2078": "context",
  "2079": " beg",
  "2080": "CH",
  "2081": " page",
  "2082": "hip",
  "2083": "no",
  "2084": "core",
  "2085": "sp",
  "2086": " different",
  "2087": "iable",
  "2088": " Me",
  "2089": "_IN",
  "2090": "button",
  "2091": " Is",
  "2092": "ervices",
  "2093": " ca",
  "2094": " around",
  "2095": "App",
  "2096": "ration",
  "2097": " rece",
  "2098": " really",
  "2099": " image",
  "2100": " target",
  "2101": " dep",
  "2102": "opyright",
  "2103": "tra",
  "2104": "ingle",
  "2105": "ital",
  "2106": "Layout",
  "2107": " both",
  "2108": "Override",
  "2109": "arm",
  "2110": "=>",
  "2111": "aterial",
  "2112": "iled",
  "2113": " put",
  "2114": "Qu",
  "2115": "р",
  "2116": "ung",
  "2117": "map",
  "2118": "\t\t\t\t\t\t\t\t",
  "2119": " level",
  "2120": "Component",
  "2121": "book",
  "2122": "creen",
  "2123": "_RE",
  "2124": " config",
  "2125": "�",
  "2126": "Or",
  "2127": ".data",
  "2128": " document",
  "2129": "\",\"",
  "2130": "tribute",
  "2131": "ux",
  "2132": "Log",
  "2133": "ference",
  "2134": "post",
  "2135": "_e",
  "2136": " local",
  "2137": "andom",
  "2138": "assert",
  "2139": "Val",
  "2140": "lected",
  "2141": "ina",
  "2142": "atabase",
  "2143": "Add",
  "2144": " content",
  "2145": ".print",
  "2146": "signed",
  "2147": "ric",
  "2148": " fa",
  "2149": "-f",
  "2150": "ived",
  "2151": " quest",
  "2152": ".ex",
  "2153": " float",
  "2154": " develop",
  "2155": "Map",
  "2156": "ading",
  "2157": " poss",
  "2158": "UE",
  "2159": "namespace",
  "2160": "_O",
  "2161": "\tb",
  "2162": ".Get",
  "2163": ">(",
  "2164": "json",
  "2165": "etails",
  "2166": " too",
  "2167": " extends",
  "2168": " None",
  "2169": " fore",
  "2170": "(String",
  "2171": "format",
  "2172": " great",
  "2173": "inter",
  "2174": "cale",
  "2175": "с",
  "2176": "ron",
  "2177": "iving",
  "2178": "Ent",
  "2179": "ency",
  "2180": "xt",
  "2181": "oy",
  "2182": " month",
  "2183": " happ",
  "2184": " super",
  "2185": "bar",
  "2186": "default",
  "2187": "_de",
  "2188": "ords",
  "2189": "ln",
  "2190": " Ind",
  "2191": "ases",
  "2192": " title",
  "2193": " context",
  "2194": "oh",
  "2195": "-p",
  "2196": "Em",
  "2197": " met",
  "2198": "Test",
  "2199": " life",
  "2200": "_v",
  "2201": " US",
  "2202": "UI",
  "2203": "ocation",
  "2204": "md",
  "2205": " ]",
  "2206": "sw",
  "2207": " incre",
  "2208": "script",
  "2209": "ential",
  "2210": "ways",
  "2211": ".de",
  "2212": " src",
  "2213": " catch",
  "2214": " Americ",
  "2215": "              ",
  "2216": " pay",
  "2217": "plit",
  "2218": "—",
  "2219": " coun",
  "2220": "obj",
  "2221": ".php",
  "2222": " change",
  "2223": "ething",
  "2224": "'re",
  "2225": "aster",
  "2226": "los",
  "2227": "lation",
  "2228": "  \n",
  "2229": "Le",
  "2230": "ä",
  "2231": "({",
  "2232": "ready",
  "2233": " No",
  "2234": " position",
  "2235": " old",
  "2236": " book",
  "2237": "abled",
  "2238": "bug",
  "2239": "Hand",
  "2240": "isplay",
  "2241": "aving",
  "2242": " gover",
  "2243": " version",
  "2244": "System",
  "2245": "nect",
  "2246": "response",
  "2247": "Style",
  "2248": "Up",
  "2249": "angu",
  "2250": " three",
  "2251": "init",
  "2252": "ero",
  "2253": " law",
  "2254": "endif",
  "2255": " base",
  "2256": "email",
  "2257": "(l",
  "2258": "_V",
  "2259": " conf",
  "2260": "ATE",
  "2261": " during",
  "2262": "tes",
  "2263": " console",
  "2264": " Pr",
  "2265": " spe",
  "2266": "ves",
  "2267": "path",
  "2268": "ialog",
  "2269": "dition",
  "2270": "_to",
  "2271": "ards",
  "2272": " against",
  "2273": "etwork",
  "2274": " Ph",
  "2275": "_L",
  "2276": "cur",
  "2277": "imit",
  "2278": "With",
  "2279": " power",
  "2280": "ium",
  "2281": " wom",
  "2282": "left",
  "2283": "ources",
  "2284": "atri",
  "2285": " Im",
  "2286": " Man",
  "2287": "orth",
  "2288": "${",
  "2289": "quals",
  "2290": "ese",
  "2291": "_size",
  "2292": " iss",
  "2293": "otal",
  "2294": "-g",
  "2295": "ique",
  "2296": "rame",
  "2297": " width",
  "2298": "erg",
  "2299": ")(",
  "2300": "ittle",
  "2301": "TR",
  "2302": " They",
  "2303": "ences",
  "2304": "rl",
  "2305": "ons",
  "2306": " label",
  "2307": ".y",
  "2308": "-t",
  "2309": "update",
  "2310": "anel",
  "2311": "sc",
  "2312": ".to",
  "2313": " project",
  "2314": "ü",
  "2315": " element",
  "2316": " success",
  "2317": "\t\t\n",
  "2318": ".sh",
  "2319": "ram",
  "2320": "ched",
  "2321": " date",
  "2322": " tot",
  "2323": "_ST",
  "2324": "All",
  "2325": "ification",
  "2326": "\tvar",
  "2327": " tri",
  "2328": "chem",
  "2329": "my",
  "2330": " big",
  "2331": " Ad",
  "2332": " At",
  "2333": "ots",
  "2334": "num",
  "2335": "Act",
  "2336": " map",
  "2337": "era",
  "2338": "cope",
  "2339": ".$",
  "2340": ",”",
  "2341": " pop",
  "2342": " few",
  "2343": " len",
  "2344": "uid",
  "2345": "eters",
  "2346": "ules",
  "2347": "í",
  "2348": "source",
  "2349": "https",
  "2350": " dem",
  "2351": " ear",
  "2352": "################",
  "2353": " match",
  "2354": "ories",
  "2355": "aces",
  "2356": " Cl",
  "2357": " node",
  "2358": "irc",
  "2359": "local",
  "2360": "unity",
  "2361": " another",
  "2362": "<<",
  "2363": "ogle",
  "2364": " sit",
  "2365": "ework",
  "2366": "TE",
  "2367": ".I",
  "2368": "NS",
  "2369": "ology",
  "2370": "ought",
  "2371": ".Cont",
  "2372": ">>",
  "2373": " care",
  "2374": "state",
  "2375": "\tprivate",
  "2376": " effect",
  "2377": "++)",
  "2378": "_file",
  "2379": "ending",
  "2380": "Line",
  "2381": "For",
  "2382": "ior",
  "2383": " Sc",
  "2384": " fun",
  "2385": ".Size",
  "2386": "\telse",
  "2387": "])",
  "2388": "start",
  "2389": "vious",
  "2390": " },",
  "2391": "ours",
  "2392": " leg",
  "2393": " service",
  "2394": " since",
  "2395": "iron",
  "2396": "Label",
  "2397": " non",
  "2398": " los",
  "2399": "iction",
  "2400": " full",
  "2401": "acter",
  "2402": "board",
  "2403": "gress",
  "2404": " turn",
  "2405": "ither",
  "2406": ".size",
  "2407": " body",
  "2408": "resh",
  "2409": "eturn",
  "2410": "(_",
  "2411": "yles",
  "2412": "ormal",
  "2413": "pi",
  "2414": " something",
  "2415": "!--",
  "2416": "uint",
  "2417": " produ",
  "2418": " stand",
  "2419": " proble",
  "2420": " available",
  "2421": "mt",
  "2422": " Bl",
  "2423": " ...",
  "2424": " block",
  "2425": "Input",
  "2426": " keep",
  "2427": "Count",
  "2428": "open",
  "2429": " ['",
  "2430": " throw",
  "2431": "uilder",
  "2432": "Action",
  "2433": " things",
  "2434": "True",
  "2435": " url",
  "2436": " Bo",
  "2437": "printf",
  "2438": " red",
  "2439": "js",
  "2440": ".create",
  "2441": " Or",
  "2442": "Status",
  "2443": "Instance",
  "2444": " control",
  "2445": " come",
  "2446": " custom",
  "2447": "location",
  "2448": "model",
  "2449": " \r\n",
  "2450": " source",
  "2451": " eas",
  "2452": ".out",
  "2453": "oney",
  "2454": " await",
  "2455": " partic",
  "2456": "AP",
  "2457": "ublish",
  "2458": "odes",
  "2459": "_pro",
  "2460": "ply",
  "2461": "riter",
  "2462": " prov",
  "2463": " mill",
  "2464": "HT",
  "2465": " chang",
  "2466": " ask",
  "2467": "                     ",
  "2468": " output",
  "2469": " email",
  "2470": ".push",
  "2471": "ination",
  "2472": "atrix",
  "2473": "Table",
  "2474": "uccess",
  "2475": "                                       ",
  "2476": " disc",
  "2477": "([",
  "2478": " business",
  "2479": "height",
  "2480": ".html",
  "2481": "ta",
  "2482": "field",
  "2483": " required",
  "2484": "_R",
  "2485": " govern",
  "2486": "lex",
  "2487": ".,",
  "2488": " Set",
  "2489": "urch",
  "2490": "///",
  "2491": "ts",
  "2492": "af",
  "2493": " might",
  "2494": "istory",
  "2495": "Str",
  "2496": " never",
  "2497": "Response",
  "2498": "arse",
  "2499": "ada",
  "2500": " How",
  "2501": " *)",
  "2502": " ;",
  "2503": " hard",
  "2504": "Ad",
  "2505": " intern",
  "2506": "used",
  "2507": "(data",
  "2508": "mod",
  "2509": "annel",
  "2510": " np",
  "2511": "ugg",
  "2512": " called",
  "2513": "body",
  "2514": " cho",
  "2515": "(r",
  "2516": "_set",
  "2517": "ird",
  "2518": " >=",
  "2519": " options",
  "2520": " Gener",
  "2521": " height",
  "2522": "Point",
  "2523": "You",
  "2524": "ety",
  "2525": "Click",
  "2526": " small",
  "2527": " ide",
  "2528": " access",
  "2529": "anguage",
  "2530": " protected",
  "2531": " job",
  "2532": " There",
  "2533": "Def",
  "2534": " address",
  "2535": " uint",
  "2536": "Not",
  "2537": "oo",
  "2538": "aps",
  "2539": "<div",
  "2540": "ained",
  "2541": "atur",
  "2542": " sum",
  "2543": "-w",
  "2544": " Date",
  "2545": " little",
  "2546": " fri",
  "2547": "YPE",
  "2548": " port",
  "2549": "eh",
  "2550": "pring",
  "2551": "_path",
  "2552": " status",
  "2553": "aim",
  "2554": "bool",
  "2555": " appe",
  "2556": " os",
  "2557": ".name",
  "2558": "ension",
  "2559": "_G",
  "2560": " update",
  "2561": "Config",
  "2562": "aff",
  "2563": "ERR",
  "2564": " <=",
  "2565": "ately",
  "2566": "#if",
  "2567": "uction",
  "2568": " Te",
  "2569": " link",
  "2570": " User",
  "2571": ".find",
  "2572": ".org",
  "2573": "me",
  "2574": " given",
  "2575": "Out",
  "2576": "#endif",
  "2577": " better",
  "2578": "Page",
  "2579": " feel",
  "2580": "enn",
  "2581": "ML",
  "2582": " already",
  "2583": " including",
  "2584": "oogle",
  "2585": "ru",
  "2586": "ically",
  "2587": "prop",
  "2588": "lean",
  "2589": "outer",
  "2590": " always",
  "2591": "ording",
  "2592": "If",
  "2593": "orage",
  "2594": " parent",
  "2595": "vis",
  "2596": "\t\t\t\t\t\t\t",
  "2597": " got",
  "2598": "stand",
  "2599": " less",
  "2600": "/s",
  "2601": " Ass",
  "2602": "apt",
  "2603": "ired",
  "2604": " Add",
  "2605": " account",
  "2606": "ploy",
  "2607": " der",
  "2608": "resent",
  "2609": " lot",
  "2610": " valid",
  "2611": "\td",
  "2612": " bit",
  "2613": "ponents",
  "2614": " following",
  "2615": "_ex",
  "2616": "SON",
  "2617": " sure",
  "2618": "ocial",
  "2619": " prom",
  "2620": "erties",
  "2621": "header",
  "2622": ".pro",
  "2623": " boolean",
  "2624": " search",
  "2625": "ken",
  "2626": " orig",
  "2627": " er",
  "2628": "Ed",
  "2629": "EM",
  "2630": "aut",
  "2631": "ling",
  "2632": "ality",
  "2633": "ById",
  "2634": "bed",
  "2635": "\tcase",
  "2636": "ether",
  "2637": "posit",
  "2638": " invest",
  "2639": " OR",
  "2640": " says",
  "2641": "mission",
  "2642": "AME",
  "2643": " temp",
  "2644": "oad",
  "2645": " rest",
  "2646": "info",
  "2647": " interest",
  "2648": "Arg",
  "2649": " perform",
  "2650": "pons",
  "2651": " View",
  "2652": " ver",
  "2653": "lib",
  "2654": "(const",
  "2655": "Util",
  "2656": "Listener",
  "2657": "arge",
  "2658": " mult",
  "2659": " die",
  "2660": " site",
  "2661": "../../",
  "2662": "EL",
  "2663": " values",
  "2664": "pen",
  "2665": "No",
  "2666": "icro",
  "2667": " beh",
  "2668": " './",
  "2669": "acy",
  "2670": "rec",
  "2671": "()->",
  "2672": "\t   ",
  "2673": "\"))",
  "2674": "Content",
  "2675": "_W",
  "2676": "plement",
  "2677": " won",
  "2678": " video",
  "2679": "adi",
  "2680": "point",
  "2681": "%%",
  "2682": " gl",
  "2683": "erved",
  "2684": "viron",
  "2685": "IF",
  "2686": "uted",
  "2687": "�",
  "2688": "'m",
  "2689": " cert",
  "2690": " prof",
  "2691": " cell",
  "2692": "ari",
  "2693": " player",
  "2694": "ais",
  "2695": " cost",
  "2696": " hum",
  "2697": "(R",
  "2698": " offic",
  "2699": "ks",
  "2700": ".text",
  "2701": "atures",
  "2702": " total",
  "2703": "ope",
  "2704": " stat",
  "2705": "UM",
  "2706": " load",
  "2707": "ights",
  "2708": " clear",
  "2709": "uro",
  "2710": " techn",
  "2711": "upport",
  "2712": "IR",
  "2713": " row",
  "2714": " seem",
  "2715": " q",
  "2716": " short",
  "2717": " Not",
  "2718": "ipp",
  "2719": "Group",
  "2720": "section",
  "2721": "max",
  "2722": "irl",
  "2723": " override",
  "2724": " company",
  "2725": " done",
  "2726": " gre",
  "2727": ".Re",
  "2728": " belie",
  "2729": "rist",
  "2730": " health",
  "2731": "ANT",
  "2732": " Be",
  "2733": ".value",
  "2734": " Gr",
  "2735": "ottom",
  "2736": " args",
  "2737": "PT",
  "2738": "status",
  "2739": "func",
  "2740": "uments",
  "2741": "-h",
  "2742": "Number",
  "2743": " Log",
  "2744": "erver",
  "2745": "ament",
  "2746": " obj",
  "2747": "inc",
  "2748": " children",
  "2749": "icy",
  "2750": "IZ",
  "2751": "ands",
  "2752": "ably",
  "2753": " distrib",
  "2754": " cur",
  "2755": "erial",
  "2756": " days",
  "2757": "reated",
  "2758": "rect",
  "2759": "-l",
  "2760": "irm",
  "2761": "idden",
  "2762": "omb",
  "2763": " initial",
  "2764": ".js",
  "2765": " �",
  "2766": "Query",
  "2767": " online",
  "2768": "imal",
  "2769": ".con",
  "2770": "au",
  "2771": "Url",
  "2772": "control",
  "2773": "irection",
  "2774": " instance",
  "2775": "ORT",
  "2776": " Fr",
  "2777": "where",
  "2778": " javax",
  "2779": " organ",
  "2780": "apter",
  "2781": " reason",
  "2782": "options",
  "2783": " Mar",
  "2784": "(a",
  "2785": " within",
  "2786": "ODE",
  "2787": "_DE",
  "2788": "admin",
  "2789": "ended",
  "2790": " design",
  "2791": " Data",
  "2792": "une",
  "2793": " File",
  "2794": "root",
  "2795": " cent",
  "2796": " arr",
  "2797": "_add",
  "2798": "len",
  "2799": "page",
  "2800": ",'",
  "2801": "_str",
  "2802": " bro",
  "2803": "ability",
  "2804": "outh",
  "2805": "/c",
  "2806": "pose",
  "2807": "irtual",
  "2808": "earch",
  "2809": "_url",
  "2810": "argin",
  "2811": "Http",
  "2812": " school",
  "2813": "ava",
  "2814": " consider",
  "2815": ".label",
  "2816": " Array",
  "2817": "web",
  "2818": "opt",
  "2819": ".println",
  "2820": "ulation",
  "2821": " func",
  "2822": "PL",
  "2823": " \"\\",
  "2824": " Text",
  "2825": "actory",
  "2826": "(function",
  "2827": "null",
  "2828": " eng",
  "2829": "down",
  "2830": " include",
  "2831": " En",
  "2832": " Dr",
  "2833": " db",
  "2834": "!!",
  "2835": "side",
  "2836": " init",
  "2837": "quired",
  "2838": " She",
  "2839": "Column",
  "2840": "react",
  "2841": " ann",
  "2842": " stop",
  "2843": " later",
  "2844": " That",
  "2845": "ention",
  "2846": "df",
  "2847": "UG",
  "2848": "ILE",
  "2849": " client",
  "2850": "raft",
  "2851": "ffer",
  "2852": "POST",
  "2853": "elper",
  "2854": " love",
  "2855": "quote",
  "2856": "oud",
  "2857": " json",
  "2858": " able",
  "2859": " men",
  "2860": "AX",
  "2861": " Copyright",
  "2862": "ö",
  "2863": "avig",
  "2864": "req",
  "2865": "Client",
  "2866": ".Com",
  "2867": "erc",
  "2868": "ilt",
  "2869": "pecial",
  "2870": "_com",
  "2871": "room",
  "2872": ".Name",
  "2873": " give",
  "2874": "amb",
  "2875": "ike",
  "2876": " condition",
  "2877": "client",
  "2878": "ators",
  "2879": ":\"",
  "2880": " copy",
  "2881": "uture",
  "2882": "iversity",
  "2883": "ernal",
  "2884": "{{",
  "2885": " Can",
  "2886": "ounc",
  "2887": "do",
  "2888": " occ",
  "2889": " appro",
  "2890": "thers",
  "2891": "ze",
  "2892": " either",
  "2893": " Fl",
  "2894": " important",
  "2895": " lead",
  "2896": "attr",
  "2897": "ART",
  "2898": "Equal",
  "2899": " da",
  "2900": "etch",
  "2901": "entity",
  "2902": " family",
  "2903": "adding",
  "2904": " option",
  "2905": " exist",
  "2906": "ica",
  "2907": " Object",
  "2908": "'ve",
  "2909": "vers",
  "2910": "itional",
  "2911": "output",
  "2912": " True",
  "2913": " OF",
  "2914": "_time",
  "2915": " offer",
  "2916": "HER",
  "2917": "egin",
  "2918": "\"\"",
  "2919": " water",
  "2920": " che",
  "2921": " My",
  "2922": "ored",
  "2923": " step",
  "2924": "ances",
  "2925": "CK",
  "2926": "AY",
  "2927": "�",
  "2928": "struction",
  "2929": "(C",
  "2930": "ouch",
  "2931": "Stream",
  "2932": "active",
  "2933": "ama",
  "2934": "Entity",
  "2935": "product",
  "2936": " government",
  "2937": " ID",
  "2938": "ajor",
  "2939": "And",
  "2940": " display",
  "2941": "л",
  "2942": " times",
  "2943": " four",
  "2944": " far",
  "2945": " present",
  "2946": " NS",
  "2947": "uest",
  "2948": " bas",
  "2949": "echo",
  "2950": "child",
  "2951": "ifier",
  "2952": "Handler",
  "2953": " lib",
  "2954": "Property",
  "2955": "translation",
  "2956": " room",
  "2957": " once",
  "2958": " []",
  "2959": "center",
  "2960": "================================",
  "2961": " results",
  "2962": " continue",
  "2963": " talk",
  "2964": "_get",
  "2965": " grow",
  "2966": ".sw",
  "2967": "eb",
  "2968": " Public",
  "2969": "OP",
  "2970": "ecute",
  "2971": "ols",
  "2972": " **",
  "2973": " mass",
  "2974": "ured",
  "2975": ".class",
  "2976": "omic",
  "2977": " mean",
  "2978": "ips",
  "2979": " aut",
  "2980": " until",
  "2981": " market",
  "2982": " area",
  "2983": "uit",
  "2984": " length",
  "2985": " With",
  "2986": "structor",
  "2987": "event",
  "2988": "\"><",
  "2989": " Sp",
  "2990": "IV",
  "2991": " mus",
  "2992": "iff",
  "2993": " kind",
  "2994": "author",
  "2995": "ounds",
  "2996": "mb",
  "2997": "_key",
  "2998": "width",
  "2999": "pository",
  "3000": " light",
  "3001": "uk",
  "3002": "Row",
  "3003": "ohn",
  "3004": "alf",
  "3005": "vironment",
  "3006": "apper",
  "3007": "ollections",
  "3008": " side",
  "3009": "_info",
  "3010": " example",
  "3011": "imary",
  "3012": " wr",
  "3013": " camp",
  "3014": "cribe",
  "3015": "\"/",
  "3016": " miss",
  "3017": "way",
  "3018": " based",
  "3019": " plan",
  "3020": "Vis",
  "3021": "omain",
  "3022": "unk",
  "3023": " away",
  "3024": "UP",
  "3025": "<T",
  "3026": "OS",
  "3027": "iod",
  "3028": " Mon",
  "3029": "’re",
  "3030": " lik",
  "3031": "ç",
  "3032": "ively",
  "3033": ".v",
  "3034": "imer",
  "3035": "izer",
  "3036": "Sub",
  "3037": " button",
  "3038": " Up",
  "3039": " experience",
  "3040": "CL",
  "3041": " render",
  "3042": "_value",
  "3043": " near",
  "3044": "URL",
  "3045": "alt",
  "3046": " country",
  "3047": "ibility",
  "3048": "ead",
  "3049": " author",
  "3050": " specific",
  "3051": "base",
  "3052": "(name",
  "3053": "ones",
  "3054": " Do",
  "3055": " along",
  "3056": "year",
  "3057": " express",
  "3058": ".'",
  "3059": "env",
  "3060": " begin",
  "3061": " software",
  "3062": " imp",
  "3063": " win",
  "3064": "ón",
  "3065": " thing",
  "3066": "Trans",
  "3067": " THE",
  "3068": " <?",
  "3069": " why",
  "3070": " doesn",
  "3071": "ij",
  "3072": "ging",
  "3073": "\tg",
  "3074": " single",
  "3075": "offset",
  "3076": "arning",
  "3077": "ograph",
  "3078": "ley",
  "3079": "_count",
  "3080": " anal",
  "3081": "create",
  "3082": "/m",
  "3083": " Reg",
  "3084": "unch",
  "3085": "=$",
  "3086": "isk",
  "3087": " rights",
  "3088": "(M",
  "3089": "aper",
  "3090": ".model",
  "3091": " po",
  "3092": "empty",
  "3093": "artment",
  "3094": " ant",
  "3095": " When",
  "3096": " women",
  "3097": " Ed",
  "3098": " season",
  "3099": " dest",
  "3100": "ã",
  "3101": "(h",
  "3102": " possible",
  "3103": " sever",
  "3104": " btn",
  "3105": " didn",
  "3106": " sent",
  "3107": " enc",
  "3108": " command",
  "3109": "_x",
  "3110": " recent",
  "3111": "olution",
  "3112": "vector",
  "3113": " By",
  "3114": " May",
  "3115": " Act",
  "3116": "��",
  "3117": " money",
  "3118": "INT",
  "3119": "bsite",
  "3120": "\tp",
  "3121": "﻿",
  "3122": "sl",
  "3123": "attern",
  "3124": " Class",
  "3125": " told",
  "3126": "udio",
  "3127": "current",
  "3128": " equ",
  "3129": " auto",
  "3130": " State",
  "3131": "da",
  "3132": "msg",
  "3133": " working",
  "3134": " query",
  "3135": " Br",
  "3136": " window",
  "3137": "auth",
  "3138": "only",
  "3139": "\tt",
  "3140": " least",
  "3141": "agn",
  "3142": " expl",
  "3143": "itter",
  "3144": "aring",
  "3145": " column",
  "3146": " General",
  "3147": "\":\"",
  "3148": "eral",
  "3149": "rior",
  "3150": " record",
  "3151": "IB",
  "3152": "EX",
  "3153": " dat",
  "3154": " making",
  "3155": "ued",
  "3156": " Car",
  "3157": "emp",
  "3158": "\".",
  "3159": " Med",
  "3160": " close",
  "3161": " percent",
  "3162": " past",
  "3163": "(g",
  "3164": ":(",
  "3165": " write",
  "3166": " move",
  "3167": " pat",
  "3168": "Control",
  "3169": ".To",
  "3170": " vi",
  "3171": "inate",
  "3172": "'ll",
  "3173": "aged",
  "3174": "Null",
  "3175": " special",
  "3176": "IZE",
  "3177": " city",
  "3178": " Eng",
  "3179": "ixed",
  "3180": "inary",
  "3181": "py",
  "3182": " eff",
  "3183": "ario",
  "3184": " tell",
  "3185": "avor",
  "3186": " select",
  "3187": "level",
  "3188": "imum",
  "3189": "oper",
  "3190": "Builder",
  "3191": "IP",
  "3192": "esc",
  "3193": " font",
  "3194": " Am",
  "3195": "ished",
  "3196": "ills",
  "3197": "Inter",
  "3198": "OW",
  "3199": " course",
  "3200": " late",
  "3201": "iddle",
  "3202": " amount",
  "3203": " async",
  "3204": "ino",
  "3205": "cul",
  "3206": " �",
  "3207": "andle",
  "3208": "_user",
  "3209": " ben",
  "3210": " Cal",
  "3211": " $_",
  "3212": " Rep",
  "3213": " enough",
  "3214": "Token",
  "3215": ".user",
  "3216": "(j",
  "3217": "Sc",
  "3218": "Width",
  "3219": "now",
  "3220": "atform",
  "3221": " looking",
  "3222": " hold",
  "3223": "Module",
  "3224": "ITY",
  "3225": "vo",
  "3226": "ison",
  "3227": ".Data",
  "3228": "yc",
  "3229": " pot",
  "3230": " Trump",
  "3231": "idual",
  "3232": "ides",
  "3233": "rt",
  "3234": " property",
  "3235": "                                           ",
  "3236": "amework",
  "3237": "go",
  "3238": " low",
  "3239": " para",
  "3240": " price",
  "3241": "ury",
  "3242": " today",
  "3243": "roy",
  "3244": " '/",
  "3245": " polit",
  "3246": " ''",
  "3247": "ymb",
  "3248": "Ph",
  "3249": " adv",
  "3250": " attack",
  "3251": " Ste",
  "3252": "ROM",
  "3253": "ana",
  "3254": " means",
  "3255": " story",
  "3256": "ids",
  "3257": "aken",
  "3258": " meet",
  "3259": " mom",
  "3260": " ‘",
  "3261": " ?>",
  "3262": " den",
  "3263": "obile",
  "3264": "change",
  "3265": "            \n",
  "3266": "ici",
  "3267": "na",
  "3268": " Form",
  "3269": " sort",
  "3270": "Select",
  "3271": "pare",
  "3272": " thought",
  "3273": "_con",
  "3274": " task",
  "3275": "ocus",
  "3276": " DE",
  "3277": " Min",
  "3278": " opt",
  "3279": "\tbreak",
  "3280": "umer",
  "3281": "KE",
  "3282": "then",
  "3283": " det",
  "3284": " Test",
  "3285": "ports",
  "3286": " review",
  "3287": "('/",
  "3288": "move",
  "3289": " switch",
  "3290": "ERT",
  "3291": "patch",
  "3292": "annot",
  "3293": "�",
  "3294": " above",
  "3295": "itive",
  "3296": " question",
  "3297": " Qu",
  "3298": "gle",
  "3299": " word",
  "3300": " provide",
  "3301": " Return",
  "3302": " research",
  "3303": "ão",
  "3304": "ustr",
  "3305": " publish",
  "3306": "chema",
  "3307": "}}",
  "3308": " CON",
  "3309": "-in",
  "3310": "allback",
  "3311": " cover",
  "3312": "\\\\",
  "3313": "color",
  "3314": " IS",
  "3315": " whether",
  "3316": "imate",
  "3317": "isc",
  "3318": "Bar",
  "3319": " div",
  "3320": "Be",
  "3321": "ourn",
  "3322": " having",
  "3323": "lem",
  "3324": "player",
  "3325": "abs",
  "3326": "amera",
  "3327": "ney",
  "3328": " exc",
  "3329": "gether",
  "3330": "plied",
  "3331": "ao",
  "3332": "[$",
  "3333": " ++",
  "3334": "ipe",
  "3335": "show",
  "3336": "/d",
  "3337": "[:",
  "3338": "agement",
  "3339": "lev",
  "3340": "_ID",
  "3341": "rary",
  "3342": "ades",
  "3343": "_se",
  "3344": "ause",
  "3345": " employ",
  "3346": " fre",
  "3347": " '@",
  "3348": " complet",
  "3349": " large",
  "3350": "ral",
  "3351": "\\x",
  "3352": " fac",
  "3353": "<String",
  "3354": " created",
  "3355": "uper",
  "3356": ".state",
  "3357": " host",
  "3358": "eneric",
  "3359": "/b",
  "3360": "(!",
  "3361": "while",
  "3362": "ias",
  "3363": "BUG",
  "3364": " role",
  "3365": "Reg",
  "3366": " Color",
  "3367": "Start",
  "3368": " porn",
  "3369": "top",
  "3370": " web",
  "3371": " dev",
  "3372": " deal",
  "3373": "Integer",
  "3374": "position",
  "3375": ".on",
  "3376": " (\"",
  "3377": " problem",
  "3378": "sv",
  "3379": " press",
  "3380": "ABLE",
  "3381": "ATION",
  "3382": " See",
  "3383": "anch",
  "3384": " though",
  "3385": "leep",
  "3386": " <!--",
  "3387": " points",
  "3388": "                         ",
  "3389": ".J",
  "3390": " ::",
  "3391": "ptr",
  "3392": "DB",
  "3393": ".png",
  "3394": "node",
  "3395": "soft",
  "3396": "pond",
  "3397": " ever",
  "3398": "----------------------------------------------------------------",
  "3399": "Menu",
  "3400": "('#",
  "3401": " services",
  "3402": "pg",
  "3403": "params",
  "3404": " actually",
  "3405": " \"/",
  "3406": "Empty",
  "3407": "Method",
  "3408": " ident",
  "3409": "unic",
  "3410": " million",
  "3411": " aff",
  "3412": "style",
  "3413": " conc",
  "3414": "ios",
  "3415": "ignment",
  "3416": "ULT",
  "3417": "Pr",
  "3418": " understand",
  "3419": "uary",
  "3420": " happen",
  "3421": " server",
  "3422": " Co",
  "3423": "SC",
  "3424": " les",
  "3425": " files",
  "3426": "Grid",
  "3427": "sql",
  "3428": " often",
  "3429": " info",
  "3430": "_tr",
  "3431": "src",
  "3432": "ony",
  "3433": " space",
  "3434": "umb",
  "3435": " password",
  "3436": " store",
  "3437": " What",
  "3438": "ged",
  "3439": " False",
  "3440": "Us",
  "3441": "swer",
  "3442": "_index",
  "3443": " format",
  "3444": "most",
  "3445": "sm",
  "3446": "New",
  "3447": " details",
  "3448": " prob",
  "3449": " AND",
  "3450": "ilar",
  "3451": " ${",
  "3452": "rypt",
  "3453": ".Collections",
  "3454": "$this",
  "3455": " Free",
  "3456": "_of",
  "3457": "(false",
  "3458": "dated",
  "3459": " >>",
  "3460": " face",
  "3461": "CTION",
  "3462": " save",
  "3463": " typ",
  "3464": "dev",
  "3465": "(\"#",
  "3466": "AGE",
  "3467": "container",
  "3468": "edit",
  "3469": "QL",
  "3470": " items",
  "3471": " social",
  "3472": "ien",
  "3473": " React",
  "3474": " mar",
  "3475": " redu",
  "3476": " RE",
  "3477": ".put",
  "3478": " major",
  "3479": "Cell",
  "3480": "next",
  "3481": " expected",
  "3482": " yet",
  "3483": " indiv",
  "3484": "tributes",
  "3485": "atis",
  "3486": "amed",
  "3487": " food",
  "3488": "Source",
  "3489": "(string",
  "3490": "ites",
  "3491": "dr",
  "3492": " members",
  "3493": " comb",
  "3494": "items",
  "3495": " Per",
  "3496": "TH",
  "3497": "=True",
  "3498": " bar",
  "3499": "_SE",
  "3500": "comm",
  "3501": "(w",
  "3502": " send",
  "3503": " inc",
  "3504": "unsigned",
  "3505": "FA",
  "3506": " params",
  "3507": "apping",
  "3508": "ros",
  "3509": "ugin",
  "3510": "fa",
  "3511": " connection",
  "3512": " become",
  "3513": "Mode",
  "3514": " ev",
  "3515": " diff",
  "3516": " United",
  "3517": "Height",
  "3518": "fully",
  "3519": "images",
  "3520": " makes",
  "3521": " global",
  "3522": " contact",
  "3523": " abs",
  "3524": "float",
  "3525": " except",
  "3526": " Pol",
  "3527": "Child",
  "3528": "typ",
  "3529": " certain",
  "3530": "ión",
  "3531": "OUT",
  "3532": " impro",
  "3533": "iles",
  "3534": " Part",
  "3535": "values",
  "3536": "oss",
  "3537": "/**",
  "3538": "ilit",
  "3539": " Event",
  "3540": "curity",
  "3541": "ster",
  "3542": " character",
  "3543": " news",
  "3544": " \",",
  "3545": " device",
  "3546": "cel",
  "3547": "login",
  "3548": "heet",
  "3549": "Default",
  "3550": "@\"",
  "3551": "\t ",
  "3552": "click",
  "3553": "(value",
  "3554": " Ab",
  "3555": " previous",
  "3556": "ERROR",
  "3557": "ocal",
  "3558": " material",
  "3559": " below",
  "3560": " Christ",
  "3561": " media",
  "3562": "cover",
  "3563": " UI",
  "3564": " fail",
  "3565": " black",
  "3566": " component",
  "3567": " American",
  "3568": " added",
  "3569": " buy",
  "3570": "stit",
  "3571": " came",
  "3572": " delete",
  "3573": "property",
  "3574": "oding",
  "3575": " card",
  "3576": "rops",
  "3577": " https",
  "3578": " root",
  "3579": " handle",
  "3580": "CC",
  "3581": "Back",
  "3582": "emplate",
  "3583": " getting",
  "3584": "_by",
  "3585": "mail",
  "3586": "_sh",
  "3587": ".assert",
  "3588": " Dec",
  "3589": "(true",
  "3590": " comput",
  "3591": " claim",
  "3592": "'=>",
  "3593": " Sub",
  "3594": " air",
  "3595": "ops",
  "3596": "nav",
  "3597": "ements",
  "3598": "(id",
  "3599": " enter",
  "3600": "anged",
  "3601": "End",
  "3602": " location",
  "3603": " night",
  "3604": " doing",
  "3605": " Red",
  "3606": "lin",
  "3607": "vider",
  "3608": " pick",
  "3609": " watch",
  "3610": "essages",
  "3611": " human",
  "3612": " dam",
  "3613": "pend",
  "3614": "dir",
  "3615": " tax",
  "3616": " girl",
  "3617": "reet",
  "3618": " box",
  "3619": " strong",
  "3620": "(v",
  "3621": "rel",
  "3622": " interface",
  "3623": " msg",
  "3624": "fect",
  "3625": "_at",
  "3626": " house",
  "3627": " track",
  "3628": "je",
  "3629": " John",
  "3630": "istr",
  "3631": "(S",
  "3632": "ube",
  "3633": " ce",
  "3634": "itted",
  "3635": "VER",
  "3636": "*)",
  "3637": "parent",
  "3638": " application",
  "3639": "any",
  "3640": ".swing",
  "3641": " pack",
  "3642": "\\u",
  "3643": " pract",
  "3644": " section",
  "3645": "ctx",
  "3646": " unsigned",
  "3647": ".Point",
  "3648": " One",
  "3649": "ı",
  "3650": "iple",
  "3651": "aid",
  "3652": "у",
  "3653": "Vector",
  "3654": "byte",
  "3655": " wait",
  "3656": " à",
  "3657": "å",
  "3658": " together",
  "3659": " throws",
  "3660": "FO",
  "3661": "'))",
  "3662": "host",
  "3663": "ising",
  "3664": ".view",
  "3665": " terms",
  "3666": "framework",
  "3667": "-r",
  "3668": " apply",
  "3669": " session",
  "3670": "Options",
  "3671": "uggest",
  "3672": " others",
  "3673": "witter",
  "3674": " fund",
  "3675": "Init",
  "3676": "__(",
  "3677": "ensor",
  "3678": "GET",
  "3679": " several",
  "3680": "ii",
  "3681": "[j",
  "3682": "IO",
  "3683": " template",
  "3684": "Position",
  "3685": " econ",
  "3686": "achine",
  "3687": " il",
  "3688": ".spring",
  "3689": "main",
  "3690": "elt",
  "3691": "iment",
  "3692": "Rec",
  "3693": "mm",
  "3694": " University",
  "3695": "ursor",
  "3696": "                    ",
  "3697": "GL",
  "3698": "icture",
  "3699": "ithub",
  "3700": "cer",
  "3701": "cast",
  "3702": "From",
  "3703": "ales",
  "3704": " subject",
  "3705": "password",
  "3706": "ny",
  "3707": " esc",
  "3708": ".write",
  "3709": "，",
  "3710": "What",
  "3711": ".H",
  "3712": " history",
  "3713": " Fe",
  "3714": " individual",
  "3715": "unit",
  "3716": " -->",
  "3717": " du",
  "3718": "IST",
  "3719": " users",
  "3720": "fs",
  "3721": "false",
  "3722": "unt",
  "3723": "Title",
  "3724": " mot",
  "3725": " future",
  "3726": "ached",
  "3727": " started",
  "3728": " mode",
  "3729": " '<",
  "3730": "_array",
  "3731": " ax",
  "3732": "ires",
  "3733": "There",
  "3734": "ught",
  "3735": "tml",
  "3736": "posed",
  "3737": "icult",
  "3738": " took",
  "3739": " games",
  "3740": " }}",
  "3741": " products",
  "3742": "Is",
  "3743": " bad",
  "3744": " Des",
  "3745": ".path",
  "3746": " Post",
  "3747": "avel",
  "3748": "(:",
  "3749": " needs",
  "3750": " known",
  "3751": "Fl",
  "3752": " exec",
  "3753": " seen",
  "3754": "ume",
  "3755": " border",
  "3756": " live",
  "3757": "temp",
  "3758": "Per",
  "3759": " variable",
  "3760": "iet",
  "3761": " Def",
  "3762": " ge",
  "3763": "eme",
  "3764": "_back",
  "3765": "first",
  "3766": " provided",
  "3767": "////////////////////////////////",
  "3768": " filename",
  "3769": " hope",
  "3770": "uly",
  "3771": "auto",
  "3772": "find",
  "3773": "_string",
  "3774": "btn",
  "3775": "itude",
  "3776": "Attribute",
  "3777": " young",
  "3778": ".txt",
  "3779": " website",
  "3780": " Prop",
  "3781": " ey",
  "3782": "ional",
  "3783": "ARR",
  "3784": "ictionary",
  "3785": "urther",
  "3786": ".</",
  "3787": "ALL",
  "3788": " study",
  "3789": "ili",
  "3790": " network",
  "3791": "yl",
  "3792": "istance",
  "3793": "OK",
  "3794": "NU",
  "3795": "rest",
  "3796": " ST",
  "3797": "icrosoft",
  "3798": " limit",
  "3799": " cut",
  "3800": " cou",
  "3801": "ogn",
  "3802": " sizeof",
  "3803": "ival",
  "3804": " went",
  "3805": ".z",
  "3806": "Link",
  "3807": " fire",
  "3808": " across",
  "3809": " community",
  "3810": "region",
  "3811": "NE",
  "3812": "Ref",
  "3813": " official",
  "3814": " visit",
  "3815": "olve",
  "3816": " received",
  "3817": " token",
  "3818": " months",
  "3819": " anim",
  "3820": " particular",
  "3821": "styles",
  "3822": "ico",
  "3823": " ess",
  "3824": ".Control",
  "3825": " é",
  "3826": "ball",
  "3827": " learn",
  "3828": "inding",
  "3829": "Var",
  "3830": " decl",
  "3831": "(err",
  "3832": "LECT",
  "3833": "One",
  "3834": "pha",
  "3835": " ~",
  "3836": "fort",
  "3837": "asure",
  "3838": " mind",
  "3839": " End",
  "3840": "Check",
  "3841": " quick",
  "3842": "\"),",
  "3843": "AND",
  "3844": "utions",
  "3845": "Base",
  "3846": "________",
  "3847": " comment",
  "3848": "INE",
  "3849": "’ve",
  "3850": "But",
  "3851": " El",
  "3852": " Us",
  "3853": " admin",
  "3854": "mark",
  "3855": " Name",
  "3856": " Type",
  "3857": "amic",
  "3858": "pc",
  "3859": "loor",
  "3860": "FT",
  "3861": " opp",
  "3862": "cket",
  "3863": ")->",
  "3864": "tx",
  "3865": " pur",
  "3866": "uel",
  "3867": "ymbol",
  "3868": "uation",
  "3869": "anger",
  "3870": " background",
  "3871": "ecess",
  "3872": "efined",
  "3873": "........",
  "3874": " description",
  "3875": " represent",
  "3876": "pression",
  "3877": "rowser",
  "3878": " series",
  "3879": "wards",
  "3880": "($_",
  "3881": "aise",
  "3882": " hot",
  "3883": "acity",
  "3884": "ries",
  "3885": "actions",
  "3886": "Create",
  "3887": "adio",
  "3888": "amples",
  "3889": " original",
  "3890": "ensive",
  "3891": "font",
  "3892": "stream",
  "3893": "﻿using",
  "3894": ".springframework",
  "3895": "server",
  "3896": " bill",
  "3897": "ACK",
  "3898": "ilename",
  "3899": " frame",
  "3900": "Edit",
  "3901": "adius",
  "3902": " draw",
  "3903": "anks",
  "3904": " deter",
  "3905": " comes",
  "3906": "_int",
  "3907": " foreach",
  "3908": "angle",
  "3909": " elect",
  "3910": "pected",
  "3911": "Header",
  "3912": "istration",
  "3913": "False",
  "3914": " Game",
  "3915": " filter",
  "3916": "Activity",
  "3917": " larg",
  "3918": "inition",
  "3919": " \"<",
  "3920": "ised",
  "3921": " remove",
  "3922": " Trans",
  "3923": "met",
  "3924": "see",
  "3925": "Format",
  "3926": "Command",
  "3927": " EX",
  "3928": "None",
  "3929": " front",
  "3930": "ASE",
  "3931": " Rec",
  "3932": "oundation",
  "3933": " vo",
  "3934": "=\\\"",
  "3935": "(*",
  "3936": "Change",
  "3937": ".Write",
  "3938": "group",
  "3939": "ients",
  "3940": "uy",
  "3941": "****************************************************************",
  "3942": " dig",
  "3943": "hr",
  "3944": "(-",
  "3945": " gen",
  "3946": "number",
  "3947": "vec",
  "3948": "urope",
  "3949": "entry",
  "3950": "LL",
  "3951": " ste",
  "3952": "Valid",
  "3953": "'],",
  "3954": "_param",
  "3955": " selected",
  "3956": " according",
  "3957": " Dis",
  "3958": " util",
  "3959": "Buffer",
  "3960": "_error",
  "3961": " associ",
  "3962": "_SIZE",
  "3963": " wor",
  "3964": " printf",
  "3965": "rag",
  "3966": " ",
  "3967": "DD",
  "3968": " Val",
  "3969": " activ",
  "3970": "Eng",
  "3971": "etime",
  "3972": " virtual",
  "3973": "aign",
  "3974": "aur",
  "3975": " Pres",
  "3976": " Exception",
  "3977": " anything",
  "3978": " Off",
  "3979": " hours",
  "3980": " war",
  "3981": "Args",
  "3982": "aging",
  "3983": " models",
  "3984": " Time",
  "3985": "Ob",
  "3986": "ams",
  "3987": "joy",
  "3988": " early",
  "3989": ".read",
  "3990": " center",
  "3991": " Initial",
  "3992": " language",
  "3993": "length",
  "3994": "xy",
  "3995": " sn",
  "3996": " inf",
  "3997": "Post",
  "3998": " ago",
  "3999": " easy",
  "4000": "_code",
  "4001": " ANY",
  "4002": "_ch",
  "4003": " download",
  "4004": "(T",
  "4005": "aved",
  "4006": "–",
  "4007": " students",
  "4008": " fig",
  "4009": "light",
  "4010": "xx",
  "4011": " buffer",
  "4012": " Dep",
  "4013": " Math",
  "4014": "ITH",
  "4015": " vari",
  "4016": " due",
  "4017": "Factory",
  "4018": " por",
  "4019": " ep",
  "4020": "otype",
  "4021": " cannot",
  "4022": " white",
  "4023": "<int",
  "4024": "tern",
  "4025": " register",
  "4026": " pred",
  "4027": "clus",
  "4028": "_date",
  "4029": " /**",
  "4030": " auth",
  "4031": " period",
  "4032": "nown",
  "4033": " vot",
  "4034": " screen",
  "4035": "'d",
  "4036": "Types",
  "4037": " tmp",
  "4038": "ural",
  "4039": " benef",
  "4040": "_y",
  "4041": " net",
  "4042": " States",
  "4043": "']['",
  "4044": " Ne",
  "4045": " NOT",
  "4046": " neg",
  "4047": " common",
  "4048": "scope",
  "4049": " cred",
  "4050": "ges",
  "4051": "_TYPE",
  "4052": " suggest",
  "4053": "oom",
  "4054": " accept",
  "4055": " random",
  "4056": "erm",
  "4057": " Vector",
  "4058": "with",
  "4059": "TER",
  "4060": "(str",
  "4061": " respons",
  "4062": " hit",
  "4063": ".Set",
  "4064": "grid",
  "4065": "ria",
  "4066": " click",
  "4067": "undle",
  "4068": "Case",
  "4069": "insert",
  "4070": "Utils",
  "4071": " \"\"\"",
  "4072": " implement",
  "4073": "atal",
  "4074": "tempt",
  "4075": "template",
  "4076": "ocr",
  "4077": "returns",
  "4078": " players",
  "4079": "users",
  "4080": "edef",
  "4081": " These",
  "4082": " among",
  "4083": " deb",
  "4084": "ha",
  "4085": ".getElement",
  "4086": " circ",
  "4087": " answer",
  "4088": " walk",
  "4089": " treat",
  "4090": " Ge",
  "4091": " Create",
  "4092": " age",
  "4093": " req",
  "4094": "OST",
  "4095": "angular",
  "4096": "я",
  "4097": " five",
  "4098": " distributed",
  "4099": " friend",
  "4100": "TP",
  "4101": " clean",
  "4102": "ows",
  "4103": ".Controls",
  "4104": "dis",
  "4105": " words",
  "4106": ".io",
  "4107": "zy",
  "4108": " header",
  "4109": " Check",
  "4110": "’m",
  "4111": "just",
  "4112": "holder",
  "4113": "=\"<?",
  "4114": " GNU",
  "4115": " Col",
  "4116": "imest",
  "4117": "entic",
  "4118": " tre",
  "4119": "last",
  "4120": "la",
  "4121": " York",
  "4122": "Lo",
  "4123": " discuss",
  "4124": " God",
  "4125": " issue",
  "4126": "rew",
  "4127": "Window",
  "4128": " land",
  "4129": " stream",
  "4130": " Par",
  "4131": " quality",
  "4132": "Par",
  "4133": "_num",
  "4134": " sal",
  "4135": "elves",
  "4136": "ORD",
  "4137": "(user",
  "4138": " works",
  "4139": " half",
  "4140": "enses",
  "4141": "vas",
  "4142": " police",
  "4143": "(\"/",
  "4144": "ua",
  "4145": " simple",
  "4146": "Address",
  "4147": " empty",
  "4148": "esh",
  "4149": "Update",
  "4150": " Created",
  "4151": "('.",
  "4152": "                  ",
  "4153": " agre",
  "4154": " FROM",
  "4155": " cook",
  "4156": " everything",
  "4157": "ilities",
  "4158": ".status",
  "4159": " relations",
  "4160": "extern",
  "4161": " nothing",
  "4162": " running",
  "4163": "\tvoid",
  "4164": "RI",
  "4165": "_a",
  "4166": "_CON",
  "4167": "por",
  "4168": ".sub",
  "4169": "require",
  "4170": " City",
  "4171": " West",
  "4172": " mor",
  "4173": "store",
  "4174": "Equals",
  "4175": "oder",
  "4176": " na",
  "4177": " [[",
  "4178": " ('",
  "4179": " Don",
  "4180": "ERS",
  "4181": "/p",
  "4182": ".json",
  "4183": "abor",
  "4184": " someone",
  "4185": "_text",
  "4186": ".css",
  "4187": ".Tab",
  "4188": " Some",
  "4189": "ato",
  "4190": "double",
  "4191": " share",
  "4192": "(void",
  "4193": "_dir",
  "4194": " ur",
  "4195": "Stack",
  "4196": " World",
  "4197": ".X",
  "4198": "stract",
  "4199": "How",
  "4200": ".Generic",
  "4201": "icles",
  "4202": " entry",
  "4203": " changes",
  "4204": " personal",
  "4205": "(A",
  "4206": " offset",
  "4207": "_ptr",
  "4208": " pie",
  "4209": " Jan",
  "4210": "-group",
  "4211": "module",
  "4212": "Items",
  "4213": " However",
  "4214": "verage",
  "4215": ".Font",
  "4216": " events",
  "4217": ".min",
  "4218": " invol",
  "4219": "za",
  "4220": " whole",
  "4221": " needed",
  "4222": " likely",
  "4223": "rief",
  "4224": "ORM",
  "4225": "version",
  "4226": " fight",
  "4227": " ein",
  "4228": "Frame",
  "4229": "gen",
  "4230": " Out",
  "4231": "avigation",
  "4232": "Length",
  "4233": "illed",
  "4234": "quence",
  "4235": " !==",
  "4236": " Software",
  "4237": " writing",
  "4238": " rate",
  "4239": "Panel",
  "4240": "inner",
  "4241": " [\"",
  "4242": " tw",
  "4243": "cd",
  "4244": "_state",
  "4245": " Sm",
  "4246": " Mark",
  "4247": "prot",
  "4248": " Mr",
  "4249": "method",
  "4250": "ustomer",
  "4251": "Icon",
  "4252": " correct",
  "4253": "(object",
  "4254": " More",
  "4255": " fall",
  "4256": " vol",
  "4257": " development",
  "4258": "ently",
  "4259": " si",
  "4260": "medi",
  "4261": "ving",
  "4262": "PP",
  "4263": "aker",
  "4264": " indu",
  "4265": " elif",
  "4266": " pret",
  "4267": " believe",
  "4268": "ns",
  "4269": "omet",
  "4270": " Intern",
  "4271": "Rect",
  "4272": "So",
  "4273": ".error",
  "4274": "Read",
  "4275": " features",
  "4276": " minutes",
  "4277": "---",
  "4278": "asing",
  "4279": "cret",
  "4280": ".annot",
  "4281": " collection",
  "4282": "'.",
  "4283": " similar",
  "4284": " taken",
  "4285": "(\"%",
  "4286": "Order",
  "4287": "-md",
  "4288": " TH",
  "4289": "aced",
  "4290": " isn",
  "4291": "/j",
  "4292": " son",
  "4293": "graph",
  "4294": " Integer",
  "4295": " necess",
  "4296": "reen",
  "4297": " um",
  "4298": " \\<",
  "4299": " moment",
  "4300": " bring",
  "4301": " indic",
  "4302": "ysis",
  "4303": "Level",
  "4304": "verse",
  "4305": "urrenc",
  "4306": "_test",
  "4307": " entire",
  "4308": "Down",
  "4309": "(result",
  "4310": " Read",
  "4311": "è",
  "4312": "Mod",
  "4313": " trying",
  "4314": " member",
  "4315": " Cor",
  "4316": "ODO",
  "4317": "-control",
  "4318": "untime",
  "4319": " Sim",
  "4320": "Dialog",
  "4321": "plot",
  "4322": "_on",
  "4323": " phys",
  "4324": "}/",
  "4325": " namespace",
  "4326": "\t\r\n",
  "4327": "acc",
  "4328": "Player",
  "4329": "ARE",
  "4330": " foot",
  "4331": " board",
  "4332": "part",
  "4333": " sus",
  "4334": "wise",
  "4335": " Mc",
  "4336": " push",
  "4337": "ATA",
  "4338": " please",
  "4339": "ried",
  "4340": "weet",
  "4341": "bit",
  "4342": "ided",
  "4343": "VE",
  "4344": " Sw",
  "4345": "UB",
  "4346": " types",
  "4347": "edia",
  "4348": " clos",
  "4349": "acebook",
  "4350": "When",
  "4351": " edit",
  "4352": "igger",
  "4353": " energ",
  "4354": "Container",
  "4355": " phot",
  "4356": " Count",
  "4357": " Europe",
  "4358": ".Is",
  "4359": " Russ",
  "4360": "peed",
  "4361": " Str",
  "4362": " py",
  "4363": " cult",
  "4364": " defined",
  "4365": "ccount",
  "4366": " obt",
  "4367": ".Location",
  "4368": " thread",
  "4369": "ille",
  "4370": " instead",
  "4371": "strong",
  "4372": " Sec",
  "4373": "URE",
  "4374": " idea",
  "4375": ".se",
  "4376": "emy",
  "4377": "selected",
  "4378": "Connection",
  "4379": "acing",
  "4380": "thread",
  "4381": ".next",
  "4382": " coll",
  "4383": " film",
  "4384": "istic",
  "4385": " compet",
  "4386": " conn",
  "4387": "though",
  "4388": " compan",
  "4389": "ocket",
  "4390": " teach",
  "4391": "=(",
  "4392": " phone",
  "4393": " active",
  "4394": "delete",
  "4395": "tries",
  "4396": " mo",
  "4397": " death",
  "4398": "ocol",
  "4399": "Widget",
  "4400": " article",
  "4401": "rodu",
  "4402": "andid",
  "4403": "ы",
  "4404": " Cr",
  "4405": "ka",
  "4406": "():",
  "4407": "lood",
  "4408": "\t\t\t\n",
  "4409": " almost",
  "4410": " sell",
  "4411": "ervlet",
  "4412": "rip",
  "4413": "Unit",
  "4414": " applic",
  "4415": " connect",
  "4416": " feature",
  "4417": " via",
  "4418": "'),",
  "4419": " lim",
  "4420": "                                               ",
  "4421": " Gu",
  "4422": "Engine",
  "4423": " ens",
  "4424": " environment",
  "4425": "block",
  "4426": "HERE",
  "4427": "NULL",
  "4428": "gy",
  "4429": "tag",
  "4430": ")).",
  "4431": "exp",
  "4432": " compl",
  "4433": " install",
  "4434": " complete",
  "4435": "queue",
  "4436": "atural",
  "4437": " general",
  "4438": "thon",
  "4439": " asked",
  "4440": "ores",
  "4441": "(res",
  "4442": " reserved",
  "4443": "SP",
  "4444": " …",
  "4445": "ł",
  "4446": " signific",
  "4447": "Off",
  "4448": "                             ",
  "4449": " Ag",
  "4450": " Just",
  "4451": " Error",
  "4452": " infl",
  "4453": "adata",
  "4454": " icon",
  "4455": "asks",
  "4456": "''",
  "4457": "_LO",
  "4458": "?.",
  "4459": "account",
  "4460": " (*",
  "4461": "rap",
  "4462": "_var",
  "4463": " FOR",
  "4464": " party",
  "4465": " Your",
  "4466": "cat",
  "4467": "stry",
  "4468": ".new",
  "4469": "boot",
  "4470": " Nov",
  "4471": " vector",
  "4472": " normal",
  "4473": " further",
  "4474": "Repository",
  "4475": " database",
  "4476": "attle",
  "4477": " music",
  "4478": " speed",
  "4479": " doc",
  "4480": "process",
  "4481": "IGHT",
  "4482": ".parse",
  "4483": " taking",
  "4484": " viol",
  "4485": "ceed",
  "4486": " After",
  "4487": " forward",
  "4488": " crit",
  "4489": "rot",
  "4490": " failed",
  "4491": "efore",
  "4492": " concern",
  "4493": "oe",
  "4494": "ba",
  "4495": " sender",
  "4496": " term",
  "4497": "has",
  "4498": "=\"#",
  "4499": " potential",
  "4500": "Num",
  "4501": " published",
  "4502": ".close",
  "4503": " Image",
  "4504": "straint",
  "4505": "UD",
  "4506": " Ob",
  "4507": " probably",
  "4508": "lim",
  "4509": "olume",
  "4510": " consum",
  "4511": "ague",
  "4512": "ensions",
  "4513": " investig",
  "4514": "-year",
  "4515": "');",
  "4516": "-sm",
  "4517": " enjoy",
  "4518": "orig",
  "4519": "ering",
  "4520": "cp",
  "4521": "leased",
  "4522": "plements",
  "4523": " returns",
  "4524": "pat",
  "4525": "BO",
  "4526": " House",
  "4527": ".Label",
  "4528": " weight",
  "4529": "ighb",
  "4530": " conditions",
  "4531": " exception",
  "4532": "description",
  "4533": " trad",
  "4534": "-to",
  "4535": " {}",
  "4536": " module",
  "4537": "END",
  "4538": ".ap",
  "4539": ".props",
  "4540": " constructor",
  "4541": "aves",
  "4542": " favor",
  "4543": " Now",
  "4544": ";i",
  "4545": " Main",
  "4546": "_k",
  "4547": "eries",
  "4548": "’ll",
  "4549": "transform",
  "4550": "imestamp",
  "4551": "Pre",
  "4552": " mer",
  "4553": ".res",
  "4554": "stant",
  "4555": "Location",
  "4556": "_NAME",
  "4557": " loss",
  "4558": " \n\n",
  "4559": "net",
  "4560": " engine",
  "4561": "Block",
  "4562": " issues",
  "4563": " parse",
  "4564": " Bar",
  "4565": " stay",
  "4566": " JSON",
  "4567": " dom",
  "4568": "airs",
  "4569": "wner",
  "4570": " lower",
  "4571": " Dem",
  "4572": "ufact",
  "4573": " ps",
  "4574": " perfect",
  "4575": "RL",
  "4576": " educ",
  "4577": "ls",
  "4578": "emory",
  "4579": "ARRANT",
  "4580": "uge",
  "4581": " exact",
  "4582": ".key",
  "4583": "alled",
  "4584": "ech",
  "4585": "ief",
  "4586": "\\/",
  "4587": "oke",
  "4588": " former",
  "4589": "alloc",
  "4590": " six",
  "4591": "ida",
  "4592": " margin",
  "4593": " heart",
  "4594": "ald",
  "4595": "pack",
  "4596": ".getElementById",
  "4597": " WARRANT",
  "4598": " rather",
  "4599": " building",
  "4600": "erman",
  "4601": "lice",
  "4602": " questions",
  "4603": "izes",
  "4604": "lege",
  "4605": "irectory",
  "4606": " je",
  "4607": " cas",
  "4608": "props",
  "4609": "utf",
  "4610": " security",
  "4611": " however",
  "4612": "weight",
  "4613": " inside",
  "4614": " president",
  "4615": "Char",
  "4616": " WITH",
  "4617": ".map",
  "4618": " graph",
  "4619": " tag",
  "4620": "_status",
  "4621": " attempt",
  "4622": "opp",
  "4623": "uses",
  "4624": "\tconst",
  "4625": " round",
  "4626": ",$",
  "4627": " friends",
  "4628": "Email",
  "4629": "?>",
  "4630": "Resource",
  "4631": "KEY",
  "4632": "osp",
  "4633": ".query",
  "4634": " North",
  "4635": "ables",
  "4636": "istrib",
  "4637": "_class",
  "4638": "ello",
  "4639": "That",
  "4640": "к",
  "4641": "pecially",
  "4642": " President",
  "4643": " campaign",
  "4644": " alt",
  "4645": "area",
  "4646": " chall",
  "4647": " opport",
  "4648": ".Con",
  "4649": " energy",
  "4650": "like",
  "4651": ".string",
  "4652": "ington",
  "4653": ")*",
  "4654": "yy",
  "4655": " profession",
  "4656": "irth",
  "4657": " seg",
  "4658": " hor",
  "4659": "iers",
  "4660": "can",
  "4661": " behind",
  "4662": "Product",
  "4663": "fg",
  "4664": " Sk",
  "4665": ".jpg",
  "4666": "?:",
  "4667": " callback",
  "4668": " Http",
  "4669": "ь",
  "4670": "long",
  "4671": "MS",
  "4672": "ATH",
  "4673": " raise",
  "4674": " wanted",
  "4675": "rown",
  "4676": "utor",
  "4677": "lt",
  "4678": "]=",
  "4679": "eline",
  "4680": "MA",
  "4681": " separ",
  "4682": "cs",
  "4683": "semb",
  "4684": "Dis",
  "4685": "bserv",
  "4686": " Will",
  "4687": " policy",
  "4688": " third",
  "4689": "phone",
  "4690": " bed",
  "4691": "/g",
  "4692": ".__",
  "4693": " Inc",
  "4694": "izing",
  "4695": ".remove",
  "4696": "instance",
  "4697": ".type",
  "4698": " serv",
  "4699": "Each",
  "4700": " har",
  "4701": " Message",
  "4702": "(key",
  "4703": "SELECT",
  "4704": "Pos",
  "4705": " recomm",
  "4706": " training",
  "4707": " Ent",
  "4708": " Char",
  "4709": "icht",
  "4710": "(file",
  "4711": " prior",
  "4712": "Game",
  "4713": " exit",
  "4714": "Params",
  "4715": ".core",
  "4716": "PC",
  "4717": "nes",
  "4718": "anced",
  "4719": "(request",
  "4720": "Password",
  "4721": " mag",
  "4722": " release",
  "4723": " shall",
  "4724": "udent",
  "4725": " South",
  "4726": "ando",
  "4727": ":'",
  "4728": ".TabIndex",
  "4729": "sk",
  "4730": "anner",
  "4731": "isset",
  "4732": " outside",
  "4733": "ledge",
  "4734": " Rob",
  "4735": " imm",
  "4736": " Web",
  "4737": "Des",
  "4738": "BC",
  "4739": "ancial",
  "4740": "Route",
  "4741": "Dec",
  "4742": "ferences",
  "4743": " purch",
  "4744": " Model",
  "4745": "ctor",
  "4746": "gn",
  "4747": "_start",
  "4748": "_un",
  "4749": ".*",
  "4750": "ises",
  "4751": " ground",
  "4752": " unique",
  "4753": " beaut",
  "4754": "{\"",
  "4755": " pour",
  "4756": " Oct",
  "4757": " tree",
  "4758": "sets",
  "4759": "_res",
  "4760": "')->",
  "4761": "_reg",
  "4762": "(\"\\",
  "4763": " byte",
  "4764": "Bl",
  "4765": " dating",
  "4766": " matter",
  "4767": " Rem",
  "4768": " '../",
  "4769": " Aug",
  "4770": " La",
  "4771": " $(",
  "4772": "ournal",
  "4773": "iam",
  "4774": " shows",
  "4775": "write",
  "4776": " ball",
  "4777": " simply",
  "4778": " fast",
  "4779": " memory",
  "4780": "ASS",
  "4781": " Of",
  "4782": "oved",
  "4783": "ante",
  "4784": "aul",
  "4785": "istry",
  "4786": " fit",
  "4787": "<string",
  "4788": " political",
  "4789": "ancel",
  "4790": "_.",
  "4791": "card",
  "4792": ".current",
  "4793": "och",
  "4794": "_image",
  "4795": "\\t",
  "4796": "(L",
  "4797": " industry",
  "4798": "coming",
  "4799": " extra",
  "4800": " reported",
  "4801": ".start",
  "4802": " resources",
  "4803": " img",
  "4804": "flow",
  "4805": "_EX",
  "4806": "(null",
  "4807": " Pre",
  "4808": " wrong",
  "4809": "interface",
  "4810": "Parameter",
  "4811": "ners",
  "4812": "�",
  "4813": "ture",
  "4814": "ersist",
  "4815": "ountry",
  "4816": " seems",
  "4817": "alance",
  "4818": "dest",
  "4819": "\tString",
  "4820": " maint",
  "4821": " unit",
  "4822": "acters",
  "4823": " TR",
  "4824": "iful",
  "4825": "exports",
  "4826": "project",
  "4827": "Application",
  "4828": "legate",
  "4829": " takes",
  "4830": "term",
  "4831": " etc",
  "4832": "uster",
  "4833": " appear",
  "4834": "address",
  "4835": " fem",
  "4836": "hs",
  "4837": " hom",
  "4838": ",-",
  "4839": " difficult",
  "4840": " coming",
  "4841": "Open",
  "4842": " settings",
  "4843": " War",
  "4844": " Then",
  "4845": " autom",
  "4846": " Foundation",
  "4847": " quite",
  "4848": "Description",
  "4849": " blog",
  "4850": "iqu",
  "4851": "PS",
  "4852": "_field",
  "4853": "Json",
  "4854": "SSION",
  "4855": " Sch",
  "4856": " LO",
  "4857": " descri",
  "4858": " everyone",
  "4859": " pretty",
  "4860": " longer",
  "4861": " menu",
  "4862": " currently",
  "4863": "sec",
  "4864": " relationship",
  "4865": "################################",
  "4866": " Map",
  "4867": "aset",
  "4868": " parameters",
  "4869": " crush",
  "4870": "ILITY",
  "4871": "igration",
  "4872": " cout",
  "4873": "total",
  "4874": " names",
  "4875": "ndef",
  "4876": "\");",
  "4877": "riend",
  "4878": "ynamic",
  "4879": " effort",
  "4880": " actual",
  "4881": " fields",
  "4882": "OUN",
  "4883": "ters",
  "4884": " fix",
  "4885": "_model",
  "4886": " cases",
  "4887": "CA",
  "4888": "My",
  "4889": "Interface",
  "4890": " SE",
  "4891": "]]",
  "4892": "alle",
  "4893": " National",
  "4894": " ArrayList",
  "4895": "inline",
  "4896": ".V",
  "4897": "ara",
  "4898": "refix",
  "4899": "asc",
  "4900": "Reader",
  "4901": " п",
  "4902": "astic",
  "4903": "(()",
  "4904": "Cl",
  "4905": ".annotation",
  "4906": " performance",
  "4907": "aily",
  "4908": ".toString",
  "4909": ".net",
  "4910": "views",
  "4911": ".end",
  "4912": "ayers",
  "4913": "late",
  "4914": " Apr",
  "4915": "ederal",
  "4916": "'])",
  "4917": ".body",
  "4918": " higher",
  "4919": "_fl",
  "4920": "cr",
  "4921": "alert",
  "4922": "_node",
  "4923": " Google",
  "4924": " itself",
  "4925": "Auth",
  "4926": "urrency",
  "4927": " significant",
  "4928": "append",
  "4929": " respect",
  "4930": "strap",
  "4931": " una",
  "4932": "riteria",
  "4933": "PORT",
  "4934": ".apache",
  "4935": "Output",
  "4936": " progress",
  "4937": " mid",
  "4938": " Microsoft",
  "4939": " resource",
  "4940": "ablish",
  "4941": " dim",
  "4942": ".load",
  "4943": ".App",
  "4944": " direction",
  "4945": " additional",
  "4946": "                        ",
  "4947": " numbers",
  "4948": " companies",
  "4949": ".Th",
  "4950": " sound",
  "4951": "username",
  "4952": " statement",
  "4953": " alert",
  "4954": " contract",
  "4955": "home",
  "4956": "_length",
  "4957": ".Component",
  "4958": "ev",
  "4959": ".Ex",
  "4960": "：",
  "4961": "\";",
  "4962": " High",
  "4963": " Point",
  "4964": "oph",
  "4965": " lines",
  "4966": "->_",
  "4967": "ox",
  "4968": "application",
  "4969": "\n\n\n\n\n\n",
  "4970": " soon",
  "4971": "ctions",
  "4972": "inger",
  "4973": " join",
  "4974": " Pe",
  "4975": " �",
  "4976": " las",
  "4977": ".E",
  "4978": "css",
  "4979": "/or",
  "4980": " Start",
  "4981": " TO",
  "4982": " subs",
  "4983": "conn",
  "4984": "components",
  "4985": "DEBUG",
  "4986": "quare",
  "4987": "Function",
  "4988": "endar",
  "4989": ".index",
  "4990": " fill",
  "4991": "ę",
  "4992": " choose",
  "4993": "how",
  "4994": " America",
  "4995": "assets",
  "4996": "------------",
  "4997": " Value",
  "4998": " office",
  "4999": " veh",
  "5000": " transform",
  "5001": " Art",
  "5002": " inde",
  "5003": " fn",
  "5004": " implements",
  "5005": "ango",
  "5006": "plete",
  "5007": "+\"",
  "5008": "tmp",
  "5009": "amily",
  "5010": " hash",
  "5011": "missions",
  "5012": "EST",
  "5013": "gt",
  "5014": "Provider",
  "5015": "                      ",
  "5016": " flag",
  "5017": " particip",
  "5018": "den",
  "5019": " Returns",
  "5020": " note",
  "5021": "ür",
  "5022": "pm",
  "5023": "ideos",
  "5024": " specified",
  "5025": " EN",
  "5026": "ester",
  "5027": "olid",
  "5028": " upon",
  "5029": "(std",
  "5030": "\tv",
  "5031": " '\\",
  "5032": "uz",
  "5033": " vert",
  "5034": " vict",
  "5035": "\tself",
  "5036": " \"$",
  "5037": ".k",
  "5038": " groups",
  "5039": "github",
  "5040": "lang",
  "5041": " mut",
  "5042": "TO",
  "5043": " ve",
  "5044": " Please",
  "5045": "access",
  "5046": " {\"",
  "5047": "rea",
  "5048": " risk",
  "5049": "icker",
  "5050": "oggle",
  "5051": "\twhile",
  "5052": "ANG",
  "5053": ".send",
  "5054": " woman",
  "5055": " gets",
  "5056": " ign",
  "5057": " Id",
  "5058": "_log",
  "5059": "ONE",
  "5060": " evid",
  "5061": " Har",
  "5062": "_sub",
  "5063": " endl",
  "5064": " included",
  "5065": " Ap",
  "5066": "igr",
  "5067": " sem",
  "5068": " Black",
  "5069": "doc",
  "5070": "_table",
  "5071": "                                                                ",
  "5072": "-up",
  "5073": " cause",
  "5074": " ..",
  "5075": " van",
  "5076": "_dict",
  "5077": " focus",
  "5078": "IND",
  "5079": "CESS",
  "5080": ".Log",
  "5081": " multiple",
  "5082": "ido",
  "5083": " regard",
  "5084": "-M",
  "5085": "andler",
  "5086": "ourse",
  "5087": " deg",
  "5088": ".U",
  "5089": " addition",
  "5090": " various",
  "5091": " receive",
  "5092": "ен",
  "5093": " HT",
  "5094": "Obj",
  "5095": "DF",
  "5096": " increase",
  "5097": " Open",
  "5098": "];",
  "5099": " commit",
  "5100": "ategories",
  "5101": "atory",
  "5102": "ship",
  "5103": " Mich",
  "5104": " html",
  "5105": "romise",
  "5106": " leave",
  "5107": " strateg",
  "5108": "aven",
  "5109": " Console",
  "5110": "known",
  "5111": "-n",
  "5112": "_LE",
  "5113": ".component",
  "5114": " bre",
  "5115": "Session",
  "5116": "iance",
  "5117": " align",
  "5118": "typedef",
  "5119": "_result",
  "5120": " WHERE",
  "5121": ".split",
  "5122": " reading",
  "5123": "FAULT",
  "5124": " clo",
  "5125": " notice",
  "5126": "_pr",
  "5127": "arter",
  "5128": " lock",
  "5129": " standard",
  "5130": "etic",
  "5131": "ellow",
  "5132": " padding",
  "5133": " His",
  "5134": " states",
  "5135": "_cast",
  "5136": "(P",
  "5137": "aa",
  "5138": " internal",
  "5139": "ean",
  "5140": " PRO",
  "5141": " Key",
  "5142": " especially",
  "5143": "ming",
  "5144": " cross",
  "5145": " national",
  "5146": "_object",
  "5147": "filter",
  "5148": " script",
  "5149": ".update",
  "5150": "_i",
  "5151": " Assert",
  "5152": "/core",
  "5153": "%%%%",
  "5154": " problems",
  "5155": "istor",
  "5156": " .=",
  "5157": " arch",
  "5158": " written",
  "5159": " milit",
  "5160": "MENT",
  "5161": ".ch",
  "5162": "cape",
  "5163": " Mus",
  "5164": "_config",
  "5165": " API",
  "5166": "foot",
  "5167": " images",
  "5168": "endl",
  "5169": ".In",
  "5170": "First",
  "5171": " platform",
  "5172": ".prot",
  "5173": "Option",
  "5174": "ste",
  "5175": " TODO",
  "5176": " force",
  "5177": ".cont",
  "5178": "\techo",
  "5179": " Dav",
  "5180": "Ptr",
  "5181": "(B",
  "5182": "RT",
  "5183": " Base",
  "5184": "]['",
  "5185": " announc",
  "5186": "console",
  "5187": " Py",
  "5188": "ds",
  "5189": ".as",
  "5190": " prevent",
  "5191": "apan",
  "5192": " {'",
  "5193": "}</",
  "5194": " Service",
  "5195": " Sen",
  "5196": "ador",
  "5197": "profile",
  "5198": "Top",
  "5199": " iter",
  "5200": "po",
  "5201": "IES",
  "5202": "JSON",
  "5203": "IE",
  "5204": "iant",
  "5205": "、",
  "5206": "_j",
  "5207": " Sept",
  "5208": "_map",
  "5209": "bum",
  "5210": "(context",
  "5211": " Home",
  "5212": "ians",
  "5213": "GB",
  "5214": " living",
  "5215": " pattern",
  "5216": "(input",
  "5217": "icient",
  "5218": "Core",
  "5219": " entity",
  "5220": " integ",
  "5221": "Changed",
  "5222": " useful",
  "5223": ".info",
  "5224": " tool",
  "5225": "(item",
  "5226": " ok",
  "5227": " feed",
  "5228": "IX",
  "5229": "és",
  "5230": " News",
  "5231": "remove",
  "5232": "erry",
  "5233": "\t\t\t\t\t\t\t\t\t",
  "5234": "ipment",
  "5235": "ares",
  "5236": "Do",
  "5237": "Current",
  "5238": ".content",
  "5239": ".Group",
  "5240": "ustral",
  "5241": " с",
  "5242": "})",
  "5243": " popular",
  "5244": " stre",
  "5245": " methods",
  "5246": "_ERROR",
  "5247": "Left",
  "5248": "cal",
  "5249": "bsp",
  "5250": ".ToString",
  "5251": " dir",
  "5252": " allowed",
  "5253": " impact",
  "5254": ".config",
  "5255": " elements",
  "5256": " prote",
  "5257": " train",
  "5258": ".tr",
  "5259": "rs",
  "5260": " Republic",
  "5261": " Task",
  "5262": "aries",
  "5263": "(D",
  "5264": "(get",
  "5265": " related",
  "5266": " vers",
  "5267": " sil",
  "5268": " cmd",
  "5269": " technology",
  "5270": ".width",
  "5271": "Float",
  "5272": " Use",
  "5273": "Body",
  "5274": "should",
  "5275": ".join",
  "5276": "Font",
  "5277": "llum",
  "5278": "ycle",
  "5279": " Brit",
  "5280": " mit",
  "5281": " scale",
  "5282": " (_",
  "5283": "ernel",
  "5284": " score",
  "5285": "/v",
  "5286": " student",
  "5287": "UC",
  "5288": ".show",
  "5289": " average",
  "5290": "Enabled",
  "5291": "(ex",
  "5292": "common",
  "5293": "imation",
  "5294": ":@\"",
  "5295": "chie",
  "5296": "river",
  "5297": " March",
  "5298": "category",
  "5299": "fin",
  "5300": " court",
  "5301": "в",
  "5302": "Server",
  "5303": " container",
  "5304": "-st",
  "5305": "_for",
  "5306": " parts",
  "5307": " decision",
  "5308": "obs",
  "5309": "oub",
  "5310": "mitted",
  "5311": " $('#",
  "5312": " saw",
  "5313": " approach",
  "5314": "ICE",
  "5315": " saying",
  "5316": " anyone",
  "5317": "meta",
  "5318": "SD",
  "5319": " song",
  "5320": "display",
  "5321": "Oper",
  "5322": "outes",
  "5323": " channel",
  "5324": " changed",
  "5325": "ê",
  "5326": " finally",
  "5327": "_number",
  "5328": "Please",
  "5329": "�",
  "5330": "oring",
  "5331": "-re",
  "5332": " kill",
  "5333": " drug",
  "5334": "window",
  "5335": " convert",
  "5336": "ombre",
  "5337": " ways",
  "5338": "Helper",
  "5339": " First",
  "5340": "(__",
  "5341": "urity",
  "5342": " Windows",
  "5343": "ees",
  "5344": " mat",
  "5345": "rapper",
  "5346": " plus",
  "5347": "anges",
  "5348": "\"].",
  "5349": "azon",
  "5350": "/t",
  "5351": "lat",
  "5352": "aste",
  "5353": " profile",
  "5354": " ready",
  "5355": "#ifndef",
  "5356": "rote",
  "5357": " sense",
  "5358": "Gener",
  "5359": " Config",
  "5360": "omy",
  "5361": " June",
  "5362": " latest",
  "5363": " saf",
  "5364": " region",
  "5365": " deep",
  "5366": "witch",
  "5367": " Park",
  "5368": "}`",
  "5369": " From",
  "5370": "II",
  "5371": " cv",
  "5372": " reach",
  "5373": " counter",
  "5374": " Work",
  "5375": " URL",
  "5376": " Update",
  "5377": " immedi",
  "5378": "close",
  "5379": "ados",
  "5380": "ferred",
  "5381": " weeks",
  "5382": "urg",
  "5383": " damage",
  "5384": " lost",
  "5385": "ani",
  "5386": "_lo",
  "5387": " himself",
  "5388": " dog",
  "5389": "�",
  "5390": "pir",
  "5391": "tt",
  "5392": " paper",
  "5393": " thems",
  "5394": "second",
  "5395": " staff",
  "5396": " Input",
  "5397": "\"+",
  "5398": " Facebook",
  "5399": " alloc",
  "5400": " sched",
  "5401": "ACE",
  "5402": " themselves",
  "5403": " Component",
  "5404": " driver",
  "5405": "ja",
  "5406": "(path",
  "5407": " category",
  "5408": "alls",
  "5409": "pu",
  "5410": "lluminate",
  "5411": " Action",
  "5412": ".button",
  "5413": " GL",
  "5414": "istics",
  "5415": " oil",
  "5416": " stock",
  "5417": ">'",
  "5418": " dead",
  "5419": "VAL",
  "5420": "QUE",
  "5421": "************************************************************************",
  "5422": " charg",
  "5423": "Return",
  "5424": " ful",
  "5425": "dom",
  "5426": " rules",
  "5427": " modify",
  "5428": " eval",
  "5429": "ham",
  "5430": "atement",
  "5431": "\\<",
  "5432": "ula",
  "5433": "=False",
  "5434": "RA",
  "5435": " contains",
  "5436": " stack",
  "5437": "mar",
  "5438": " undefined",
  "5439": "Ass",
  "5440": " China",
  "5441": "vey",
  "5442": " playing",
  "5443": ")/",
  "5444": "actor",
  "5445": " bottom",
  "5446": "lier",
  "5447": " Number",
  "5448": " couple",
  "5449": "DC",
  "5450": " SO",
  "5451": "gor",
  "5452": ".setText",
  "5453": "success",
  "5454": "command",
  "5455": "Filter",
  "5456": " Our",
  "5457": "_item",
  "5458": " ctx",
  "5459": " road",
  "5460": "Version",
  "5461": "case",
  "5462": "urt",
  "5463": "avior",
  "5464": "ych",
  "5465": "sembly",
  "5466": " Product",
  "5467": " held",
  "5468": "afe",
  "5469": " includes",
  "5470": "<quote",
  "5471": " avoid",
  "5472": " Fin",
  "5473": " Mod",
  "5474": " tab",
  "5475": "ano",
  "5476": "ñ",
  "5477": "ipping",
  "5478": "-e",
  "5479": " insert",
  "5480": "target",
  "5481": "chan",
  "5482": ".Model",
  "5483": "IME",
  "5484": " machine",
  "5485": "avy",
  "5486": " NO",
  "5487": " Inter",
  "5488": " operation",
  "5489": "modal",
  "5490": "Tag",
  "5491": "]:",
  "5492": " production",
  "5493": " areas",
  "5494": " ren",
  "5495": "_from",
  "5496": "nbsp",
  "5497": " operator",
  "5498": "men",
  "5499": "apped",
  "5500": "_per",
  "5501": "zen",
  "5502": "(\".",
  "5503": ".save",
  "5504": "=\"{{",
  "5505": " tor",
  "5506": "(response",
  "5507": " candid",
  "5508": " conv",
  "5509": "ailed",
  "5510": " Lib",
  "5511": "comp",
  "5512": "ura",
  "5513": "�",
  "5514": " Here",
  "5515": " argument",
  "5516": "hood",
  "5517": " establish",
  "5518": "ography",
  "5519": " onClick",
  "5520": "ambda",
  "5521": " sch",
  "5522": " movie",
  "5523": " sec",
  "5524": " activity",
  "5525": "ا",
  "5526": " sql",
  "5527": "_all",
  "5528": "incip",
  "5529": " provides",
  "5530": " sys",
  "5531": "acket",
  "5532": " wasn",
  "5533": " uses",
  "5534": " Function",
  "5535": ".google",
  "5536": " Result",
  "5537": "Visible",
  "5538": "agma",
  "5539": "elcome",
  "5540": " Sy",
  "5541": " Cent",
  "5542": "ALSE",
  "5543": "ación",
  "5544": "EXT",
  "5545": " license",
  "5546": " Long",
  "5547": " accom",
  "5548": " ability",
  "5549": ".height",
  "5550": "Active",
  "5551": "ological",
  "5552": "oly",
  "5553": ")),",
  "5554": ".Se",
  "5555": " parameter",
  "5556": "prite",
  "5557": "ABILITY",
  "5558": ".service",
  "5559": " Group",
  "5560": "_query",
  "5561": " Item",
  "5562": "ining",
  "5563": " jud",
  "5564": "ims",
  "5565": "fix",
  "5566": "inder",
  "5567": "agram",
  "5568": " functions",
  "5569": " experi",
  "5570": " Em",
  "5571": " rot",
  "5572": " pen",
  "5573": ".btn",
  "5574": " AS",
  "5575": "#ifdef",
  "5576": " choice",
  "5577": " Page",
  "5578": "_PRO",
  "5579": "QU",
  "5580": "antity",
  "5581": "­",
  "5582": "words",
  "5583": " readonly",
  "5584": " flex",
  "5585": "protected",
  "5586": " Any",
  "5587": " characters",
  "5588": "enced",
  "5589": " July",
  "5590": "iler",
  "5591": "Card",
  "5592": "urance",
  "5593": " rev",
  "5594": ".event",
  "5595": "aly",
  "5596": " wonder",
  "5597": " Port",
  "5598": " legal",
  "5599": "role",
  "5600": " ten",
  "5601": " goes",
  "5602": "MP",
  "5603": "white",
  "5604": " reference",
  "5605": " mis",
  "5606": " Project",
  "5607": "icks",
  "5608": ">&",
  "5609": "CON",
  "5610": " repl",
  "5611": " regular",
  "5612": "Storage",
  "5613": "ramework",
  "5614": " goal",
  "5615": " touch",
  "5616": ".widget",
  "5617": " built",
  "5618": "des",
  "5619": "Part",
  "5620": "(re",
  "5621": " worth",
  "5622": "hib",
  "5623": "game",
  "5624": " в",
  "5625": "acion",
  "5626": " White",
  "5627": "(type",
  "5628": "(`",
  "5629": " natural",
  "5630": " inj",
  "5631": " calcul",
  "5632": " April",
  "5633": ".List",
  "5634": " associated",
  "5635": "\tSystem",
  "5636": "~~",
  "5637": "=[",
  "5638": " storage",
  "5639": " bytes",
  "5640": " travel",
  "5641": " sou",
  "5642": " passed",
  "5643": "!=",
  "5644": "ascript",
  "5645": ".open",
  "5646": " grid",
  "5647": " bus",
  "5648": " recogn",
  "5649": "Ab",
  "5650": " hon",
  "5651": " Center",
  "5652": " prec",
  "5653": "build",
  "5654": "HTML",
  "5655": " San",
  "5656": " countries",
  "5657": "aled",
  "5658": "token",
  "5659": "kt",
  "5660": " qual",
  "5661": "Last",
  "5662": "adow",
  "5663": " manufact",
  "5664": "idad",
  "5665": "jango",
  "5666": "Next",
  "5667": "xf",
  "5668": ".a",
  "5669": " porno",
  "5670": " PM",
  "5671": "erve",
  "5672": "iting",
  "5673": "_th",
  "5674": "ci",
  "5675": "=None",
  "5676": "gs",
  "5677": " login",
  "5678": "atives",
  "5679": "ą",
  "5680": " ill",
  "5681": "IA",
  "5682": "children",
  "5683": "DO",
  "5684": " levels",
  "5685": " {{",
  "5686": " looks",
  "5687": " \"#",
  "5688": "ToString",
  "5689": " necessary",
  "5690": "   \n",
  "5691": "cell",
  "5692": "Entry",
  "5693": " '#",
  "5694": " extrem",
  "5695": "Selector",
  "5696": " placeholder",
  "5697": "Load",
  "5698": " released",
  "5699": "ORE",
  "5700": "Enumer",
  "5701": " TV",
  "5702": "SET",
  "5703": "inq",
  "5704": "Press",
  "5705": " Department",
  "5706": " properties",
  "5707": " respond",
  "5708": "Search",
  "5709": "ael",
  "5710": " requ",
  "5711": " Book",
  "5712": "(st",
  "5713": " financial",
  "5714": "icket",
  "5715": "_input",
  "5716": " threat",
  "5717": "(in",
  "5718": "Strip",
  "5719": "�",
  "5720": "ção",
  "5721": " evidence",
  "5722": "));",
  "5723": " Bro",
  "5724": " ou",
  "5725": "buf",
  "5726": "Script",
  "5727": "dat",
  "5728": " rule",
  "5729": "#import",
  "5730": "=\"/",
  "5731": "Serial",
  "5732": " starting",
  "5733": "[index",
  "5734": "ae",
  "5735": " contrib",
  "5736": "session",
  "5737": "_new",
  "5738": "utable",
  "5739": "ober",
  "5740": " \"./",
  "5741": " logger",
  "5742": " recently",
  "5743": " returned",
  "5744": "\r\r\n",
  "5745": "itions",
  "5746": " seek",
  "5747": " communic",
  "5748": " \".",
  "5749": " username",
  "5750": "ECT",
  "5751": "DS",
  "5752": " otherwise",
  "5753": " German",
  "5754": ".aw",
  "5755": "Adapter",
  "5756": "ixel",
  "5757": " systems",
  "5758": " drop",
  "5759": " structure",
  "5760": " $(\"#",
  "5761": "encies",
  "5762": "anning",
  "5763": " Link",
  "5764": " Response",
  "5765": " stri",
  "5766": "ż",
  "5767": " DB",
  "5768": "android",
  "5769": "submit",
  "5770": "otion",
  "5771": "(@",
  "5772": ".test",
  "5773": "\n\n\n\n\n\n\n\n",
  "5774": " directly",
  "5775": " \"%",
  "5776": "ris",
  "5777": "elta",
  "5778": "AIL",
  "5779": "mine",
  "5780": "                          ",
  "5781": "(k",
  "5782": "bon",
  "5783": "asic",
  "5784": "pite",
  "5785": "___",
  "5786": "Max",
  "5787": " errors",
  "5788": " While",
  "5789": " arguments",
  "5790": " ensure",
  "5791": "Right",
  "5792": "-based",
  "5793": "Web",
  "5794": " -=",
  "5795": " introdu",
  "5796": " Inst",
  "5797": " Wash",
  "5798": "ordin",
  "5799": "join",
  "5800": "Database",
  "5801": " grad",
  "5802": " usually",
  "5803": "ITE",
  "5804": "Props",
  "5805": " Go",
  "5806": "@Override",
  "5807": "REF",
  "5808": " ip",
  "5809": " Austral",
  "5810": " ist",
  "5811": "ViewById",
  "5812": " serious",
  "5813": " customer",
  "5814": ".prototype",
  "5815": "odo",
  "5816": "cor",
  "5817": " door",
  "5818": " WITHOUT",
  "5819": " plant",
  "5820": " began",
  "5821": " distance",
  "5822": "()).",
  "5823": " chance",
  "5824": " ord",
  "5825": "came",
  "5826": "pragma",
  "5827": " protect",
  "5828": "ragment",
  "5829": " Node",
  "5830": "ening",
  "5831": "ч",
  "5832": " route",
  "5833": " School",
  "5834": "hi",
  "5835": " neighb",
  "5836": "After",
  "5837": "licit",
  "5838": " contr",
  "5839": " primary",
  "5840": "AA",
  "5841": ".WriteLine",
  "5842": "utils",
  "5843": " bi",
  "5844": "Red",
  "5845": ".Linq",
  "5846": ".object",
  "5847": " leaders",
  "5848": "unities",
  "5849": " gun",
  "5850": "onth",
  "5851": " Dev",
  "5852": "FILE",
  "5853": " comments",
  "5854": "_len",
  "5855": "arrow",
  "5856": "amount",
  "5857": "Range",
  "5858": "sert",
  "5859": "GridView",
  "5860": " updated",
  "5861": " Mo",
  "5862": " inform",
  "5863": "ociety",
  "5864": "ala",
  "5865": "Access",
  "5866": " hab",
  "5867": " creat",
  "5868": "_arg",
  "5869": " January",
  "5870": " Day",
  "5871": "uple",
  "5872": "document",
  "5873": "gorith",
  "5874": "menu",
  "5875": " Over",
  "5876": "bb",
  "5877": ".title",
  "5878": "_out",
  "5879": " led",
  "5880": "uri",
  "5881": " ?></",
  "5882": "gl",
  "5883": " bank",
  "5884": "ayment",
  "5885": "\tprintf",
  "5886": "MD",
  "5887": " sample",
  "5888": " hands",
  "5889": " Version",
  "5890": "uario",
  "5891": " offers",
  "5892": "ityEngine",
  "5893": " shape",
  "5894": " sleep",
  "5895": "_point",
  "5896": "Settings",
  "5897": " achie",
  "5898": " sold",
  "5899": "ota",
  "5900": ".bind",
  "5901": "Am",
  "5902": " safe",
  "5903": "Store",
  "5904": " shared",
  "5905": " priv",
  "5906": "_VAL",
  "5907": " sens",
  "5908": "){",
  "5909": " remember",
  "5910": "shared",
  "5911": "element",
  "5912": " shoot",
  "5913": "Vert",
  "5914": "cout",
  "5915": " env",
  "5916": "_label",
  "5917": "run",
  "5918": " scene",
  "5919": "(array",
  "5920": "device",
  "5921": "_title",
  "5922": "agon",
  "5923": "aby",
  "5924": " became",
  "5925": "boolean",
  "5926": " park",
  "5927": " Code",
  "5928": "upload",
  "5929": "riday",
  "5930": " September",
  "5931": "Fe",
  "5932": " sen",
  "5933": "cing",
  "5934": "FL",
  "5935": "Col",
  "5936": "uts",
  "5937": "_page",
  "5938": "inn",
  "5939": " implied",
  "5940": "aling",
  "5941": " yourself",
  "5942": ".Count",
  "5943": "conf",
  "5944": " aud",
  "5945": "_init",
  "5946": ".)",
  "5947": " wrote",
  "5948": "NG",
  "5949": ".Error",
  "5950": ".for",
  "5951": " equal",
  "5952": " Request",
  "5953": " serial",
  "5954": " allows",
  "5955": "XX",
  "5956": " middle",
  "5957": "chor",
  "5958": "ø",
  "5959": "erval",
  "5960": ".Column",
  "5961": "reading",
  "5962": " escort",
  "5963": " August",
  "5964": " quickly",
  "5965": " weap",
  "5966": " CG",
  "5967": "ropri",
  "5968": "ho",
  "5969": " cop",
  "5970": "(struct",
  "5971": " Big",
  "5972": " vs",
  "5973": " frequ",
  "5974": ".Value",
  "5975": " actions",
  "5976": " proper",
  "5977": " inn",
  "5978": " objects",
  "5979": " matrix",
  "5980": "avascript",
  "5981": " ones",
  "5982": ".group",
  "5983": " green",
  "5984": " paint",
  "5985": "ools",
  "5986": "ycl",
  "5987": "encode",
  "5988": "olt",
  "5989": "comment",
  "5990": ".api",
  "5991": "Dir",
  "5992": " une",
  "5993": "izont",
  "5994": ".position",
  "5995": " designed",
  "5996": "_val",
  "5997": "avi",
  "5998": "iring",
  "5999": "tab",
  "6000": " layer",
  "6001": " views",
  "6002": " reve",
  "6003": "rael",
  "6004": " ON",
  "6005": "rics",
  "6006": "np",
  "6007": " core",
  "6008": "Main",
  "6009": " expert",
  "6010": "\t\t\r\n",
  "6011": "_en",
  "6012": " />",
  "6013": "utter",
  "6014": "IAL",
  "6015": "ails",
  "6016": " King",
  "6017": " Met",
  "6018": "_end",
  "6019": "addr",
  "6020": "ora",
  "6021": " ir",
  "6022": "Min",
  "6023": " surpr",
  "6024": " repe",
  "6025": " directory",
  "6026": "PUT",
  "6027": "-S",
  "6028": " election",
  "6029": "haps",
  "6030": ".pre",
  "6031": "cm",
  "6032": "Values",
  "6033": "column",
  "6034": "ivil",
  "6035": "Login",
  "6036": "inue",
  "6037": " beautiful",
  "6038": " secret",
  "6039": "(event",
  "6040": " chat",
  "6041": "ums",
  "6042": " origin",
  "6043": " effects",
  "6044": " management",
  "6045": "illa",
  "6046": "tk",
  "6047": " setting",
  "6048": " Cour",
  "6049": " massage",
  "6050": "\tend",
  "6051": " happy",
  "6052": " finish",
  "6053": " camera",
  "6054": " Ver",
  "6055": " Democr",
  "6056": " Her",
  "6057": "(Q",
  "6058": "cons",
  "6059": "ita",
  "6060": " '.",
  "6061": "{}",
  "6062": "\tC",
  "6063": " stuff",
  "6064": " AR",
  "6065": "Task",
  "6066": "hidden",
  "6067": "eros",
  "6068": "IGN",
  "6069": "atio",
  "6070": " Health",
  "6071": "olute",
  "6072": "Enter",
  "6073": "'>",
  "6074": " Twitter",
  "6075": " County",
  "6076": "scribe",
  "6077": " hy",
  "6078": "fit",
  "6079": " military",
  "6080": " sale",
  "6081": "required",
  "6082": "non",
  "6083": "bootstrap",
  "6084": "hold",
  "6085": "rim",
  "6086": "-old",
  "6087": " Down",
  "6088": " mention",
  "6089": "contact",
  "6090": "_group",
  "6091": "oday",
  "6092": " town",
  "6093": " solution",
  "6094": "uate",
  "6095": "elling",
  "6096": "]->",
  "6097": "otes",
  "6098": "ental",
  "6099": "omen",
  "6100": "ospital",
  "6101": " Sup",
  "6102": "_EN",
  "6103": " slow",
  "6104": "SESSION",
  "6105": " blue",
  "6106": "ago",
  "6107": " lives",
  "6108": " ^",
  "6109": ".un",
  "6110": "inst",
  "6111": "enge",
  "6112": " customers",
  "6113": " cast",
  "6114": "udget",
  "6115": "！",
  "6116": "icens",
  "6117": " determin",
  "6118": "Selected",
  "6119": "_pl",
  "6120": "ueue",
  "6121": " dark",
  "6122": "si",
  "6123": "thern",
  "6124": " Japan",
  "6125": "/w",
  "6126": "PU",
  "6127": " East",
  "6128": "ovie",
  "6129": " package",
  "6130": " nor",
  "6131": " api",
  "6132": "bot",
  "6133": "_post",
  "6134": "ulate",
  "6135": " club",
  "6136": " loop",
  "6137": "PIO",
  "6138": "ione",
  "6139": "shot",
  "6140": "Initial",
  "6141": " played",
  "6142": "register",
  "6143": "rought",
  "6144": "_max",
  "6145": "acement",
  "6146": "match",
  "6147": "raphics",
  "6148": "AST",
  "6149": " existing",
  "6150": " complex",
  "6151": "DA",
  "6152": ".Ch",
  "6153": ".common",
  "6154": "mo",
  "6155": " '../../",
  "6156": "ito",
  "6157": " analysis",
  "6158": " deliver",
  "6159": "                \n",
  "6160": "idx",
  "6161": "à",
  "6162": "ongo",
  "6163": " English",
  "6164": "<!--",
  "6165": " computer",
  "6166": "ENSE",
  "6167": " pas",
  "6168": " rais",
  "6169": "Hash",
  "6170": " mobile",
  "6171": " owner",
  "6172": "FIG",
  "6173": "                                                   ",
  "6174": "thes",
  "6175": " attr",
  "6176": "wd",
  "6177": ".time",
  "6178": "awn",
  "6179": " treatment",
  "6180": " Ac",
  "6181": ".View",
  "6182": "impl",
  "6183": "more",
  "6184": "pass",
  "6185": " ha",
  "6186": ".from",
  "6187": " leading",
  "6188": "FFFF",
  "6189": "(error",
  "6190": ".ui",
  "6191": "atar",
  "6192": "aders",
  "6193": "dates",
  "6194": " zu",
  "6195": " flow",
  "6196": "Target",
  "6197": " involved",
  "6198": " io",
  "6199": "parse",
  "6200": "$_",
  "6201": "hest",
  "6202": ".int",
  "6203": "-item",
  "6204": "asy",
  "6205": "Sp",
  "6206": " shift",
  "6207": "NT",
  "6208": " tf",
  "6209": "_TR",
  "6210": ".web",
  "6211": "CS",
  "6212": " })",
  "6213": " eyes",
  "6214": "_z",
  "6215": "iforn",
  "6216": " {@",
  "6217": " nice",
  "6218": ".list",
  "6219": "    \r\n",
  "6220": " floor",
  "6221": " redirect",
  "6222": " UK",
  "6223": "(['",
  "6224": " wish",
  "6225": " capt",
  "6226": "legal",
  "6227": " IO",
  "6228": " stage",
  "6229": ".String",
  "6230": " Afr",
  "6231": "igen",
  "6232": " SH",
  "6233": "Delete",
  "6234": "ells",
  "6235": " solid",
  "6236": " meeting",
  "6237": " worked",
  "6238": " editor",
  "6239": "iny",
  "6240": "м",
  "6241": "_read",
  "6242": ".Id",
  "6243": "eff",
  "6244": "Offset",
  "6245": "cha",
  "6246": "USER",
  "6247": "\t\t   ",
  "6248": "ipped",
  "6249": " dict",
  "6250": " Run",
  "6251": ".hpp",
  "6252": " ang",
  "6253": "xml",
  "6254": "imple",
  "6255": " medical",
  "6256": "_token",
  "6257": "connect",
  "6258": " hour",
  "6259": " controller",
  "6260": "_message",
  "6261": "UID",
  "6262": "Gr",
  "6263": "anded",
  "6264": "_CH",
  "6265": " books",
  "6266": " speak",
  "6267": "aming",
  "6268": " mount",
  "6269": "Record",
  "6270": "\tstruct",
  "6271": ".Web",
  "6272": "ondon",
  "6273": " felt",
  "6274": ".Auto",
  "6275": "idge",
  "6276": "_pos",
  "6277": "PR",
  "6278": " modern",
  "6279": "Collection",
  "6280": "_msg",
  "6281": "CD",
  "6282": " Lo",
  "6283": " seconds",
  "6284": "ibly",
  "6285": ".equals",
  "6286": " international",
  "6287": "#pragma",
  "6288": "ooth",
  "6289": "Writer",
  "6290": "iate",
  "6291": " cele",
  "6292": " Bit",
  "6293": "ivo",
  "6294": "ivery",
  "6295": "rd",
  "6296": "HECK",
  "6297": " cache",
  "6298": ".count",
  "6299": " roll",
  "6300": ".Read",
  "6301": "RED",
  "6302": " setup",
  "6303": "izontal",
  "6304": "models",
  "6305": "argv",
  "6306": " considered",
  "6307": "=\"../",
  "6308": "settings",
  "6309": " Rel",
  "6310": " growth",
  "6311": " mix",
  "6312": " Washington",
  "6313": " plt",
  "6314": " IM",
  "6315": "�",
  "6316": " turned",
  "6317": " DateTime",
  "6318": " Wed",
  "6319": "(url",
  "6320": " \"-",
  "6321": " letter",
  "6322": "Async",
  "6323": "                            ",
  "6324": " October",
  "6325": "_line",
  "6326": " attention",
  "6327": " collect",
  "6328": " Hash",
  "6329": " imag",
  "6330": "Tree",
  "6331": " situation",
  "6332": "ette",
  "6333": "_no",
  "6334": "IVE",
  "6335": " von",
  "6336": ".target",
  "6337": " knowledge",
  "6338": " drive",
  "6339": ".post",
  "6340": " blood",
  "6341": " cit",
  "6342": "primary",
  "6343": " configuration",
  "6344": "tee",
  "6345": " photo",
  "6346": "isode",
  "6347": "Trace",
  "6348": " gave",
  "6349": " shot",
  "6350": " Air",
  "6351": " mother",
  "6352": "price",
  "6353": " morning",
  "6354": "-x",
  "6355": " trade",
  "6356": " desc",
  "6357": " parents",
  "6358": "Api",
  "6359": "ted",
  "6360": "wer",
  "6361": " sy",
  "6362": " Ke",
  "6363": "Parser",
  "6364": "ancy",
  "6365": " piece",
  "6366": "ifornia",
  "6367": "toString",
  "6368": "ran",
  "6369": "iding",
  "6370": "PTION",
  "6371": "comes",
  "6372": "/lic",
  "6373": ".client",
  "6374": "El",
  "6375": "Long",
  "6376": " professional",
  "6377": "rupt",
  "6378": "va",
  "6379": " completely",
  "6380": " practice",
  "6381": " selection",
  "6382": "Rem",
  "6383": "ini",
  "6384": " cam",
  "6385": "REE",
  "6386": " sites",
  "6387": "pa",
  "6388": "ATUS",
  "6389": "ст",
  "6390": "arrant",
  "6391": "*(",
  "6392": "_KEY",
  "6393": " Button",
  "6394": " Friday",
  "6395": "sequ",
  "6396": " reader",
  "6397": " messages",
  "6398": " buf",
  "6399": "Ke",
  "6400": " nov",
  "6401": "HP",
  "6402": "Msg",
  "6403": "align",
  "6404": "arily",
  "6405": " ',",
  "6406": "_with",
  "6407": " das",
  "6408": " heard",
  "6409": "atomic",
  "6410": "rial",
  "6411": ")[",
  "6412": " dise",
  "6413": "@end",
  "6414": " gold",
  "6415": " fair",
  "6416": " sales",
  "6417": ".Button",
  "6418": "strict",
  "6419": "save",
  "6420": " measure",
  "6421": " \"+",
  "6422": "ecause",
  "6423": "ViewController",
  "6424": " Table",
  "6425": ".param",
  "6426": " decided",
  "6427": "(((",
  "6428": "INFO",
  "6429": " opportunity",
  "6430": "Te",
  "6431": "ICENSE",
  "6432": "ccording",
  "6433": "ki",
  "6434": " UN",
  "6435": " contain",
  "6436": " manager",
  "6437": " pain",
  "6438": " Fire",
  "6439": "rome",
  "6440": " plans",
  "6441": "Found",
  "6442": "lay",
  "6443": " December",
  "6444": " influ",
  "6445": "ú",
  "6446": "rench",
  "6447": "                                 ",
  "6448": "azing",
  "6449": "brief",
  "6450": "call",
  "6451": "wood",
  "6452": " loaded",
  "6453": " grand",
  "6454": "/f",
  "6455": "imp",
  "6456": "_U",
  "6457": "STR",
  "6458": "•",
  "6459": " credit",
  "6460": ".Color",
  "6461": "orge",
  "6462": "QUEST",
  "6463": " difference",
  "6464": " PC",
  "6465": "wargs",
  "6466": " pub",
  "6467": "unday",
  "6468": " fra",
  "6469": ".max",
  "6470": " tried",
  "6471": "annels",
  "6472": "send",
  "6473": " reports",
  "6474": " adult",
  "6475": " consist",
  "6476": " Street",
  "6477": " Program",
  "6478": "SQL",
  "6479": "Matrix",
  "6480": "ouncil",
  "6481": "-A",
  "6482": "\tw",
  "6483": " whose",
  "6484": " relig",
  "6485": " Sex",
  "6486": " gives",
  "6487": "none",
  "6488": ".message",
  "6489": "(G",
  "6490": ".awt",
  "6491": "-right",
  "6492": " November",
  "6493": "ellig",
  "6494": "utive",
  "6495": "ă",
  "6496": "overn",
  "6497": " easily",
  "6498": " ideas",
  "6499": " н",
  "6500": "/css",
  "6501": "lying",
  "6502": "elle",
  "6503": "Can",
  "6504": "_color",
  "6505": " pair",
  "6506": "ngth",
  "6507": " split",
  "6508": "drop",
  "6509": "arty",
  "6510": "ona",
  "6511": " capital",
  "6512": " hear",
  "6513": " exists",
  "6514": "\tlog",
  "6515": "emo",
  "6516": "Run",
  "6517": "oi",
  "6518": " parser",
  "6519": " Method",
  "6520": " education",
  "6521": "[k",
  "6522": " library",
  "6523": "_UN",
  "6524": "\tstd",
  "6525": "oded",
  "6526": " calls",
  "6527": "here",
  "6528": "Rel",
  "6529": " brand",
  "6530": "background",
  "6531": "ga",
  "6532": "_address",
  "6533": "_params",
  "6534": "Category",
  "6535": " India",
  "6536": "_event",
  "6537": " ing",
  "6538": "Render",
  "6539": ".cl",
  "6540": "umpy",
  "6541": " pet",
  "6542": "FC",
  "6543": " Ant",
  "6544": "Ext",
  "6545": " charge",
  "6546": "ened",
  "6547": "grad",
  "6548": "EO",
  "6549": " depend",
  "6550": "frame",
  "6551": " df",
  "6552": " huge",
  "6553": " PART",
  "6554": "eds",
  "6555": ";;",
  "6556": " AM",
  "6557": " basic",
  "6558": " Let",
  "6559": "lich",
  "6560": " arm",
  "6561": " star",
  "6562": " federal",
  "6563": "Work",
  "6564": " carry",
  "6565": " Israel",
  "6566": "(obj",
  "6567": "={{",
  "6568": " saved",
  "6569": " syn",
  "6570": " constant",
  "6571": "VENT",
  "6572": " positive",
  "6573": " conduct",
  "6574": " skin",
  "6575": " earlier",
  "6576": " layout",
  "6577": " IP",
  "6578": "OUR",
  "6579": " tim",
  "6580": "stylesheet",
  "6581": "_cl",
  "6582": " Card",
  "6583": " temper",
  "6584": " David",
  "6585": "\ttry",
  "6586": ".dart",
  "6587": " wants",
  "6588": " picture",
  "6589": " videos",
  "6590": " Comm",
  "6591": "isions",
  "6592": "_MAX",
  "6593": "Mapping",
  "6594": "-content",
  "6595": " Ear",
  "6596": "-de",
  "6597": " prem",
  "6598": "bruary",
  "6599": " components",
  "6600": " throughout",
  "6601": " pull",
  "6602": " pages",
  "6603": "ente",
  "6604": "respond",
  "6605": " gas",
  "6606": "criptor",
  "6607": " edge",
  "6608": " bound",
  "6609": "ACT",
  "6610": "******",
  "6611": " creating",
  "6612": " CH",
  "6613": " nullptr",
  "6614": "Br",
  "6615": "+'",
  "6616": ".co",
  "6617": ">::",
  "6618": " learning",
  "6619": ".Length",
  "6620": "_SH",
  "6621": " patients",
  "6622": "AIN",
  "6623": " kids",
  "6624": " comfort",
  "6625": " shown",
  "6626": "ugins",
  "6627": " Back",
  "6628": "ella",
  "6629": "_CL",
  "6630": " lat",
  "6631": " dispatch",
  "6632": " classes",
  "6633": ".at",
  "6634": ".begin",
  "6635": " successful",
  "6636": "ban",
  "6637": " obtain",
  "6638": " Sl",
  "6639": " lack",
  "6640": "iterator",
  "6641": "Thread",
  "6642": "(size",
  "6643": " none",
  "6644": ".has",
  "6645": "_X",
  "6646": "sort",
  "6647": "nap",
  "6648": "pet",
  "6649": "bin",
  "6650": " Canada",
  "6651": "They",
  "6652": " dans",
  "6653": " Mat",
  "6654": "<td",
  "6655": " hair",
  "6656": " cu",
  "6657": " laws",
  "6658": "leted",
  "6659": "ped",
  "6660": " pow",
  "6661": " knew",
  "6662": "_COM",
  "6663": "_,",
  "6664": " Mag",
  "6665": "idents",
  "6666": "(req",
  "6667": " ),",
  "6668": "-center",
  "6669": " wide",
  "6670": " Author",
  "6671": "stants",
  "6672": " jobs",
  "6673": " math",
  "6674": "etimes",
  "6675": "Boolean",
  "6676": " scope",
  "6677": "_is",
  "6678": " meas",
  "6679": " keys",
  "6680": "elay",
  "6681": " exactly",
  "6682": "'=>'",
  "6683": " Paul",
  "6684": "mas",
  "6685": "\tprint",
  "6686": "(len",
  "6687": "fd",
  "6688": " );",
  "6689": ".Event",
  "6690": "qli",
  "6691": "irit",
  "6692": "ields",
  "6693": "oman",
  "6694": " Top",
  "6695": " vote",
  "6696": " mask",
  "6697": " theme",
  "6698": " props",
  "6699": " fine",
  "6700": " writer",
  "6701": "_offset",
  "6702": "car",
  "6703": " altern",
  "6704": " copyright",
  "6705": " destroy",
  "6706": "pper",
  "6707": " generate",
  "6708": "pped",
  "6709": "’d",
  "6710": "      \n",
  "6711": "make",
  "6712": " Show",
  "6713": " browser",
  "6714": " favorite",
  "6715": " career",
  "6716": " happened",
  "6717": "(char",
  "6718": " recommend",
  "6719": " liter",
  "6720": ".filter",
  "6721": "grade",
  "6722": " £",
  "6723": "Phone",
  "6724": "oms",
  "6725": " named",
  "6726": "-label",
  "6727": "ipo",
  "6728": " Other",
  "6729": " panel",
  "6730": " rock",
  "6731": "Scale",
  "6732": "\tassert",
  "6733": "д",
  "6734": " trust",
  "6735": "front",
  "6736": " demon",
  "6737": "Ar",
  "6738": "Net",
  "6739": " economic",
  "6740": "footer",
  "6741": " race",
  "6742": "(node",
  "6743": " Option",
  "6744": "split",
  "6745": " physical",
  "6746": "ifest",
  "6747": " removed",
  "6748": ".http",
  "6749": " looked",
  "6750": "';",
  "6751": "ding",
  "6752": "gest",
  "6753": "aturday",
  "6754": "/licenses",
  "6755": "Price",
  "6756": " dro",
  "6757": " towards",
  "6758": " uns",
  "6759": " CL",
  "6760": "\tstatic",
  "6761": " rows",
  "6762": " define",
  "6763": ".replace",
  "6764": " father",
  "6765": " Design",
  "6766": "assign",
  "6767": "mut",
  "6768": "Device",
  "6769": "Did",
  "6770": "ometry",
  "6771": "ayload",
  "6772": " histor",
  "6773": " Param",
  "6774": " Boolean",
  "6775": " nature",
  "6776": " js",
  "6777": " nation",
  "6778": "ih",
  "6779": " discover",
  "6780": "sem",
  "6781": "Handle",
  "6782": "\tr",
  "6783": " Techn",
  "6784": " wall",
  "6785": "{$",
  "6786": "@property",
  "6787": " \"../",
  "6788": " exam",
  "6789": ".draw",
  "6790": "opping",
  "6791": " nearly",
  "6792": " cool",
  "6793": " independ",
  "6794": "RES",
  "6795": " handler",
  "6796": " Monday",
  "6797": " sun",
  "6798": "Styles",
  "6799": "ously",
  "6800": " \t",
  "6801": "vest",
  "6802": "Display",
  "6803": "(y",
  "6804": "atically",
  "6805": " predict",
  "6806": "ying",
  "6807": " sometimes",
  "6808": " drink",
  "6809": " bul",
  "6810": "ifications",
  "6811": ".insert",
  "6812": ".reg",
  "6813": " tests",
  "6814": "Alignment",
  "6815": " alleg",
  "6816": " attribute",
  "6817": " Note",
  "6818": " myself",
  "6819": "arts",
  "6820": "Now",
  "6821": " interesting",
  "6822": "lients",
  "6823": " population",
  "6824": " California",
  "6825": "\"I",
  "6826": " greater",
  "6827": "uesday",
  "6828": " thous",
  "6829": " costs",
  "6830": " launch",
  "6831": "\\Http",
  "6832": "ker",
  "6833": "band",
  "6834": " Play",
  "6835": " band",
  "6836": ".shape",
  "6837": "esome",
  "6838": "article",
  "6839": ".rf",
  "6840": " wer",
  "6841": "ás",
  "6842": "embers",
  "6843": "usr",
  "6844": "BA",
  "6845": "ican",
  "6846": "ett",
  "6847": "validate",
  "6848": "ulti",
  "6849": " immediately",
  "6850": "zer",
  "6851": " figure",
  "6852": "oes",
  "6853": "eller",
  "6854": "ircle",
  "6855": " Sign",
  "6856": ".db",
  "6857": " rank",
  "6858": "Bytes",
  "6859": " projects",
  "6860": "_rec",
  "6861": "ULAR",
  "6862": "API",
  "6863": " Line",
  "6864": "Port",
  "6865": " poll",
  "6866": " giving",
  "6867": "idence",
  "6868": " plot",
  "6869": "icial",
  "6870": " warrant",
  "6871": "ITION",
  "6872": " Double",
  "6873": " billion",
  "6874": "gorithm",
  "6875": " equipment",
  "6876": "DATE",
  "6877": " @\"",
  "6878": "EE",
  "6879": " ple",
  "6880": "iation",
  "6881": " headers",
  "6882": " proced",
  "6883": ".ComponentModel",
  "6884": " Obama",
  "6885": " pa",
  "6886": " Best",
  "6887": "imately",
  "6888": ".getString",
  "6889": ".\\",
  "6890": "mploy",
  "6891": " raw",
  "6892": "_block",
  "6893": "undred",
  "6894": ".GroupLayout",
  "6895": " brought",
  "6896": "NSString",
  "6897": "throw",
  "6898": "created",
  "6899": ".New",
  "6900": "_view",
  "6901": "CP",
  "6902": "eps",
  "6903": "Op",
  "6904": " gratis",
  "6905": " '\"",
  "6906": " interview",
  "6907": " partial",
  "6908": " aria",
  "6909": "bing",
  "6910": "Author",
  "6911": "Book",
  "6912": " Pat",
  "6913": "uman",
  "6914": "Users",
  "6915": "plus",
  "6916": " Direct",
  "6917": "venue",
  "6918": "alpha",
  "6919": "UCCESS",
  "6920": " Call",
  "6921": "imated",
  "6922": " remain",
  "6923": " anti",
  "6924": " London",
  "6925": " safety",
  "6926": "POSE",
  "6927": "oles",
  "6928": "controller",
  "6929": "Byte",
  "6930": " Court",
  "6931": " Phil",
  "6932": " Associ",
  "6933": "ena",
  "6934": "_STR",
  "6935": "coin",
  "6936": "reshold",
  "6937": " batch",
  "6938": "_Click",
  "6939": "entication",
  "6940": "enty",
  "6941": " beginning",
  "6942": " zero",
  "6943": " Convert",
  "6944": " terr",
  "6945": " paid",
  "6946": " increased",
  "6947": "catch",
  "6948": "-size",
  "6949": "activity",
  "6950": "equals",
  "6951": " queue",
  "6952": " \"'",
  "6953": " International",
  "6954": " für",
  "6955": "ursday",
  "6956": " scient",
  "6957": "allow",
  "6958": "axis",
  "6959": " appropri",
  "6960": "edge",
  "6961": " idx",
  "6962": "Success",
  "6963": "entifier",
  "6964": ":\\",
  "6965": "xis",
  "6966": " maximum",
  "6967": "arks",
  "6968": " birth",
  "6969": "(index",
  "6970": " maybe",
  "6971": ".py",
  "6972": "files",
  "6973": " limited",
  "6974": "_check",
  "6975": "look",
  "6976": "plies",
  "6977": " movement",
  "6978": "'].",
  "6979": " broad",
  "6980": " BE",
  "6981": " UnityEngine",
  "6982": ".cpp",
  "6983": " Every",
  "6984": "Admin",
  "6985": " fans",
  "6986": "pared",
  "6987": "\n    \n",
  "6988": " foreign",
  "6989": " pan",
  "6990": " tour",
  "6991": " Order",
  "6992": " moving",
  "6993": " auf",
  "6994": "Call",
  "6995": "cb",
  "6996": "ş",
  "6997": "ventory",
  "6998": " Sql",
  "6999": " fully",
  "7000": "ClickListener",
  "7001": "WORD",
  "7002": " announced",
  "7003": " agreed",
  "7004": "rie",
  "7005": " earn",
  "7006": "_link",
  "7007": ".array",
  "7008": "(text",
  "7009": " materials",
  "7010": ",p",
  "7011": "ffff",
  "7012": "vg",
  "7013": " ©",
  "7014": " unless",
  "7015": "ajax",
  "7016": "LOG",
  "7017": " sexual",
  "7018": " \\\"",
  "7019": "-time",
  "7020": " coach",
  "7021": " supported",
  "7022": " photos",
  "7023": "iform",
  "7024": ".Create",
  "7025": ")]",
  "7026": "rier",
  "7027": " dialog",
  "7028": "aver",
  "7029": "ige",
  "7030": ")+",
  "7031": "_idx",
  "7032": ":[",
  "7033": "_min",
  "7034": " Cong",
  "7035": " pressure",
  "7036": " teams",
  "7037": "Sign",
  "7038": "begin",
  "7039": "rian",
  "7040": "NESS",
  "7041": "LS",
  "7042": " improve",
  "7043": " Sunday",
  "7044": " definition",
  "7045": "iger",
  "7046": "rollers",
  "7047": " thinking",
  "7048": "Template",
  "7049": "-F",
  "7050": " emerg",
  "7051": "plates",
  "7052": " USA",
  "7053": ".setState",
  "7054": " Also",
  "7055": "rev",
  "7056": " enable",
  "7057": " CO",
  "7058": "PECT",
  "7059": " concept",
  "7060": ")-",
  "7061": " •",
  "7062": " sets",
  "7063": " meaning",
  "7064": "emon",
  "7065": " Cons",
  "7066": "cmp",
  "7067": "eder",
  "7068": "anned",
  "7069": "icensed",
  "7070": " Super",
  "7071": " daily",
  "7072": " multi",
  "7073": "_u",
  "7074": " challeng",
  "7075": "_mode",
  "7076": " Promise",
  "7077": " strict",
  "7078": "jo",
  "7079": "inton",
  "7080": "(list",
  "7081": "Only",
  "7082": ">{",
  "7083": " vehicle",
  "7084": "�",
  "7085": " Player",
  "7086": " Del",
  "7087": " pool",
  "7088": ".url",
  "7089": "nesday",
  "7090": "Local",
  "7091": " organization",
  "7092": "render",
  "7093": " Application",
  "7094": " summer",
  "7095": "expected",
  "7096": "NA",
  "7097": " rap",
  "7098": "_obj",
  "7099": " surface",
  "7100": " PUR",
  "7101": " variables",
  "7102": "(message",
  "7103": " opin",
  "7104": ".back",
  "7105": "ан",
  "7106": " workers",
  "7107": "vm",
  "7108": "Co",
  "7109": "ughter",
  "7110": " master",
  "7111": " \"\",",
  "7112": " stories",
  "7113": ".User",
  "7114": " celebr",
  "7115": "inese",
  "7116": "BS",
  "7117": " Command",
  "7118": "ashboard",
  "7119": " og",
  "7120": "kg",
  "7121": ".image",
  "7122": ".style",
  "7123": " steps",
  "7124": " Ben",
  "7125": "(args",
  "7126": " Person",
  "7127": ",y",
  "7128": " officials",
  "7129": " skills",
  "7130": "vc",
  "7131": " builder",
  "7132": " gar",
  "7133": "Account",
  "7134": " Auth",
  "7135": " AT",
  "7136": "nn",
  "7137": ".Int",
  "7138": "SSERT",
  "7139": " effective",
  "7140": "LETE",
  "7141": " tools",
  "7142": "ARD",
  "7143": " digital",
  "7144": "Double",
  "7145": " Find",
  "7146": "RC",
  "7147": " inline",
  "7148": "/r",
  "7149": "ARAM",
  "7150": "ASK",
  "7151": " intent",
  "7152": "aight",
  "7153": "_addr",
  "7154": " requests",
  "7155": ".first",
  "7156": " debug",
  "7157": " spent",
  "7158": "ś",
  "7159": " princip",
  "7160": "Logger",
  "7161": "cludes",
  "7162": ".use",
  "7163": " surv",
  "7164": "media",
  "7165": " February",
  "7166": " Mac",
  "7167": " missing",
  "7168": " wife",
  "7169": " talking",
  "7170": " Make",
  "7171": " cart",
  "7172": " located",
  "7173": "Enc",
  "7174": "-a",
  "7175": "chron",
  "7176": " cards",
  "7177": " guy",
  "7178": " pers",
  "7179": " Yes",
  "7180": "atever",
  "7181": " Ang",
  "7182": "olar",
  "7183": " Even",
  "7184": " accur",
  "7185": " Power",
  "7186": " Gold",
  "7187": "clear",
  "7188": "Process",
  "7189": " records",
  "7190": " killed",
  "7191": ".clear",
  "7192": " WARRANTIES",
  "7193": " purpose",
  "7194": "panel",
  "7195": "JECT",
  "7196": "ía",
  "7197": " exerc",
  "7198": "WS",
  "7199": "/L",
  "7200": ".exports",
  "7201": " ___",
  "7202": " sin",
  "7203": "Servlet",
  "7204": " dé",
  "7205": ".delete",
  "7206": "roke",
  "7207": "Sl",
  "7208": "ugh",
  "7209": "ears",
  "7210": " pointer",
  "7211": " hop",
  "7212": "allery",
  "7213": " obs",
  "7214": "covery",
  "7215": "\tchar",
  "7216": "\t\t\t\t\t\t\t\t\t\t",
  "7217": "\tdef",
  "7218": "ocity",
  "7219": "itchen",
  "7220": "ulations",
  "7221": " FIT",
  "7222": " ).",
  "7223": "straints",
  "7224": "vention",
  "7225": " requires",
  "7226": " Oper",
  "7227": "ME",
  "7228": "OUNT",
  "7229": "allet",
  "7230": " norm",
  "7231": "IRE",
  "7232": "exas",
  "7233": " programs",
  "7234": " weak",
  "7235": "'.$",
  "7236": "uing",
  "7237": "\t       ",
  "7238": " mil",
  "7239": " firm",
  "7240": "initely",
  "7241": "_VALUE",
  "7242": "apse",
  "7243": "atisf",
  "7244": " demand",
  "7245": "_mod",
  "7246": " described",
  "7247": " places",
  "7248": "VID",
  "7249": " alone",
  "7250": " export",
  "7251": " vec",
  "7252": " Max",
  "7253": " activities",
  "7254": "ictures",
  "7255": "gener",
  "7256": " ma",
  "7257": "��",
  "7258": " expression",
  "7259": "Callback",
  "7260": "_content",
  "7261": " Most",
  "7262": " testing",
  "7263": "EC",
  "7264": "CHANT",
  "7265": " adjust",
  "7266": ".Threading",
  "7267": "(ctx",
  "7268": " agree",
  "7269": "ighest",
  "7270": " ui",
  "7271": " Law",
  "7272": ".Y",
  "7273": "><?",
  "7274": " pod",
  "7275": "-lg",
  "7276": " describe",
  "7277": " European",
  "7278": "-sh",
  "7279": " PURPOSE",
  "7280": "ORY",
  "7281": " convers",
  "7282": " Illuminate",
  "7283": " Av",
  "7284": "(ch",
  "7285": "?\"",
  "7286": "chen",
  "7287": "ima",
  "7288": "Document",
  "7289": " operations",
  "7290": "win",
  "7291": "\tfunction",
  "7292": ".Image",
  "7293": " scen",
  "7294": "/h",
  "7295": " SC",
  "7296": " explo",
  "7297": ":%",
  "7298": "NAME",
  "7299": "(var",
  "7300": " director",
  "7301": "ONG",
  "7302": " yield",
  "7303": " feet",
  "7304": " Search",
  "7305": " Il",
  "7306": " restaur",
  "7307": "duc",
  "7308": " integer",
  "7309": " highly",
  "7310": "checked",
  "7311": " PARTIC",
  "7312": "ERCHANT",
  "7313": "）",
  "7314": " optim",
  "7315": "Queue",
  "7316": " LI",
  "7317": "itation",
  "7318": " transport",
  "7319": "ission",
  "7320": "fill",
  "7321": "usion",
  "7322": "                              ",
  "7323": "\tbool",
  "7324": "-th",
  "7325": "upt",
  "7326": " essential",
  "7327": "anted",
  "7328": " benefits",
  "7329": "\tS",
  "7330": "iki",
  "7331": " girls",
  "7332": "iced",
  "7333": "buffer",
  "7334": "]+",
  "7335": " socket",
  "7336": " prices",
  "7337": " Fre",
  "7338": " sat",
  "7339": " wood",
  "7340": "MenuItem",
  "7341": "ARG",
  "7342": " Admin",
  "7343": "OWN",
  "7344": "dk",
  "7345": " reset",
  "7346": " forms",
  "7347": " и",
  "7348": " Tuesday",
  "7349": " Initialized",
  "7350": "_train",
  "7351": "orary",
  "7352": "ategor",
  "7353": " dt",
  "7354": "Total",
  "7355": "construct",
  "7356": "ilies",
  "7357": " guys",
  "7358": "ер",
  "7359": " instruction",
  "7360": "yled",
  "7361": " internet",
  "7362": "etadata",
  "7363": "ady",
  "7364": "faces",
  "7365": "jection",
  "7366": " Jack",
  "7367": " rect",
  "7368": "[-",
  "7369": " Leg",
  "7370": " devices",
  "7371": "OC",
  "7372": "oration",
  "7373": "ertain",
  "7374": " guard",
  "7375": "ostream",
  "7376": " enum",
  "7377": ".layout",
  "7378": "voke",
  "7379": " Ok",
  "7380": "Home",
  "7381": "(tr",
  "7382": "ETH",
  "7383": " delay",
  "7384": " purchase",
  "7385": "dc",
  "7386": " aren",
  "7387": "_once",
  "7388": "\t\t\t\t\n",
  "7389": "ror",
  "7390": "draw",
  "7391": ".run",
  "7392": "(model",
  "7393": "Timeout",
  "7394": "lik",
  "7395": " Arg",
  "7396": ".en",
  "7397": " fish",
  "7398": "cpy",
  "7399": "_fe",
  "7400": "ERCHANTABILITY",
  "7401": "(X",
  "7402": "_output",
  "7403": "??",
  "7404": " jo",
  "7405": "andard",
  "7406": " doll",
  "7407": "errors",
  "7408": "_base",
  "7409": " PARTICULAR",
  "7410": " leader",
  "7411": " compar",
  "7412": " doub",
  "7413": " Vis",
  "7414": "StackTrace",
  "7415": "-C",
  "7416": " Stud",
  "7417": "stitute",
  "7418": "More",
  "7419": " Description",
  "7420": "WARE",
  "7421": "ads",
  "7422": " к",
  "7423": "bind",
  "7424": "=self",
  "7425": "employ",
  "7426": "[n",
  "7427": ".all",
  "7428": "-B",
  "7429": "&&",
  "7430": "alm",
  "7431": " culture",
  "7432": "house",
  "7433": " suffer",
  "7434": " '%",
  "7435": " straight",
  "7436": " Star",
  "7437": "udo",
  "7438": " ded",
  "7439": " COM",
  "7440": " confirm",
  "7441": " Good",
  "7442": ".sc",
  "7443": "________________",
  "7444": "DR",
  "7445": "Configuration",
  "7446": "DateTime",
  "7447": " advert",
  "7448": " couldn",
  "7449": "async",
  "7450": "stack",
  "7451": "Kit",
  "7452": " hous",
  "7453": " mechan",
  "7454": "rate",
  "7455": " audio",
  "7456": "\tcout",
  "7457": "cores",
  "7458": " spot",
  "7459": " increasing",
  "7460": " ##",
  "7461": ")))",
  "7462": "points",
  "7463": " compared",
  "7464": "lig",
  "7465": " behavior",
  "7466": " BY",
  "7467": " Att",
  "7468": "craft",
  "7469": "headers",
  "7470": "ete",
  "7471": "endregion",
  "7472": " detail",
  "7473": "ULE",
  "7474": " Common",
  "7475": "\tprotected",
  "7476": "ston",
  "7477": " FITNESS",
  "7478": " fresh",
  "7479": ".example",
  "7480": "berg",
  "7481": " moved",
  "7482": "\te",
  "7483": " Saturday",
  "7484": " payload",
  "7485": "ć",
  "7486": " bey",
  "7487": "urer",
  "7488": "<script",
  "7489": " symbol",
  "7490": " assum",
  "7491": " pul",
  "7492": "Effect",
  "7493": " hundred",
  "7494": "Tool",
  "7495": "aked",
  "7496": "connection",
  "7497": " voice",
  "7498": " pd",
  "7499": " transaction",
  "7500": " links",
  "7501": "Err",
  "7502": " Indian",
  "7503": "TC",
  "7504": "atalog",
  "7505": "ni",
  "7506": "sign",
  "7507": "<<\"",
  "7508": "ji",
  "7509": "ya",
  "7510": " demonstr",
  "7511": "ulated",
  "7512": ".St",
  "7513": " instit",
  "7514": " boost",
  "7515": " cells",
  "7516": "olic",
  "7517": ".Pro",
  "7518": ":</",
  "7519": "EventListener",
  "7520": "ifying",
  "7521": " Di",
  "7522": "orrow",
  "7523": ".execute",
  "7524": " college",
  "7525": "Your",
  "7526": " largest",
  "7527": ".dis",
  "7528": " qui",
  "7529": " individuals",
  "7530": "_buffer",
  "7531": " ng",
  "7532": "SA",
  "7533": " Control",
  "7534": " sing",
  "7535": " suit",
  "7536": "    \t",
  "7537": "SG",
  "7538": " jump",
  "7539": " smart",
  "7540": "oma",
  "7541": " Exp",
  "7542": " '-",
  "7543": " assist",
  "7544": " successfully",
  "7545": "sys",
  "7546": " Cre",
  "7547": "_ref",
  "7548": " Thursday",
  "7549": " bur",
  "7550": " д",
  "7551": " beyond",
  "7552": " nodes",
  "7553": "Details",
  "7554": "inct",
  "7555": " James",
  "7556": " affect",
  "7557": "exception",
  "7558": " typeof",
  "7559": "-se",
  "7560": " fetch",
  "7561": "`,",
  "7562": " crusher",
  "7563": "}.",
  "7564": " BO",
  "7565": "Show",
  "7566": " rates",
  "7567": " bon",
  "7568": "-icon",
  "7569": " Media",
  "7570": "RESS",
  "7571": " Valid",
  "7572": " fuck",
  "7573": "acks",
  "7574": " studies",
  "7575": "Me",
  "7576": " owners",
  "7577": "}else",
  "7578": " growing",
  "7579": "Variable",
  "7580": " Bel",
  "7581": ".random",
  "7582": "vement",
  "7583": "onym",
  "7584": "(F",
  "7585": " FALSE",
  "7586": " torch",
  "7587": "(row",
  "7588": "igo",
  "7589": "structure",
  "7590": " certainly",
  "7591": "Dep",
  "7592": " Green",
  "7593": "question",
  "7594": " adding",
  "7595": " Develop",
  "7596": "_def",
  "7597": " mach",
  "7598": "=%",
  "7599": "\t\t ",
  "7600": "conds",
  "7601": "Project",
  "7602": " reject",
  "7603": " �",
  "7604": " poor",
  "7605": " aware",
  "7606": " Build",
  "7607": " British",
  "7608": " NE",
  "7609": " numer",
  "7610": "rees",
  "7611": "claim",
  "7612": " mock",
  "7613": " om",
  "7614": " scre",
  "7615": "OLD",
  "7616": ".pl",
  "7617": "eler",
  "7618": " correspond",
  "7619": "_HE",
  "7620": " binary",
  "7621": "_order",
  "7622": " SQL",
  "7623": " advant",
  "7624": " prev",
  "7625": ".[",
  "7626": ".assertEqual",
  "7627": "plier",
  "7628": "arp",
  "7629": " closed",
  "7630": " encour",
  "7631": " QString",
  "7632": "aud",
  "7633": " developed",
  "7634": " permission",
  "7635": ".debug",
  "7636": "operator",
  "7637": " sym",
  "7638": "atively",
  "7639": "ée",
  "7640": "-color",
  "7641": " GET",
  "7642": "ky",
  "7643": " although",
  "7644": "_request",
  "7645": "_element",
  "7646": "................",
  "7647": "_DATA",
  "7648": " amazing",
  "7649": " sb",
  "7650": " Default",
  "7651": "Events",
  "7652": " failure",
  "7653": "acle",
  "7654": "Properties",
  "7655": " dream",
  "7656": " distr",
  "7657": " au",
  "7658": " generated",
  "7659": " Team",
  "7660": "USE",
  "7661": " income",
  "7662": " eye",
  "7663": "_not",
  "7664": "\"],",
  "7665": "_form",
  "7666": "Support",
  "7667": "orders",
  "7668": ".Print",
  "7669": "ville",
  "7670": " Wednesday",
  "7671": "olver",
  "7672": " oppos",
  "7673": "isation",
  "7674": "ola",
  "7675": "Close",
  "7676": "<p",
  "7677": "_width",
  "7678": "Invalid",
  "7679": "xb",
  "7680": " strugg",
  "7681": "_action",
  "7682": " txt",
  "7683": " Path",
  "7684": "alar",
  "7685": " MERCHANTABILITY",
  "7686": "service",
  "7687": " Michael",
  "7688": "ableView",
  "7689": "Debug",
  "7690": "okes",
  "7691": "She",
  "7692": " guess",
  "7693": " Java",
  "7694": "_PATH",
  "7695": " particularly",
  "7696": " II",
  "7697": " domain",
  "7698": " reduce",
  "7699": "-left",
  "7700": "real",
  "7701": " appears",
  "7702": " como",
  "7703": " Unit",
  "7704": " Govern",
  "7705": "ali",
  "7706": "allel",
  "7707": " Jew",
  "7708": "_I",
  "7709": " cos",
  "7710": ".color",
  "7711": " Global",
  "7712": " tele",
  "7713": "ben",
  "7714": "_trans",
  "7715": " reasons",
  "7716": " emb",
  "7717": "ensity",
  "7718": "lines",
  "7719": "omin",
  "7720": "Screen",
  "7721": "ат",
  "7722": "pects",
  "7723": "clip",
  "7724": "foo",
  "7725": "rent",
  "7726": " af",
  "7727": " danger",
  "7728": "iling",
  "7729": "Names",
  "7730": "Our",
  "7731": " distribution",
  "7732": "While",
  "7733": "SL",
  "7734": "Write",
  "7735": " goto",
  "7736": " colors",
  "7737": " powerful",
  "7738": "kin",
  "7739": " depth",
  "7740": "ercial",
  "7741": " Congress",
  "7742": " Market",
  "7743": "Db",
  "7744": "under",
  "7745": " Last",
  "7746": "ß",
  "7747": "greg",
  "7748": " posts",
  "7749": "_URL",
  "7750": "otos",
  "7751": "Don",
  "7752": " micro",
  "7753": " arrest",
  "7754": "п",
  "7755": " (@",
  "7756": " Hot",
  "7757": " Index",
  "7758": ";&",
  "7759": "#!",
  "7760": " Nor",
  "7761": " Cap",
  "7762": "-(",
  "7763": " interested",
  "7764": "pear",
  "7765": " rent",
  "7766": " album",
  "7767": "olicy",
  "7768": ".lang",
  "7769": ".trans",
  "7770": ".format",
  "7771": "phere",
  "7772": " axis",
  "7773": " Business",
  "7774": "ersistence",
  "7775": "urr",
  "7776": " minimum",
  "7777": "endor",
  "7778": " SD",
  "7779": " Internet",
  "7780": "Exp",
  "7781": "iverse",
  "7782": "MM",
  "7783": " obvious",
  "7784": " basis",
  "7785": " science",
  "7786": " budget",
  "7787": "izations",
  "7788": "PA",
  "7789": " flags",
  "7790": "pret",
  "7791": "LOCK",
  "7792": " variety",
  "7793": " truth",
  "7794": "dt",
  "7795": " gone",
  "7796": " battle",
  "7797": "<std",
  "7798": " Sil",
  "7799": "rf",
  "7800": "uda",
  "7801": " erot",
  "7802": " Cam",
  "7803": " station",
  "7804": " '</",
  "7805": "cheme",
  "7806": " Sun",
  "7807": " finished",
  "7808": " shop",
  "7809": " Kore",
  "7810": " eight",
  "7811": "_REG",
  "7812": "ND",
  "7813": ">,",
  "7814": "\"><?",
  "7815": "(num",
  "7816": "\tinline",
  "7817": "Transaction",
  "7818": ".On",
  "7819": " mail",
  "7820": "rey",
  "7821": "results",
  "7822": " nav",
  "7823": "IMIT",
  "7824": "_ids",
  "7825": "Make",
  "7826": "Modal",
  "7827": " LOG",
  "7828": " Sur",
  "7829": " instanceof",
  "7830": " overall",
  "7831": " Information",
  "7832": " construction",
  "7833": "_FILE",
  "7834": "but",
  "7835": " medic",
  "7836": " duration",
  "7837": "itness",
  "7838": "agent",
  "7839": "AV",
  "7840": " seven",
  "7841": "olf",
  "7842": " calling",
  "7843": " ans",
  "7844": "throws",
  "7845": "orizontal",
  "7846": " useState",
  "7847": ".fl",
  "7848": " Status",
  "7849": " Online",
  "7850": "RR",
  "7851": " Rich",
  "7852": " Hill",
  "7853": " brain",
  "7854": " followed",
  "7855": "emic",
  "7856": " slight",
  "7857": " insurance",
  "7858": ".Array",
  "7859": " abstract",
  "7860": " Sum",
  "7861": "redirect",
  "7862": "owner",
  "7863": "(msg",
  "7864": " Clinton",
  "7865": "Non",
  "7866": "\tex",
  "7867": " volume",
  "7868": " EventArgs",
  "7869": "-L",
  "7870": " Dim",
  "7871": " Mart",
  "7872": " cursor",
  "7873": " implementation",
  "7874": "urred",
  "7875": " larger",
  "7876": "'+",
  "7877": ".transform",
  "7878": " upload",
  "7879": "                                                       ",
  "7880": "Draw",
  "7881": "nel",
  "7882": "\tfloat",
  "7883": "qrt",
  "7884": " Network",
  "7885": " tit",
  "7886": "Axis",
  "7887": ".android",
  "7888": " completed",
  "7889": " mur",
  "7890": " columns",
  "7891": "xc",
  "7892": " supply",
  "7893": "iminal",
  "7894": " spr",
  "7895": "================================================================",
  "7896": " units",
  "7897": "(u",
  "7898": "mi",
  "7899": "replace",
  "7900": "[key",
  "7901": "�",
  "7902": "antic",
  "7903": " payment",
  "7904": ",B",
  "7905": " Apple",
  "7906": "gin",
  "7907": "Required",
  "7908": "#+",
  "7909": "lands",
  "7910": " squ",
  "7911": " factor",
  "7912": "dec",
  "7913": " strength",
  "7914": " boy",
  "7915": " balance",
  "7916": " sources",
  "7917": "screen",
  "7918": "-top",
  "7919": " Amazon",
  "7920": " hidden",
  "7921": "ет",
  "7922": "_client",
  "7923": " eat",
  "7924": ".display",
  "7925": " »",
  "7926": " trigger",
  "7927": "anager",
  "7928": " tro",
  "7929": " claims",
  "7930": "ford",
  "7931": " Company",
  "7932": " gift",
  "7933": ",:",
  "7934": "_app",
  "7935": "handle",
  "7936": " produce",
  "7937": "/lib",
  "7938": " -*",
  "7939": "\tset",
  "7940": "'];",
  "7941": "arc",
  "7942": "ander",
  "7943": " Engine",
  "7944": " attributes",
  "7945": "task",
  "7946": "<=",
  "7947": "(N",
  "7948": " warm",
  "7949": "which",
  "7950": " Fore",
  "7951": "agnost",
  "7952": "mys",
  "7953": " tal",
  "7954": " Sal",
  "7955": "gi",
  "7956": " Print",
  "7957": " TRUE",
  "7958": " о",
  "7959": ".UI",
  "7960": " flash",
  "7961": "roperty",
  "7962": ".location",
  "7963": " Mill",
  "7964": "bi",
  "7965": "contr",
  "7966": ".request",
  "7967": " Sam",
  "7968": " negative",
  "7969": "kit",
  "7970": " sett",
  "7971": ".printStackTrace",
  "7972": "abe",
  "7973": "\ti",
  "7974": " burn",
  "7975": " society",
  "7976": "Cache",
  "7977": " Security",
  "7978": ".models",
  "7979": " WARRANTY",
  "7980": "_up",
  "7981": "ceive",
  "7982": " clients",
  "7983": ".Tr",
  "7984": " providing",
  "7985": " rout",
  "7986": "material",
  "7987": " Ser",
  "7988": " Office",
  "7989": "FTWARE",
  "7990": " '$",
  "7991": " foc",
  "7992": " excell",
  "7993": " cat",
  "7994": "normal",
  "7995": " determine",
  "7996": "\tuint",
  "7997": "Pane",
  "7998": " employees",
  "7999": " Texas",
  "8000": " traff",
  "8001": " Report",
  "8002": "anta",
  "8003": " Box",
  "8004": " django",
  "8005": " partner",
  "8006": "EB",
  "8007": "LINE",
  "8008": " feeling",
  "8009": " civil",
  "8010": "(float",
  "8011": "Sql",
  "8012": " wouldn",
  "8013": ".init",
  "8014": ".left",
  "8015": "-v",
  "8016": "_level",
  "8017": "'}",
  "8018": "AF",
  "8019": " loading",
  "8020": " Only",
  "8021": " cookies",
  "8022": " Gl",
  "8023": "CO",
  "8024": " strategy",
  "8025": "('./",
  "8026": " ship",
  "8027": "poses",
  "8028": " signal",
  "8029": " alpha",
  "8030": ".pop",
  "8031": "Radius",
  "8032": " replace",
  "8033": "_DIR",
  "8034": "counter",
  "8035": "bservable",
  "8036": "ela",
  "8037": "Weight",
  "8038": "hash",
  "8039": "bose",
  "8040": "fx",
  "8041": " Email",
  "8042": " refer",
  "8043": "localhost",
  "8044": "_RO",
  "8045": "iques",
  "8046": "Step",
  "8047": " ahead",
  "8048": "(View",
  "8049": " Services",
  "8050": " Json",
  "8051": "essor",
  "8052": " pun",
  "8053": " appropriate",
  "8054": "akers",
  "8055": "osen",
  "8056": "posing",
  "8057": " agent",
  "8058": "fc",
  "8059": " transfer",
  "8060": " invalid",
  "8061": " Research",
  "8062": "Vertex",
  "8063": " gay",
  "8064": " journal",
  "8065": "[x",
  "8066": " Well",
  "8067": ".Tasks",
  "8068": "Spec",
  "8069": " ol",
  "8070": " spend",
  "8071": " Australia",
  "8072": "Match",
  "8073": ".junit",
  "8074": "                                     ",
  "8075": " MAX",
  "8076": "izable",
  "8077": "clusive",
  "8078": "_valid",
  "8079": " quarter",
  "8080": "yan",
  "8081": " Edit",
  "8082": "arden",
  "8083": "=new",
  "8084": " frag",
  "8085": "Bit",
  "8086": "zi",
  "8087": "aine",
  "8088": "udd",
  "8089": ".Object",
  "8090": "debug",
  "8091": " cash",
  "8092": "_IM",
  "8093": " een",
  "8094": " commercial",
  "8095": " Video",
  "8096": "loader",
  "8097": " fixed",
  "8098": " applications",
  "8099": " _,",
  "8100": " Russia",
  "8101": "itect",
  "8102": "_(",
  "8103": " Block",
  "8104": " san",
  "8105": " Tom",
  "8106": " perhaps",
  "8107": " sig",
  "8108": "levant",
  "8109": " corpor",
  "8110": "ataset",
  "8111": "ronic",
  "8112": "xe",
  "8113": " eth",
  "8114": "Some",
  "8115": "pop",
  "8116": "_OK",
  "8117": " tend",
  "8118": ".Res",
  "8119": "_and",
  "8120": " reviews",
  "8121": " wild",
  "8122": " degree",
  "8123": ".O",
  "8124": ".objects",
  "8125": "_args",
  "8126": "nil",
  "8127": " disabled",
  "8128": "Parent",
  "8129": " notes",
  "8130": "(state",
  "8131": "istrict",
  "8132": " logging",
  "8133": ".IO",
  "8134": " Mal",
  "8135": "DM",
  "8136": " xml",
  "8137": " Robert",
  "8138": "elen",
  "8139": "layout",
  "8140": "fol",
  "8141": "']))",
  "8142": ",b",
  "8143": " Jer",
  "8144": "filename",
  "8145": " fan",
  "8146": " Custom",
  "8147": "=\"\"",
  "8148": " Die",
  "8149": "Bundle",
  "8150": ".utils",
  "8151": " trip",
  "8152": "MB",
  "8153": " soft",
  "8154": "_MODE",
  "8155": " applicable",
  "8156": " upper",
  "8157": "ERVER",
  "8158": "_al",
  "8159": "_LOG",
  "8160": "Here",
  "8161": "wp",
  "8162": " Server",
  "8163": " Client",
  "8164": " chem",
  "8165": "Scroll",
  "8166": " highest",
  "8167": " Select",
  "8168": " \"@",
  "8169": " Why",
  "8170": "Sec",
  "8171": "heel",
  "8172": "Operation",
  "8173": " connected",
  "8174": "irmed",
  "8175": " citiz",
  "8176": " Che",
  "8177": " forces",
  "8178": " www",
  "8179": "Root",
  "8180": "ANCE",
  "8181": "Many",
  "8182": "icip",
  "8183": "rgan",
  "8184": " Tor",
  "8185": " Press",
  "8186": " Mor",
  "8187": "-line",
  "8188": "uled",
  "8189": ">\\",
  "8190": " thus",
  "8191": " Register",
  "8192": "hol",
  "8193": " Chinese",
  "8194": " posted",
  "8195": " magn",
  "8196": "abilities",
  "8197": " disease",
  "8198": " remains",
  "8199": " Prof",
  "8200": "-form",
  "8201": " cin",
  "8202": "organ",
  "8203": "icate",
  "8204": " stress",
  "8205": "]*",
  "8206": " ----------------------------------------------------------------",
  "8207": "_context",
  "8208": "orry",
  "8209": " died",
  "8210": "mat",
  "8211": " starts",
  "8212": ".Message",
  "8213": " runs",
  "8214": " guide",
  "8215": " warranty",
  "8216": "entials",
  "8217": "dict",
  "8218": " Size",
  "8219": "uler",
  "8220": " responsible",
  "8221": "_SET",
  "8222": " containing",
  "8223": " Price",
  "8224": "||",
  "8225": "FS",
  "8226": " emp",
  "8227": "_button",
  "8228": "(uint",
  "8229": " suff",
  "8230": "pth",
  "8231": " definitely",
  "8232": "pute",
  "8233": " marketing",
  "8234": " WH",
  "8235": " Sie",
  "8236": "+=",
  "8237": "OLOR",
  "8238": " consult",
  "8239": " signed",
  "8240": " sequence",
  "8241": "lee",
  "8242": " requirements",
  "8243": "hy",
  "8244": "Express",
  "8245": "MT",
  "8246": "sey",
  "8247": " ult",
  "8248": "elligence",
  "8249": " analy",
  "8250": " dress",
  "8251": "engine",
  "8252": " Great",
  "8253": " Android",
  "8254": " Alex",
  "8255": "mode",
  "8256": "Dictionary",
  "8257": ".Date",
  "8258": "VICE",
  "8259": " families",
  "8260": " Russian",
  "8261": " Times",
  "8262": ".call",
  "8263": "$(",
  "8264": "Profile",
  "8265": " folder",
  "8266": "ches",
  "8267": " legis",
  "8268": "_row",
  "8269": "unes",
  "8270": "ل",
  "8271": " }).",
  "8272": "Assert",
  "8273": "agen",
  "8274": " Hand",
  "8275": "Iter",
  "8276": " biggest",
  "8277": "oreach",
  "8278": " polic",
  "8279": " permissions",
  "8280": " showed",
  "8281": " Element",
  "8282": " topic",
  "8283": "——",
  "8284": "road",
  "8285": " Bank",
  "8286": "record",
  "8287": " partners",
  "8288": " Ref",
  "8289": "essions",
  "8290": " assess",
  "8291": "UST",
  "8292": " Party",
  "8293": "produ",
  "8294": "LC",
  "8295": " ul",
  "8296": ".form",
  "8297": "hide",
  "8298": "copy",
  "8299": "UTF",
  "8300": " SOFTWARE",
  "8301": "\r\n\r\n\r\n",
  "8302": " Lin",
  "8303": "una",
  "8304": "ugar",
  "8305": " administration",
  "8306": " opening",
  "8307": " scan",
  "8308": " continued",
  "8309": "component",
  "8310": ".sp",
  "8311": " happens",
  "8312": "ummy",
  "8313": " PR",
  "8314": ".File",
  "8315": " Download",
  "8316": "Loading",
  "8317": "di",
  "8318": " waiting",
  "8319": "_ADD",
  "8320": "Tab",
  "8321": ".querySelector",
  "8322": " economy",
  "8323": " French",
  "8324": "txt",
  "8325": " fant",
  "8326": "Holder",
  "8327": "SH",
  "8328": " numpy",
  "8329": " street",
  "8330": " male",
  "8331": "\\Model",
  "8332": "anging",
  "8333": " Bill",
  "8334": " previously",
  "8335": "BI",
  "8336": " Secret",
  "8337": " mist",
  "8338": " Field",
  "8339": "ups",
  "8340": " Process",
  "8341": " kept",
  "8342": " OT",
  "8343": " traditional",
  "8344": ".i",
  "8345": "amin",
  "8346": " helps",
  "8347": "Any",
  "8348": "origin",
  "8349": "ilters",
  "8350": "ju",
  "8351": "desc",
  "8352": " Account",
  "8353": "ktop",
  "8354": "olly",
  "8355": " fs",
  "8356": " �",
  "8357": " ut",
  "8358": " central",
  "8359": "(test",
  "8360": ".An",
  "8361": " satisf",
  "8362": "GR",
  "8363": " Full",
  "8364": " heat",
  "8365": "iber",
  "8366": " onto",
  "8367": "mos",
  "8368": "Schema",
  "8369": " factory",
  "8370": "\".$",
  "8371": "aws",
  "8372": "Statement",
  "8373": "(target",
  "8374": "\tnew",
  "8375": ".be",
  "8376": " guest",
  "8377": " mal",
  "8378": "ARY",
  "8379": " reached",
  "8380": " mouse",
  "8381": " challenge",
  "8382": "\tdouble",
  "8383": " Tem",
  "8384": " terror",
  "8385": " extract",
  "8386": "_TO",
  "8387": " separate",
  "8388": " mir",
  "8389": "help",
  "8390": " capacity",
  "8391": " Property",
  "8392": "kan",
  "8393": "_create",
  "8394": " Light",
  "8395": ".parent",
  "8396": " understanding",
  "8397": " easier",
  "8398": " |=",
  "8399": " enh",
  "8400": " fat",
  "8401": " protest",
  "8402": "amm",
  "8403": "_AT",
  "8404": "-of",
  "8405": "ils",
  "8406": " Oh",
  "8407": " psych",
  "8408": " $.",
  "8409": "inds",
  "8410": " relative",
  "8411": "shop",
  "8412": "short",
  "8413": " Sand",
  "8414": "uestion",
  "8415": " fear",
  "8416": ".context",
  "8417": " schools",
  "8418": " serve",
  "8419": "zone",
  "8420": "_db",
  "8421": " majority",
  "8422": "example",
  "8423": " lang",
  "8424": "\t  ",
  "8425": "Register",
  "8426": "endo",
  "8427": " processing",
  "8428": "_template",
  "8429": "-user",
  "8430": " eg",
  "8431": "COM",
  "8432": " Blue",
  "8433": "iro",
  "8434": " remote",
  "8435": " IT",
  "8436": "#!/",
  "8437": " redistrib",
  "8438": "raz",
  "8439": " Since",
  "8440": " Tur",
  "8441": "Background",
  "8442": "===",
  "8443": " reflect",
  "8444": " pros",
  "8445": "cmd",
  "8446": " whom",
  "8447": "Compat",
  "8448": " Are",
  "8449": "Identifier",
  "8450": " Thom",
  "8451": "_port",
  "8452": "gu",
  "8453": " monitor",
  "8454": "rm",
  "8455": " patient",
  "8456": "verter",
  "8457": " gain",
  "8458": "-ui",
  "8459": "Inst",
  "8460": " dies",
  "8461": "Area",
  "8462": "_filter",
  "8463": " grat",
  "8464": " reality",
  "8465": "ordinate",
  "8466": "olved",
  "8467": "Contact",
  "8468": " compliance",
  "8469": "_or",
  "8470": " Var",
  "8471": "dl",
  "8472": " append",
  "8473": "GER",
  "8474": "(max",
  "8475": ".render",
  "8476": " dynamic",
  "8477": "ordinates",
  "8478": "_options",
  "8479": "_column",
  "8480": " batter",
  "8481": "space",
  "8482": "La",
  "8483": " Source",
  "8484": "/bin",
  "8485": " dos",
  "8486": " Board",
  "8487": " Thread",
  "8488": " AL",
  "8489": "(config",
  "8490": " Mer",
  "8491": " miles",
  "8492": "_header",
  "8493": "ETHOD",
  "8494": "izz",
  "8495": " benefit",
  "8496": " integr",
  "8497": "(current",
  "8498": "ulo",
  "8499": ".default",
  "8500": " Div",
  "8501": " ton",
  "8502": "oth",
  "8503": "ervation",
  "8504": "edom",
  "8505": " baby",
  "8506": "ceived",
  "8507": ".top",
  "8508": "riority",
  "8509": " Local",
  "8510": "riage",
  "8511": " attacks",
  "8512": " hospital",
  "8513": " female",
  "8514": " Login",
  "8515": " Flor",
  "8516": " chain",
  "8517": "ashion",
  "8518": "Texture",
  "8519": "Save",
  "8520": " farm",
  "8521": ".contains",
  "8522": ".Test",
  "8523": " knows",
  "8524": " generally",
  "8525": "ipeline",
  "8526": " meant",
  "8527": "encia",
  "8528": " nicht",
  "8529": " contents",
  "8530": "PM",
  "8531": "chedule",
  "8532": "(line",
  "8533": "CG",
  "8534": "job",
  "8535": " Real",
  "8536": "uer",
  "8537": "firm",
  "8538": " �",
  "8539": "etro",
  "8540": " speech",
  "8541": " thr",
  "8542": "foreach",
  "8543": " warn",
  "8544": "\tl",
  "8545": " heavy",
  "8546": "<li",
  "8547": "Ne",
  "8548": " investigation",
  "8549": "Math",
  "8550": "-title",
  "8551": " church",
  "8552": " despite",
  "8553": "chain",
  "8554": " whatever",
  "8555": "arian",
  "8556": "fn",
  "8557": " meta",
  "8558": "UFF",
  "8559": " regarding",
  "8560": "_SUCCESS",
  "8561": "mes",
  "8562": " Intent",
  "8563": " resolve",
  "8564": "poss",
  "8565": "ira",
  "8566": "force",
  "8567": "oice",
  "8568": "â",
  "8569": " pm",
  "8570": " updates",
  "8571": "Arr",
  "8572": " �",
  "8573": "testing",
  "8574": " toward",
  "8575": "ntax",
  "8576": "�",
  "8577": " listen",
  "8578": " goals",
  "8579": "InstanceState",
  "8580": "Dr",
  "8581": " rare",
  "8582": " trail",
  "8583": "Keys",
  "8584": "Cal",
  "8585": "Car",
  "8586": " People",
  "8587": "\tlocal",
  "8588": "classes",
  "8589": "Reference",
  "8590": ".forEach",
  "8591": "emb",
  "8592": "activ",
  "8593": " prim",
  "8594": "redict",
  "8595": " rad",
  "8596": ".Back",
  "8597": " spread",
  "8598": " clock",
  "8599": " vir",
  "8600": "editor",
  "8601": " efforts",
  "8602": " branch",
  "8603": " indust",
  "8604": " motor",
  "8605": " amb",
  "8606": " datetime",
  "8607": " rencont",
  "8608": " Christian",
  "8609": " Americans",
  "8610": "full",
  "8611": " fmt",
  "8612": ".main",
  "8613": " caused",
  "8614": "_update",
  "8615": " Content",
  "8616": "ATCH",
  "8617": " bath",
  "8618": " Each",
  "8619": " radio",
  "8620": "achment",
  "8621": "uzz",
  "8622": "Submit",
  "8623": " restrict",
  "8624": "abin",
  "8625": " Load",
  "8626": " extension",
  "8627": " essay",
  "8628": " hat",
  "8629": "aviour",
  "8630": "toBe",
  "8631": "\":[",
  "8632": " offered",
  "8633": " vill",
  "8634": "(double",
  "8635": "bc",
  "8636": "_free",
  "8637": " Miss",
  "8638": " Ber",
  "8639": " Like",
  "8640": " helped",
  "8641": ".getName",
  "8642": "_AL",
  "8643": " spirit",
  "8644": " Apache",
  "8645": "ws",
  "8646": " therefore",
  "8647": "(params",
  "8648": "_img",
  "8649": " peace",
  "8650": " incor",
  "8651": " EXPECT",
  "8652": " minor",
  "8653": "ipes",
  "8654": "\tdata",
  "8655": "selector",
  "8656": "city",
  "8657": "trie",
  "8658": ".base",
  "8659": "_frame",
  "8660": " opened",
  "8661": "/json",
  "8662": "LY",
  "8663": "nu",
  "8664": ".De",
  "8665": "tf",
  "8666": "margin",
  "8667": ".Parse",
  "8668": " pi",
  "8669": " eq",
  "8670": "bd",
  "8671": "Fields",
  "8672": " Tree",
  "8673": " ban",
  "8674": "istan",
  "8675": "\n        \n",
  "8676": "\tgl",
  "8677": " produced",
  "8678": "system",
  "8679": "Mark",
  "8680": "_hash",
  "8681": " bg",
  "8682": " constit",
  "8683": " League",
  "8684": " mission",
  "8685": "_format",
  "8686": "clusion",
  "8687": "!\"",
  "8688": "з",
  "8689": "break",
  "8690": "\tswitch",
  "8691": " ther",
  "8692": "Transform",
  "8693": " football",
  "8694": "-link",
  "8695": "route",
  "8696": ".auth",
  "8697": " bag",
  "8698": "overs",
  "8699": " enabled",
  "8700": " rac",
  "8701": "(I",
  "8702": "CR",
  "8703": "ancing",
  "8704": " managed",
  "8705": "_q",
  "8706": "NGTH",
  "8707": " mac",
  "8708": " Auto",
  "8709": "amente",
  "8710": " '',",
  "8711": ".Append",
  "8712": " pin",
  "8713": ".item",
  "8714": "acking",
  "8715": " occas",
  "8716": "person",
  "8717": " ti",
  "8718": ".Reg",
  "8719": " haven",
  "8720": " glass",
  "8721": " \"</",
  "8722": " Simple",
  "8723": "Print",
  "8724": " surround",
  "8725": "NO",
  "8726": "        \r\n",
  "8727": " Many",
  "8728": " \"_",
  "8729": " weekend",
  "8730": " somew",
  "8731": ".params",
  "8732": "small",
  "8733": "ATED",
  "8734": " plugin",
  "8735": "fields",
  "8736": " Initialize",
  "8737": "oon",
  "8738": "atile",
  "8739": "ye",
  "8740": " vous",
  "8741": "LAG",
  "8742": " older",
  "8743": " gam",
  "8744": " extremely",
  "8745": " het",
  "8746": "enum",
  "8747": " SET",
  "8748": "xff",
  "8749": " timer",
  "8750": "/index",
  "8751": " critical",
  "8752": "Rows",
  "8753": "_argument",
  "8754": " execute",
  "8755": " showing",
  "8756": ".xml",
  "8757": "-list",
  "8758": "Role",
  "8759": "typename",
  "8760": "_method",
  "8761": "that",
  "8762": "cher",
  "8763": " �",
  "8764": "XT",
  "8765": " thousands",
  "8766": "\tn",
  "8767": " resp",
  "8768": "_price",
  "8769": "olut",
  "8770": "Ag",
  "8771": " Two",
  "8772": " becomes",
  "8773": " hus",
  "8774": ".Use",
  "8775": "theme",
  "8776": "urb",
  "8777": "erialize",
  "8778": "ARN",
  "8779": " lose",
  "8780": "Lower",
  "8781": " vel",
  "8782": " defense",
  "8783": "condition",
  "8784": " bes",
  "8785": " dry",
  "8786": " scroll",
  "8787": ".Show",
  "8788": "IEL",
  "8789": "ор",
  "8790": " Rest",
  "8791": "Where",
  "8792": "oods",
  "8793": " Jes",
  "8794": " wire",
  "8795": "_INFO",
  "8796": " strings",
  "8797": "gment",
  "8798": " matches",
  "8799": " electric",
  "8800": " excellent",
  "8801": " Council",
  "8802": "idade",
  "8803": " wx",
  "8804": "push",
  "8805": "_entry",
  "8806": " tasks",
  "8807": " rich",
  "8808": "sa",
  "8809": " Smith",
  "8810": "UNCTION",
  "8811": "Pointer",
  "8812": "pective",
  "8813": " widget",
  "8814": "ista",
  "8815": " agency",
  "8816": " sich",
  "8817": "ologies",
  "8818": " trial",
  "8819": "alysis",
  "8820": ".check",
  "8821": "ARK",
  "8822": " onChange",
  "8823": "about",
  "8824": "',$",
  "8825": "(val",
  "8826": " placed",
  "8827": "_NO",
  "8828": " dan",
  "8829": ".equal",
  "8830": "\t     ",
  "8831": " weather",
  "8832": ".game",
  "8833": " destination",
  "8834": "_USER",
  "8835": "iece",
  "8836": " provider",
  "8837": ".last",
  "8838": "plex",
  "8839": "Note",
  "8840": "/js",
  "8841": " på",
  "8842": " planning",
  "8843": "attribute",
  "8844": "PRO",
  "8845": "atches",
  "8846": " <-",
  "8847": " seeing",
  "8848": " cancel",
  "8849": "_ind",
  "8850": ".keys",
  "8851": " visual",
  "8852": " Current",
  "8853": " College",
  "8854": " Rock",
  "8855": " agreement",
  "8856": " Store",
  "8857": "oving",
  "8858": " corner",
  "8859": "ampions",
  "8860": "ISE",
  "8861": "Fin",
  "8862": " protection",
  "8863": " fi",
  "8864": "Play",
  "8865": "plugin",
  "8866": ")}",
  "8867": ".frame",
  "8868": "-z",
  "8869": " transition",
  "8870": "igin",
  "8871": " candidate",
  "8872": " Union",
  "8873": "_values",
  "8874": "(map",
  "8875": "cle",
  "8876": " trend",
  "8877": "wide",
  "8878": "aren",
  "8879": "Loc",
  "8880": "UTH",
  "8881": " Bay",
  "8882": " smaller",
  "8883": "ius",
  "8884": "well",
  "8885": " criminal",
  "8886": " conflic",
  "8887": "bert",
  "8888": "_INT",
  "8889": " investment",
  "8890": "custom",
  "8891": " Session",
  "8892": "_write",
  "8893": "ania",
  "8894": " Mass",
  "8895": "_EQ",
  "8896": "_NOT",
  "8897": " violence",
  "8898": "Argument",
  "8899": "_email",
  "8900": " belong",
  "8901": "_function",
  "8902": " enemy",
  "8903": "ema",
  "8904": " Address",
  "8905": ".empty",
  "8906": " inner",
  "8907": " Contact",
  "8908": "Loader",
  "8909": "<input",
  "8910": " CA",
  "8911": "lot",
  "8912": " pictures",
  "8913": " Support",
  "8914": "_names",
  "8915": "Layer",
  "8916": " Click",
  "8917": "Sum",
  "8918": "æ",
  "8919": " Look",
  "8920": "uous",
  "8921": "Lib",
  "8922": "Flags",
  "8923": "team",
  "8924": "EP",
  "8925": "hat",
  "8926": "override",
  "8927": "apsed",
  "8928": " labels",
  "8929": "quis",
  "8930": " Stream",
  "8931": "_device",
  "8932": " Commit",
  "8933": "(root",
  "8934": "\"}",
  "8935": ".isEmpty",
  "8936": "\tM",
  "8937": " angle",
  "8938": " Because",
  "8939": "%%%%%%%%",
  "8940": " aim",
  "8941": " stick",
  "8942": "stmt",
  "8943": "agraph",
  "8944": "answer",
  "8945": " clin",
  "8946": " Isl",
  "8947": ".ext",
  "8948": " INT",
  "8949": " styles",
  "8950": " born",
  "8951": " scr",
  "8952": " expand",
  "8953": " raised",
  "8954": "TextBox",
  "8955": "ILL",
  "8956": "------------------------------------------------",
  "8957": "HTTP",
  "8958": ">)",
  "8959": "_char",
  "8960": "resource",
  "8961": " episode",
  "8962": " '_",
  "8963": " Es",
  "8964": " Earth",
  "8965": "  ",
  "8966": "UPDATE",
  "8967": " Sou",
  "8968": "uis",
  "8969": "types",
  "8970": " mas",
  "8971": " fav",
  "8972": " construct",
  "8973": "_rate",
  "8974": "eras",
  "8975": "roperties",
  "8976": " external",
  "8977": " applied",
  "8978": " prefix",
  "8979": "oted",
  "8980": "lers",
  "8981": " cold",
  "8982": " SP",
  "8983": " Church",
  "8984": " Output",
  "8985": "losed",
  "8986": "ificate",
  "8987": "operation",
  "8988": "herit",
  "8989": "xFF",
  "8990": ".env",
  "8991": "_err",
  "8992": "osh",
  "8993": "Direction",
  "8994": "Cancel",
  "8995": " Frank",
  "8996": " finding",
  "8997": " router",
  "8998": "・",
  "8999": "ses",
  "9000": " crow",
  "9001": "=='",
  "9002": " sand",
  "9003": " rid",
  "9004": "iture",
  "9005": " entre",
  "9006": " observ",
  "9007": " vac",
  "9008": "�",
  "9009": "-T",
  "9010": "Art",
  "9011": "night",
  "9012": ".search",
  "9013": " exchange",
  "9014": " district",
  "9015": ".os",
  "9016": " department",
  "9017": " documents",
  "9018": " century",
  "9019": " Next",
  "9020": "Host",
  "9021": " KIND",
  "9022": " susp",
  "9023": "-P",
  "9024": "rend",
  "9025": ".em",
  "9026": "uite",
  "9027": "isters",
  "9028": "(json",
  "9029": " Ann",
  "9030": "wt",
  "9031": "ati",
  "9032": " HTML",
  "9033": "when",
  "9034": "Directory",
  "9035": " shut",
  "9036": "<a",
  "9037": "edy",
  "9038": " healthy",
  "9039": " temperature",
  "9040": " Gen",
  "9041": " metal",
  "9042": " submit",
  "9043": " DO",
  "9044": " attract",
  "9045": " Word",
  "9046": " ll",
  "9047": " seemed",
  "9048": "ko",
  "9049": "IED",
  "9050": " labor",
  "9051": ".Context",
  "9052": " asset",
  "9053": "you",
  "9054": " cars",
  "9055": " Column",
  "9056": " ré",
  "9057": " square",
  "9058": " NSString",
  "9059": "”,",
  "9060": "apes",
  "9061": " thanks",
  "9062": "(props",
  "9063": " tick",
  "9064": " experiment",
  "9065": " prison",
  "9066": "tree",
  "9067": "-text",
  "9068": " IOException",
  "9069": "-width",
  "9070": "_STATUS",
  "9071": "fast",
  "9072": "-body",
  "9073": "-header",
  "9074": " guar",
  "9075": "crete",
  "9076": " Tim",
  "9077": " clearly",
  "9078": " Republican",
  "9079": " justify",
  "9080": "ит",
  "9081": "\t    ",
  "9082": "cache",
  "9083": ";//",
  "9084": " presence",
  "9085": " factors",
  "9086": " employee",
  "9087": "]))",
  "9088": "Member",
  "9089": " selector",
  "9090": "bor",
  "9091": " Mex",
  "9092": "utex",
  "9093": "_tag",
  "9094": "ailure",
  "9095": " Net",
  "9096": " reli",
  "9097": "EG",
  "9098": " fprintf",
  "9099": " teen",
  "9100": "loss",
  "9101": " leaving",
  "9102": "Delegate",
  "9103": " beat",
  "9104": " minute",
  "9105": "subscribe",
  "9106": " redistribute",
  "9107": "Constants",
  "9108": " cancer",
  "9109": "/{",
  "9110": "BL",
  "9111": " span",
  "9112": " Child",
  "9113": "Center",
  "9114": " earth",
  "9115": "YS",
  "9116": " Level",
  "9117": " sea",
  "9118": ".support",
  "9119": ".inner",
  "9120": ".Item",
  "9121": "illing",
  "9122": "    \n    \n",
  "9123": " Label",
  "9124": " Est",
  "9125": "(arg",
  "9126": "boBox",
  "9127": "\tforeach",
  "9128": "cos",
  "9129": "Failed",
  "9130": "swers",
  "9131": "Editor",
  "9132": "ront",
  "9133": " MP",
  "9134": "expr",
  "9135": " Life",
  "9136": " ??",
  "9137": "ör",
  "9138": " attend",
  "9139": " Que",
  "9140": " species",
  "9141": "-D",
  "9142": " aus",
  "9143": "Struct",
  "9144": " advantage",
  "9145": "oston",
  "9146": "-block",
  "9147": "initial",
  "9148": "CRE",
  "9149": " truly",
  "9150": " compare",
  "9151": "orney",
  "9152": " spect",
  "9153": "Full",
  "9154": "bes",
  "9155": " visible",
  "9156": " mess",
  "9157": "stances",
  "9158": " cloud",
  "9159": "_version",
  "9160": " furn",
  "9161": "icago",
  "9162": "LOW",
  "9163": " traffic",
  "9164": " fol",
  "9165": "rypto",
  "9166": " declar",
  "9167": " slot",
  "9168": " Ext",
  "9169": " England",
  "9170": " Under",
  "9171": " ta",
  "9172": "letter",
  "9173": " officer",
  "9174": " Donald",
  "9175": "Yes",
  "9176": "_json",
  "9177": "ITableView",
  "9178": " USE",
  "9179": "mployee",
  "9180": " opinion",
  "9181": " Aut",
  "9182": "border",
  "9183": " advice",
  "9184": " automatically",
  "9185": "isco",
  "9186": " mm",
  "9187": ".vis",
  "9188": "aml",
  "9189": " initialize",
  "9190": " ({",
  "9191": " generation",
  "9192": " bits",
  "9193": "clipse",
  "9194": " unf",
  "9195": "utors",
  "9196": "plt",
  "9197": " delta",
  "9198": "estroy",
  "9199": "isis",
  "9200": "<br",
  "9201": " limitations",
  "9202": " ended",
  "9203": " Mad",
  "9204": "ilm",
  "9205": "These",
  "9206": " Minister",
  "9207": " chart",
  "9208": "Fragment",
  "9209": " independent",
  "9210": "Year",
  "9211": " instr",
  "9212": " tags",
  "9213": "AVE",
  "9214": " Arch",
  "9215": "stop",
  "9216": "Progress",
  "9217": " mi",
  "9218": " learned",
  "9219": "Ge",
  "9220": " hotel",
  "9221": "SM",
  "9222": "TYPE",
  "9223": " cy",
  "9224": "ERSION",
  "9225": "unately",
  "9226": "limit",
  "9227": "sel",
  "9228": " movies",
  "9229": " steel",
  "9230": "oz",
  "9231": "gb",
  "9232": " Camp",
  "9233": "site",
  "9234": " Logger",
  "9235": "PLE",
  "9236": ".right",
  "9237": " Core",
  "9238": " mixed",
  "9239": "step",
  "9240": " puts",
  "9241": "super",
  "9242": "Router",
  "9243": ".Http",
  "9244": "lyph",
  "9245": " Colors",
  "9246": " androidx",
  "9247": ".str",
  "9248": " innov",
  "9249": " deck",
  "9250": "apers",
  "9251": "](",
  "9252": "continue",
  "9253": "spec",
  "9254": " Road",
  "9255": "ASH",
  "9256": "iliar",
  "9257": " continues",
  "9258": " appoint",
  "9259": " Vir",
  "9260": " ?>\"",
  "9261": " bin",
  "9262": "}\",",
  "9263": "going",
  "9264": "each",
  "9265": "BD",
  "9266": " Access",
  "9267": "Doc",
  "9268": " Management",
  "9269": "BER",
  "9270": "asket",
  "9271": ".getInstance",
  "9272": " established",
  "9273": "socket",
  "9274": "INS",
  "9275": "\tvirtual",
  "9276": "\tresult",
  "9277": "READ",
  "9278": "_height",
  "9279": " Font",
  "9280": "_html",
  "9281": " neighbor",
  "9282": "lor",
  "9283": " gather",
  "9284": " identity",
  "9285": " fab",
  "9286": "padding",
  "9287": " Route",
  "9288": "Enumerable",
  "9289": "ô",
  "9290": " forced",
  "9291": "/jquery",
  "9292": "resents",
  "9293": "_left",
  "9294": ".Param",
  "9295": "\tthrow",
  "9296": " Ham",
  "9297": " eventually",
  "9298": "acer",
  "9299": "pub",
  "9300": " tra",
  "9301": "unique",
  "9302": "del",
  "9303": " Florida",
  "9304": " Clean",
  "9305": "xa",
  "9306": " ·",
  "9307": " validate",
  "9308": "Visual",
  "9309": "Expression",
  "9310": "_func",
  "9311": "member",
  "9312": "\th",
  "9313": "trl",
  "9314": "\tG",
  "9315": "napshot",
  "9316": " PropTypes",
  "9317": "vin",
  "9318": "owl",
  "9319": "ifies",
  "9320": " $('.",
  "9321": " Context",
  "9322": " Toast",
  "9323": ".Key",
  "9324": " officers",
  "9325": "/n",
  "9326": "sn",
  "9327": "undefined",
  "9328": ".items",
  "9329": "utow",
  "9330": "amage",
  "9331": " accounts",
  "9332": "ookie",
  "9333": "Section",
  "9334": "icians",
  "9335": " advis",
  "9336": "(is",
  "9337": "[:,",
  "9338": " France",
  "9339": "Func",
  "9340": "icious",
  "9341": " tok",
  "9342": "Channel",
  "9343": " AD",
  "9344": "_NUM",
  "9345": " timeout",
  "9346": "lemma",
  "9347": "reme",
  "9348": "uj",
  "9349": ".Al",
  "9350": "uclear",
  "9351": "(os",
  "9352": "(\"<",
  "9353": "fetch",
  "9354": " bal",
  "9355": " guid",
  "9356": "-align",
  "9357": " Write",
  "9358": " Once",
  "9359": "utowired",
  "9360": "ODULE",
  "9361": " pitch",
  "9362": "CF",
  "9363": "bytes",
  "9364": " Commission",
  "9365": " incred",
  "9366": "PER",
  "9367": "_response",
  "9368": " Los",
  "9369": "parser",
  "9370": " assume",
  "9371": ".Request",
  "9372": " Token",
  "9373": "_position",
  "9374": " nom",
  "9375": "-term",
  "9376": " remaining",
  "9377": "iostream",
  "9378": " pieces",
  "9379": "apy",
  "9380": " Less",
  "9381": "range",
  "9382": "umbn",
  "9383": "prise",
  "9384": "_option",
  "9385": "Impl",
  "9386": "kwargs",
  "9387": " businesses",
  "9388": "Alert",
  "9389": " parties",
  "9390": " Container",
  "9391": " Private",
  "9392": " Plan",
  "9393": " registered",
  "9394": " jour",
  "9395": "acker",
  "9396": "ени",
  "9397": "/>",
  "9398": "chat",
  "9399": "sect",
  "9400": " creation",
  "9401": "olutely",
  "9402": " instant",
  "9403": " delivery",
  "9404": "icken",
  "9405": "yes",
  "9406": " Franc",
  "9407": "bling",
  "9408": "enda",
  "9409": "[(",
  "9410": "_range",
  "9411": "                                  ",
  "9412": " schedule",
  "9413": "Conn",
  "9414": " thank",
  "9415": "xd",
  "9416": " hook",
  "9417": " documentation",
  "9418": "Parameters",
  "9419": "Hello",
  "9420": "vt",
  "9421": " articles",
  "9422": " west",
  "9423": "defined",
  "9424": ".select",
  "9425": "okens",
  "9426": " VAL",
  "9427": ".file",
  "9428": "reset",
  "9429": " mys",
  "9430": " MA",
  "9431": "]),",
  "9432": " cities",
  "9433": "related",
  "9434": " appeared",
  "9435": " wid",
  "9436": ".panel",
  "9437": " Ins",
  "9438": ".entity",
  "9439": " decre",
  "9440": " Lou",
  "9441": "(time",
  "9442": " Thank",
  "9443": ".createElement",
  "9444": " mentioned",
  "9445": "ounce",
  "9446": " Try",
  "9447": " Wall",
  "9448": "/images",
  "9449": " Menu",
  "9450": " Er",
  "9451": " critic",
  "9452": " Year",
  "9453": "(param",
  "9454": " flo",
  "9455": "NN",
  "9456": "ooter",
  "9457": " Aff",
  "9458": "\"github",
  "9459": "rooms",
  "9460": " hyp",
  "9461": "global",
  "9462": " avec",
  "9463": " completion",
  "9464": " cond",
  "9465": "onymous",
  "9466": "(temp",
  "9467": " stars",
  "9468": " relevant",
  "9469": " covered",
  "9470": " elim",
  "9471": "_types",
  "9472": "(bool",
  "9473": " tu",
  "9474": "_exists",
  "9475": " secure",
  "9476": " stored",
  "9477": "]/",
  "9478": "xF",
  "9479": " Controller",
  "9480": " migr",
  "9481": "MI",
  "9482": " Den",
  "9483": " annual",
  "9484": "UIL",
  "9485": "-and",
  "9486": " crime",
  "9487": "bel",
  "9488": " kitchen",
  "9489": "@g",
  "9490": "_ph",
  "9491": "ournament",
  "9492": " Social",
  "9493": " Special",
  "9494": "logger",
  "9495": " tail",
  "9496": " unknown",
  "9497": "ded",
  "9498": " apprec",
  "9499": "(db",
  "9500": "cf",
  "9501": " assign",
  "9502": "-out",
  "9503": " Mont",
  "9504": "dp",
  "9505": "widget",
  "9506": " stone",
  "9507": "-primary",
  "9508": ".grid",
  "9509": "Results",
  "9510": "azz",
  "9511": " daughter",
  "9512": " curr",
  "9513": " lin",
  "9514": " south",
  "9515": "forms",
  "9516": " OUT",
  "9517": "lette",
  "9518": "aks",
  "9519": "igure",
  "9520": " EU",
  "9521": "variable",
  "9522": " brief",
  "9523": " Scott",
  "9524": " conference",
  "9525": "anda",
  "9526": "_lock",
  "9527": "oral",
  "9528": " eine",
  "9529": "ORS",
  "9530": "////////////////////////////////////////////////////////////////",
  "9531": "esso",
  "9532": " ris",
  "9533": " gender",
  "9534": "estic",
  "9535": "License",
  "9536": "(out",
  "9537": " ms",
  "9538": "See",
  "9539": " willing",
  "9540": "aze",
  "9541": " sports",
  "9542": " yes",
  "9543": "lu",
  "9544": " purs",
  "9545": "/javascript",
  "9546": "-pro",
  "9547": "navbar",
  "9548": "_product",
  "9549": "/bootstrap",
  "9550": " driving",
  "9551": " �",
  "9552": " propos",
  "9553": "ultip",
  "9554": "uplic",
  "9555": ".email",
  "9556": " approx",
  "9557": "(cl",
  "9558": " wear",
  "9559": " reply",
  "9560": "asset",
  "9561": " ice",
  "9562": " tx",
  "9563": "kr",
  "9564": " Germany",
  "9565": " George",
  "9566": " cb",
  "9567": "\terr",
  "9568": "Move",
  "9569": " poly",
  "9570": "voice",
  "9571": "}\"",
  "9572": " animal",
  "9573": "Av",
  "9574": " Location",
  "9575": " native",
  "9576": "][\"",
  "9577": "<double",
  "9578": " mais",
  "9579": ",int",
  "9580": " prepar",
  "9581": " interval",
  "9582": "plementation",
  "9583": "_ERR",
  "9584": " bug",
  "9585": ">\"",
  "9586": "stat",
  "9587": "<span",
  "9588": " faith",
  "9589": " rom",
  "9590": "prev",
  "9591": " Elect",
  "9592": "Find",
  "9593": " god",
  "9594": "otor",
  "9595": "//----------------------------------------------------------------",
  "9596": "original",
  "9597": "Cpp",
  "9598": " Senate",
  "9599": " positions",
  "9600": " weapons",
  "9601": " coff",
  "9602": " purposes",
  "9603": "pol",
  "9604": " impress",
  "9605": " animals",
  "9606": ".Entity",
  "9607": "(np",
  "9608": " murder",
  "9609": " ``",
  "9610": "flag",
  "9611": " solutions",
  "9612": " Active",
  "9613": " bright",
  "9614": ".date",
  "9615": " situ",
  "9616": "（",
  "9617": ".ID",
  "9618": " sie",
  "9619": "akt",
  "9620": "Space",
  "9621": ".dat",
  "9622": ".indexOf",
  "9623": "han",
  "9624": "azine",
  "9625": " Ze",
  "9626": " crash",
  "9627": "(/",
  "9628": ">=",
  "9629": "б",
  "9630": "iva",
  "9631": ".AutoSize",
  "9632": " Lat",
  "9633": "_ext",
  "9634": "Initialize",
  "9635": ".register",
  "9636": "OPY",
  "9637": " reverse",
  "9638": "_dis",
  "9639": "'][",
  "9640": " prompt",
  "9641": "onto",
  "9642": " Journal",
  "9643": "router",
  "9644": " mysqli",
  "9645": "#else",
  "9646": ")\"",
  "9647": "-xs",
  "9648": "lets",
  "9649": "phan",
  "9650": ".LE",
  "9651": "Will",
  "9652": " afford",
  "9653": " skill",
  "9654": "-toggle",
  "9655": "NC",
  "9656": "Bind",
  "9657": "TS",
  "9658": "Just",
  "9659": "iteral",
  "9660": "YP",
  "9661": "\tunsigned",
  "9662": " wind",
  "9663": " warning",
  "9664": " Water",
  "9665": " draft",
  "9666": " cm",
  "9667": " sam",
  "9668": " holding",
  "9669": "zip",
  "9670": " Science",
  "9671": " supposed",
  "9672": "Gen",
  "9673": " diet",
  "9674": "<h",
  "9675": " Pass",
  "9676": "vi",
  "9677": " husband",
  "9678": "��",
  "9679": "note",
  "9680": " About",
  "9681": " Institute",
  "9682": " climate",
  "9683": ".Format",
  "9684": " nut",
  "9685": "ested",
  "9686": " apparent",
  "9687": " holds",
  "9688": "fi",
  "9689": "news",
  "9690": "CM",
  "9691": "video",
  "9692": "':'",
  "9693": "DITION",
  "9694": "ping",
  "9695": " senior",
  "9696": "wa",
  "9697": "_default",
  "9698": " Database",
  "9699": "rep",
  "9700": "ESS",
  "9701": "nergy",
  "9702": ".Find",
  "9703": "_mask",
  "9704": " rise",
  "9705": " kernel",
  "9706": "::$",
  "9707": ".Q",
  "9708": " offering",
  "9709": "decl",
  "9710": " CS",
  "9711": " listed",
  "9712": " mostly",
  "9713": "enger",
  "9714": " blocks",
  "9715": "olo",
  "9716": " governing",
  "9717": "\\F",
  "9718": " concent",
  "9719": ".getText",
  "9720": " mb",
  "9721": " occurred",
  "9722": " changing",
  "9723": "Scene",
  "9724": "_CODE",
  "9725": "Beh",
  "9726": "\"The",
  "9727": " tile",
  "9728": " Association",
  "9729": "\tP",
  "9730": "alty",
  "9731": "_ad",
  "9732": "odies",
  "9733": "iated",
  "9734": " prepared",
  "9735": "possible",
  "9736": " mort",
  "9737": "TEST",
  "9738": " ignore",
  "9739": " calc",
  "9740": " rs",
  "9741": " assertEquals",
  "9742": " sz",
  "9743": " THIS",
  "9744": " canvas",
  "9745": "java",
  "9746": " dut",
  "9747": "VALID",
  "9748": ".sql",
  "9749": ".input",
  "9750": " aux",
  "9751": "Sup",
  "9752": " artist",
  "9753": "Vec",
  "9754": "_TIME",
  "9755": ".stringify",
  "9756": "etween",
  "9757": " Category",
  "9758": " [-",
  "9759": " DevExpress",
  "9760": " Jul",
  "9761": " ring",
  "9762": ".ed",
  "9763": "YY",
  "9764": "Let",
  "9765": "TextField",
  "9766": " flat",
  "9767": "_print",
  "9768": " OTHER",
  "9769": "adian",
  "9770": " checked",
  "9771": "ele",
  "9772": "Align",
  "9773": "standing",
  "9774": " [],",
  "9775": " lab",
  "9776": "ucky",
  "9777": " Christmas",
  "9778": "(image",
  "9779": ".module",
  "9780": " lots",
  "9781": " slightly",
  "9782": "(final",
  "9783": "erge",
  "9784": " Police",
  "9785": " Right",
  "9786": " award",
  "9787": " OS",
  "9788": " ptr",
  "9789": "oves",
  "9790": "icated",
  "9791": " manage",
  "9792": "oliday",
  "9793": "Amount",
  "9794": "oolStrip",
  "9795": "tbody",
  "9796": "Nav",
  "9797": "wrap",
  "9798": "BB",
  "9799": " watching",
  "9800": "arios",
  "9801": " optional",
  "9802": "_K",
  "9803": " Licensed",
  "9804": ".Map",
  "9805": "Timer",
  "9806": " AP",
  "9807": " Rev",
  "9808": "(o",
  "9809": ",c",
  "9810": "umin",
  "9811": "etailed",
  "9812": " Hy",
  "9813": " blank",
  "9814": "agger",
  "9815": " Self",
  "9816": "()[",
  "9817": ".make",
  "9818": "earn",
  "9819": "channel",
  "9820": "<pre",
  "9821": "blem",
  "9822": "_password",
  "9823": "_sp",
  "9824": "icing",
  "9825": "ez",
  "9826": " theory",
  "9827": " Ter",
  "9828": ",n",
  "9829": "logo",
  "9830": " HTTP",
  "9831": "()))",
  "9832": ".handle",
  "9833": "World",
  "9834": " python",
  "9835": " lif",
  "9836": " trav",
  "9837": " conven",
  "9838": "company",
  "9839": " Club",
  "9840": "Ver",
  "9841": "Btn",
  "9842": " zone",
  "9843": "products",
  "9844": " Educ",
  "9845": " verify",
  "9846": " Mil",
  "9847": "ono",
  "9848": "ENCE",
  "9849": " packet",
  "9850": " cer",
  "9851": " enumer",
  "9852": " pars",
  "9853": "formed",
  "9854": " occup",
  "9855": "tre",
  "9856": " exercise",
  "9857": "Day",
  "9858": "_sum",
  "9859": " asking",
  "9860": "aption",
  "9861": " orders",
  "9862": " spending",
  "9863": " ERR",
  "9864": ".Dis",
  "9865": " Util",
  "9866": "“I",
  "9867": "\\'",
  "9868": "?)",
  "9869": " emot",
  "9870": " influence",
  "9871": " Africa",
  "9872": "atters",
  "9873": "م",
  "9874": ".session",
  "9875": " chief",
  "9876": "\t\t\t\t\t\t\t\t\t\t\t",
  "9877": " tom",
  "9878": "cluded",
  "9879": "serial",
  "9880": "_handler",
  "9881": ".Type",
  "9882": "aped",
  "9883": " policies",
  "9884": "-ex",
  "9885": "-tr",
  "9886": "blank",
  "9887": "merce",
  "9888": " coverage",
  "9889": " rc",
  "9890": "_matrix",
  "9891": "_box",
  "9892": " charges",
  "9893": " Boston",
  "9894": "Pe",
  "9895": " circum",
  "9896": " filled",
  "9897": " north",
  "9898": "ictureBox",
  "9899": "\tres",
  "9900": " termin",
  "9901": " […",
  "9902": "IRECT",
  "9903": " ber",
  "9904": " \"../../",
  "9905": "retch",
  "9906": ".code",
  "9907": "_col",
  "9908": " Government",
  "9909": " argv",
  "9910": " Lord",
  "9911": "asi",
  "9912": "Exec",
  "9913": "\tlet",
  "9914": "vertis",
  "9915": " discussion",
  "9916": "enance",
  "9917": "outube",
  "9918": "typeof",
  "9919": " served",
  "9920": " Put",
  "9921": "\tx",
  "9922": " sweet",
  "9923": "Before",
  "9924": "ategy",
  "9925": ".of",
  "9926": " Material",
  "9927": "Sort",
  "9928": "ONT",
  "9929": "igital",
  "9930": "Why",
  "9931": " sust",
  "9932": "abet",
  "9933": " segment",
  "9934": " Muslim",
  "9935": " findViewById",
  "9936": "cut",
  "9937": "_TEXT",
  "9938": " Mary",
  "9939": " loved",
  "9940": " lie",
  "9941": " JO",
  "9942": " isset",
  "9943": "month",
  "9944": " prime",
  "9945": "ti",
  "9946": " Carol",
  "9947": "Use",
  "9948": " Pop",
  "9949": " Save",
  "9950": "Interval",
  "9951": "execute",
  "9952": "dy",
  "9953": " Iran",
  "9954": "_cont",
  "9955": "\tT",
  "9956": " phase",
  "9957": "checkbox",
  "9958": "week",
  "9959": " hide",
  "9960": " til",
  "9961": " ju",
  "9962": "Custom",
  "9963": "burg",
  "9964": "/M",
  "9965": "TON",
  "9966": " quant",
  "9967": " rub",
  "9968": "ixels",
  "9969": " installed",
  "9970": " dump",
  "9971": " properly",
  "9972": "(List",
  "9973": " decide",
  "9974": "apply",
  "9975": "Has",
  "9976": " keeping",
  "9977": " citizens",
  "9978": " joint",
  "9979": "pool",
  "9980": "Socket",
  "9981": "_op",
  "9982": " weapon",
  "9983": "gnore",
  "9984": " Exec",
  "9985": "otten",
  "9986": " MS",
  "9987": " (-",
  "9988": " Review",
  "9989": " examples",
  "9990": " tight",
  "9991": "!(",
  "9992": "DP",
  "9993": " MessageBox",
  "9994": " photograph",
  "9995": "URI",
  "9996": "ét",
  "9997": "low",
  "9998": " Grand",
  "9999": ".persistence",
  "10000": " maintain",
  "10001": " nums",
  "10002": " zip",
  "10003": "ials",
  "10004": " Gets",
  "10005": "peg",
  "10006": " Buffer",
  "10007": "~~~~",
  "10008": "rastructure",
  "10009": " PL",
  "10010": "uen",
  "10011": "obby",
  "10012": "sizeof",
  "10013": " pic",
  "10014": " seed",
  "10015": " experienced",
  "10016": " odd",
  "10017": " kick",
  "10018": " procedure",
  "10019": "avigator",
  "10020": "-on",
  "10021": ",j",
  "10022": " Although",
  "10023": " userId",
  "10024": "accept",
  "10025": "Blue",
  "10026": "IColor",
  "10027": "layer",
  "10028": "available",
  "10029": " ends",
  "10030": ".table",
  "10031": " dataset",
  "10032": "bus",
  "10033": " explain",
  "10034": "(pro",
  "10035": " Committee",
  "10036": " noted",
  "10037": "Dim",
  "10038": "stdio",
  "10039": "_source",
  "10040": " Week",
  "10041": " Edge",
  "10042": " operating",
  "10043": " este",
  "10044": "ipl",
  "10045": "agination",
  "10046": " proceed",
  "10047": " animation",
  "10048": ".Models",
  "10049": " Watch",
  "10050": "iat",
  "10051": " oppon",
  "10052": "/A",
  "10053": "Report",
  "10054": " sounds",
  "10055": "_buf",
  "10056": "IELD",
  "10057": " bund",
  "10058": "\tget",
  "10059": ".pr",
  "10060": "(tmp",
  "10061": " kid",
  "10062": " yang",
  "10063": "NotFound",
  "10064": "ц",
  "10065": "math",
  "10066": "@gmail",
  "10067": " LIMIT",
  "10068": "redients",
  "10069": " vent",
  "10070": "avigate",
  "10071": "Look",
  "10072": " religious",
  "10073": " rand",
  "10074": "rio",
  "10075": "(GL",
  "10076": "_ip",
  "10077": "uan",
  "10078": "iciency",
  "10079": " Change",
  "10080": " Entity",
  "10081": " rencontre",
  "10082": " Ret",
  "10083": "plan",
  "10084": "én",
  "10085": "BOOL",
  "10086": "uries",
  "10087": "train",
  "10088": "Definition",
  "10089": "============",
  "10090": "zz",
  "10091": "Animation",
  "10092": " OK",
  "10093": "_menu",
  "10094": ".bl",
  "10095": "_score",
  "10096": " acad",
  "10097": "(System",
  "10098": " refresh",
  "10099": "'=>$",
  "10100": ".Graphics",
  "10101": "amento",
  "10102": "pid",
  "10103": "tc",
  "10104": " tips",
  "10105": " homes",
  "10106": " fuel",
  "10107": "�",
  "10108": "_helper",
  "10109": "  \r\n",
  "10110": " Room",
  "10111": ".Close",
  "10112": "_attr",
  "10113": " Mount",
  "10114": " Ev",
  "10115": "arser",
  "10116": "_top",
  "10117": "eah",
  "10118": " Delete",
  "10119": "」",
  "10120": "uke",
  "10121": " usage",
  "10122": "aria",
  "10123": "_dev",
  "10124": " texture",
  "10125": " conversation",
  "10126": "eper",
  "10127": "Bean",
  "10128": "done",
  "10129": "nonatomic",
  "10130": " Second",
  "10131": " shooting",
  "10132": "_pre",
  "10133": "Components",
  "10134": "__,",
  "10135": "stitution",
  "10136": ".Char",
  "10137": " presented",
  "10138": " wa",
  "10139": "oker",
  "10140": "iner",
  "10141": " becoming",
  "10142": " incident",
  "10143": "Att",
  "10144": " revealed",
  "10145": "forc",
  "10146": " boot",
  "10147": ".page",
  "10148": "Enumerator",
  "10149": "_->",
  "10150": "Photo",
  "10151": " spring",
  "10152": ".\",",
  "10153": " Dictionary",
  "10154": "BJECT",
  "10155": " locations",
  "10156": " samples",
  "10157": "InputStream",
  "10158": " Brown",
  "10159": " stats",
  "10160": "quality",
  "10161": "х",
  "10162": "-dis",
  "10163": " helping",
  "10164": " ped",
  "10165": "(se",
  "10166": " Who",
  "10167": "alian",
  "10168": "internal",
  "10169": " ft",
  "10170": ">().",
  "10171": "->{",
  "10172": " mine",
  "10173": " sector",
  "10174": " gro",
  "10175": " opportunities",
  "10176": " ü",
  "10177": " mp",
  "10178": " alleged",
  "10179": " doubt",
  "10180": "Mouse",
  "10181": "About",
  "10182": "_part",
  "10183": " chair",
  "10184": " stopped",
  "10185": "loop",
  "10186": "entities",
  "10187": " apps",
  "10188": "ansion",
  "10189": " mental",
  "10190": "                                         ",
  "10191": "FR",
  "10192": " defend",
  "10193": "care",
  "10194": " ideal",
  "10195": "/api",
  "10196": "urface",
  "10197": " ele",
  "10198": "ulator",
  "10199": " Rights",
  "10200": "anguages",
  "10201": " funds",
  "10202": " adapt",
  "10203": "Attributes",
  "10204": " deploy",
  "10205": "opts",
  "10206": " validation",
  "10207": " concerns",
  "10208": "uce",
  "10209": ".num",
  "10210": "ulture",
  "10211": "ila",
  "10212": " cup",
  "10213": " pure",
  "10214": ".Fore",
  "10215": " HashMap",
  "10216": ".valueOf",
  "10217": "asm",
  "10218": "MO",
  "10219": " cs",
  "10220": " stores",
  "10221": " ************************************************************************",
  "10222": " communication",
  "10223": "mem",
  "10224": ".EventHandler",
  "10225": ".Status",
  "10226": "_right",
  "10227": ".setOn",
  "10228": "Sheet",
  "10229": " identify",
  "10230": "enerated",
  "10231": "ordered",
  "10232": " \"[",
  "10233": " swe",
  "10234": "Condition",
  "10235": " According",
  "10236": " prepare",
  "10237": " rob",
  "10238": "Pool",
  "10239": " sport",
  "10240": "rv",
  "10241": " Router",
  "10242": " alternative",
  "10243": "([]",
  "10244": " Chicago",
  "10245": "ipher",
  "10246": "ische",
  "10247": " Director",
  "10248": "kl",
  "10249": " Wil",
  "10250": "keys",
  "10251": " mysql",
  "10252": " welcome",
  "10253": "king",
  "10254": " Manager",
  "10255": " caught",
  "10256": "Score",
  "10257": "_PR",
  "10258": " survey",
  "10259": "hab",
  "10260": "Headers",
  "10261": "ADER",
  "10262": " decor",
  "10263": " turns",
  "10264": " radius",
  "10265": "errupt",
  "10266": "Cor",
  "10267": " mel",
  "10268": " intr",
  "10269": "(q",
  "10270": " AC",
  "10271": "amos",
  "10272": "MAX",
  "10273": " Grid",
  "10274": " Jesus",
  "10275": "                                    ",
  "10276": ".DE",
  "10277": " ts",
  "10278": " linked",
  "10279": "free",
  "10280": " Qt",
  "10281": " faster",
  "10282": "ctr",
  "10283": "_J",
  "10284": "DT",
  "10285": ".Check",
  "10286": " combination",
  "10287": " intended",
  "10288": "-the",
  "10289": "-type",
  "10290": "ectors",
  "10291": "ami",
  "10292": "uting",
  "10293": " uma",
  "10294": "XML",
  "10295": "UCT",
  "10296": "Ap",
  "10297": " Random",
  "10298": " ran",
  "10299": ".sort",
  "10300": " sorted",
  "10301": ".Un",
  "10302": "_PER",
  "10303": "itory",
  "10304": " priority",
  "10305": " Gal",
  "10306": " Old",
  "10307": "hot",
  "10308": " Display",
  "10309": "(sub",
  "10310": "_TH",
  "10311": "_Y",
  "10312": " Care",
  "10313": "loading",
  "10314": "Kind",
  "10315": "_handle",
  "10316": ",,",
  "10317": "rase",
  "10318": "_replace",
  "10319": ".addEventListener",
  "10320": " RT",
  "10321": " entered",
  "10322": "gers",
  "10323": " ich",
  "10324": "(start",
  "10325": "/app",
  "10326": " brother",
  "10327": "Memory",
  "10328": "Outlet",
  "10329": " utf",
  "10330": "prec",
  "10331": " navigation",
  "10332": "ORK",
  "10333": " dst",
  "10334": "Detail",
  "10335": " audience",
  "10336": " dur",
  "10337": " cluster",
  "10338": "unched",
  "10339": " ],",
  "10340": " comfortable",
  "10341": ".values",
  "10342": " Total",
  "10343": " snap",
  "10344": " standards",
  "10345": " performed",
  "10346": "hand",
  "10347": "(\"@",
  "10348": " phil",
  "10349": "ibr",
  "10350": "trim",
  "10351": " forget",
  "10352": " doctor",
  "10353": ".TextBox",
  "10354": "icons",
  "10355": ",s",
  "10356": " Op",
  "10357": "Sm",
  "10358": "Stop",
  "10359": "\tList",
  "10360": "\tu",
  "10361": "Comment",
  "10362": "_VERSION",
  "10363": ".Xtra",
  "10364": "Person",
  "10365": "rb",
  "10366": "LOB",
  "10367": "                    \n",
  "10368": " Central",
  "10369": "ICK",
  "10370": "raq",
  "10371": " putting",
  "10372": " md",
  "10373": " Love",
  "10374": "Program",
  "10375": "Border",
  "10376": "oor",
  "10377": " allowing",
  "10378": "after",
  "10379": " entries",
  "10380": " Maybe",
  "10381": "]).",
  "10382": " Short",
  "10383": ")\\",
  "10384": ".now",
  "10385": "friend",
  "10386": " prefer",
  "10387": " GPIO",
  "10388": "osis",
  "10389": " GameObject",
  "10390": " skip",
  "10391": " competition",
  "10392": "_match",
  "10393": "lications",
  "10394": "_CONT",
  "10395": ".groupBox",
  "10396": " als",
  "10397": "\"We",
  "10398": "_eq",
  "10399": "lan",
  "10400": "_search",
  "10401": " Music",
  "10402": "asis",
  "10403": " bind",
  "10404": " Island",
  "10405": "rum",
  "10406": "(E",
  "10407": " seat",
  "10408": "Video",
  "10409": " ack",
  "10410": "reek",
  "10411": "={()",
  "10412": " rating",
  "10413": " restaurant",
  "10414": "DEX",
  "10415": "(buf",
  "10416": "pping",
  "10417": "uality",
  "10418": " league",
  "10419": " focused",
  "10420": "apon",
  "10421": "$data",
  "10422": "CLUD",
  "10423": "CLUDING",
  "10424": " absolute",
  "10425": "(query",
  "10426": " tells",
  "10427": "Ang",
  "10428": " communities",
  "10429": " honest",
  "10430": "oking",
  "10431": " apart",
  "10432": "arity",
  "10433": "/$",
  "10434": "_module",
  "10435": " Enc",
  "10436": ".an",
  "10437": ".Config",
  "10438": "Cre",
  "10439": " shock",
  "10440": " Arab",
  "10441": "IENT",
  "10442": "/re",
  "10443": " retrie",
  "10444": "ycler",
  "10445": "isa",
  "10446": " Organ",
  "10447": ".graph",
  "10448": " �",
  "10449": " BAS",
  "10450": "Enum",
  "10451": " possibly",
  "10452": " Japanese",
  "10453": " craft",
  "10454": " Place",
  "10455": " talent",
  "10456": " funding",
  "10457": " confirmed",
  "10458": " cycle",
  "10459": "/x",
  "10460": "GE",
  "10461": " hearing",
  "10462": " plants",
  "10463": " mouth",
  "10464": "pages",
  "10465": "oria",
  "10466": " Remove",
  "10467": "_total",
  "10468": " od",
  "10469": "ollapse",
  "10470": "door",
  "10471": " bought",
  "10472": " addr",
  "10473": "ARCH",
  "10474": "_dim",
  "10475": "dden",
  "10476": " decades",
  "10477": "REQUEST",
  "10478": " versions",
  "10479": "fire",
  "10480": " moves",
  "10481": "fb",
  "10482": " coffee",
  "10483": ".connect",
  "10484": " Row",
  "10485": " schema",
  "10486": "Scope",
  "10487": "-Type",
  "10488": " fighting",
  "10489": " retail",
  "10490": " modified",
  "10491": "TF",
  "10492": "Files",
  "10493": "nie",
  "10494": "_command",
  "10495": "stone",
  "10496": " т",
  "10497": "_thread",
  "10498": " bond",
  "10499": " Development",
  "10500": " pt",
  "10501": "FORM",
  "10502": "plet",
  "10503": " identified",
  "10504": "cpp",
  "10505": " coding",
  "10506": "oked",
  "10507": " Master",
  "10508": "IDTH",
  "10509": " residents",
  "10510": "redit",
  "10511": " Photo",
  "10512": "=-",
  "10513": "unte",
  "10514": "ateur",
  "10515": "_STATE",
  "10516": " Sing",
  "10517": " sheet",
  "10518": ".val",
  "10519": "orse",
  "10520": " hers",
  "10521": " determined",
  "10522": "Common",
  "10523": " wed",
  "10524": "_queue",
  "10525": "PH",
  "10526": " Atl",
  "10527": "cred",
  "10528": "/LICENSE",
  "10529": " mes",
  "10530": " advanced",
  "10531": ".java",
  "10532": ".Sh",
  "10533": "Go",
  "10534": "kill",
  "10535": "fp",
  "10536": "_settings",
  "10537": " pal",
  "10538": " truck",
  "10539": " combined",
  "10540": " \"${",
  "10541": " Corpor",
  "10542": " joined",
  "10543": " Jose",
  "10544": " Cup",
  "10545": "uns",
  "10546": "estival",
  "10547": "levision",
[...]
