{
  "0": "<s>",
  "1": "<pad>",
  "2": "</s>",
  "3": "<unk>",
  "4": "\n",
  "5": " ",
  "6": "!",
  "7": "\"",
  "8": "#",
  "9": "$",
  "10": "%",
  "11": "&",
  "12": "'",
  "13": "(",
  "14": ")",
  "15": "*",
  "16": "+",
  "17": ",",
  "18": "-",
  "19": ".",
  "20": "/",
  "21": "0",
  "22": "1",
  "23": "2",
  "24": "3",
  "25": "4",
  "26": "5",
  "27": "6",
  "28": "7",
  "29": "8",
  "30": "9",
  "31": ":",
  "32": ";",
  "33": "<",
  "34": "=",
  "35": ">",
  "36": "?",
  "37": "@",
  "38": "A",
  "39": "B",
  "40": "C",
  "41": "D",
  "42": "E",
  "43": "F",
  "44": "G",
  "45": "H",
  "46": "I",
  "47": "J",
  "48": "K",
  "49": "L",
  "50": "M",
  "51": "N",
  "52": "O",
  "53": "P",
  "54": "Q",
  "55": "R",
  "56": "S",
  "57": "T",
  "58": "U",
  "59": "V",
  "60": "W",
  "61": "X",
  "62": "Y",
  "63": "Z",
  "64": "[",
  "65": "\\",
  "66": "]",
  "67": "^",
  "68": "_",
  "69": "`",
  "70": "a",
  "71": "b",
  "72": "c",
  "73": "d",
  "74": "e",
  "75": "f",
  "76": "g",
  "77": "h",
  "78": "i",
  "79": "j",
  "80": "k",
  "81": "l",
  "82": "m",
  "83": "n",
  "84": "o",
  "85": "p",
  "86": "q",
  "87": "r",
  "88": "s",
  "89": "t",
  "90": "u",
  "91": "v",
  "92": "w",
  "93": "x",
  "94": "y",
  "95": "z",
  "96": "{",
  "97": "|",
  "98": "}",
  "99": "~",
  "100": "",
  "101": "",
  "102": "",
  "103": "",
  "104": "",
  "105": "",
  "106": "",
  "107": "",
  "108": "",
  "109": "",
  "110": "",
  "111": "",
  "112": "",
  "113": "",
  "114": "",
  "115": " ",
  "116": "¡",
  "117": "¢",
  "118": "£",
  "119": "¤",
  "120": "¥",
  "121": "¦",
  "122": "§",
  "123": "¨",
  "124": "©",
  "125": "ª",
  "126": "«",
  "127": "¬",
  "128": "­",
  "129": "®",
  "130": "¯",
  "131": "°",
  "132": "±",
  "133": "²",
  "134": "³",
  "135": "´",
  "136": "µ",
  "137": "¶",
  "138": "·",
  "139": "¹",
  "140": "º",
  "141": "»",
  "142": "¼",
  "143": "½",
  "144": "¾",
  "145": "¿",
  "146": "À",
  "147": "Á",
  "148": "Â",
  "149": "Ã",
  "150": "Ä",
  "151": "Å",
  "152": "Æ",
  "153": "Ç",
  "154": "È",
  "155": "É",
  "156": "Ê",
  "157": "Ì",
  "158": "Í",
  "159": "Î",
  "160": "Ï",
  "161": "Ò",
  "162": "Ó",
  "163": "Ô",
  "164": "Õ",
  "165": "Ö",
  "166": "×",
  "167": "Ø",
  "168": "Ú",
  "169": "Ü",
  "170": "Ý",
  "171": "Þ",
  "172": "ß",
  "173": "à",
  "174": "á",
  "175": "â",
  "176": "ã",
  "177": "ä",
  "178": "å",
  "179": "æ",
  "180": "ç",
  "181": "è",
  "182": "é",
  "183": "ê",
  "184": "ë",
  "185": "ì",
  "186": "í",
  "187": "î",
  "188": "ï",
  "189": "ð",
  "190": "ñ",
  "191": "ò",
  "192": "ó",
  "193": "ô",
  "194": "õ",
  "195": "ö",
  "196": "÷",
  "197": "ø",
  "198": "ù",
  "199": "ú",
  "200": "û",
  "201": "ü",
  "202": "ý",
  "203": "þ",
  "204": "ÿ",
  "205": "Ā",
  "206": "ā",
  "207": "ă",
  "208": "ą",
  "209": "Ć",
  "210": "ć",
  "211": "Č",
  "212": "č",
  "213": "ď",
  "214": "Đ",
  "215": "đ",
  "216": "Ē",
  "217": "ē",
  "218": "ĕ",
  "219": "ę",
  "220": "ě",
  "221": "ğ",
  "222": "ĩ",
  "223": "Ī",
  "224": "ī",
  "225": "İ",
  "226": "ı",
  "227": "ĳ",
  "228": "Ł",
  "229": "ł",
  "230": "ń",
  "231": "ň",
  "232": "Ŋ",
  "233": "ŋ",
  "234": "Ō",
  "235": "ō",
  "236": "ŏ",
  "237": "ő",
  "238": "Œ",
  "239": "œ",
  "240": "Ř",
  "241": "ř",
  "242": "Ś",
  "243": "ś",
  "244": "Ş",
  "245": "ş",
  "246": "Š",
  "247": "š",
  "248": "ţ",
  "249": "Ť",
  "250": "ť",
  "251": "ũ",
  "252": "Ū",
  "253": "ū",
  "254": "ŭ",
  "255": "ů",
  "256": "ű",
  "257": "Ÿ",
  "258": "Ź",
  "259": "ź",
  "260": "Ż",
  "261": "ż",
  "262": "Ž",
  "263": "ž",
  "264": "ƀ",
  "265": "Ɔ",
  "266": "Ɛ",
  "267": "ƒ",
  "268": "Ɲ",
  "269": "ơ",
  "270": "Ư",
  "271": "ư",
  "272": "ǎ",
  "273": "ǐ",
  "274": "ǔ",
  "275": "Ǫ",
  "276": "Ș",
  "277": "ș",
  "278": "Ț",
  "279": "ț",
  "280": "ɑ",
  "281": "ɔ",
  "282": "ɗ",
  "283": "ə",
  "284": "ɛ",
  "285": "ɡ",
  "286": "ɣ",
  "287": "ɨ",
  "288": "ɪ",
  "289": "ɬ",
  "290": "ɲ",
  "291": "ɾ",
  "292": "ʁ",
  "293": "ʃ",
  "294": "ʌ",
  "295": "ʔ",
  "296": "ʖ",
  "297": "ʰ",
  "298": "ʷ",
  "299": "ʻ",
  "300": "ʼ",
  "301": "ʾ",
  "302": "ʿ",
  "303": "ˈ",
  "304": "ː",
  "305": "˙",
  "306": "˜",
  "307": "́",
  "308": "̃",
  "309": "̄",
  "310": "̅",
  "311": "̇",
  "312": "̈",
  "313": "̌",
  "314": "̐",
  "315": "̑",
  "316": "̔",
  "317": "̕",
  "318": "̖",
  "319": "̗",
  "320": "̘",
  "321": "̙",
  "322": "̛",
  "323": "̜",
  "324": "̝",
  "325": "̞",
  "326": "̟",
  "327": "̠",
  "328": "̡",
  "329": "̢",
  "330": "̣",
  "331": "̤",
  "332": "̥",
  "333": "̦",
  "334": "̨",
  "335": "̩",
  "336": "̪",
  "337": "̫",
  "338": "̬",
  "339": "̭",
  "340": "̮",
  "341": "̯",
  "342": "̰",
  "343": "̱",
  "344": "̲",
  "345": "̳",
  "346": "̴",
  "347": "̷",
  "348": "̹",
  "349": "̻",
  "350": "̼",
  "351": "̀",
  "352": "ͅ",
  "353": "͇",
  "354": "͈",
  "355": "͉",
  "356": "͍",
  "357": "͎",
  "358": "͓",
  "359": "͔",
  "360": "͕",
  "361": "͖",
  "362": "͘",
  "363": "͙",
  "364": "͚",
  "365": "͜",
  "366": "͝",
  "367": "͞",
  "368": "͡",
  "369": "͢",
  "370": "ͦ",
  "371": "΄",
  "372": "Ά",
  "373": "Έ",
  "374": "Ή",
  "375": "Ί",
  "376": "Ό",
  "377": "Ύ",
  "378": "Ώ",
  "379": "ΐ",
  "380": "Α",
  "381": "Β",
  "382": "Γ",
  "383": "Δ",
  "384": "Ε",
  "385": "Ζ",
  "386": "Η",
  "387": "Θ",
  "388": "Ι",
  "389": "Κ",
  "390": "Λ",
  "391": "Μ",
  "392": "Ν",
  "393": "Ξ",
  "394": "Ο",
  "395": "Π",
  "396": "Ρ",
  "397": "Σ",
  "398": "Τ",
  "399": "Υ",
  "400": "Φ",
  "401": "Χ",
  "402": "Ψ",
  "403": "Ω",
  "404": "ά",
  "405": "έ",
  "406": "ή",
  "407": "ί",
  "408": "α",
  "409": "β",
  "410": "γ",
  "411": "δ",
  "412": "ε",
  "413": "ζ",
  "414": "η",
  "415": "θ",
  "416": "ι",
  "417": "κ",
  "418": "λ",
  "419": "μ",
  "420": "ν",
  "421": "ξ",
  "422": "ο",
  "423": "π",
  "424": "ρ",
  "425": "ς",
  "426": "σ",
  "427": "τ",
  "428": "υ",
  "429": "φ",
  "430": "χ",
  "431": "ψ",
  "432": "ω",
  "433": "ϊ",
  "434": "ϋ",
  "435": "ό",
  "436": "ύ",
  "437": "ώ",
  "438": "ϕ",
  "439": "Ϝ",
  "440": "Ё",
  "441": "Є",
  "442": "І",
  "443": "Ї",
  "444": "Ў",
  "445": "А",
  "446": "Б",
  "447": "В",
  "448": "Г",
  "449": "Д",
  "450": "Е",
  "451": "Ж",
  "452": "З",
  "453": "И",
  "454": "Й",
  "455": "К",
  "456": "Л",
  "457": "М",
  "458": "Н",
  "459": "О",
  "460": "П",
  "461": "Р",
  "462": "С",
  "463": "Т",
  "464": "У",
  "465": "Ф",
  "466": "Х",
  "467": "Ц",
  "468": "Ч",
  "469": "Ш",
  "470": "Щ",
  "471": "Э",
  "472": "Ю",
  "473": "Я",
  "474": "а",
  "475": "б",
  "476": "в",
  "477": "г",
  "478": "д",
  "479": "е",
  "480": "ж",
  "481": "з",
  "482": "и",
  "483": "й",
  "484": "к",
  "485": "л",
  "486": "м",
  "487": "н",
  "488": "о",
  "489": "п",
  "490": "р",
  "491": "с",
  "492": "т",
  "493": "у",
  "494": "ф",
  "495": "х",
  "496": "ц",
  "497": "ч",
  "498": "ш",
  "499": "щ",
  "500": "ъ",
  "501": "ы",
  "502": "ь",
  "503": "э",
  "504": "ю",
  "505": "я",
  "506": "ё",
  "507": "є",
  "508": "і",
  "509": "ї",
  "510": "ѝ",
  "511": "ў",
  "512": "Ґ",
  "513": "ґ",
  "514": "Ӧ",
  "515": "ӧ",
  "516": "Ա",
  "517": "Բ",
  "518": "Գ",
  "519": "Դ",
  "520": "Ե",
  "521": "Զ",
  "522": "Է",
  "523": "Ը",
  "524": "Թ",
  "525": "Ժ",
  "526": "Ի",
  "527": "Լ",
  "528": "Խ",
  "529": "Ծ",
  "530": "Կ",
  "531": "Հ",
  "532": "Ձ",
  "533": "Ղ",
  "534": "Ճ",
  "535": "Մ",
  "536": "Յ",
  "537": "Ն",
  "538": "Շ",
  "539": "Ո",
  "540": "Չ",
  "541": "Պ",
  "542": "Ջ",
  "543": "Ռ",
  "544": "Ս",
  "545": "Վ",
  "546": "Տ",
  "547": "Ր",
  "548": "Ց",
  "549": "Ւ",
  "550": "Փ",
  "551": "Ք",
  "552": "Օ",
  "553": "Ֆ",
  "554": "՛",
  "555": "՜",
  "556": "՝",
  "557": "՞",
  "558": "ա",
  "559": "բ",
  "560": "գ",
  "561": "դ",
  "562": "ե",
  "563": "զ",
  "564": "է",
  "565": "ը",
  "566": "թ",
  "567": "ժ",
  "568": "ի",
  "569": "լ",
  "570": "խ",
  "571": "ծ",
  "572": "կ",
  "573": "հ",
  "574": "ձ",
  "575": "ղ",
  "576": "ճ",
  "577": "մ",
  "578": "յ",
  "579": "ն",
  "580": "շ",
  "581": "ո",
  "582": "չ",
  "583": "պ",
  "584": "ջ",
  "585": "ռ",
  "586": "ս",
  "587": "վ",
  "588": "տ",
  "589": "ր",
  "590": "ց",
  "591": "ւ",
  "592": "փ",
  "593": "ք",
  "594": "օ",
  "595": "ֆ",
  "596": "և",
  "597": "։",
  "598": "ְ",
  "599": "ִ",
  "600": "ֵ",
  "601": "ַ",
  "602": "ָ",
  "603": "ֹ",
  "604": "ֻ",
  "605": "ּ",
  "606": "־",
  "607": "ׁ",
  "608": "א",
  "609": "ב",
  "610": "ג",
  "611": "ד",
  "612": "ה",
  "613": "ו",
  "614": "ז",
  "615": "ח",
  "616": "ט",
  "617": "י",
  "618": "ך",
  "619": "כ",
  "620": "ל",
  "621": "ם",
  "622": "מ",
  "623": "ן",
  "624": "נ",
  "625": "ס",
  "626": "ע",
  "627": "ף",
  "628": "פ",
  "629": "ץ",
  "630": "צ",
  "631": "ק",
  "632": "ר",
  "633": "ש",
  "634": "ת",
  "635": "،",
  "636": "؛",
  "637": "؟",
  "638": "ء",
  "639": "آ",
  "640": "أ",
  "641": "ؤ",
  "642": "إ",
  "643": "ئ",
  "644": "ا",
  "645": "ب",
  "646": "ة",
  "647": "ت",
  "648": "ث",
  "649": "ج",
  "650": "ح",
  "651": "خ",
  "652": "د",
  "653": "ذ",
  "654": "ر",
  "655": "ز",
  "656": "س",
  "657": "ش",
  "658": "ص",
  "659": "ض",
  "660": "ط",
  "661": "ظ",
  "662": "ع",
  "663": "غ",
  "664": "ـ",
  "665": "ف",
  "666": "ق",
  "667": "ك",
  "668": "ل",
  "669": "م",
  "670": "ن",
  "671": "ه",
  "672": "و",
  "673": "ى",
  "674": "ي",
  "675": "ً",
  "676": "ٌ",
  "677": "ٍ",
  "678": "َ",
  "679": "ُ",
  "680": "ِ",
  "681": "ّ",
  "682": "ْ",
  "683": "ٖ",
  "684": "٠",
  "685": "١",
  "686": "٢",
  "687": "٣",
  "688": "٥",
  "689": "٦",
  "690": "٧",
  "691": "٨",
  "692": "٩",
  "693": "٪",
  "694": "٫",
  "695": "ٰ",
  "696": "ٴ",
  "697": "ٹ",
  "698": "پ",
  "699": "چ",
  "700": "ڈ",
  "701": "ڑ",
  "702": "ژ",
  "703": "ښ",
  "704": "ک",
  "705": "ڭ",
  "706": "گ",
  "707": "ں",
  "708": "ھ",
  "709": "ۀ",
  "710": "ہ",
  "711": "ۂ",
  "712": "ۃ",
  "713": "ۆ",
  "714": "ۇ",
  "715": "ۈ",
  "716": "ۋ",
  "717": "ی",
  "718": "ې",
  "719": "ے",
  "720": "۔",
  "721": "ە",
  "722": "ۤ",
  "723": "ँ",
  "724": "ं",
  "725": "ः",
  "726": "अ",
  "727": "आ",
  "728": "इ",
  "729": "ई",
  "730": "उ",
  "731": "ऊ",
  "732": "ऋ",
  "733": "ऍ",
  "734": "ए",
  "735": "ऐ",
  "736": "ऑ",
  "737": "ओ",
  "738": "औ",
  "739": "क",
  "740": "ख",
  "741": "ग",
  "742": "घ",
  "743": "ङ",
  "744": "च",
  "745": "छ",
  "746": "ज",
  "747": "झ",
  "748": "ञ",
  "749": "ट",
  "750": "ठ",
  "751": "ड",
  "752": "ढ",
  "753": "ण",
  "754": "त",
  "755": "थ",
  "756": "द",
  "757": "ध",
  "758": "न",
  "759": "प",
  "760": "फ",
  "761": "ब",
  "762": "भ",
  "763": "म",
  "764": "य",
  "765": "र",
  "766": "ऱ",
  "767": "ल",
  "768": "ळ",
  "769": "व",
  "770": "श",
  "771": "ष",
  "772": "स",
  "773": "ह",
  "774": "़",
  "775": "ा",
  "776": "ि",
  "777": "ी",
  "778": "ु",
  "779": "ू",
  "780": "ृ",
  "781": "ॅ",
  "782": "े",
  "783": "ै",
  "784": "ॉ",
  "785": "ो",
  "786": "ौ",
  "787": "्",
  "788": "क़",
  "789": "ख़",
  "790": "ग़",
  "791": "ज़",
  "792": "ड़",
  "793": "ढ़",
  "794": "फ़",
  "795": "।",
  "796": "०",
  "797": "१",
  "798": "२",
  "799": "३",
  "800": "४",
  "801": "५",
  "802": "६",
  "803": "७",
  "804": "८",
  "805": "९",
  "806": "ॲ",
  "807": "ঁ",
  "808": "ং",
  "809": "ঃ",
  "810": "অ",
  "811": "আ",
  "812": "ই",
  "813": "ঈ",
  "814": "উ",
  "815": "ঊ",
  "816": "ঋ",
  "817": "এ",
  "818": "ঐ",
  "819": "ও",
  "820": "ঔ",
  "821": "ক",
  "822": "খ",
  "823": "গ",
  "824": "ঘ",
  "825": "ঙ",
  "826": "চ",
  "827": "ছ",
  "828": "জ",
  "829": "ঝ",
  "830": "ঞ",
  "831": "ট",
  "832": "ঠ",
  "833": "ড",
  "834": "ঢ",
  "835": "ণ",
  "836": "ত",
  "837": "থ",
  "838": "দ",
  "839": "ধ",
  "840": "ন",
  "841": "প",
  "842": "ফ",
  "843": "ব",
  "844": "ভ",
  "845": "ম",
  "846": "য",
  "847": "র",
  "848": "ল",
  "849": "শ",
  "850": "ষ",
  "851": "স",
  "852": "হ",
  "853": "়",
  "854": "া",
  "855": "ি",
  "856": "ী",
  "857": "ু",
  "858": "ূ",
  "859": "ৃ",
  "860": "ে",
  "861": "ৈ",
  "862": "ো",
  "863": "ৌ",
  "864": "্",
  "865": "ৎ",
  "866": "ৗ",
  "867": "ড়",
  "868": "ঢ়",
  "869": "য়",
  "870": "০",
  "871": "১",
  "872": "২",
  "873": "৩",
  "874": "৪",
  "875": "৫",
  "876": "৬",
  "877": "৭",
  "878": "৮",
  "879": "৯",
  "880": "ৰ",
  "881": "ৱ",
  "882": "৷",
  "883": "ਂ",
  "884": "ਅ",
  "885": "ਆ",
  "886": "ਇ",
  "887": "ਈ",
  "888": "ਉ",
  "889": "ਊ",
  "890": "ਏ",
  "891": "ਐ",
  "892": "ਓ",
  "893": "ਔ",
  "894": "ਕ",
  "895": "ਖ",
  "896": "ਗ",
  "897": "ਘ",
  "898": "ਚ",
  "899": "ਛ",
  "900": "ਜ",
  "901": "ਝ",
  "902": "ਟ",
  "903": "ਠ",
  "904": "ਡ",
  "905": "ਢ",
  "906": "ਣ",
  "907": "ਤ",
  "908": "ਥ",
  "909": "ਦ",
  "910": "ਧ",
  "911": "ਨ",
  "912": "ਪ",
  "913": "ਫ",
  "914": "ਬ",
  "915": "ਭ",
  "916": "ਮ",
  "917": "ਯ",
  "918": "ਰ",
  "919": "ਲ",
  "920": "ਵ",
  "921": "ਸ਼",
  "922": "ਸ",
  "923": "ਹ",
  "924": "਼",
  "925": "ਾ",
  "926": "ਿ",
  "927": "ੀ",
  "928": "ੁ",
  "929": "ੂ",
  "930": "ੇ",
  "931": "ੈ",
  "932": "ੋ",
  "933": "ੌ",
  "934": "੍",
  "935": "ਖ਼",
  "936": "ਗ਼",
  "937": "ਜ਼",
  "938": "ੜ",
  "939": "ਫ਼",
  "940": "ੰ",
  "941": "ੱ",
  "942": "ં",
  "943": "ઃ",
  "944": "અ",
  "945": "આ",
  "946": "ઇ",
  "947": "ઈ",
  "948": "ઉ",
  "949": "ઊ",
  "950": "ઋ",
  "951": "ઍ",
  "952": "એ",
  "953": "ઐ",
  "954": "ઑ",
  "955": "ઓ",
  "956": "ઔ",
  "957": "ક",
  "958": "ખ",
  "959": "ગ",
  "960": "ઘ",
  "961": "ચ",
  "962": "છ",
  "963": "જ",
  "964": "ઝ",
  "965": "ઞ",
  "966": "ટ",
  "967": "ઠ",
  "968": "ડ",
  "969": "ઢ",
  "970": "ણ",
  "971": "ત",
  "972": "થ",
  "973": "દ",
  "974": "ધ",
  "975": "ન",
  "976": "પ",
  "977": "ફ",
  "978": "બ",
  "979": "ભ",
  "980": "મ",
  "981": "ય",
  "982": "ર",
  "983": "લ",
  "984": "ળ",
  "985": "વ",
  "986": "શ",
  "987": "ષ",
  "988": "સ",
  "989": "હ",
  "990": "઼",
  "991": "ા",
  "992": "િ",
  "993": "ી",
  "994": "ુ",
  "995": "ૂ",
  "996": "ૃ",
  "997": "ૅ",
  "998": "ે",
  "999": "ૈ",
  "1000": "ૉ",
  "1001": "ો",
  "1002": "ૌ",
  "1003": "્",
  "1004": "૦",
  "1005": "૧",
  "1006": "૪",
  "1007": "૬",
  "1008": "૮",
  "1009": "ଁ",
  "1010": "ଂ",
  "1011": "ଃ",
  "1012": "ଅ",
  "1013": "ଆ",
  "1014": "ଇ",
  "1015": "ଈ",
  "1016": "ଉ",
  "1017": "ଊ",
  "1018": "ଋ",
  "1019": "ଏ",
  "1020": "ଐ",
  "1021": "ଓ",
  "1022": "ଔ",
  "1023": "କ",
  "1024": "ଖ",
  "1025": "ଗ",
  "1026": "ଘ",
  "1027": "ଙ",
  "1028": "ଚ",
  "1029": "ଛ",
  "1030": "ଜ",
  "1031": "ଝ",
  "1032": "ଞ",
  "1033": "ଟ",
  "1034": "ଠ",
  "1035": "ଡ",
  "1036": "ଢ",
  "1037": "ଣ",
  "1038": "ତ",
  "1039": "ଥ",
  "1040": "ଦ",
  "1041": "ଧ",
  "1042": "ନ",
  "1043": "ପ",
  "1044": "ଫ",
  "1045": "ବ",
  "1046": "ଭ",
  "1047": "ମ",
  "1048": "ଯ",
  "1049": "ର",
  "1050": "ଲ",
  "1051": "ଳ",
  "1052": "ଵ",
  "1053": "ଶ",
  "1054": "ଷ",
  "1055": "ସ",
  "1056": "ହ",
  "1057": "଼",
  "1058": "ା",
  "1059": "ି",
  "1060": "ୀ",
  "1061": "ୁ",
  "1062": "ୂ",
  "1063": "ୃ",
  "1064": "ୄ",
  "1065": "େ",
  "1066": "ୈ",
  "1067": "ୋ",
  "1068": "ୌ",
  "1069": "୍",
  "1070": "ୖ",
  "1071": "ୗ",
  "1072": "ଡ଼",
  "1073": "ଢ଼",
  "1074": "ୟ",
  "1075": "୦",
  "1076": "୧",
  "1077": "୨",
  "1078": "୩",
  "1079": "୪",
  "1080": "୫",
  "1081": "୬",
  "1082": "୭",
  "1083": "୮",
  "1084": "୯",
  "1085": "ୱ",
  "1086": "ஃ",
  "1087": "அ",
  "1088": "ஆ",
  "1089": "இ",
  "1090": "ஈ",
  "1091": "உ",
  "1092": "ஊ",
  "1093": "எ",
  "1094": "ஏ",
  "1095": "ஐ",
  "1096": "ஒ",
  "1097": "ஓ",
  "1098": "க",
  "1099": "ங",
  "1100": "ச",
  "1101": "ஜ",
  "1102": "ஞ",
  "1103": "ட",
  "1104": "ண",
  "1105": "த",
  "1106": "ந",
  "1107": "ன",
  "1108": "ப",
  "1109": "ம",
  "1110": "ய",
  "1111": "ர",
  "1112": "ற",
  "1113": "ல",
  "1114": "ள",
  "1115": "ழ",
  "1116": "வ",
  "1117": "ஷ",
  "1118": "ஸ",
  "1119": "ஹ",
  "1120": "ா",
  "1121": "ி",
  "1122": "ீ",
  "1123": "ு",
  "1124": "ூ",
  "1125": "ெ",
  "1126": "ே",
  "1127": "ை",
  "1128": "ொ",
  "1129": "ோ",
  "1130": "ௌ",
  "1131": "்",
  "1132": "ం",
  "1133": "ః",
  "1134": "అ",
  "1135": "ఆ",
  "1136": "ఇ",
  "1137": "ఈ",
  "1138": "ఉ",
  "1139": "ఊ",
  "1140": "ఋ",
  "1141": "ఎ",
  "1142": "ఏ",
  "1143": "ఐ",
  "1144": "ఒ",
  "1145": "ఓ",
  "1146": "ఔ",
  "1147": "క",
  "1148": "ఖ",
  "1149": "గ",
  "1150": "ఘ",
  "1151": "చ",
  "1152": "ఛ",
  "1153": "జ",
  "1154": "ఞ",
  "1155": "ట",
  "1156": "ఠ",
  "1157": "డ",
  "1158": "ఢ",
  "1159": "ణ",
  "1160": "త",
  "1161": "థ",
  "1162": "ద",
  "1163": "ధ",
  "1164": "న",
  "1165": "ప",
  "1166": "ఫ",
  "1167": "బ",
  "1168": "భ",
  "1169": "మ",
  "1170": "య",
  "1171": "ర",
  "1172": "ల",
  "1173": "ళ",
  "1174": "వ",
  "1175": "శ",
  "1176": "ష",
  "1177": "స",
  "1178": "హ",
  "1179": "ా",
  "1180": "ి",
  "1181": "ీ",
  "1182": "ు",
  "1183": "ూ",
  "1184": "ృ",
  "1185": "ె",
  "1186": "ే",
  "1187": "ై",
  "1188": "ొ",
  "1189": "ో",
  "1190": "ౌ",
  "1191": "్",
  "1192": "ౖ",
  "1193": "౦",
  "1194": "ಂ",
  "1195": "ಃ",
  "1196": "ಅ",
  "1197": "ಆ",
  "1198": "ಇ",
  "1199": "ಈ",
  "1200": "ಉ",
  "1201": "ಊ",
  "1202": "ಋ",
  "1203": "ಎ",
  "1204": "ಏ",
  "1205": "ಐ",
  "1206": "ಒ",
  "1207": "ಓ",
  "1208": "ಔ",
  "1209": "ಕ",
  "1210": "ಖ",
  "1211": "ಗ",
  "1212": "ಘ",
  "1213": "ಚ",
  "1214": "ಛ",
  "1215": "ಜ",
  "1216": "ಝ",
  "1217": "ಞ",
  "1218": "ಟ",
  "1219": "ಠ",
  "1220": "ಡ",
  "1221": "ಢ",
  "1222": "ಣ",
  "1223": "ತ",
  "1224": "ಥ",
  "1225": "ದ",
  "1226": "ಧ",
  "1227": "ನ",
  "1228": "ಪ",
  "1229": "ಫ",
  "1230": "ಬ",
  "1231": "ಭ",
  "1232": "ಮ",
  "1233": "ಯ",
  "1234": "ರ",
  "1235": "ಲ",
  "1236": "ಳ",
  "1237": "ವ",
  "1238": "ಶ",
  "1239": "ಷ",
  "1240": "ಸ",
  "1241": "ಹ",
  "1242": "ಾ",
  "1243": "ಿ",
  "1244": "ೀ",
  "1245": "ು",
  "1246": "ೂ",
  "1247": "ೃ",
  "1248": "ೆ",
  "1249": "ೇ",
  "1250": "ೈ",
  "1251": "ೊ",
  "1252": "ೋ",
  "1253": "ೌ",
  "1254": "್",
  "1255": "ೕ",
  "1256": "ೖ",
  "1257": "೪",
  "1258": "ം",
  "1259": "ഃ",
  "1260": "അ",
  "1261": "ആ",
  "1262": "ഇ",
  "1263": "ഈ",
  "1264": "ഉ",
  "1265": "ഊ",
  "1266": "ഋ",
  "1267": "എ",
  "1268": "ഏ",
  "1269": "ഐ",
  "1270": "ഒ",
  "1271": "ഓ",
  "1272": "ഔ",
  "1273": "ക",
  "1274": "ഖ",
  "1275": "ഗ",
  "1276": "ഘ",
  "1277": "ങ",
  "1278": "ച",
  "1279": "ഛ",
  "1280": "ജ",
  "1281": "ഞ",
  "1282": "ട",
  "1283": "ഠ",
  "1284": "ഡ",
  "1285": "ഢ",
  "1286": "ണ",
  "1287": "ത",
  "1288": "ഥ",
  "1289": "ദ",
  "1290": "ധ",
  "1291": "ന",
  "1292": "പ",
  "1293": "ഫ",
  "1294": "ബ",
  "1295": "ഭ",
  "1296": "മ",
  "1297": "യ",
  "1298": "ര",
  "1299": "റ",
  "1300": "ല",
  "1301": "ള",
  "1302": "ഴ",
  "1303": "വ",
  "1304": "ശ",
  "1305": "ഷ",
  "1306": "സ",
  "1307": "ഹ",
  "1308": "ാ",
  "1309": "ി",
  "1310": "ീ",
  "1311": "ു",
  "1312": "ൂ",
  "1313": "ൃ",
  "1314": "െ",
  "1315": "േ",
  "1316": "ൈ",
  "1317": "ൊ",
  "1318": "ോ",
  "1319": "ൌ",
  "1320": "്",
  "1321": "ൗ",
  "1322": "ൺ",
  "1323": "ൻ",
  "1324": "ർ",
  "1325": "ൽ",
  "1326": "ൾ",
  "1327": "ก",
  "1328": "ข",
  "1329": "ค",
  "1330": "ฆ",
  "1331": "ง",
  "1332": "จ",
  "1333": "ฉ",
  "1334": "ช",
  "1335": "ซ",
  "1336": "ฌ",
  "1337": "ญ",
  "1338": "ฎ",
  "1339": "ฏ",
  "1340": "ฐ",
  "1341": "ฑ",
  "1342": "ฒ",
  "1343": "ณ",
  "1344": "ด",
  "1345": "ต",
  "1346": "ถ",
  "1347": "ท",
  "1348": "ธ",
  "1349": "น",
  "1350": "บ",
  "1351": "ป",
  "1352": "ผ",
  "1353": "ฝ",
  "1354": "พ",
  "1355": "ฟ",
  "1356": "ภ",
  "1357": "ม",
  "1358": "ย",
  "1359": "ร",
  "1360": "ฤ",
  "1361": "ล",
  "1362": "ว",
  "1363": "ศ",
  "1364": "ษ",
  "1365": "ส",
  "1366": "ห",
  "1367": "ฬ",
  "1368": "อ",
  "1369": "ฮ",
  "1370": "ฯ",
  "1371": "ะ",
  "1372": "ั",
  "1373": "า",
  "1374": "ำ",
  "1375": "ิ",
  "1376": "ี",
  "1377": "ึ",
  "1378": "ื",
  "1379": "ุ",
  "1380": "ู",
  "1381": "เ",
  "1382": "แ",
  "1383": "โ",
  "1384": "ใ",
  "1385": "ไ",
  "1386": "ๆ",
  "1387": "็",
  "1388": "่",
  "1389": "้",
  "1390": "๊",
  "1391": "๋",
  "1392": "์",
  "1393": "ํ",
  "1394": "་",
  "1395": "ཆ",
  "1396": "ཇ",
  "1397": "ད",
  "1398": "ན",
  "1399": "པ",
  "1400": "ཕ",
  "1401": "བ",
  "1402": "འ",
  "1403": "ལ",
  "1404": "ས",
  "1405": "ུ",
  "1406": "ེ",
  "1407": "ོ",
  "1408": "ྐ",
  "1409": "ი",
  "1410": "კ",
  "1411": "ყ",
  "1412": "წ",
  "1413": "ᄏ",
  "1414": "ᄒ",
  "1415": "ᅲ",
  "1416": "ᅳ",
  "1417": "ሀ",
  "1418": "ሁ",
  "1419": "ሂ",
  "1420": "ሃ",
  "1421": "ሄ",
  "1422": "ህ",
  "1423": "ሆ",
  "1424": "ለ",
  "1425": "ሉ",
  "1426": "ሊ",
  "1427": "ላ",
  "1428": "ሌ",
  "1429": "ል",
  "1430": "ሎ",
  "1431": "ሏ",
  "1432": "ሐ",
  "1433": "ሑ",
  "1434": "ሔ",
  "1435": "ሕ",
  "1436": "መ",
  "1437": "ሙ",
  "1438": "ሚ",
  "1439": "ማ",
  "1440": "ሜ",
  "1441": "ም",
  "1442": "ሞ",
  "1443": "ሟ",
  "1444": "ሠ",
  "1445": "ሣ",
  "1446": "ሥ",
  "1447": "ሦ",
  "1448": "ረ",
  "1449": "ሩ",
  "1450": "ሪ",
  "1451": "ራ",
  "1452": "ሬ",
  "1453": "ር",
  "1454": "ሮ",
  "1455": "ሯ",
  "1456": "ሰ",
  "1457": "ሱ",
  "1458": "ሲ",
  "1459": "ሳ",
  "1460": "ሴ",
  "1461": "ስ",
  "1462": "ሶ",
  "1463": "ሷ",
  "1464": "ሸ",
  "1465": "ሹ",
  "1466": "ሺ",
  "1467": "ሻ",
  "1468": "ሼ",
  "1469": "ሽ",
  "1470": "ሾ",
  "1471": "ሿ",
  "1472": "ቀ",
  "1473": "ቁ",
  "1474": "ቂ",
  "1475": "ቃ",
  "1476": "ቄ",
  "1477": "ቅ",
  "1478": "ቆ",
  "1479": "ቋ",
  "1480": "በ",
  "1481": "ቡ",
  "1482": "ቢ",
  "1483": "ባ",
  "1484": "ቤ",
  "1485": "ብ",
  "1486": "ቦ",
  "1487": "ቧ",
  "1488": "ቨ",
  "1489": "ቪ",
  "1490": "ቫ",
  "1491": "ቬ",
  "1492": "ቭ",
  "1493": "ቮ",
  "1494": "ተ",
  "1495": "ቱ",
  "1496": "ቲ",
  "1497": "ታ",
  "1498": "ቴ",
  "1499": "ት",
  "1500": "ቶ",
  "1501": "ቷ",
  "1502": "ቸ",
  "1503": "ቹ",
  "1504": "ቺ",
  "1505": "ቻ",
  "1506": "ቼ",
  "1507": "ች",
  "1508": "ቾ",
  "1509": "ቿ",
  "1510": "ኃ",
  "1511": "ኅ",
  "1512": "ኋ",
  "1513": "ነ",
  "1514": "ኑ",
  "1515": "ኒ",
  "1516": "ና",
  "1517": "ኔ",
  "1518": "ን",
  "1519": "ኖ",
  "1520": "ኗ",
  "1521": "ኘ",
  "1522": "ኙ",
  "1523": "ኚ",
  "1524": "ኛ",
  "1525": "ኜ",
  "1526": "ኝ",
  "1527": "ኞ",
  "1528": "ኟ",
  "1529": "አ",
  "1530": "ኡ",
  "1531": "ኢ",
  "1532": "ኣ",
  "1533": "ኤ",
  "1534": "እ",
  "1535": "ኦ",
  "1536": "ኧ",
  "1537": "ከ",
  "1538": "ኩ",
  "1539": "ኪ",
  "1540": "ካ",
  "1541": "ኬ",
  "1542": "ክ",
  "1543": "ኮ",
  "1544": "ኰ",
  "1545": "ኳ",
  "1546": "ኸ",
  "1547": "ኺ",
  "1548": "ወ",
  "1549": "ዉ",
  "1550": "ዊ",
  "1551": "ዋ",
  "1552": "ዌ",
  "1553": "ው",
  "1554": "ዎ",
  "1555": "ዐ",
  "1556": "ዑ",
  "1557": "ዒ",
  "1558": "ዓ",
  "1559": "ዕ",
  "1560": "ዖ",
  "1561": "ዘ",
  "1562": "ዙ",
  "1563": "ዚ",
  "1564": "ዛ",
  "1565": "ዜ",
  "1566": "ዝ",
  "1567": "ዞ",
  "1568": "ዟ",
  "1569": "ዠ",
  "1570": "ዡ",
  "1571": "ዢ",
  "1572": "ዣ",
  "1573": "ዥ",
  "1574": "ዦ",
  "1575": "የ",
  "1576": "ዩ",
  "1577": "ዪ",
  "1578": "ያ",
  "1579": "ዬ",
  "1580": "ይ",
  "1581": "ዮ",
  "1582": "ደ",
  "1583": "ዱ",
  "1584": "ዲ",
  "1585": "ዳ",
  "1586": "ዴ",
  "1587": "ድ",
  "1588": "ዶ",
  "1589": "ዷ",
  "1590": "ጀ",
  "1591": "ጁ",
  "1592": "ጂ",
  "1593": "ጃ",
  "1594": "ጄ",
  "1595": "ጅ",
  "1596": "ጆ",
  "1597": "ጇ",
  "1598": "ገ",
  "1599": "ጉ",
  "1600": "ጊ",
  "1601": "ጋ",
  "1602": "ጌ",
  "1603": "ግ",
  "1604": "ጎ",
  "1605": "ጐ",
  "1606": "ጓ",
  "1607": "ጠ",
  "1608": "ጡ",
  "1609": "ጢ",
  "1610": "ጣ",
  "1611": "ጤ",
  "1612": "ጥ",
  "1613": "ጦ",
  "1614": "ጧ",
  "1615": "ጨ",
  "1616": "ጩ",
  "1617": "ጪ",
  "1618": "ጫ",
  "1619": "ጭ",
  "1620": "ጮ",
  "1621": "ጳ",
  "1622": "ጴ",
  "1623": "ጵ",
  "1624": "ጸ",
  "1625": "ጹ",
  "1626": "ጺ",
  "1627": "ጻ",
  "1628": "ጼ",
  "1629": "ጽ",
  "1630": "ጾ",
  "1631": "ጿ",
  "1632": "ፀ",
  "1633": "ፁ",
  "1634": "ፃ",
  "1635": "ፄ",
  "1636": "ፅ",
  "1637": "ፆ",
  "1638": "ፈ",
  "1639": "ፉ",
  "1640": "ፊ",
  "1641": "ፋ",
  "1642": "ፌ",
  "1643": "ፍ",
  "1644": "ፎ",
  "1645": "ፏ",
  "1646": "ፐ",
  "1647": "ፑ",
  "1648": "ፒ",
  "1649": "ፓ",
  "1650": "ፔ",
  "1651": "ፕ",
  "1652": "ፖ",
  "1653": "ፗ",
  "1654": "፡",
  "1655": "።",
  "1656": "፣",
  "1657": "፤",
  "1658": "፥",
  "1659": "፦",
  "1660": "ᐅ",
  "1661": "ᐊ",
  "1662": "ᐛ",
  "1663": "ᑎ",
  "1664": "ᑐ",
  "1665": "ᑕ",
  "1666": "ᑦ",
  "1667": "ᑰ",
  "1668": "ᒋ",
  "1669": "ᒪ",
  "1670": "ᒻ",
  "1671": "ᓂ",
  "1672": "ᓇ",
  "1673": "ᓯ",
  "1674": "ᓴ",
  "1675": "ᕈ",
  "1676": "ᕋ",
  "1677": "ᕐ",
  "1678": "ᕕ",
  "1679": "ᕗ",
  "1680": "ᖅ",
  "1681": "ᖏ",
  "1682": "ᴄ",
  "1683": "ᴇ",
  "1684": "ᴠ",
  "1685": "Ḍ",
  "1686": "ḍ",
  "1687": "Ḏ",
  "1688": "Ḥ",
  "1689": "ḥ",
  "1690": "ḱ",
  "1691": "ḳ",
  "1692": "ḷ",
  "1693": "ḻ",
  "1694": "ṁ",
  "1695": "ṃ",
  "1696": "ṅ",
  "1697": "ṇ",
  "1698": "ṉ",
  "1699": "ṛ",
  "1700": "ṟ",
  "1701": "Ṣ",
  "1702": "ṣ",
  "1703": "Ṭ",
  "1704": "ṭ",
  "1705": "ṯ",
  "1706": "ẏ",
  "1707": "ạ",
  "1708": "Ả",
  "1709": "ả",
  "1710": "Ấ",
  "1711": "ấ",
  "1712": "ầ",
  "1713": "ẩ",
  "1714": "ẫ",
  "1715": "ậ",
  "1716": "ắ",
  "1717": "ằ",
  "1718": "ẳ",
  "1719": "ẵ",
  "1720": "ặ",
  "1721": "ẹ",
  "1722": "ẻ",
  "1723": "ẽ",
  "1724": "ế",
  "1725": "ề",
  "1726": "ể",
  "1727": "ễ",
  "1728": "ệ",
  "1729": "ỉ",
  "1730": "ị",
  "1731": "ọ",
  "1732": "ỏ",
  "1733": "ố",
  "1734": "Ồ",
  "1735": "ồ",
  "1736": "ổ",
  "1737": "ỗ",
  "1738": "ộ",
  "1739": "ớ",
  "1740": "ờ",
  "1741": "Ở",
  "1742": "ở",
  "1743": "ỡ",
  "1744": "ợ",
  "1745": "ụ",
  "1746": "Ủ",
  "1747": "ủ",
  "1748": "Ứ",
  "1749": "ứ",
  "1750": "Ừ",
  "1751": "ừ",
  "1752": "ử",
  "1753": "ữ",
  "1754": "ự",
  "1755": "ỳ",
  "1756": "ỵ",
  "1757": "ỷ",
  "1758": "ỹ",
  "1759": "ἄ",
  "1760": "Ἀ",
  "1761": "Ἄ",
  "1762": "Ἰ",
  "1763": "ὐ",
  "1764": "ῦ",
  "1765": "ῶ",
  "1766": " ",
  "1767": "​",
  "1768": "‌",
  "1769": "‍",
  "1770": "‎",
  "1771": "‏",
  "1772": "‐",
  "1773": "‑",
  "1774": "‒",
  "1775": "–",
  "1776": "—",
  "1777": "―",
  "1778": "‘",
  "1779": "’",
  "1780": "‚",
  "1781": "“",
  "1782": "”",
  "1783": "„",
  "1784": "†",
  "1785": "‡",
  "1786": "•",
  "1787": "․",
  "1788": "…",
  "1789": "′",
  "1790": "″",
  "1791": "‹",
  "1792": "›",
  "1793": "⁄",
  "1794": "⁠",
  "1795": "⁣",
  "1796": "⁰",
  "1797": "⁴",
  "1798": "⁶",
  "1799": "₁",
  "1800": "₂",
  "1801": "€",
  "1802": "⃣",
  "1803": "℃",
  "1804": "№",
  "1805": "℗",
  "1806": "℘",
  "1807": "™",
  "1808": "⅓",
  "1809": "⅔",
  "1810": "⅙",
  "1811": "←",
  "1812": "↑",
  "1813": "→",
  "1814": "↓",
  "1815": "⇌",
  "1816": "⇑",
  "1817": "⇓",
  "1818": "∅",
  "1819": "∆",
  "1820": "∈",
  "1821": "−",
  "1822": "∗",
  "1823": "∫",
  "1824": "∼",
  "1825": "≅",
  "1826": "≈",
  "1827": "≠",
  "1828": "≡",
  "1829": "≤",
  "1830": "≥",
  "1831": "⌘",
  "1832": "⏭",
  "1833": "Ⓥ",
  "1834": "─",
  "1835": "",
  "1836": "█",
  "1837": "▋",
  "1838": "■",
  "1839": "▶",
  "1840": "▸",
  "1841": "►",
  "1842": "▼",
  "1843": "▾",
  "1844": "◊",
  "1845": "●",
  "1846": "◼",
  "1847": "☃",
  "1848": "★",
  "1849": "☆",
  "1850": "☉",
  "1851": "☕",
  "1852": "☝",
  "1853": "♀",
  "1854": "♣",
  "1855": "♥",
  "1856": "♦",
  "1857": "♭",
  "1858": "♯",
  "1859": "⚐",
  "1860": "⚙",
  "1861": "⚛",
  "1862": "✈",
  "1863": "✉",
  "1864": "✌",
  "1865": "✓",
  "1866": "✔",
  "1867": "✨",
  "1868": "❤",
  "1869": "❮",
  "1870": "❯",
  "1871": "➡",
  "1872": "➤",
  "1873": "⟶",
  "1874": "⦁",
  "1875": "⭐",
  "1876": "、",
  "1877": "。",
  "1878": "々",
  "1879": "《",
  "1880": "》",
  "1881": "「",
  "1882": "」",
  "1883": "『",
  "1884": "』",
  "1885": "ぁ",
  "1886": "あ",
  "1887": "い",
  "1888": "う",
  "1889": "ぇ",
  "1890": "え",
  "1891": "お",
  "1892": "か",
  "1893": "が",
  "1894": "き",
  "1895": "ぎ",
  "1896": "く",
  "1897": "ぐ",
  "1898": "け",
  "1899": "げ",
  "1900": "こ",
  "1901": "ご",
  "1902": "さ",
  "1903": "ざ",
  "1904": "し",
  "1905": "じ",
  "1906": "す",
  "1907": "ず",
  "1908": "せ",
  "1909": "ぜ",
  "1910": "そ",
  "1911": "ぞ",
  "1912": "た",
  "1913": "だ",
  "1914": "ち",
  "1915": "っ",
  "1916": "つ",
  "1917": "づ",
  "1918": "て",
  "1919": "で",
  "1920": "と",
  "1921": "ど",
  "1922": "な",
  "1923": "に",
  "1924": "ぬ",
  "1925": "ね",
  "1926": "の",
  "1927": "は",
  "1928": "ば",
  "1929": "ぱ",
  "1930": "ひ",
  "1931": "び",
  "1932": "ふ",
  "1933": "ぶ",
  "1934": "ぷ",
  "1935": "へ",
  "1936": "べ",
  "1937": "ほ",
  "1938": "ぼ",
  "1939": "ぽ",
  "1940": "ま",
  "1941": "み",
  "1942": "む",
  "1943": "め",
  "1944": "も",
  "1945": "ゃ",
  "1946": "や",
  "1947": "ゅ",
  "1948": "ゆ",
  "1949": "ょ",
  "1950": "よ",
  "1951": "ら",
  "1952": "り",
  "1953": "る",
  "1954": "れ",
  "1955": "ろ",
  "1956": "わ",
  "1957": "を",
  "1958": "ん",
  "1959": "゚",
  "1960": "ァ",
  "1961": "ア",
  "1962": "ィ",
  "1963": "イ",
  "1964": "ゥ",
  "1965": "ウ",
  "1966": "ェ",
  "1967": "エ",
  "1968": "ォ",
  "1969": "オ",
  "1970": "カ",
  "1971": "ガ",
  "1972": "キ",
  "1973": "ギ",
  "1974": "ク",
  "1975": "グ",
  "1976": "ケ",
  "1977": "ゲ",
  "1978": "コ",
  "1979": "ゴ",
  "1980": "サ",
  "1981": "ザ",
  "1982": "シ",
  "1983": "ジ",
  "1984": "ス",
  "1985": "ズ",
  "1986": "セ",
  "1987": "ゼ",
  "1988": "ソ",
  "1989": "ゾ",
  "1990": "タ",
  "1991": "ダ",
  "1992": "チ",
  "1993": "ッ",
  "1994": "ツ",
  "1995": "テ",
  "1996": "デ",
  "1997": "ト",
  "1998": "ド",
  "1999": "ナ",
  "2000": "ニ",
  "2001": "ヌ",
  "2002": "ネ",
  "2003": "ノ",
  "2004": "ハ",
  "2005": "バ",
  "2006": "パ",
  "2007": "ヒ",
  "2008": "ビ",
  "2009": "ピ",
  "2010": "フ",
  "2011": "ブ",
  "2012": "プ",
  "2013": "ヘ",
  "2014": "ベ",
  "2015": "ペ",
  "2016": "ホ",
  "2017": "ボ",
  "2018": "ポ",
  "2019": "マ",
  "2020": "ミ",
  "2021": "ム",
  "2022": "メ",
  "2023": "モ",
  "2024": "ャ",
  "2025": "ヤ",
  "2026": "ュ",
  "2027": "ユ",
  "2028": "ョ",
  "2029": "ヨ",
  "2030": "ラ",
  "2031": "リ",
  "2032": "ル",
  "2033": "レ",
  "2034": "ロ",
  "2035": "ワ",
  "2036": "ン",
  "2037": "ヴ",
  "2038": "・",
  "2039": "ー",
  "2040": "ㅋ",
  "2041": "ㅎ",
  "2042": "ㅠ",
  "2043": "ㅡ",
  "2044": "㎞",
  "2045": "一",
  "2046": "丁",
  "2047": "七",
  "2048": "万",
  "2049": "丈",
  "2050": "三",
  "2051": "上",
  "2052": "下",
  "2053": "不",
  "2054": "与",
  "2055": "丑",
  "2056": "专",
  "2057": "且",
  "2058": "世",
  "2059": "丘",
  "2060": "业",
  "2061": "丛",
  "2062": "东",
  "2063": "丝",
  "2064": "両",
  "2065": "丢",
  "2066": "两",
  "2067": "严",
  "2068": "並",
  "2069": "丧",
  "2070": "个",
  "2071": "中",
  "2072": "丰",
  "2073": "串",
  "2074": "临",
  "2075": "丸",
  "2076": "丹",
  "2077": "为",
  "2078": "主",
  "2079": "丽",
  "2080": "举",
  "2081": "乃",
  "2082": "久",
  "2083": "么",
  "2084": "义",
  "2085": "之",
  "2086": "乌",
  "2087": "乍",
  "2088": "乎",
  "2089": "乏",
  "2090": "乐",
  "2091": "乔",
  "2092": "乗",
  "2093": "乘",
  "2094": "九",
  "2095": "乞",
  "2096": "也",
  "2097": "习",
  "2098": "乡",
  "2099": "书",
  "2100": "买",
  "2101": "乱",
  "2102": "乳",
  "2103": "乾",
  "2104": "亀",
  "2105": "了",
  "2106": "予",
  "2107": "争",
  "2108": "事",
  "2109": "二",
  "2110": "于",
  "2111": "亏",
  "2112": "云",
  "2113": "互",
  "2114": "五",
  "2115": "井",
  "2116": "亚",
  "2117": "些",
  "2118": "亜",
  "2119": "亡",
  "2120": "交",
  "2121": "亥",
  "2122": "亦",
  "2123": "产",
  "2124": "亨",
  "2125": "享",
  "2126": "京",
  "2127": "亭",
  "2128": "亮",
  "2129": "亲",
  "2130": "人",
  "2131": "亿",
  "2132": "什",
  "2133": "仁",
  "2134": "仅",
  "2135": "仇",
  "2136": "今",
  "2137": "介",
  "2138": "仍",
  "2139": "从",
  "2140": "仏",
  "2141": "仑",
  "2142": "仔",
  "2143": "仕",
  "2144": "他",
  "2145": "付",
  "2146": "仙",
  "2147": "代",
  "2148": "令",
  "2149": "以",
  "2150": "仪",
  "2151": "们",
  "2152": "仮",
  "2153": "仰",
  "2154": "仲",
  "2155": "件",
  "2156": "价",
  "2157": "任",
  "2158": "份",
  "2159": "仿",
  "2160": "企",
  "2161": "伊",
  "2162": "伍",
  "2163": "伏",
  "2164": "伐",
  "2165": "休",
  "2166": "众",
  "2167": "优",
  "2168": "伙",
  "2169": "会",
  "2170": "伝",
  "2171": "伟",
  "2172": "传",
  "2173": "伤",
  "2174": "伦",
  "2175": "伯",
  "2176": "估",
  "2177": "伴",
  "2178": "伸",
  "2179": "似",
  "2180": "伽",
  "2181": "但",
  "2182": "佇",
  "2183": "位",
  "2184": "低",
  "2185": "住",
  "2186": "佐",
  "2187": "体",
  "2188": "何",
  "2189": "余",
  "2190": "佛",
  "2191": "作",
  "2192": "你",
  "2193": "佣",
  "2194": "佩",
  "2195": "佳",
  "2196": "併",
  "2197": "使",
  "2198": "侈",
  "2199": "例",
  "2200": "侘",
  "2201": "供",
  "2202": "依",
  "2203": "価",
  "2204": "侦",
  "2205": "侧",
  "2206": "侯",
  "2207": "侵",
  "2208": "侶",
  "2209": "便",
  "2210": "係",
  "2211": "促",
  "2212": "俄",
  "2213": "俗",
  "2214": "俘",
  "2215": "俚",
  "2216": "保",
  "2217": "信",
  "2218": "修",
  "2219": "俯",
  "2220": "俱",
  "2221": "俳",
  "2222": "俺",
  "2223": "個",
  "2224": "倍",
  "2225": "倒",
  "2226": "候",
  "2227": "借",
  "2228": "倡",
  "2229": "値",
  "2230": "倦",
  "2231": "倫",
  "2232": "债",
  "2233": "值",
  "2234": "倾",
  "2235": "假",
  "2236": "偉",
  "2237": "偏",
  "2238": "做",
  "2239": "停",
  "2240": "健",
  "2241": "側",
  "2242": "偵",
  "2243": "偶",
  "2244": "偷",
  "2245": "偽",
  "2246": "傑",
  "2247": "傘",
  "2248": "備",
  "2249": "储",
  "2250": "催",
  "2251": "傲",
  "2252": "債",
  "2253": "傷",
  "2254": "傾",
  "2255": "働",
  "2256": "像",
  "2257": "僕",
  "2258": "僚",
  "2259": "僧",
  "2260": "僻",
  "2261": "儀",
  "2262": "億",
  "2263": "優",
  "2264": "儲",
  "2265": "儿",
  "2266": "允",
  "2267": "元",
  "2268": "兄",
  "2269": "充",
  "2270": "兆",
  "2271": "先",
  "2272": "光",
  "2273": "克",
  "2274": "免",
  "2275": "児",
  "2276": "兑",
  "2277": "兔",
  "2278": "党",
  "2279": "入",
  "2280": "全",
  "2281": "八",
  "2282": "公",
  "2283": "六",
  "2284": "兰",
  "2285": "共",
  "2286": "关",
  "2287": "兴",
  "2288": "兵",
  "2289": "其",
  "2290": "具",
  "2291": "典",
  "2292": "兹",
  "2293": "养",
  "2294": "兼",
  "2295": "兽",
  "2296": "内",
  "2297": "円",
  "2298": "冈",
  "2299": "冊",
  "2300": "册",
  "2301": "再",
  "2302": "冒",
  "2303": "冗",
  "2304": "写",
  "2305": "军",
  "2306": "农",
  "2307": "冠",
  "2308": "冥",
  "2309": "冬",
  "2310": "冯",
  "2311": "冰",
  "2312": "冲",
  "2313": "决",
  "2314": "况",
  "2315": "冷",
  "2316": "冻",
  "2317": "净",
  "2318": "凄",
  "2319": "准",
  "2320": "凉",
  "2321": "凌",
  "2322": "凍",
  "2323": "减",
  "2324": "凝",
  "2325": "几",
  "2326": "凡",
  "2327": "処",
  "2328": "凭",
  "2329": "凯",
  "2330": "凶",
  "2331": "凹",
  "2332": "出",
  "2333": "击",
  "2334": "函",
  "2335": "刀",
  "2336": "刃",
  "2337": "分",
  "2338": "切",
  "2339": "刈",
  "2340": "刊",
  "2341": "刑",
  "2342": "划",
  "2343": "列",
  "2344": "则",
  "2345": "刚",
  "2346": "创",
  "2347": "初",
  "2348": "删",
  "2349": "判",
  "2350": "別",
  "2351": "利",
  "2352": "别",
  "2353": "刮",
  "2354": "到",
  "2355": "制",
  "2356": "刷",
  "2357": "券",
  "2358": "刺",
  "2359": "刻",
  "2360": "剂",
  "2361": "剃",
  "2362": "則",
  "2363": "削",
  "2364": "前",
  "2365": "剑",
  "2366": "剔",
  "2367": "剖",
  "2368": "剣",
  "2369": "剤",
  "2370": "剥",
  "2371": "剧",
  "2372": "剩",
  "2373": "剪",
  "2374": "副",
  "2375": "剰",
  "2376": "割",
  "2377": "創",
  "2378": "劇",
  "2379": "力",
  "2380": "办",
  "2381": "功",
  "2382": "加",
  "2383": "务",
  "2384": "劣",
  "2385": "动",
  "2386": "助",
  "2387": "努",
  "2388": "劫",
  "2389": "励",
  "2390": "劳",
  "2391": "労",
  "2392": "効",
  "2393": "势",
  "2394": "勃",
  "2395": "勇",
  "2396": "勉",
  "2397": "勋",
  "2398": "勒",
  "2399": "動",
  "2400": "勘",
  "2401": "務",
  "2402": "勝",
  "2403": "募",
  "2404": "勢",
  "2405": "勤",
  "2406": "勧",
  "2407": "勾",
  "2408": "勿",
  "2409": "匂",
  "2410": "包",
  "2411": "匈",
  "2412": "化",
  "2413": "北",
  "2414": "匙",
  "2415": "匠",
  "2416": "匣",
  "2417": "匹",
  "2418": "区",
  "2419": "医",
  "2420": "十",
  "2421": "千",
  "2422": "升",
  "2423": "午",
  "2424": "卉",
  "2425": "半",
  "2426": "华",
  "2427": "协",
  "2428": "卑",
  "2429": "卒",
  "2430": "卓",
  "2431": "協",
  "2432": "单",
  "2433": "卖",
  "2434": "南",
  "2435": "単",
  "2436": "博",
  "2437": "卜",
  "2438": "占",
  "2439": "卡",
  "2440": "卢",
  "2441": "卧",
  "2442": "卫",
  "2443": "印",
  "2444": "危",
  "2445": "即",
  "2446": "却",
  "2447": "卵",
  "2448": "卷",
  "2449": "卸",
  "2450": "卿",
  "2451": "厂",
  "2452": "厄",
  "2453": "厅",
  "2454": "历",
  "2455": "厉",
  "2456": "压",
  "2457": "厌",
  "2458": "厕",
  "2459": "厘",
  "2460": "厚",
  "2461": "原",
  "2462": "厢",
  "2463": "厳",
  "2464": "去",
  "2465": "县",
  "2466": "参",
  "2467": "又",
  "2468": "叉",
  "2469": "及",
  "2470": "友",
  "2471": "双",
  "2472": "反",
  "2473": "収",
  "2474": "发",
  "2475": "取",
  "2476": "受",
  "2477": "变",
  "2478": "叙",
  "2479": "叠",
  "2480": "口",
  "2481": "古",
  "2482": "句",
  "2483": "另",
  "2484": "叩",
  "2485": "只",
  "2486": "叫",
  "2487": "召",
  "2488": "叭",
  "2489": "可",
  "2490": "台",
  "2491": "史",
  "2492": "右",
  "2493": "叶",
  "2494": "号",
  "2495": "司",
  "2496": "叹",
  "2497": "吁",
  "2498": "吃",
  "2499": "各",
  "2500": "合",
  "2501": "吉",
  "2502": "吊",
  "2503": "同",
  "2504": "名",
  "2505": "后",
  "2506": "吐",
  "2507": "向",
  "2508": "吓",
  "2509": "吗",
  "2510": "君",
  "2511": "吞",
  "2512": "吟",
  "2513": "否",
  "2514": "吧",
  "2515": "含",
  "2516": "听",
  "2517": "启",
  "2518": "吴",
  "2519": "吵",
  "2520": "吸",
  "2521": "吹",
  "2522": "吻",
  "2523": "吼",
  "2524": "吾",
  "2525": "呀",
  "2526": "呂",
  "2527": "呈",
  "2528": "告",
  "2529": "呕",
  "2530": "员",
  "2531": "呜",
  "2532": "呢",
  "2533": "周",
  "2534": "呪",
  "2535": "味",
  "2536": "呵",
  "2537": "呼",
  "2538": "命",
  "2539": "咆",
  "2540": "和",
  "2541": "咎",
  "2542": "咒",
  "2543": "咖",
  "2544": "咙",
  "2545": "咨",
  "2546": "咬",
  "2547": "咸",
  "2548": "品",
  "2549": "哇",
  "2550": "哈",
  "2551": "响",
  "2552": "哎",
  "2553": "員",
  "2554": "哥",
  "2555": "哦",
  "2556": "哨",
  "2557": "哪",
  "2558": "哭",
  "2559": "哮",
  "2560": "哲",
  "2561": "哺",
  "2562": "唆",
  "2563": "唐",
  "2564": "唤",
  "2565": "售",
  "2566": "唯",
  "2567": "唱",
  "2568": "唸",
  "2569": "商",
  "2570": "啊",
  "2571": "問",
  "2572": "啓",
  "2573": "啡",
  "2574": "啤",
  "2575": "啦",
  "2576": "啮",
  "2577": "啸",
  "2578": "喀",
  "2579": "喂",
  "2580": "善",
  "2581": "喇",
  "2582": "喉",
  "2583": "喊",
  "2584": "喘",
  "2585": "喙",
  "2586": "喜",
  "2587": "喝",
  "2588": "喧",
  "2589": "喩",
  "2590": "喰",
  "2591": "喱",
  "2592": "喵",
  "2593": "営",
  "2594": "喷",
  "2595": "喻",
  "2596": "嗅",
  "2597": "嗨",
  "2598": "嗯",
  "2599": "嘆",
  "2600": "嘔",
  "2601": "嘗",
  "2602": "嘘",
  "2603": "嘩",
  "2604": "嘲",
  "2605": "嘴",
  "2606": "嘶",
  "2607": "嘿",
  "2608": "噂",
  "2609": "噛",
  "2610": "噢",
  "2611": "器",
  "2612": "噪",
  "2613": "噬",
  "2614": "噱",
  "2615": "噴",
  "2616": "囊",
  "2617": "囚",
  "2618": "四",
  "2619": "回",
  "2620": "因",
  "2621": "团",
  "2622": "団",
  "2623": "园",
  "2624": "困",
  "2625": "囲",
  "2626": "図",
  "2627": "围",
  "2628": "固",
  "2629": "国",
  "2630": "图",
  "2631": "圈",
  "2632": "圏",
  "2633": "園",
  "2634": "土",
  "2635": "圣",
  "2636": "圧",
  "2637": "在",
  "2638": "圭",
  "2639": "地",
  "2640": "场",
  "2641": "圾",
  "2642": "址",
  "2643": "均",
  "2644": "坍",
  "2645": "坎",
  "2646": "坏",
  "2647": "坐",
  "2648": "坑",
  "2649": "块",
  "2650": "坚",
  "2651": "坛",
  "2652": "坝",
  "2653": "坟",
  "2654": "坠",
  "2655": "坡",
  "2656": "坦",
  "2657": "坷",
  "2658": "垂",
  "2659": "垃",
  "2660": "型",
  "2661": "垒",
  "2662": "垠",
  "2663": "垣",
  "2664": "垩",
  "2665": "垫",
  "2666": "垮",
  "2667": "埃",
  "2668": "埋",
  "2669": "城",
  "2670": "埔",
  "2671": "域",
  "2672": "執",
  "2673": "培",
  "2674": "基",
  "2675": "堂",
  "2676": "堅",
  "2677": "堆",
  "2678": "堕",
  "2679": "堡",
  "2680": "堤",
  "2681": "堪",
  "2682": "報",
  "2683": "場",
  "2684": "堵",
  "2685": "塊",
  "2686": "塌",
  "2687": "塑",
  "2688": "塔",
  "2689": "塗",
  "2690": "塞",
  "2691": "塩",
  "2692": "填",
  "2693": "塵",
  "2694": "境",
  "2695": "墓",
  "2696": "増",
  "2697": "墙",
  "2698": "墜",
  "2699": "增",
  "2700": "墟",
  "2701": "墨",
  "2702": "壁",
  "2703": "壇",
  "2704": "壊",
  "2705": "壌",
  "2706": "壤",
  "2707": "士",
  "2708": "壮",
  "2709": "声",
  "2710": "売",
  "2711": "壳",
  "2712": "壹",
  "2713": "处",
  "2714": "备",
  "2715": "変",
  "2716": "复",
  "2717": "夏",
  "2718": "夕",
  "2719": "外",
  "2720": "多",
  "2721": "夜",
  "2722": "够",
  "2723": "夢",
  "2724": "大",
  "2725": "天",
  "2726": "太",
  "2727": "夫",
  "2728": "央",
  "2729": "失",
  "2730": "头",
  "2731": "夷",
  "2732": "夸",
  "2733": "夹",
  "2734": "夺",
  "2735": "奇",
  "2736": "奉",
  "2737": "奋",
  "2738": "奌",
  "2739": "奎",
  "2740": "奏",
  "2741": "契",
  "2742": "奔",
  "2743": "奖",
  "2744": "套",
  "2745": "奢",
  "2746": "奥",
  "2747": "奨",
  "2748": "奪",
  "2749": "奮",
  "2750": "女",
  "2751": "奴",
  "2752": "奶",
  "2753": "奸",
  "2754": "她",
  "2755": "好",
  "2756": "如",
  "2757": "妃",
  "2758": "妇",
  "2759": "妈",
  "2760": "妊",
  "2761": "妍",
  "2762": "妙",
  "2763": "妨",
  "2764": "妮",
  "2765": "妹",
  "2766": "妻",
  "2767": "姆",
  "2768": "姉",
  "2769": "姊",
  "2770": "始",
  "2771": "姐",
  "2772": "姑",
  "2773": "姓",
  "2774": "委",
  "2775": "姥",
  "2776": "姦",
  "2777": "姫",
  "2778": "姬",
  "2779": "姻",
  "2780": "姿",
  "2781": "威",
  "2782": "娅",
  "2783": "娘",
  "2784": "娜",
  "2785": "娯",
  "2786": "娱",
  "2787": "婆",
  "2788": "婚",
  "2789": "婦",
  "2790": "婪",
  "2791": "婴",
  "2792": "媒",
  "2793": "媚",
  "2794": "媲",
  "2795": "嫌",
  "2796": "嫩",
  "2797": "嬉",
  "2798": "子",
  "2799": "孔",
  "2800": "孕",
  "2801": "字",
  "2802": "存",
  "2803": "孙",
  "2804": "孟",
  "2805": "季",
  "2806": "孤",
  "2807": "学",
  "2808": "孩",
  "2809": "孫",
  "2810": "宁",
  "2811": "它",
  "2812": "宅",
  "2813": "宇",
  "2814": "守",
  "2815": "安",
  "2816": "完",
  "2817": "宏",
  "2818": "宗",
  "2819": "官",
  "2820": "宙",
  "2821": "定",
  "2822": "宛",
  "2823": "宜",
  "2824": "宝",
  "2825": "实",
  "2826": "実",
  "2827": "宠",
  "2828": "审",
  "2829": "客",
  "2830": "宣",
  "2831": "室",
  "2832": "宪",
  "2833": "宫",
  "2834": "宮",
  "2835": "宰",
  "2836": "害",
  "2837": "宴",
  "2838": "家",
  "2839": "容",
  "2840": "宽",
  "2841": "宾",
  "2842": "宿",
  "2843": "寂",
  "2844": "寄",
  "2845": "密",
  "2846": "富",
  "2847": "寒",
  "2848": "寓",
  "2849": "寝",
  "2850": "察",
  "2851": "寧",
  "2852": "寨",
  "2853": "審",
  "2854": "寮",
  "2855": "寰",
  "2856": "寸",
  "2857": "对",
  "2858": "寺",
  "2859": "寻",
  "2860": "导",
  "2861": "対",
  "2862": "寿",
  "2863": "封",
  "2864": "専",
  "2865": "射",
  "2866": "将",
  "2867": "尊",
  "2868": "導",
  "2869": "小",
  "2870": "少",
  "2871": "尔",
  "2872": "尖",
  "2873": "尘",
  "2874": "尚",
  "2875": "尝",
  "2876": "尤",
  "2877": "就",
  "2878": "尸",
  "2879": "尺",
  "2880": "尻",
  "2881": "尼",
  "2882": "尽",
  "2883": "尾",
  "2884": "尿",
  "2885": "局",
  "2886": "层",
  "2887": "居",
  "2888": "屈",
  "2889": "届",
  "2890": "屋",
  "2891": "屍",
  "2892": "屏",
  "2893": "展",
  "2894": "属",
  "2895": "屠",
  "2896": "層",
  "2897": "履",
  "2898": "屯",
  "2899": "山",
  "2900": "屹",
  "2901": "屿",
  "2902": "岁",
  "2903": "岐",
  "2904": "岖",
  "2905": "岗",
  "2906": "岛",
  "2907": "岩",
  "2908": "岭",
  "2909": "岳",
  "2910": "岸",
  "2911": "峙",
  "2912": "峠",
  "2913": "峡",
  "2914": "峭",
  "2915": "峰",
  "2916": "島",
  "2917": "峻",
  "2918": "崇",
  "2919": "崎",
  "2920": "崔",
  "2921": "崖",
  "2922": "崗",
  "2923": "崩",
  "2924": "崽",
  "2925": "嵐",
  "2926": "巅",
  "2927": "川",
  "2928": "州",
  "2929": "巡",
  "2930": "巢",
  "2931": "巣",
  "2932": "工",
  "2933": "左",
  "2934": "巧",
  "2935": "巨",
  "2936": "巩",
  "2937": "差",
  "2938": "己",
  "2939": "已",
  "2940": "巴",
  "2941": "巷",
  "2942": "巻",
  "2943": "巾",
  "2944": "币",
  "2945": "市",
  "2946": "布",
  "2947": "帅",
  "2948": "帆",
  "2949": "师",
  "2950": "希",
  "2951": "帐",
  "2952": "帕",
  "2953": "帜",
  "2954": "帝",
  "2955": "帥",
  "2956": "带",
  "2957": "師",
  "2958": "席",
  "2959": "帮",
  "2960": "帯",
  "2961": "帰",
  "2962": "帳",
  "2963": "常",
  "2964": "幅",
  "2965": "幕",
  "2966": "幣",
  "2967": "干",
  "2968": "平",
  "2969": "年",
  "2970": "并",
  "2971": "幸",
  "2972": "幹",
  "2973": "幻",
  "2974": "幼",
  "2975": "幽",
  "2976": "幾",
  "2977": "广",
  "2978": "庁",
  "2979": "広",
  "2980": "庄",
  "2981": "庆",
  "2982": "床",
  "2983": "序",
  "2984": "库",
  "2985": "应",
  "2986": "底",
  "2987": "店",
  "2988": "庙",
  "2989": "府",
  "2990": "庞",
  "2991": "废",
  "2992": "度",
  "2993": "座",
  "2994": "庫",
  "2995": "庭",
  "2996": "康",
  "2997": "庸",
  "2998": "廃",
  "2999": "廉",
  "3000": "廊",
  "3001": "延",
  "3002": "廷",
  "3003": "建",
  "3004": "开",
  "3005": "弁",
  "3006": "异",
  "3007": "弃",
  "3008": "弄",
  "3009": "弊",
  "3010": "式",
  "3011": "弓",
  "3012": "引",
  "3013": "弗",
  "3014": "弟",
  "3015": "张",
  "3016": "弥",
  "3017": "弦",
  "3018": "弯",
  "3019": "弱",
  "3020": "張",
  "3021": "強",
  "3022": "弹",
  "3023": "强",
  "3024": "弾",
  "3025": "归",
  "3026": "当",
  "3027": "录",
  "3028": "彗",
  "3029": "彙",
  "3030": "形",
  "3031": "彩",
  "3032": "彫",
  "3033": "彰",
  "3034": "影",
  "3035": "彷",
  "3036": "役",
  "3037": "彻",
  "3038": "彼",
  "3039": "彿",
  "3040": "往",
  "3041": "征",
  "3042": "径",
  "3043": "待",
  "3044": "很",
  "3045": "徊",
  "3046": "律",
  "3047": "後",
  "3048": "徐",
  "3049": "徒",
  "3050": "従",
  "3051": "得",
  "3052": "徘",
  "3053": "徙",
  "3054": "從",
  "3055": "御",
  "3056": "復",
  "3057": "循",
  "3058": "微",
  "3059": "徴",
  "3060": "德",
  "3061": "徹",
  "3062": "心",
  "3063": "必",
  "3064": "忆",
  "3065": "忍",
  "3066": "忒",
  "3067": "志",
  "3068": "忘",
  "3069": "忙",
  "3070": "応",
  "3071": "忠",
  "3072": "忧",
  "3073": "快",
  "3074": "念",
  "3075": "忽",
  "3076": "怀",
  "3077": "态",
  "3078": "怎",
  "3079": "怒",
  "3080": "怕",
  "3081": "怖",
  "3082": "思",
  "3083": "怠",
  "3084": "急",
  "3085": "性",
  "3086": "怨",
  "3087": "怪",
  "3088": "怯",
  "3089": "总",
  "3090": "恋",
  "3091": "恍",
  "3092": "恐",
  "3093": "恒",
  "3094": "恢",
  "3095": "恤",
  "3096": "恥",
  "3097": "恩",
  "3098": "息",
  "3099": "恰",
  "3100": "恵",
  "3101": "恶",
  "3102": "悉",
  "3103": "悟",
  "3104": "悠",
  "3105": "患",
  "3106": "悦",
  "3107": "您",
  "3108": "悩",
  "3109": "悪",
  "3110": "悬",
  "3111": "悲",
  "3112": "悼",
  "3113": "情",
  "3114": "惊",
  "3115": "惑",
  "3116": "惕",
  "3117": "惚",
  "3118": "惜",
  "3119": "惠",
  "3120": "惧",
  "3121": "惨",
  "3122": "惬",
  "3123": "惯",
  "3124": "想",
  "3125": "惹",
  "3126": "愈",
  "3127": "愉",
  "3128": "意",
  "3129": "愚",
  "3130": "愛",
  "3131": "感",
  "3132": "愤",
  "3133": "愿",
  "3134": "慈",
  "3135": "態",
  "3136": "慌",
  "3137": "慎",
  "3138": "慢",
  "3139": "慣",
  "3140": "慧",
  "3141": "慨",
  "3142": "慮",
  "3143": "慰",
  "3144": "憂",
  "3145": "憑",
  "3146": "憧",
  "3147": "憩",
  "3148": "憲",
  "3149": "憶",
  "3150": "憾",
  "3151": "懂",
  "3152": "懐",
  "3153": "懒",
  "3154": "懲",
  "3155": "懸",
  "3156": "戈",
  "3157": "戏",
  "3158": "成",
  "3159": "我",
  "3160": "戒",
  "3161": "或",
  "3162": "战",
  "3163": "戚",
  "3164": "戦",
  "3165": "截",
  "3166": "戯",
  "3167": "戴",
  "3168": "户",
  "3169": "戸",
  "3170": "戻",
  "3171": "房",
  "3172": "所",
  "3173": "扇",
  "3174": "扉",
  "3175": "手",
  "3176": "才",
  "3177": "扎",
  "3178": "扑",
  "3179": "扒",
  "3180": "打",
  "3181": "扔",
  "3182": "払",
  "3183": "托",
  "3184": "扣",
  "3185": "执",
  "3186": "扩",
  "3187": "扫",
  "3188": "扬",
  "3189": "扭",
  "3190": "扮",
  "3191": "扰",
  "3192": "扱",
  "3193": "扶",
  "3194": "批",
  "3195": "找",
  "3196": "承",
  "3197": "技",
  "3198": "抄",
  "3199": "把",
  "3200": "抑",
  "3201": "抓",
  "3202": "投",
  "3203": "抗",
  "3204": "折",
  "3205": "抚",
  "3206": "抛",
  "3207": "抜",
  "3208": "択",
  "3209": "抢",
  "3210": "护",
  "3211": "报",
  "3212": "披",
  "3213": "抱",
  "3214": "抵",
  "3215": "押",
  "3216": "抽",
  "3217": "抿",
  "3218": "担",
  "3219": "拉",
  "3220": "拍",
  "3221": "拐",
  "3222": "拒",
  "3223": "拓",
  "3224": "拔",
  "3225": "拖",
  "3226": "拘",
  "3227": "招",
  "3228": "拜",
  "3229": "拝",
  "3230": "拟",
  "3231": "拠",
  "3232": "拡",
  "3233": "拥",
  "3234": "拦",
  "3235": "拨",
  "3236": "择",
  "3237": "括",
  "3238": "拯",
  "3239": "拳",
  "3240": "拴",
  "3241": "拷",
  "3242": "拼",
  "3243": "拾",
  "3244": "拿",
  "3245": "持",
  "3246": "挂",
  "3247": "指",
  "3248": "按",
  "3249": "挑",
  "3250": "挖",
  "3251": "挙",
  "3252": "挟",
  "3253": "挡",
  "3254": "挤",
  "3255": "挥",
  "3256": "挨",
  "3257": "挪",
  "3258": "挫",
  "3259": "振",
  "3260": "挽",
  "3261": "挿",
  "3262": "捉",
  "3263": "捌",
  "3264": "捐",
  "3265": "捕",
  "3266": "捜",
  "3267": "损",
  "3268": "换",
  "3269": "捧",
  "3270": "捨",
  "3271": "据",
  "3272": "捶",
  "3273": "捷",
  "3274": "掃",
  "3275": "授",
  "3276": "掉",
  "3277": "掌",
  "3278": "掏",
  "3279": "排",
  "3280": "掘",
  "3281": "掛",
  "3282": "掠",
  "3283": "採",
  "3284": "探",
  "3285": "接",
  "3286": "控",
  "3287": "推",
  "3288": "掩",
  "3289": "措",
  "3290": "掲",
  "3291": "掴",
  "3292": "掷",
  "3293": "掻",
  "3294": "揃",
  "3295": "揉",
  "3296": "揍",
  "3297": "描",
  "3298": "提",
  "3299": "插",
  "3300": "換",
  "3301": "握",
  "3302": "揭",
  "3303": "揮",
  "3304": "援",
  "3305": "揺",
  "3306": "搁",
  "3307": "搅",
  "3308": "損",
  "3309": "搜",
  "3310": "搞",
  "3311": "搬",
  "3312": "搭",
  "3313": "携",
  "3314": "搾",
  "3315": "摂",
  "3316": "摄",
  "3317": "摆",
  "3318": "摇",
  "3319": "摊",
  "3320": "摔",
  "3321": "摘",
  "3322": "摧",
  "3323": "摩",
  "3324": "摸",
  "3325": "撃",
  "3326": "撑",
  "3327": "撒",
  "3328": "撕",
  "3329": "撞",
  "3330": "撤",
  "3331": "播",
  "3332": "撮",
  "3333": "撰",
  "3334": "撲",
  "3335": "撼",
  "3336": "擁",
  "3337": "擅",
  "3338": "操",
  "3339": "擎",
  "3340": "擦",
  "3341": "擬",
  "3342": "攀",
  "3343": "支",
  "3344": "收",
  "3345": "攸",
  "3346": "改",
  "3347": "攻",
  "3348": "放",
  "3349": "政",
  "3350": "故",
  "3351": "效",
  "3352": "敌",
  "3353": "敏",
  "3354": "救",
  "3355": "敗",
  "3356": "教",
  "3357": "敛",
  "3358": "敝",
  "3359": "敞",
  "3360": "敢",
  "3361": "散",
  "3362": "敦",
  "3363": "敬",
  "3364": "数",
  "3365": "敲",
  "3366": "整",
  "3367": "敵",
  "3368": "敷",
  "3369": "文",
  "3370": "斉",
  "3371": "斎",
  "3372": "斐",
  "3373": "斑",
  "3374": "斗",
  "3375": "料",
  "3376": "斜",
  "3377": "斤",
  "3378": "断",
  "3379": "斯",
  "3380": "新",
  "3381": "方",
  "3382": "施",
  "3383": "旁",
  "3384": "旅",
  "3385": "旋",
  "3386": "族",
  "3387": "旗",
  "3388": "无",
  "3389": "既",
  "3390": "日",
  "3391": "旦",
  "3392": "旧",
  "3393": "旨",
  "3394": "早",
  "3395": "旬",
  "3396": "旱",
  "3397": "时",
  "3398": "旺",
  "3399": "昂",
  "3400": "昆",
  "3401": "昇",
  "3402": "明",
  "3403": "昏",
  "3404": "易",
  "3405": "昔",
  "3406": "星",
  "3407": "映",
  "3408": "春",
  "3409": "昧",
  "3410": "昨",
  "3411": "昭",
  "3412": "是",
  "3413": "昼",
  "3414": "显",
  "3415": "時",
  "3416": "晋",
  "3417": "晓",
  "3418": "晚",
  "3419": "晨",
  "3420": "晩",
  "3421": "普",
  "3422": "景",
  "3423": "晰",
  "3424": "晴",
  "3425": "晶",
  "3426": "智",
  "3427": "暂",
  "3428": "暇",
  "3429": "暑",
  "3430": "暖",
  "3431": "暗",
  "3432": "暦",
  "3433": "暫",
  "3434": "暮",
  "3435": "暴",
  "3436": "暹",
  "3437": "曖",
  "3438": "曜",
  "3439": "曝",
  "3440": "曰",
  "3441": "曲",
  "3442": "更",
  "3443": "書",
  "3444": "曹",
  "3445": "曼",
  "3446": "曾",
  "3447": "替",
  "3448": "最",
  "3449": "月",
  "3450": "有",
  "3451": "朋",
  "3452": "服",
  "3453": "朗",
  "3454": "望",
  "3455": "朝",
  "3456": "期",
  "3457": "木",
  "3458": "未",
  "3459": "末",
  "3460": "本",
  "3461": "札",
  "3462": "术",
  "3463": "朱",
  "3464": "朴",
  "3465": "机",
  "3466": "朽",
  "3467": "杀",
  "3468": "杂",
  "3469": "权",
  "3470": "杆",
  "3471": "杉",
  "3472": "李",
  "3473": "杏",
  "3474": "材",
  "3475": "村",
  "3476": "杜",
  "3477": "杞",
  "3478": "束",
  "3479": "条",
  "3480": "来",
  "3481": "杭",
  "3482": "杯",
  "3483": "杰",
  "3484": "東",
  "3485": "杳",
  "3486": "松",
  "3487": "板",
  "3488": "极",
  "3489": "构",
  "3490": "析",
  "3491": "枕",
  "3492": "林",
  "3493": "枚",
  "3494": "果",
  "3495": "枝",
  "3496": "枠",
  "3497": "枢",
  "3498": "枪",
  "3499": "架",
  "3500": "柄",
  "3501": "柏",
  "3502": "某",
  "3503": "柒",
  "3504": "染",
  "3505": "柔",
  "3506": "柜",
  "3507": "查",
  "3508": "柬",
  "3509": "柯",
  "3510": "柱",
  "3511": "柵",
  "3512": "査",
  "3513": "柿",
  "3514": "栄",
  "3515": "栅",
  "3516": "标",
  "3517": "栋",
  "3518": "栏",
  "3519": "树",
  "3520": "栖",
  "3521": "栗",
  "3522": "校",
  "3523": "株",
  "3524": "样",
  "3525": "核",
  "3526": "根",
  "3527": "格",
  "3528": "栽",
  "3529": "桃",
  "3530": "框",
  "3531": "案",
  "3532": "桑",
  "3533": "桜",
  "3534": "档",
  "3535": "桥",
  "3536": "桩",
  "3537": "桶",
  "3538": "梁",
  "3539": "梅",
  "3540": "梦",
  "3541": "梭",
  "3542": "梯",
  "3543": "械",
  "3544": "梵",
  "3545": "检",
  "3546": "棄",
  "3547": "棋",
  "3548": "棍",
  "3549": "棒",
  "3550": "棕",
  "3551": "棘",
  "3552": "森",
  "3553": "棱",
  "3554": "棲",
  "3555": "棵",
  "3556": "棺",
  "3557": "椅",
  "3558": "植",
  "3559": "椒",
  "3560": "検",
  "3561": "椰",
  "3562": "楚",
  "3563": "業",
  "3564": "極",
  "3565": "楼",
  "3566": "楽",
  "3567": "概",
  "3568": "榄",
  "3569": "榈",
  "3570": "榉",
  "3571": "榛",
  "3572": "榜",
  "3573": "榨",
  "3574": "榴",
  "3575": "榻",
  "3576": "構",
  "3577": "槌",
  "3578": "槍",
  "3579": "様",
  "3580": "標",
  "3581": "模",
  "3582": "権",
  "3583": "横",
  "3584": "樱",
  "3585": "橄",
  "3586": "橇",
  "3587": "橋",
  "3588": "橐",
  "3589": "機",
  "3590": "橱",
  "3591": "欄",
  "3592": "欠",
  "3593": "次",
  "3594": "欢",
  "3595": "欣",
  "3596": "欧",
  "3597": "欲",
  "3598": "欺",
  "3599": "款",
  "3600": "歇",
  "3601": "歉",
  "3602": "歌",
  "3603": "歓",
  "3604": "止",
  "3605": "正",
  "3606": "此",
  "3607": "步",
  "3608": "武",
  "3609": "歧",
  "3610": "歩",
  "3611": "歪",
  "3612": "歯",
  "3613": "歳",
  "3614": "歴",
  "3615": "死",
  "3616": "殊",
  "3617": "残",
  "3618": "殖",
  "3619": "殴",
  "3620": "段",
  "3621": "殺",
  "3622": "殻",
  "3623": "殿",
  "3624": "毁",
  "3625": "毅",
  "3626": "毋",
  "3627": "母",
  "3628": "毎",
  "3629": "每",
  "3630": "毒",
  "3631": "比",
  "3632": "毕",
  "3633": "毙",
  "3634": "毛",
  "3635": "毫",
  "3636": "毯",
  "3637": "氏",
  "3638": "民",
  "3639": "气",
  "3640": "気",
  "3641": "氛",
  "3642": "氢",
  "3643": "氧",
  "3644": "氨",
  "3645": "氮",
  "3646": "氯",
  "3647": "氰",
  "3648": "水",
  "3649": "氷",
  "3650": "永",
  "3651": "汀",
  "3652": "汁",
  "3653": "求",
  "3654": "汇",
  "3655": "汉",
  "3656": "汐",
  "3657": "汗",
  "3658": "汚",
  "3659": "池",
  "3660": "污",
  "3661": "汤",
  "3662": "汰",
  "3663": "決",
  "3664": "汽",
  "3665": "沃",
  "3666": "沈",
  "3667": "沉",
  "3668": "沌",
  "3669": "沖",
  "3670": "沙",
  "3671": "沛",
  "3672": "没",
  "3673": "沢",
  "3674": "沧",
  "3675": "沫",
  "3676": "沮",
  "3677": "河",
  "3678": "沸",
  "3679": "油",
  "3680": "治",
  "3681": "沼",
  "3682": "沿",
  "3683": "況",
  "3684": "泄",
  "3685": "泉",
  "3686": "泊",
  "3687": "泌",
  "3688": "法",
  "3689": "泛",
  "3690": "泡",
  "3691": "波",
  "3692": "泣",
  "3693": "泥",
  "3694": "注",
  "3695": "泪",
  "3696": "泰",
  "3697": "泳",
  "3698": "泵",
  "3699": "泻",
  "3700": "泼",
  "3701": "泽",
  "3702": "洁",
  "3703": "洋",
  "3704": "洒",
  "3705": "洗",
  "3706": "洛",
  "3707": "洞",
  "3708": "津",
  "3709": "洪",
  "3710": "洲",
  "3711": "活",
  "3712": "洽",
  "3713": "派",
  "3714": "流",
  "3715": "浄",
  "3716": "浅",
  "3717": "测",
  "3718": "济",
  "3719": "浓",
  "3720": "浜",
  "3721": "浦",
  "3722": "浩",
  "3723": "浪",
  "3724": "浮",
  "3725": "浴",
  "3726": "海",
  "3727": "浸",
  "3728": "涂",
  "3729": "涅",
  "3730": "消",
  "3731": "涉",
  "3732": "涌",
  "3733": "涎",
  "3734": "涙",
  "3735": "涛",
  "3736": "涜",
  "3737": "润",
  "3738": "涧",
  "3739": "涯",
  "3740": "液",
  "3741": "涵",
  "3742": "涸",
  "3743": "涼",
  "3744": "淌",
  "3745": "淘",
  "3746": "淡",
  "3747": "深",
  "3748": "混",
  "3749": "淹",
  "3750": "添",
  "3751": "清",
  "3752": "済",
  "3753": "渉",
  "3754": "渊",
  "3755": "渐",
  "3756": "渓",
  "3757": "渔",
  "3758": "減",
  "3759": "渡",
  "3760": "渥",
  "3761": "渦",
  "3762": "温",
  "3763": "測",
  "3764": "港",
  "3765": "渴",
  "3766": "游",
  "3767": "湍",
  "3768": "湖",
  "3769": "湯",
  "3770": "湾",
  "3771": "湿",
  "3772": "満",
  "3773": "源",
  "3774": "準",
  "3775": "溜",
  "3776": "溢",
  "3777": "溪",
  "3778": "溯",
  "3779": "溶",
  "3780": "滅",
  "3781": "滋",
  "3782": "滑",
  "3783": "滕",
  "3784": "滚",
  "3785": "滝",
  "3786": "滞",
  "3787": "满",
  "3788": "滤",
  "3789": "滥",
  "3790": "滨",
  "3791": "滩",
  "3792": "滴",
  "3793": "漁",
  "3794": "漂",
  "3795": "漆",
  "3796": "漏",
  "3797": "演",
  "3798": "漠",
  "3799": "漢",
  "3800": "漫",
  "3801": "漬",
  "3802": "潔",
  "3803": "潜",
  "3804": "潟",
  "3805": "潤",
  "3806": "潮",
  "3807": "潰",
  "3808": "澄",
  "3809": "澈",
  "3810": "澡",
  "3811": "澳",
  "3812": "激",
  "3813": "濃",
  "3814": "濒",
  "3815": "濡",
  "3816": "濤",
  "3817": "濯",
  "3818": "瀑",
  "3819": "瀕",
  "3820": "瀚",
  "3821": "火",
  "3822": "灭",
  "3823": "灯",
  "3824": "灰",
  "3825": "灵",
  "3826": "災",
  "3827": "灾",
  "3828": "灿",
  "3829": "炉",
  "3830": "炎",
  "3831": "炫",
  "3832": "炭",
  "3833": "炮",
  "3834": "炸",
  "3835": "点",
  "3836": "為",
  "3837": "炼",
  "3838": "烂",
  "3839": "烈",
  "3840": "烘",
  "3841": "烟",
  "3842": "烤",
  "3843": "烦",
  "3844": "烧",
  "3845": "烫",
  "3846": "热",
  "3847": "烹",
  "3848": "焉",
  "3849": "焙",
  "3850": "無",
  "3851": "焦",
  "3852": "焰",
  "3853": "然",
  "3854": "焼",
  "3855": "煙",
  "3856": "煤",
  "3857": "照",
  "3858": "煮",
  "3859": "煽",
  "3860": "熊",
  "3861": "熔",
  "3862": "熟",
  "3863": "熨",
  "3864": "熬",
  "3865": "熱",
  "3866": "燃",
  "3867": "燥",
  "3868": "爆",
  "3869": "爪",
  "3870": "爬",
  "3871": "爱",
  "3872": "爵",
  "3873": "父",
  "3874": "爷",
  "3875": "爽",
  "3876": "片",
  "3877": "版",
  "3878": "牌",
  "3879": "牙",
  "3880": "牛",
  "3881": "牢",
  "3882": "牧",
  "3883": "物",
  "3884": "牲",
  "3885": "牵",
  "3886": "特",
  "3887": "牺",
  "3888": "犒",
  "3889": "犠",
  "3890": "犬",
  "3891": "犯",
  "3892": "状",
  "3893": "犹",
  "3894": "狂",
  "3895": "狄",
  "3896": "狗",
  "3897": "狙",
  "3898": "狩",
  "3899": "独",
  "3900": "狭",
  "3901": "狮",
  "3902": "狱",
  "3903": "狼",
  "3904": "猁",
  "3905": "猎",
  "3906": "猛",
  "3907": "猜",
  "3908": "猞",
  "3909": "猟",
  "3910": "猥",
  "3911": "猩",
  "3912": "猪",
  "3913": "猫",
  "3914": "献",
  "3915": "猴",
  "3916": "猿",
  "3917": "獄",
  "3918": "獭",
  "3919": "獲",
  "3920": "獸",
  "3921": "玄",
  "3922": "率",
  "3923": "玉",
  "3924": "王",
  "3925": "玖",
  "3926": "玛",
  "3927": "玟",
  "3928": "玩",
  "3929": "玫",
  "3930": "环",
  "3931": "现",
  "3932": "玻",
  "3933": "珀",
  "3934": "珉",
  "3935": "珍",
  "3936": "珠",
  "3937": "班",
  "3938": "現",
  "3939": "球",
  "3940": "理",
  "3941": "琳",
  "3942": "琴",
  "3943": "瑕",
  "3944": "瑙",
  "3945": "瑜",
  "3946": "瑞",
  "3947": "瑟",
  "3948": "瑰",
  "3949": "璀",
  "3950": "璃",
  "3951": "璧",
  "3952": "璨",
  "3953": "環",
  "3954": "瓜",
  "3955": "瓣",
  "3956": "瓦",
  "3957": "瓶",
  "3958": "甄",
  "3959": "甘",
  "3960": "甚",
  "3961": "甜",
  "3962": "生",
  "3963": "産",
  "3964": "用",
  "3965": "甩",
  "3966": "田",
  "3967": "由",
  "3968": "甲",
  "3969": "申",
  "3970": "电",
  "3971": "男",
  "3972": "町",
  "3973": "画",
  "3974": "畅",
  "3975": "界",
  "3976": "留",
  "3977": "畜",
  "3978": "略",
  "3979": "番",
  "3980": "異",
  "3981": "畳",
  "3982": "疆",
  "3983": "疎",
  "3984": "疏",
  "3985": "疑",
  "3986": "疗",
  "3987": "疟",
  "3988": "疫",
  "3989": "疯",
  "3990": "疲",
  "3991": "疼",
  "3992": "疽",
  "3993": "疾",
  "3994": "病",
  "3995": "症",
  "3996": "痛",
  "3997": "痢",
  "3998": "痴",
  "3999": "瘍",
  "4000": "瘤",
  "4001": "瘦",
  "4002": "瘾",
  "4003": "療",
  "4004": "癌",
  "4005": "癒",
  "4006": "発",
  "4007": "登",
  "4008": "白",
  "4009": "百",
  "4010": "的",
  "4011": "皆",
  "4012": "皇",
  "4013": "皮",
  "4014": "盆",
  "4015": "盈",
  "4016": "益",
  "4017": "盎",
  "4018": "盐",
  "4019": "监",
  "4020": "盔",
  "4021": "盖",
  "4022": "盗",
  "4023": "盘",
  "4024": "盛",
  "4025": "盟",
  "4026": "監",
  "4027": "盤",
  "4028": "目",
  "4029": "盲",
  "4030": "直",
  "4031": "相",
  "4032": "盾",
  "4033": "省",
  "4034": "看",
  "4035": "県",
  "4036": "真",
  "4037": "眠",
  "4038": "眨",
  "4039": "眶",
  "4040": "眺",
  "4041": "眼",
  "4042": "着",
  "4043": "睛",
  "4044": "睡",
  "4045": "督",
  "4046": "睨",
  "4047": "睹",
  "4048": "瞑",
  "4049": "瞩",
  "4050": "瞬",
  "4051": "瞰",
  "4052": "瞳",
  "4053": "矛",
  "4054": "矢",
  "4055": "矣",
  "4056": "知",
  "4057": "矩",
  "4058": "短",
  "4059": "石",
  "4060": "矶",
  "4061": "码",
  "4062": "砂",
  "4063": "砍",
  "4064": "研",
  "4065": "砕",
  "4066": "砲",
  "4067": "破",
  "4068": "础",
  "4069": "硕",
  "4070": "硫",
  "4071": "硬",
  "4072": "确",
  "4073": "碌",
  "4074": "碍",
  "4075": "碎",
  "4076": "碑",
  "4077": "碘",
  "4078": "碟",
  "4079": "碰",
  "4080": "碱",
  "4081": "碳",
  "4082": "確",
  "4083": "碾",
  "4084": "磁",
  "4085": "磅",
  "4086": "磨",
  "4087": "磷",
  "4088": "礁",
  "4089": "礎",
  "4090": "示",
  "4091": "礼",
  "4092": "社",
  "4093": "祀",
  "4094": "祇",
  "4095": "祈",
  "4096": "祉",
  "4097": "祖",
  "4098": "祝",
  "4099": "神",
  "4100": "祥",
  "4101": "票",
  "4102": "祭",
  "4103": "祷",
  "4104": "祸",
  "4105": "禁",
  "4106": "禄",
  "4107": "福",
  "4108": "禮",
  "4109": "离",
  "4110": "禽",
  "4111": "秀",
  "4112": "私",
  "4113": "秃",
  "4114": "秋",
  "4115": "种",
  "4116": "科",
  "4117": "秒",
  "4118": "秘",
  "4119": "租",
  "4120": "秩",
  "4121": "积",
  "4122": "称",
  "4123": "移",
  "4124": "稀",
  "4125": "程",
  "4126": "稍",
  "4127": "税",
  "4128": "種",
  "4129": "稳",
  "4130": "稻",
  "4131": "稼",
  "4132": "稿",
  "4133": "穀",
  "4134": "穆",
  "4135": "積",
  "4136": "穏",
  "4137": "穣",
  "4138": "穴",
  "4139": "究",
  "4140": "穷",
  "4141": "空",
  "4142": "穿",
  "4143": "突",
  "4144": "窃",
  "4145": "窄",
  "4146": "窑",
  "4147": "窒",
  "4148": "窓",
  "4149": "窗",
  "4150": "窟",
  "4151": "立",
  "4152": "站",
  "4153": "竜",
  "4154": "竞",
  "4155": "竟",
  "4156": "章",
  "4157": "竣",
  "4158": "童",
  "4159": "竭",
  "4160": "端",
  "4161": "競",
  "4162": "竹",
  "4163": "笑",
  "4164": "笔",
  "4165": "符",
  "4166": "笨",
  "4167": "第",
  "4168": "笼",
  "4169": "筆",
  "4170": "等",
  "4171": "筋",
  "4172": "筑",
  "4173": "筒",
  "4174": "答",
  "4175": "策",
  "4176": "签",
  "4177": "简",
  "4178": "箋",
  "4179": "算",
  "4180": "管",
  "4181": "箭",
  "4182": "箱",
  "4183": "節",
  "4184": "範",
  "4185": "篇",
  "4186": "築",
  "4187": "篡",
  "4188": "篮",
  "4189": "篷",
  "4190": "簡",
  "4191": "簿",
  "4192": "籍",
  "4193": "米",
  "4194": "类",
  "4195": "粉",
  "4196": "粋",
  "4197": "粒",
  "4198": "粗",
  "4199": "粘",
  "4200": "粟",
  "4201": "粮",
  "4202": "粹",
  "4203": "精",
  "4204": "糊",
  "4205": "糕",
  "4206": "糖",
  "4207": "糟",
  "4208": "糧",
  "4209": "系",
  "4210": "紀",
  "4211": "約",
  "4212": "紅",
  "4213": "紊",
  "4214": "納",
  "4215": "純",
  "4216": "紙",
  "4217": "級",
  "4218": "紛",
  "4219": "素",
  "4220": "索",
  "4221": "紧",
  "4222": "紫",
  "4223": "細",
  "4224": "紳",
  "4225": "紹",
  "4226": "終",
  "4227": "組",
  "4228": "経",
  "4229": "結",
  "4230": "絞",
  "4231": "絡",
  "4232": "給",
  "4233": "統",
  "4234": "絲",
  "4235": "絵",
  "4236": "絶",
  "4237": "継",
  "4238": "続",
  "4239": "維",
  "4240": "綱",
  "4241": "網",
  "4242": "綴",
  "4243": "綻",
  "4244": "綾",
  "4245": "綿",
  "4246": "緊",
  "4247": "総",
  "4248": "緒",
  "4249": "線",
  "4250": "締",
  "4251": "編",
  "4252": "緩",
  "4253": "緯",
  "4254": "練",
  "4255": "縁",
  "4256": "縄",
  "4257": "縛",
  "4258": "縦",
  "4259": "縮",
  "4260": "績",
  "4261": "繁",
  "4262": "織",
  "4263": "繰",
  "4264": "纂",
  "4265": "红",
  "4266": "约",
  "4267": "级",
  "4268": "纪",
  "4269": "纬",
  "4270": "纯",
  "4271": "纱",
  "4272": "纳",
  "4273": "纵",
  "4274": "纷",
  "4275": "纸",
  "4276": "纹",
  "4277": "纽",
  "4278": "线",
  "4279": "练",
  "4280": "组",
  "4281": "细",
  "4282": "织",
  "4283": "终",
  "4284": "绍",
  "4285": "经",
  "4286": "绒",
  "4287": "结",
  "4288": "绕",
  "4289": "绘",
  "4290": "给",
  "4291": "络",
  "4292": "绝",
  "4293": "统",
  "4294": "继",
  "4295": "绩",
  "4296": "绪",
  "4297": "续",
  "4298": "维",
  "4299": "绵",
  "4300": "绸",
  "4301": "综",
  "4302": "绿",
  "4303": "缆",
  "4304": "缉",
  "4305": "缓",
  "4306": "编",
  "4307": "缘",
  "4308": "缝",
  "4309": "缠",
  "4310": "缩",
  "4311": "缪",
  "4312": "缭",
  "4313": "缴",
  "4314": "缺",
  "4315": "罂",
  "4316": "罄",
  "4317": "网",
  "4318": "罕",
  "4319": "罗",
  "4320": "罚",
  "4321": "罠",
  "4322": "罪",
  "4323": "置",
  "4324": "罰",
  "4325": "署",
  "4326": "羅",
  "4327": "羊",
  "4328": "美",
  "4329": "羚",
  "4330": "羞",
  "4331": "群",
  "4332": "義",
  "4333": "羽",
  "4334": "翅",
  "4335": "翌",
  "4336": "習",
  "4337": "翔",
  "4338": "翰",
  "4339": "翱",
  "4340": "翻",
  "4341": "耀",
  "4342": "老",
  "4343": "考",
  "4344": "者",
  "4345": "而",
  "4346": "耐",
  "4347": "耕",
  "4348": "耗",
  "4349": "耳",
  "4350": "耶",
  "4351": "耸",
  "4352": "聊",
  "4353": "职",
  "4354": "联",
  "4355": "聖",
  "4356": "聘",
  "4357": "聚",
  "4358": "聞",
  "4359": "聡",
  "4360": "聪",
  "4361": "聴",
  "4362": "職",
  "4363": "肆",
  "4364": "肉",
  "4365": "肌",
  "4366": "肏",
  "4367": "肖",
  "4368": "肚",
  "4369": "肝",
  "4370": "肠",
  "4371": "股",
  "4372": "肢",
  "4373": "肤",
  "4374": "肥",
  "4375": "肩",
  "4376": "肪",
  "4377": "肯",
  "4378": "育",
  "4379": "肴",
  "4380": "肺",
  "4381": "肽",
  "4382": "肾",
  "4383": "肿",
  "4384": "胀",
  "4385": "胁",
  "4386": "胆",
  "4387": "背",
  "4388": "胎",
  "4389": "胜",
  "4390": "胞",
  "4391": "胡",
  "4392": "胳",
  "4393": "胶",
  "4394": "胺",
  "4395": "能",
  "4396": "脂",
  "4397": "脅",
  "4398": "脆",
  "4399": "脇",
  "4400": "脈",
  "4401": "脉",
  "4402": "脊",
  "4403": "脏",
  "4404": "脑",
  "4405": "脚",
  "4406": "脱",
  "4407": "脳",
  "4408": "脸",
  "4409": "腊",
  "4410": "腎",
  "4411": "腐",
  "4412": "腓",
  "4413": "腕",
  "4414": "腚",
  "4415": "腥",
  "4416": "腫",
  "4417": "腰",
  "4418": "腸",
  "4419": "腹",
  "4420": "腺",
  "4421": "腾",
  "4422": "腿",
  "4423": "膀",
  "4424": "膊",
  "4425": "膚",
  "4426": "膜",
  "4427": "膝",
  "4428": "膨",
  "4429": "膳",
  "4430": "臂",
  "4431": "臆",
  "4432": "臓",
  "4433": "臣",
  "4434": "臨",
  "4435": "自",
  "4436": "臭",
  "4437": "至",
  "4438": "致",
  "4439": "興",
  "4440": "舌",
  "4441": "舍",
  "4442": "舎",
  "4443": "舒",
  "4444": "舗",
  "4445": "舞",
  "4446": "航",
  "4447": "般",
  "4448": "舰",
  "4449": "舱",
  "4450": "舶",
  "4451": "船",
  "4452": "艇",
  "4453": "艘",
  "4454": "艦",
  "4455": "良",
  "4456": "艰",
  "4457": "色",
  "4458": "艳",
  "4459": "艺",
  "4460": "艾",
  "4461": "节",
  "4462": "芒",
  "4463": "芝",
  "4464": "芬",
  "4465": "芮",
  "4466": "芯",
  "4467": "花",
  "4468": "芳",
  "4469": "芸",
  "4470": "苏",
  "4471": "苗",
  "4472": "苛",
  "4473": "若",
  "4474": "苦",
  "4475": "英",
  "4476": "苹",
  "4477": "茂",
  "4478": "范",
  "4479": "茄",
  "4480": "茅",
  "4481": "茜",
  "4482": "茨",
  "4483": "茵",
  "4484": "茶",
  "4485": "草",
  "4486": "荐",
  "4487": "荒",
  "4488": "荡",
  "4489": "荣",
  "4490": "荫",
  "4491": "药",
  "4492": "荷",
  "4493": "莉",
  "4494": "莎",
  "4495": "莨",
  "4496": "莫",
  "4497": "莱",
  "4498": "获",
  "4499": "菊",
  "4500": "菌",
  "4501": "菓",
  "4502": "菜",
  "4503": "菩",
  "4504": "菪",
  "4505": "華",
  "4506": "菲",
  "4507": "萄",
  "4508": "萝",
  "4509": "营",
  "4510": "萦",
  "4511": "萨",
  "4512": "落",
  "4513": "葉",
  "4514": "著",
  "4515": "葡",
  "4516": "董",
  "4517": "葬",
  "4518": "葱",
  "4519": "蒂",
  "4520": "蒐",
  "4521": "蒙",
  "4522": "蒜",
  "4523": "蒸",
  "4524": "蓄",
  "4525": "蓋",
  "4526": "蓝",
  "4527": "蔑",
  "4528": "蔓",
  "4529": "蔗",
  "4530": "蔡",
  "4531": "蔬",
  "4532": "蔵",
  "4533": "蕴",
  "4534": "蕾",
  "4535": "薄",
  "4536": "薇",
  "4537": "薦",
  "4538": "薩",
  "4539": "薪",
  "4540": "薬",
  "4541": "藉",
  "4542": "藏",
  "4543": "藤",
  "4544": "藻",
  "4545": "虎",
  "4546": "虏",
  "4547": "虐",
  "4548": "虑",
  "4549": "虔",
  "4550": "虚",
  "4551": "虜",
  "4552": "虫",
  "4553": "虹",
  "4554": "虽",
  "4555": "蚀",
  "4556": "蚁",
  "4557": "蚂",
  "4558": "蚊",
  "4559": "蚕",
  "4560": "蛇",
  "4561": "蛋",
  "4562": "蜂",
  "4563": "蜃",
  "4564": "蜉",
  "4565": "蜒",
  "4566": "蜓",
  "4567": "蜗",
  "4568": "蜜",
  "4569": "蜥",
  "4570": "蜴",
  "4571": "蜻",
  "4572": "蜿",
  "4573": "蝎",
  "4574": "蝣",
  "4575": "蝶",
  "4576": "蝽",
  "4577": "融",
  "4578": "螺",
  "4579": "蟹",
  "4580": "蠛",
  "4581": "蠢",
  "4582": "血",
  "4583": "衆",
  "4584": "行",
  "4585": "術",
  "4586": "衔",
  "4587": "街",
  "4588": "衛",
  "4589": "衝",
  "4590": "衡",
  "4591": "衣",
  "4592": "补",
  "4593": "表",
  "4594": "衫",
  "4595": "衬",
  "4596": "衰",
  "4597": "袋",
  "4598": "袖",
  "4599": "袜",
  "4600": "袤",
  "4601": "被",
  "4602": "袭",
  "4603": "裁",
  "4604": "裂",
  "4605": "装",
  "4606": "裏",
  "4607": "裔",
  "4608": "裕",
  "4609": "裙",
  "4610": "補",
  "4611": "裡",
  "4612": "裤",
  "4613": "裸",
  "4614": "裹",
  "4615": "製",
  "4616": "複",
  "4617": "褒",
  "4618": "褻",
  "4619": "襲",
  "4620": "西",
  "4621": "要",
  "4622": "覆",
  "4623": "見",
  "4624": "規",
  "4625": "視",
  "4626": "覚",
  "4627": "覧",
  "4628": "親",
  "4629": "観",
  "4630": "见",
  "4631": "观",
  "4632": "规",
  "4633": "视",
  "4634": "览",
  "4635": "觉",
  "4636": "角",
  "4637": "解",
  "4638": "触",
  "4639": "言",
  "4640": "訂",
  "4641": "計",
  "4642": "討",
  "4643": "訓",
  "4644": "記",
  "4645": "訛",
  "4646": "訟",
  "4647": "訣",
  "4648": "訪",
  "4649": "設",
  "4650": "許",
  "4651": "訳",
  "4652": "訴",
  "4653": "診",
  "4654": "証",
  "4655": "詐",
  "4656": "評",
  "4657": "詞",
  "4658": "試",
  "4659": "詩",
  "4660": "詰",
  "4661": "話",
  "4662": "該",
  "4663": "詳",
  "4664": "詹",
  "4665": "誇",
  "4666": "誉",
  "4667": "誌",
  "4668": "認",
  "4669": "誓",
  "4670": "誕",
  "4671": "誘",
  "4672": "語",
  "4673": "誠",
  "4674": "誤",
  "4675": "説",
  "4676": "読",
  "4677": "誰",
  "4678": "課",
  "4679": "調",
  "4680": "談",
  "4681": "請",
  "4682": "論",
  "4683": "諦",
  "4684": "諸",
  "4685": "講",
  "4686": "謝",
  "4687": "識",
  "4688": "警",
  "4689": "議",
  "4690": "譲",
  "4691": "護",
  "4692": "讐",
  "4693": "计",
  "4694": "订",
  "4695": "认",
  "4696": "讨",
  "4697": "让",
  "4698": "训",
  "4699": "议",
  "4700": "讯",
  "4701": "记",
  "4702": "讲",
  "4703": "讶",
  "4704": "讷",
  "4705": "许",
  "4706": "论",
  "4707": "讼",
  "4708": "讽",
  "4709": "设",
  "4710": "访",
  "4711": "诀",
  "4712": "证",
  "4713": "评",
  "4714": "诅",
  "4715": "识",
  "4716": "诈",
  "4717": "诉",
  "4718": "诊",
  "4719": "词",
  "4720": "译",
  "4721": "试",
  "4722": "诗",
  "4723": "诚",
  "4724": "话",
  "4725": "诞",
  "4726": "询",
  "4727": "该",
  "4728": "详",
  "4729": "诩",
  "4730": "语",
  "4731": "误",
  "4732": "诱",
  "4733": "说",
  "4734": "请",
  "4735": "诸",
  "4736": "诺",
  "4737": "读",
  "4738": "课",
  "4739": "谁",
  "4740": "调",
  "4741": "谅",
  "4742": "谈",
  "4743": "谋",
  "4744": "谎",
  "4745": "谐",
  "4746": "谢",
  "4747": "谣",
  "4748": "谨",
  "4749": "谱",
  "4750": "谷",
  "4751": "谿",
  "4752": "豁",
  "4753": "豆",
  "4754": "豊",
  "4755": "豚",
  "4756": "象",
  "4757": "豪",
  "4758": "豹",
  "4759": "貉",
  "4760": "貌",
  "4761": "負",
  "4762": "財",
  "4763": "貧",
  "4764": "貨",
  "4765": "販",
  "4766": "貫",
  "4767": "責",
  "4768": "貯",
  "4769": "貰",
  "4770": "貴",
  "4771": "買",
  "4772": "貸",
  "4773": "費",
  "4774": "貼",
  "4775": "貿",
  "4776": "賀",
  "4777": "賃",
  "4778": "賄",
  "4779": "資",
  "4780": "賊",
  "4781": "賑",
  "4782": "賛",
  "4783": "賞",
  "4784": "賢",
  "4785": "賦",
  "4786": "質",
  "4787": "購",
  "4788": "贄",
  "4789": "贅",
  "4790": "贈",
  "4791": "贝",
  "4792": "负",
  "4793": "贡",
  "4794": "财",
  "4795": "责",
  "4796": "败",
  "4797": "货",
  "4798": "质",
  "4799": "贩",
  "4800": "贪",
  "4801": "贫",
  "4802": "贬",
  "4803": "购",
  "4804": "贯",
  "4805": "贴",
  "4806": "贵",
  "4807": "贷",
  "4808": "贸",
  "4809": "费",
  "4810": "贺",
  "4811": "贼",
  "4812": "贾",
  "4813": "贿",
  "4814": "赁",
  "4815": "资",
  "4816": "赌",
  "4817": "赏",
  "4818": "赔",
  "4819": "赖",
  "4820": "赛",
  "4821": "赞",
  "4822": "赠",
  "4823": "赢",
  "4824": "赤",
  "4825": "赫",
  "4826": "走",
  "4827": "赴",
  "4828": "赶",
  "4829": "起",
  "4830": "趁",
  "4831": "超",
  "4832": "越",
  "4833": "趟",
  "4834": "趣",
  "4835": "足",
  "4836": "趾",
  "4837": "跃",
  "4838": "跆",
  "4839": "跋",
  "4840": "跌",
  "4841": "跑",
  "4842": "距",
  "4843": "跟",
  "4844": "跡",
  "4845": "跤",
  "4846": "跨",
  "4847": "路",
  "4848": "跳",
  "4849": "践",
  "4850": "踊",
  "4851": "踏",
  "4852": "踢",
  "4853": "踪",
  "4854": "踵",
  "4855": "蹄",
  "4856": "蹈",
  "4857": "躍",
  "4858": "身",
  "4859": "躱",
  "4860": "躲",
  "4861": "躺",
  "4862": "車",
  "4863": "軍",
  "4864": "軒",
  "4865": "転",
  "4866": "軸",
  "4867": "軽",
  "4868": "較",
  "4869": "載",
  "4870": "輩",
  "4871": "輪",
  "4872": "輸",
  "4873": "车",
  "4874": "轨",
  "4875": "转",
  "4876": "轮",
  "4877": "软",
  "4878": "轴",
  "4879": "轻",
  "4880": "载",
  "4881": "轿",
  "4882": "较",
  "4883": "辅",
  "4884": "辆",
  "4885": "辈",
  "4886": "辐",
  "4887": "辑",
  "4888": "输",
  "4889": "辙",
  "4890": "辛",
  "4891": "辞",
  "4892": "辣",
  "4893": "辨",
  "4894": "辩",
  "4895": "辰",
  "4896": "農",
  "4897": "边",
  "4898": "辺",
  "4899": "込",
  "4900": "达",
  "4901": "迁",
  "4902": "迂",
  "4903": "迄",
  "4904": "迅",
  "4905": "过",
  "4906": "迈",
  "4907": "迎",
  "4908": "运",
  "4909": "近",
  "4910": "返",
  "4911": "还",
  "4912": "这",
  "4913": "进",
  "4914": "远",
  "4915": "违",
  "4916": "连",
  "4917": "迟",
  "4918": "迥",
  "4919": "迦",
  "4920": "迩",
  "4921": "迪",
  "4922": "迫",
  "4923": "迭",
  "4924": "述",
  "4925": "迷",
  "4926": "迹",
  "4927": "追",
  "4928": "退",
  "4929": "送",
  "4930": "适",
  "4931": "逃",
  "4932": "逆",
  "4933": "选",
  "4934": "逊",
  "4935": "透",
  "4936": "逐",
  "4937": "递",
  "4938": "途",
  "4939": "逗",
  "4940": "通",
  "4941": "逛",
  "4942": "逝",
  "4943": "速",
  "4944": "造",
  "4945": "連",
  "4946": "逮",
  "4947": "週",
  "4948": "進",
  "4949": "逸",
  "4950": "逻",
  "4951": "逼",
  "4952": "遂",
  "4953": "遅",
  "4954": "遇",
  "4955": "遊",
  "4956": "運",
  "4957": "遍",
  "4958": "過",
  "4959": "遏",
  "4960": "遐",
  "4961": "道",
  "4962": "達",
  "4963": "違",
  "4964": "遗",
  "4965": "遠",
  "4966": "遡",
  "4967": "遣",
  "4968": "遥",
  "4969": "適",
  "4970": "遭",
  "4971": "遮",
  "4972": "遵",
  "4973": "選",
  "4974": "遺",
  "4975": "避",
  "4976": "邀",
  "4977": "還",
  "4978": "邓",
  "4979": "那",
  "4980": "邦",
  "4981": "邪",
  "4982": "邮",
  "4983": "邸",
  "4984": "邻",
  "4985": "郁",
  "4986": "郊",
  "4987": "郎",
  "4988": "部",
  "4989": "郵",
  "4990": "郷",
  "4991": "都",
  "4992": "鄧",
  "4993": "酋",
  "4994": "配",
  "4995": "酒",
  "4996": "酔",
  "4997": "酪",
  "4998": "酬",
  "4999": "酱",
  "5000": "酷",
  "5001": "酸",
  "5002": "醇",
  "5003": "醉",
  "5004": "醒",
  "5005": "醤",
  "5006": "醸",
  "5007": "采",
  "5008": "釈",
  "5009": "释",
  "5010": "釋",
  "5011": "里",
  "5012": "重",
  "5013": "野",
  "5014": "量",
  "5015": "金",
  "5016": "針",
  "5017": "釣",
  "5018": "鈍",
  "5019": "鈴",
  "5020": "鉄",
  "5021": "鉛",
  "5022": "鉴",
  "5023": "銀",
  "5024": "銃",
  "5025": "銅",
  "5026": "銘",
  "5027": "鋭",
  "5028": "鋼",
  "5029": "錆",
  "5030": "錦",
  "5031": "錨",
  "5032": "錯",
  "5033": "録",
  "5034": "鍛",
  "5035": "鍵",
  "5036": "鎖",
  "5037": "鎧",
  "5038": "鎮",
  "5039": "鏡",
  "5040": "鐙",
  "5041": "鑑",
  "5042": "针",
  "5043": "钉",
  "5044": "钓",
  "5045": "钙",
  "5046": "钛",
  "5047": "钟",
  "5048": "钢",
  "5049": "钥",
  "5050": "钦",
  "5051": "钱",
  "5052": "钳",
  "5053": "钻",
  "5054": "钾",
  "5055": "铀",
  "5056": "铁",
  "5057": "铃",
  "5058": "铅",
  "5059": "铜",
  "5060": "铯",
  "5061": "银",
  "5062": "铺",
  "5063": "销",
  "5064": "锁",
  "5065": "锅",
  "5066": "锋",
  "5067": "锐",
  "5068": "错",
  "5069": "锡",
  "5070": "锦",
  "5071": "键",
  "5072": "锻",
  "5073": "镇",
  "5074": "镑",
  "5075": "镖",
  "5076": "镜",
  "5077": "镫",
  "5078": "镳",
  "5079": "長",
  "5080": "长",
  "5081": "門",
  "5082": "閉",
  "5083": "開",
  "5084": "間",
  "5085": "関",
  "5086": "閣",
  "5087": "閲",
  "5088": "闇",
  "5089": "闘",
  "5090": "门",
  "5091": "闪",
  "5092": "闭",
  "5093": "问",
  "5094": "闲",
  "5095": "间",
  "5096": "闹",
  "5097": "闻",
  "5098": "阀",
  "5099": "阁",
  "5100": "阅",
  "5101": "阐",
  "5102": "阔",
  "5103": "队",
  "5104": "阪",
  "5105": "阱",
  "5106": "防",
  "5107": "阳",
  "5108": "阴",
  "5109": "阵",
  "5110": "阶",
  "5111": "阻",
  "5112": "阿",
  "5113": "陀",
  "5114": "附",
  "5115": "际",
  "5116": "陆",
  "5117": "陌",
  "5118": "降",
  "5119": "限",
  "5120": "陡",
  "5121": "院",
  "5122": "陣",
  "5123": "除",
  "5124": "陥",
  "5125": "陨",
  "5126": "险",
  "5127": "陪",
  "5128": "陰",
  "5129": "陵",
  "5130": "陶",
  "5131": "陷",
  "5132": "陸",
  "5133": "険",
  "5134": "陽",
  "5135": "隆",
  "5136": "隊",
  "5137": "階",
  "5138": "随",
  "5139": "隐",
  "5140": "隔",
  "5141": "隕",
  "5142": "隙",
  "5143": "際",
  "5144": "障",
  "5145": "隠",
  "5146": "隣",
  "5147": "隧",
  "5148": "隶",
  "5149": "隻",
  "5150": "难",
  "5151": "雀",
  "5152": "雁",
  "5153": "雄",
  "5154": "雅",
  "5155": "集",
  "5156": "雇",
  "5157": "雌",
  "5158": "雏",
  "5159": "雑",
  "5160": "雕",
  "5161": "離",
  "5162": "難",
  "5163": "雨",
  "5164": "雪",
  "5165": "雰",
  "5166": "雲",
  "5167": "零",
  "5168": "雷",
  "5169": "雹",
  "5170": "電",
  "5171": "需",
  "5172": "震",
  "5173": "霊",
  "5174": "霍",
  "5175": "霜",
  "5176": "霧",
  "5177": "露",
  "5178": "霸",
  "5179": "青",
  "5180": "静",
  "5181": "非",
  "5182": "靠",
  "5183": "面",
  "5184": "革",
  "5185": "靭",
  "5186": "靴",
  "5187": "鞋",
  "5188": "鞍",
  "5189": "鞭",
  "5190": "韓",
  "5191": "韦",
  "5192": "韩",
  "5193": "音",
  "5194": "韵",
  "5195": "響",
  "5196": "頂",
  "5197": "頃",
  "5198": "項",
  "5199": "順",
  "5200": "須",
  "5201": "預",
  "5202": "頑",
  "5203": "領",
  "5204": "頭",
  "5205": "頻",
  "5206": "頼",
  "5207": "題",
  "5208": "額",
  "5209": "顎",
  "5210": "顔",
  "5211": "顕",
  "5212": "願",
  "5213": "類",
  "5214": "顧",
  "5215": "页",
  "5216": "顶",
  "5217": "顷",
  "5218": "项",
  "5219": "顺",
  "5220": "须",
  "5221": "顾",
  "5222": "顿",
  "5223": "颁",
  "5224": "预",
  "5225": "颅",
  "5226": "领",
  "5227": "颇",
  "5228": "颈",
  "5229": "频",
  "5230": "颖",
  "5231": "颗",
  "5232": "题",
  "5233": "颚",
  "5234": "颜",
  "5235": "额",
  "5236": "颠",
  "5237": "風",
  "5238": "风",
  "5239": "飓",
  "5240": "飘",
  "5241": "飛",
  "5242": "飞",
  "5243": "食",
  "5244": "飲",
  "5245": "飼",
  "5246": "飾",
  "5247": "養",
  "5248": "餌",
  "5249": "餐",
  "5250": "餓",
  "5251": "館",
  "5252": "饪",
  "5253": "饭",
  "5254": "饮",
  "5255": "饰",
  "5256": "饱",
  "5257": "饲",
  "5258": "饼",
  "5259": "馆",
  "5260": "馈",
  "5261": "馊",
  "5262": "馐",
  "5263": "馒",
  "5264": "首",
  "5265": "香",
  "5266": "馥",
  "5267": "馬",
  "5268": "馳",
  "5269": "馴",
  "5270": "駄",
  "5271": "駅",
  "5272": "駆",
  "5273": "駐",
  "5274": "騎",
  "5275": "騒",
  "5276": "験",
  "5277": "騙",
  "5278": "騰",
  "5279": "驚",
  "5280": "马",
  "5281": "驯",
  "5282": "驰",
  "5283": "驱",
  "5284": "驳",
  "5285": "驶",
  "5286": "驻",
  "5287": "驼",
  "5288": "驾",
  "5289": "验",
  "5290": "骑",
  "5291": "骗",
  "5292": "骚",
  "5293": "骨",
  "5294": "骸",
  "5295": "髄",
  "5296": "髓",
  "5297": "高",
  "5298": "鬱",
  "5299": "鬼",
  "5300": "魁",
  "5301": "魂",
  "5302": "魅",
  "5303": "魔",
  "5304": "魚",
  "5305": "鮫",
  "5306": "鮮",
  "5307": "鱗",
  "5308": "鱼",
  "5309": "鱿",
  "5310": "鲁",
  "5311": "鲍",
  "5312": "鲑",
  "5313": "鲜",
  "5314": "鲨",
  "5315": "鲸",
  "5316": "鳄",
  "5317": "鳞",
  "5318": "鳥",
  "5319": "鳩",
  "5320": "鳴",
  "5321": "鶏",
  "5322": "鸟",
  "5323": "鸡",
  "5324": "鸣",
  "5325": "鸦",
  "5326": "鸫",
  "5327": "鸭",
  "5328": "鸽",
  "5329": "鹅",
  "5330": "鹉",
  "5331": "鹑",
  "5332": "鹦",
  "5333": "鹰",
  "5334": "鹿",
  "5335": "麋",
  "5336": "麓",
  "5337": "麗",
  "5338": "麦",
  "5339": "麻",
  "5340": "麾",
  "5341": "黄",
  "5342": "黎",
  "5343": "黑",
  "5344": "黒",
  "5345": "默",
  "5346": "黙",
  "5347": "鼎",
  "5348": "鼓",
  "5349": "鼠",
  "5350": "鼻",
  "5351": "齐",
  "5352": "齢",
  "5353": "齧",
  "5354": "齿",
  "5355": "龄",
  "5356": "龍",
  "5357": "龔",
  "5358": "龙",
  "5359": "龟",
  "5360": "가",
  "5361": "각",
  "5362": "간",
  "5363": "갇",
  "5364": "갈",
  "5365": "감",
  "5366": "갑",
  "5367": "값",
  "5368": "갔",
  "5369": "강",
  "5370": "갖",
  "5371": "같",
  "5372": "갚",
  "5373": "개",
  "5374": "객",
  "5375": "갠",
  "5376": "갤",
  "5377": "갭",
  "5378": "갱",
  "5379": "걀",
  "5380": "거",
  "5381": "걱",
  "5382": "건",
  "5383": "걷",
  "5384": "걸",
  "5385": "검",
  "5386": "겁",
  "5387": "것",
  "5388": "겉",
  "5389": "게",
  "5390": "겐",
  "5391": "겔",
  "5392": "겠",
  "5393": "겨",
  "5394": "격",
  "5395": "겪",
  "5396": "견",
  "5397": "결",
  "5398": "겸",
  "5399": "겹",
  "5400": "겼",
  "5401": "경",
  "5402": "곁",
  "5403": "계",
  "5404": "고",
  "5405": "곡",
  "5406": "곤",
  "5407": "곧",
  "5408": "골",
  "5409": "곰",
  "5410": "곱",
  "5411": "곳",
  "5412": "공",
  "5413": "과",
  "5414": "관",
  "5415": "괄",
  "5416": "광",
  "5417": "괜",
  "5418": "괴",
  "5419": "굉",
  "5420": "교",
  "5421": "구",
  "5422": "국",
  "5423": "군",
  "5424": "굳",
  "5425": "굴",
  "5426": "굽",
  "5427": "궁",
  "5428": "권",
  "5429": "궐",
  "5430": "궤",
  "5431": "귀",
  "5432": "귄",
  "5433": "규",
  "5434": "균",
  "5435": "그",
  "5436": "극",
  "5437": "근",
  "5438": "글",
  "5439": "긁",
  "5440": "금",
  "5441": "급",
  "5442": "긋",
  "5443": "긍",
  "5444": "기",
  "5445": "긴",
  "5446": "길",
  "5447": "김",
  "5448": "깁",
  "5449": "깃",
  "5450": "깅",
  "5451": "깊",
  "5452": "까",
  "5453": "깎",
  "5454": "깐",
  "5455": "깔",
  "5456": "깜",
  "5457": "깝",
  "5458": "깥",
  "5459": "깨",
  "5460": "꺼",
  "5461": "껍",
  "5462": "껏",
  "5463": "껐",
  "5464": "께",
  "5465": "껴",
  "5466": "꼈",
  "5467": "꼬",
  "5468": "꼭",
  "5469": "꼴",
  "5470": "꼽",
  "5471": "꼿",
  "5472": "꽃",
  "5473": "꽤",
  "5474": "꾸",
  "5475": "꾼",
  "5476": "꿀",
  "5477": "꿈",
  "5478": "꿉",
  "5479": "꿔",
  "5480": "꿨",
  "5481": "꿩",
  "5482": "뀌",
  "5483": "뀐",
  "5484": "뀔",
  "5485": "뀝",
  "5486": "끄",
  "5487": "끈",
  "5488": "끊",
  "5489": "끌",
  "5490": "끓",
  "5491": "끔",
  "5492": "끗",
  "5493": "끝",
  "5494": "끼",
  "5495": "낀",
  "5496": "낄",
  "5497": "낌",
  "5498": "나",
  "5499": "낙",
  "5500": "낚",
  "5501": "난",
  "5502": "날",
  "5503": "낡",
  "5504": "남",
  "5505": "납",
  "5506": "낫",
  "5507": "났",
  "5508": "낭",
  "5509": "낮",
  "5510": "낯",
  "5511": "낳",
  "5512": "내",
  "5513": "낵",
  "5514": "낸",
  "5515": "낼",
  "5516": "냄",
  "5517": "냅",
  "5518": "냈",
  "5519": "냉",
  "5520": "냐",
  "5521": "냥",
  "5522": "너",
  "5523": "넌",
  "5524": "널",
  "5525": "넓",
  "5526": "넘",
  "5527": "넙",
  "5528": "넛",
  "5529": "넣",
  "5530": "네",
  "5531": "넥",
  "5532": "넨",
  "5533": "넬",
  "5534": "넷",
  "5535": "녀",
  "5536": "녁",
  "5537": "년",
  "5538": "념",
  "5539": "녕",
  "5540": "노",
  "5541": "녹",
  "5542": "논",
  "5543": "놀",
  "5544": "놈",
  "5545": "농",
  "5546": "높",
  "5547": "놓",
  "5548": "뇌",
  "5549": "뇨",
  "5550": "누",
  "5551": "눈",
  "5552": "눌",
  "5553": "눔",
  "5554": "뉘",
  "5555": "뉩",
  "5556": "뉴",
  "5557": "늄",
  "5558": "느",
  "5559": "늑",
  "5560": "는",
  "5561": "늘",
  "5562": "능",
  "5563": "늦",
  "5564": "늪",
  "5565": "니",
  "5566": "닉",
  "5567": "닌",
  "5568": "닐",
  "5569": "님",
  "5570": "닙",
  "5571": "닝",
  "5572": "다",
  "5573": "닥",
  "5574": "단",
  "5575": "닫",
  "5576": "달",
  "5577": "닭",
  "5578": "담",
  "5579": "답",
  "5580": "닷",
  "5581": "당",
  "5582": "닿",
  "5583": "대",
  "5584": "댄",
  "5585": "댈",
  "5586": "댐",
  "5587": "댓",
  "5588": "댔",
  "5589": "더",
  "5590": "덕",
  "5591": "던",
  "5592": "덜",
  "5593": "덟",
  "5594": "덤",
  "5595": "덧",
  "5596": "덩",
  "5597": "덫",
  "5598": "덮",
  "5599": "데",
  "5600": "덴",
  "5601": "델",
  "5602": "도",
  "5603": "독",
  "5604": "돈",
  "5605": "돋",
  "5606": "돌",
  "5607": "돕",
  "5608": "돗",
  "5609": "동",
  "5610": "돼",
  "5611": "됐",
  "5612": "되",
  "5613": "된",
  "5614": "될",
  "5615": "됨",
  "5616": "됩",
  "5617": "됭",
  "5618": "두",
  "5619": "둔",
  "5620": "둘",
  "5621": "둠",
  "5622": "둡",
  "5623": "둥",
  "5624": "둬",
  "5625": "뒀",
  "5626": "뒤",
  "5627": "뒷",
  "5628": "듀",
  "5629": "듐",
  "5630": "드",
  "5631": "득",
  "5632": "든",
  "5633": "듣",
  "5634": "들",
  "5635": "듬",
  "5636": "듭",
  "5637": "듯",
  "5638": "등",
  "5639": "디",
  "5640": "딕",
  "5641": "딘",
  "5642": "딛",
  "5643": "딜",
  "5644": "딤",
  "5645": "딩",
  "5646": "딪",
  "5647": "따",
  "5648": "딱",
  "5649": "딴",
  "5650": "딸",
  "5651": "땀",
  "5652": "땅",
  "5653": "때",
  "5654": "땠",
  "5655": "떠",
  "5656": "떤",
  "5657": "떨",
  "5658": "떻",
  "5659": "떼",
  "5660": "또",
  "5661": "똑",
  "5662": "똥",
  "5663": "뚜",
  "5664": "뚝",
  "5665": "뚫",
  "5666": "뛰",
  "5667": "뜨",
  "5668": "뜬",
  "5669": "뜰",
  "5670": "뜻",
  "5671": "띄",
  "5672": "띠",
  "5673": "라",
  "5674": "락",
  "5675": "란",
  "5676": "랄",
  "5677": "람",
  "5678": "랍",
  "5679": "랐",
  "5680": "랑",
  "5681": "래",
  "5682": "랙",
  "5683": "랜",
  "5684": "램",
  "5685": "랩",
  "5686": "랫",
  "5687": "랬",
  "5688": "랭",
  "5689": "략",
  "5690": "량",
  "5691": "러",
  "5692": "럭",
  "5693": "런",
  "5694": "럴",
  "5695": "럼",
  "5696": "럽",
  "5697": "렀",
  "5698": "렁",
  "5699": "렇",
  "5700": "레",
  "5701": "렉",
  "5702": "렌",
  "5703": "렐",
  "5704": "렘",
  "5705": "렙",
  "5706": "렛",
  "5707": "렝",
  "5708": "려",
  "5709": "력",
  "5710": "련",
  "5711": "렬",
  "5712": "렴",
  "5713": "렵",
  "5714": "렷",
  "5715": "렸",
  "5716": "령",
  "5717": "례",
  "5718": "로",
  "5719": "록",
  "5720": "론",
  "5721": "롤",
  "5722": "롬",
  "5723": "롭",
  "5724": "롯",
  "5725": "롱",
  "5726": "뢰",
  "5727": "료",
  "5728": "룡",
  "5729": "루",
  "5730": "룩",
  "5731": "룰",
  "5732": "룸",
  "5733": "룹",
  "5734": "룻",
  "5735": "룽",
  "5736": "뤄",
  "5737": "뤘",
  "5738": "뤼",
  "5739": "류",
  "5740": "륙",
  "5741": "륜",
  "5742": "률",
  "5743": "륨",
  "5744": "륭",
  "5745": "르",
  "5746": "른",
  "5747": "를",
  "5748": "름",
  "5749": "릅",
  "5750": "릉",
  "5751": "릎",
  "5752": "리",
  "5753": "릭",
  "5754": "린",
  "5755": "릴",
  "5756": "림",
  "5757": "립",
  "5758": "릿",
  "5759": "링",
  "5760": "마",
  "5761": "막",
  "5762": "만",
  "5763": "많",
  "5764": "말",
  "5765": "맑",
  "5766": "맙",
  "5767": "맛",
  "5768": "망",
  "5769": "맞",
  "5770": "맡",
  "5771": "매",
  "5772": "맥",
  "5773": "맨",
  "5774": "맵",
  "5775": "맷",
  "5776": "맹",
  "5777": "맺",
  "5778": "머",
  "5779": "먹",
  "5780": "먼",
  "5781": "멀",
  "5782": "멈",
  "5783": "멋",
  "5784": "멍",
  "5785": "메",
  "5786": "멕",
  "5787": "멘",
  "5788": "멜",
  "5789": "멤",
  "5790": "멧",
  "5791": "며",
  "5792": "면",
  "5793": "멸",
  "5794": "명",
  "5795": "몇",
  "5796": "모",
  "5797": "목",
  "5798": "몬",
  "5799": "몰",
  "5800": "몸",
  "5801": "몹",
  "5802": "못",
  "5803": "몽",
  "5804": "묘",
  "5805": "무",
  "5806": "묵",
  "5807": "묶",
  "5808": "문",
  "5809": "묻",
  "5810": "물",
  "5811": "묽",
  "5812": "뭄",
  "5813": "뭅",
  "5814": "뭇",
  "5815": "뭉",
  "5816": "뭐",
  "5817": "뭔",
  "5818": "뮤",
  "5819": "뮬",
  "5820": "므",
  "5821": "미",
  "5822": "믹",
  "5823": "민",
  "5824": "믿",
  "5825": "밀",
  "5826": "밋",
  "5827": "밌",
  "5828": "밍",
  "5829": "밎",
  "5830": "및",
  "5831": "밑",
  "5832": "바",
  "5833": "박",
  "5834": "밖",
  "5835": "반",
  "5836": "받",
  "5837": "발",
  "5838": "밝",
  "5839": "밤",
  "5840": "밥",
  "5841": "방",
  "5842": "밭",
  "5843": "배",
  "5844": "백",
  "5845": "밴",
  "5846": "밸",
  "5847": "뱀",
  "5848": "뱃",
  "5849": "뱅",
  "5850": "버",
  "5851": "벅",
  "5852": "번",
  "5853": "벌",
  "5854": "범",
  "5855": "법",
  "5856": "벗",
  "5857": "벚",
  "5858": "베",
  "5859": "벡",
  "5860": "벤",
  "5861": "벨",
  "5862": "벳",
  "5863": "벵",
  "5864": "벼",
  "5865": "벽",
  "5866": "변",
  "5867": "별",
  "5868": "볍",
  "5869": "병",
  "5870": "보",
  "5871": "복",
  "5872": "본",
  "5873": "볼",
  "5874": "봄",
  "5875": "봅",
  "5876": "봉",
  "5877": "봐",
  "5878": "봤",
  "5879": "부",
  "5880": "북",
  "5881": "분",
  "5882": "불",
  "5883": "붉",
  "5884": "붐",
  "5885": "붕",
  "5886": "붙",
  "5887": "뷰",
  "5888": "뷴",
  "5889": "브",
  "5890": "븐",
  "5891": "블",
  "5892": "비",
  "5893": "빅",
  "5894": "빈",
  "5895": "빌",
  "5896": "빗",
  "5897": "빙",
  "5898": "빚",
  "5899": "빛",
  "5900": "빠",
  "5901": "빡",
  "5902": "빨",
  "5903": "빴",
  "5904": "빵",
  "5905": "빼",
  "5906": "뻐",
  "5907": "뻔",
  "5908": "뻗",
  "5909": "뼈",
  "5910": "뽑",
  "5911": "뾰",
  "5912": "뿌",
  "5913": "뿐",
  "5914": "뿜",
  "5915": "쁘",
  "5916": "쁜",
  "5917": "쁠",
  "5918": "쁨",
  "5919": "쁩",
  "5920": "삐",
  "5921": "사",
  "5922": "삭",
  "5923": "산",
  "5924": "살",
  "5925": "삶",
  "5926": "삼",
  "5927": "삽",
  "5928": "상",
  "5929": "새",
  "5930": "색",
  "5931": "샌",
  "5932": "샐",
  "5933": "샘",
  "5934": "샛",
  "5935": "생",
  "5936": "샤",
  "5937": "샨",
  "5938": "샬",
  "5939": "샵",
  "5940": "서",
  "5941": "석",
  "5942": "섞",
  "5943": "선",
  "5944": "설",
  "5945": "섬",
  "5946": "섭",
  "5947": "섯",
  "5948": "섰",
  "5949": "성",
  "5950": "세",
  "5951": "섹",
  "5952": "센",
  "5953": "셀",
  "5954": "셈",
  "5955": "셉",
  "5956": "셍",
  "5957": "셔",
  "5958": "션",
  "5959": "셜",
  "5960": "셨",
  "5961": "셰",
  "5962": "셴",
  "5963": "셸",
  "5964": "솅",
  "5965": "소",
  "5966": "속",
  "5967": "손",
  "5968": "솔",
  "5969": "솜",
  "5970": "솟",
  "5971": "송",
  "5972": "쇄",
  "5973": "쇠",
  "5974": "쇼",
  "5975": "숍",
  "5976": "수",
  "5977": "숙",
  "5978": "순",
  "5979": "술",
  "5980": "숨",
  "5981": "숫",
  "5982": "숭",
  "5983": "숲",
  "5984": "쉬",
  "5985": "쉴",
  "5986": "쉽",
  "5987": "슈",
  "5988": "슐",
  "5989": "슘",
  "5990": "스",
  "5991": "슨",
  "5992": "슬",
  "5993": "슭",
  "5994": "슴",
  "5995": "습",
  "5996": "슷",
  "5997": "승",
  "5998": "시",
  "5999": "식",
  "6000": "신",
  "6001": "싣",
  "6002": "실",
  "6003": "심",
  "6004": "십",
  "6005": "싱",
  "6006": "싶",
  "6007": "싸",
  "6008": "싼",
  "6009": "쌀",
  "6010": "쌉",
  "6011": "쌌",
  "6012": "쌍",
  "6013": "쌓",
  "6014": "써",
  "6015": "썩",
  "6016": "썰",
  "6017": "쎄",
  "6018": "쏘",
  "6019": "쏟",
  "6020": "쓰",
  "6021": "쓴",
  "6022": "쓸",
  "6023": "씀",
  "6024": "씨",
  "6025": "씩",
  "6026": "씬",
  "6027": "아",
  "6028": "악",
  "6029": "안",
  "6030": "앉",
  "6031": "않",
  "6032": "알",
  "6033": "암",
  "6034": "압",
  "6035": "앗",
  "6036": "았",
  "6037": "앙",
  "6038": "앞",
  "6039": "애",
  "6040": "액",
  "6041": "앤",
  "6042": "앨",
  "6043": "앱",
  "6044": "앵",
  "6045": "야",
  "6046": "약",
  "6047": "얀",
  "6048": "얄",
  "6049": "얇",
  "6050": "얌",
  "6051": "얏",
  "6052": "양",
  "6053": "얘",
  "6054": "어",
  "6055": "억",
  "6056": "언",
  "6057": "얻",
  "6058": "얼",
  "6059": "엄",
  "6060": "업",
  "6061": "없",
  "6062": "엇",
  "6063": "었",
  "6064": "에",
  "6065": "엑",
  "6066": "엔",
  "6067": "엘",
  "6068": "엠",
  "6069": "여",
  "6070": "역",
  "6071": "연",
  "6072": "열",
  "6073": "염",
  "6074": "엽",
  "6075": "였",
  "6076": "영",
  "6077": "옆",
  "6078": "예",
  "6079": "옌",
  "6080": "옛",
  "6081": "오",
  "6082": "옥",
  "6083": "온",
  "6084": "올",
  "6085": "옮",
  "6086": "옳",
  "6087": "옵",
  "6088": "옷",
  "6089": "옹",
  "6090": "와",
  "6091": "완",
  "6092": "왈",
  "6093": "왔",
  "6094": "왕",
  "6095": "왜",
  "6096": "외",
  "6097": "왼",
  "6098": "요",
  "6099": "욕",
  "6100": "용",
  "6101": "우",
  "6102": "욱",
  "6103": "운",
  "6104": "울",
  "6105": "움",
  "6106": "웁",
  "6107": "웃",
  "6108": "웅",
  "6109": "워",
  "6110": "원",
  "6111": "월",
  "6112": "웠",
  "6113": "웡",
  "6114": "웨",
  "6115": "웰",
  "6116": "웸",
  "6117": "웹",
  "6118": "위",
  "6119": "윈",
  "6120": "윌",
  "6121": "윗",
  "6122": "윙",
  "6123": "유",
  "6124": "육",
  "6125": "윤",
  "6126": "율",
  "6127": "융",
  "6128": "으",
  "6129": "은",
  "6130": "을",
  "6131": "음",
  "6132": "읍",
  "6133": "응",
  "6134": "의",
  "6135": "이",
  "6136": "익",
  "6137": "인",
  "6138": "일",
  "6139": "읽",
  "6140": "잃",
  "6141": "임",
  "6142": "입",
  "6143": "잇",
  "6144": "있",
  "6145": "잉",
  "6146": "잊",
  "6147": "잎",
  "6148": "자",
  "6149": "작",
  "6150": "잔",
  "6151": "잖",
  "6152": "잘",
  "6153": "잠",
  "6154": "잡",
  "6155": "장",
  "6156": "잦",
  "6157": "재",
  "6158": "잭",
  "6159": "쟁",
  "6160": "쟌",
  "6161": "저",
  "6162": "적",
  "6163": "전",
  "6164": "절",
  "6165": "젊",
  "6166": "점",
  "6167": "접",
  "6168": "정",
  "6169": "젖",
  "6170": "제",
  "6171": "젝",
  "6172": "젠",
  "6173": "젤",
  "6174": "젯",
  "6175": "져",
  "6176": "젹",
  "6177": "젼",
  "6178": "졌",
  "6179": "조",
  "6180": "족",
  "6181": "존",
  "6182": "졸",
  "6183": "좀",
  "6184": "좁",
  "6185": "종",
  "6186": "좇",
  "6187": "좋",
  "6188": "좌",
  "6189": "죄",
  "6190": "죔",
  "6191": "죠",
  "6192": "주",
  "6193": "죽",
  "6194": "준",
  "6195": "줄",
  "6196": "줌",
  "6197": "줍",
  "6198": "중",
  "6199": "줘",
  "6200": "줬",
  "6201": "쥐",
  "6202": "쥔",
  "6203": "쥘",
  "6204": "즈",
  "6205": "즉",
  "6206": "즌",
  "6207": "즐",
  "6208": "즘",
  "6209": "즙",
  "6210": "증",
  "6211": "지",
  "6212": "직",
  "6213": "진",
  "6214": "질",
  "6215": "짐",
  "6216": "집",
  "6217": "짓",
  "6218": "징",
  "6219": "짜",
  "6220": "짝",
  "6221": "짧",
  "6222": "째",
  "6223": "쨍",
  "6224": "쩌",
  "6225": "쪽",
  "6226": "쫒",
  "6227": "쫓",
  "6228": "쬠",
  "6229": "쯤",
  "6230": "찍",
  "6231": "차",
  "6232": "착",
  "6233": "찬",
  "6234": "찮",
  "6235": "찰",
  "6236": "참",
  "6237": "찼",
  "6238": "창",
  "6239": "찾",
  "6240": "채",
  "6241": "책",
  "6242": "챔",
  "6243": "챙",
  "6244": "처",
  "6245": "척",
  "6246": "천",
  "6247": "철",
  "6248": "첨",
  "6249": "첩",
  "6250": "첫",
  "6251": "청",
  "6252": "체",
  "6253": "첼",
  "6254": "쳐",
  "6255": "쳤",
  "6256": "초",
  "6257": "촉",
  "6258": "총",
  "6259": "촬",
  "6260": "최",
  "6261": "추",
  "6262": "축",
  "6263": "춘",
  "6264": "출",
  "6265": "춤",
  "6266": "춥",
  "6267": "충",
  "6268": "춰",
  "6269": "췄",
  "6270": "취",
  "6271": "츠",
  "6272": "측",
  "6273": "층",
  "6274": "치",
  "6275": "칙",
  "6276": "친",
  "6277": "칠",
  "6278": "침",
  "6279": "칩",
  "6280": "칫",
  "6281": "칭",
  "6282": "카",
  "6283": "칵",
  "6284": "칸",
  "6285": "칼",
  "6286": "캄",
  "6287": "캐",
  "6288": "캔",
  "6289": "캘",
  "6290": "캠",
  "6291": "캡",
  "6292": "커",
  "6293": "컨",
  "6294": "컬",
  "6295": "컴",
  "6296": "컵",
  "6297": "컷",
  "6298": "케",
  "6299": "켄",
  "6300": "켈",
  "6301": "켓",
  "6302": "켕",
  "6303": "켜",
  "6304": "켝",
  "6305": "켰",
  "6306": "코",
  "6307": "콘",
  "6308": "콜",
  "6309": "콥",
  "6310": "콧",
  "6311": "콩",
  "6312": "콰",
  "6313": "쾌",
  "6314": "쾰",
  "6315": "쿄",
  "6316": "쿠",
  "6317": "쿡",
  "6318": "쿤",
  "6319": "쿨",
  "6320": "쿼",
  "6321": "퀘",
  "6322": "퀴",
  "6323": "큄",
  "6324": "큐",
  "6325": "크",
  "6326": "큰",
  "6327": "클",
  "6328": "큼",
  "6329": "키",
  "6330": "킥",
  "6331": "킨",
  "6332": "킬",
  "6333": "킵",
  "6334": "킷",
  "6335": "킹",
  "6336": "타",
  "6337": "탁",
  "6338": "탄",
  "6339": "탈",
  "6340": "탐",
  "6341": "탑",
  "6342": "탕",
  "6343": "태",
  "6344": "택",
  "6345": "탠",
  "6346": "탱",
  "6347": "터",
  "6348": "턱",
  "6349": "턴",
  "6350": "털",
  "6351": "텀",
  "6352": "테",
  "6353": "텍",
  "6354": "텐",
  "6355": "텔",
  "6356": "템",
  "6357": "텨",
  "6358": "토",
  "6359": "톤",
  "6360": "톨",
  "6361": "톰",
  "6362": "톱",
  "6363": "통",
  "6364": "퇴",
  "6365": "투",
  "6366": "툴",
  "6367": "툼",
  "6368": "퉁",
  "6369": "튜",
  "6370": "트",
  "6371": "특",
  "6372": "튼",
  "6373": "틀",
  "6374": "틈",
  "6375": "티",
  "6376": "틱",
  "6377": "틴",
  "6378": "틸",
  "6379": "팀",
  "6380": "팁",
  "6381": "팅",
  "6382": "파",
  "6383": "판",
  "6384": "팔",
  "6385": "팝",
  "6386": "팟",
  "6387": "팡",
  "6388": "패",
  "6389": "팩",
  "6390": "팬",
  "6391": "팸",
  "6392": "팽",
  "6393": "퍼",
  "6394": "펀",
  "6395": "펌",
  "6396": "페",
  "6397": "펙",
  "6398": "펜",
  "6399": "펠",
  "6400": "펴",
  "6401": "편",
  "6402": "펼",
  "6403": "평",
  "6404": "폐",
  "6405": "포",
  "6406": "폭",
  "6407": "폰",
  "6408": "폴",
  "6409": "폼",
  "6410": "표",
  "6411": "푯",
  "6412": "푸",
  "6413": "푹",
  "6414": "푼",
  "6415": "풀",
  "6416": "품",
  "6417": "풍",
  "6418": "퓨",
  "6419": "프",
  "6420": "픈",
  "6421": "플",
  "6422": "피",
  "6423": "픽",
  "6424": "핀",
  "6425": "필",
  "6426": "핌",
  "6427": "핍",
  "6428": "핑",
  "6429": "하",
  "6430": "학",
  "6431": "한",
  "6432": "할",
  "6433": "함",
  "6434": "합",
  "6435": "핫",
  "6436": "항",
  "6437": "해",
  "6438": "핵",
  "6439": "핸",
  "6440": "핼",
  "6441": "햄",
  "6442": "햇",
  "6443": "했",
  "6444": "행",
  "6445": "향",
  "6446": "허",
  "6447": "헌",
  "6448": "험",
  "6449": "헙",
  "6450": "헝",
  "6451": "헤",
  "6452": "헥",
  "6453": "헨",
  "6454": "헬",
  "6455": "헷",
  "6456": "혀",
  "6457": "혁",
  "6458": "현",
  "6459": "혈",
  "6460": "혐",
  "6461": "협",
  "6462": "혓",
  "6463": "혔",
  "6464": "형",
  "6465": "혜",
  "6466": "호",
  "6467": "혹",
  "6468": "혼",
  "6469": "홀",
  "6470": "홍",
  "6471": "화",
  "6472": "확",
  "6473": "환",
  "6474": "활",
  "6475": "황",
  "6476": "회",
  "6477": "획",
  "6478": "횡",
  "6479": "효",
  "6480": "후",
  "6481": "훈",
  "6482": "훌",
  "6483": "훔",
  "6484": "훗",
  "6485": "훨",
  "6486": "훼",
  "6487": "휘",
  "6488": "휠",
  "6489": "휴",
  "6490": "흐",
  "6491": "흑",
  "6492": "흔",
  "6493": "흗",
  "6494": "흘",
  "6495": "흠",
  "6496": "흡",
  "6497": "흥",
  "6498": "흩",
  "6499": "희",
  "6500": "흰",
  "6501": "히",
  "6502": "힌",
  "6503": "힐",
  "6504": "힘",
  "6505": "",
  "6506": "",
  "6507": "",
  "6508": "",
  "6509": "",
  "6510": "",
  "6511": "",
  "6512": "",
  "6513": "",
  "6514": "",
  "6515": "",
  "6516": "",
  "6517": "",
  "6518": "",
  "6519": "",
  "6520": "",
  "6521": "",
  "6522": "ﬁ",
  "6523": "ﷺ",
  "6524": "️",
  "6525": "﻿",
  "6526": "！",
  "6527": "％",
  "6528": "（",
  "6529": "）",
  "6530": "，",
  "6531": "－",
  "6532": "．",
  "6533": "／",
  "6534": "０",
  "6535": "１",
  "6536": "２",
  "6537": "３",
  "6538": "４",
  "6539": "５",
  "6540": "６",
  "6541": "７",
  "6542": "８",
  "6543": "９",
  "6544": "：",
  "6545": "；",
  "6546": "＝",
  "6547": "？",
  "6548": "Ａ",
  "6549": "Ｂ",
  "6550": "Ｃ",
  "6551": "Ｄ",
  "6552": "Ｅ",
  "6553": "Ｆ",
  "6554": "Ｇ",
  "6555": "Ｈ",
  "6556": "Ｉ",
  "6557": "Ｊ",
  "6558": "Ｋ",
  "6559": "Ｌ",
  "6560": "Ｍ",
  "6561": "Ｎ",
  "6562": "Ｏ",
  "6563": "Ｐ",
  "6564": "Ｑ",
  "6565": "Ｒ",
  "6566": "Ｓ",
  "6567": "Ｔ",
  "6568": "Ｖ",
  "6569": "Ｗ",
  "6570": "Ｚ",
  "6571": "｀",
  "6572": "ｋ",
  "6573": "ｍ",
  "6574": "ｐ",
  "6575": "ｚ",
  "6576": "～",
  "6577": "｡",
  "6578": "･",
  "6579": "ｨ",
  "6580": "ｲ",
  "6581": "ﾟ",
  "6582": "￼",
  "6583": "�",
  "6584": "🇨",
  "6585": "🇳",
  "6586": "🇸",
  "6587": "🇺",
  "6588": "🌈",
  "6589": "🌐",
  "6590": "🌞",
  "6591": "🌟",
  "6592": "🌬",
  "6593": "🌴",
  "6594": "🌶",
  "6595": "🌸",
  "6596": "🌹",
  "6597": "🌻",
  "6598": "🌼",
  "6599": "🍔",
  "6600": "🍖",
  "6601": "🍗",
  "6602": "🍫",
  "6603": "🍿",
  "6604": "🎉",
  "6605": "🎥",
  "6606": "🎨",
  "6607": "🎬",
  "6608": "🎵",
  "6609": "🎶",
  "6610": "🏁",
  "6611": "🏻",
  "6612": "🏼",
  "6613": "🏿",
  "6614": "🐒",
  "6615": "👀",
  "6616": "👍",
  "6617": "👏",
  "6618": "👑",
  "6619": "💃",
  "6620": "💄",
  "6621": "💆",
  "6622": "💕",
  "6623": "💖",
  "6624": "💛",
  "6625": "💥",
  "6626": "💪",
  "6627": "💫",
  "6628": "📅",
  "6629": "📊",
  "6630": "📺",
  "6631": "🔥",
  "6632": "🖕",
  "6633": "🗽",
  "6634": "😀",
  "6635": "😁",
  "6636": "😂",
  "6637": "😃",
  "6638": "😄",
  "6639": "😅",
  "6640": "😉",
  "6641": "😊",
  "6642": "😍",
  "6643": "😎",
  "6644": "😔",
  "6645": "😱",
  "6646": "😺",
  "6647": "🙂",
  "6648": "🙌",
  "6649": "🤓",
  "6650": "🤔",
  "6651": "🥊",
  "6652": "🥖",
  "6653": "🥺",
  "6654": "🦆",
  "6655": "t",
  "6656": "a",
  "6657": "he",
  "6658": "in",
  "6659": "re",
  "6660": "on",
  "6661": "the",
  "6662": "er",
  "6663": "s",
  "6664": "at",
  "6665": "w",
  "6666": "en",
  "6667": "o",
  "6668": "an",
  "6669": "c",
  "6670": "it",
  "6671": "is",
  "6672": "b",
  "6673": "or",
  "6674": "p",
  "6675": "es",
  "6676": "f",
  "6677": "ed",
  "6678": "ing",
  "6679": "al",
  "6680": "ar",
  "6681": "m",
  "6682": "ou",
  "6683": "an",
  "6684": "to",
  "6685": "d",
  "6686": "in",
  "6687": "of",
  "6688": "h",
  "6689": "as",
  "6690": "ic",
  "6691": "le",
  "6692": "\n\n",
  "6693": "th",
  "6694": "and",
  "6695": "om",
  "6696": "ion",
  "6697": "n",
  "6698": "il",
  "6699": "l",
  "6700": "ent",
  "6701": "st",
  "6702": "e",
  "6703": "re",
  "6704": "ve",
  "6705": "g",
  "6706": "ro",
  "6707": "id",
  "6708": "be",
  "6709": "ly",
  "6710": ".\n\n",
  "6711": "ut",
  "6712": "ot",
  "6713": "ac",
  "6714": "ad",
  "6715": "am",
  "6716": "T",
  "6717": "ay",
  "6718": "et",
  "6719": "im",
  "6720": "I",
  "6721": "on",
  "6722": "that",
  "6723": "is",
  "6724": "S",
  "6725": "ig",
  "6726": "ol",
  "6727": "se",
  "6728": "un",
  "6729": "A",
  "6730": "ow",
  "6731": "for",
  "6732": "ur",
  "6733": "ver",
  "6734": "y",
  "6735": "C",
  "6736": "el",
  "6737": "ct",
  "6738": "st",
  "6739": "ir",
  "6740": "he",
  "6741": "it",
  "6742": "al",
  "6743": "ation",
  "6744": "M",
  "6745": "wh",
  "6746": "ter",
  "6747": "ith",
  "6748": "us",
  "6749": "ch",
  "6750": "ce",
  "6751": "k",
  "6752": "ul",
  "6753": "as",
  "6754": "with",
  "6755": "B",
  "6756": "ill",
  "6757": "de",
  "6758": "r",
  "6759": "we",
  "6760": "ak",
  "6761": "ld",
  "6762": "P",
  "6763": "ag",
  "6764": "s,",
  "6765": "v",
  "6766": "was",
  "6767": "you",
  "6768": "con",
  "6769": "at",
  "6770": "if",
  "6771": "em",
  "6772": "ers",
  "6773": "um",
  "6774": "1",
  "6775": "her",
  "6776": "ha",
  "6777": "H",
  "6778": "’s",
  "6779": "W",
  "6780": "pro",
  "6781": "and",
  "6782": "ri",
  "6783": "est",
  "6784": "ate",
  "6785": "D",
  "6786": "ore",
  "6787": "op",
  "6788": "2",
  "6789": "se",
  "6790": "com",
  "6791": "ist",
  "6792": "are",
  "6793": "ain",
  "6794": "od",
  "6795": "pp",
  "6796": "ab",
  "6797": "R",
  "6798": "(",
  "6799": "The",
  "6800": "os",
  "6801": "ne",
  "6802": "ht",
  "6803": "F",
  "6804": "oun",
  "6805": "rom",
  "6806": "ort",
  "6807": "N",
  "6808": "ex",
  "6809": "ant",
  "6810": "G",
  "6811": "qu",
  "6812": "or",
  "6813": "res",
  "6814": "not",
  "6815": "art",
  "6816": "j",
  "6817": "ould",
  "6818": "have",
  "6819": "ity",
  "6820": "ess",
  "6821": "by",
  "6822": "oc",
  "6823": "su",
  "6824": "L",
  "6825": "ie",
  "6826": "from",
  "6827": "ive",
  "6828": "ment",
  "6829": "th",
  "6830": "le",
  "6831": "sh",
  "6832": "un",
  "6833": "'s",
  "6834": "ap",
  "6835": "ch",
  "6836": "ik",
  "6837": "end",
  "6838": "E",
  "6839": "ust",
  "6840": "u",
  "6841": "00",
  "6842": "sa",
  "6843": "e,",
  "6844": "this",
  "6845": "ight",
  "6846": "ab",
  "6847": "ies",
  "6848": "s.",
  "6849": "iv",
  "6850": "all",
  "6851": "J",
  "6852": "“",
  "6853": "tr",
  "6854": "ect",
  "6855": "out",
  "6856": "pl",
  "6857": "red",
  "6858": "O",
  "6859": "ally",
  "6860": "ack",
  "6861": "ard",
  "6862": "ud",
  "6863": "ost",
  "6864": "The",
  "6865": "ok",
  "6866": "ast",
  "6867": "has",
  "6868": "go",
  "6869": "our",
  "6870": "ome",
  "6871": "sp",
  "6872": "ren",
  "6873": "do",
  "6874": "his",
  "6875": "ear",
  "6876": "\"",
  "6877": "ich",
  "6878": "they",
  "6879": "U",
  "6880": "said",
  "6881": "can",
  "6882": "wor",
  "6883": "but",
  "6884": "ell",
  "6885": "all",
  "6886": "ra",
  "6887": "ge",
  "6888": "will",
  "6889": "whe",
  "6890": "int",
  "6891": "ia",
  "6892": "oug",
  "6893": "ep",
  "6894": "ide",
  "6895": "ial",
  "6896": "K",
  "6897": "en",
  "6898": "who",
  "6899": "ther",
  "6900": "ff",
  "6901": "ong",
  "6902": "out",
  "6903": "ure",
  "6904": "ans",
  "6905": "pl",
  "6906": "me",
  "6907": "ad",
  "6908": "ame",
  "6909": "their",
  "6910": "og",
  "6911": "te",
  "6912": "more",
  "6913": "der",
  "6914": "ub",
  "6915": "iz",
  "6916": "ar",
  "6917": "up",
  "6918": "ber",
  "6919": "ice",
  "6920": "ound",
  "6921": "act",
  "6922": "us",
  "6923": "ike",
  "6924": "In",
  "6925": "ous",
  "6926": "so",
  "6927": "one",
  "6928": "about",
  "6929": "age",
  "6930": "ind",
  "6931": "ip",
  "6932": "im",
  "6933": "ated",
  "6934": "ਦ",
  "6935": "ine",
  "6936": "had",
  "6937": "au",
  "6938": "cc",
  "6939": "ਹ",
  "6940": "pt",
  "6941": "comp",
  "6942": "ag",
  "6943": "one",
  "6944": "which",
  "6945": "20",
  "6946": "would",
  "6947": "ਸ",
  "6948": "ec",
  "6949": "were",
  "6950": "ib",
  "6951": "ake",
  "6952": "cont",
  "6953": "cl",
  "6954": "so",
  "6955": "3",
  "6956": "are",
  "6957": "off",
  "6958": "per",
  "6959": "ions",
  "6960": "ang",
  "6961": "ough",
  "6962": "very",
  "6963": "ign",
  "6964": "ven",
  "6965": "qu",
  "6966": "ਕ",
  "6967": "St",
  "6968": "Th",
  "6969": "ue",
  "6970": "..",
  "6971": "been",
  "6972": "ary",
  "6973": "ew",
  "6974": "per",
  "6975": "ose",
  "6976": "man",
  "6977": "’t",
  "6978": "es,",
  "6979": "ime",
  "6980": "pe",
  "6981": "av",
  "6982": "inc",
  "6983": "ile",
  "6984": "res",
  "6985": "ry",
  "6986": "aw",
  "6987": "ult",
  "6988": "year",
  "6989": "ਵ",
  "6990": "ru",
  "6991": "ass",
  "6992": "ire",
  "6993": "ook",
  "6994": "like",
  "6995": "ite",
  "6996": "other",
  "6997": "some",
  "6998": "int",
  "6999": "able",
  "7000": "orm",
  "7001": "ll",
  "7002": "ail",
  "7003": "dis",
  "7004": ".\n\nThe",
  "7005": "ord",
  "7006": "ople",
  "7007": "ا",
  "7008": "V",
  "7009": "own",
  "7010": "201",
  "7011": "mer",
  "7012": "ical",
  "7013": "ace",
  "7014": "over",
  "7015": "there",
  "7016": "ence",
  "7017": "ount",
  "7018": "also",
  "7019": "than",
  "7020": "them",
  "7021": "ian",
  "7022": "app",
  "7023": "bec",
  "7024": "ah",
  "7025": "new",
  "7026": "An",
  "7027": "part",
  "7028": "Y",
  "7029": "no",
  "7030": "what",
  "7031": "Ch",
  "7032": "your",
  "7033": "ach",
  "7034": "port",
  "7035": "sc",
  "7036": "when",
  "7037": "fter",
  "7038": "ick",
  "7039": "people",
  "7040": "ens",
  "7041": "its",
  "7042": "any",
  "7043": "ਾਂ",
  "7044": "ond",
  "7045": "te",
  "7046": "ays",
  "7047": "ob",
  "7048": "vel",
  "7049": "just",
  "7050": "kn",
  "7051": "work",
  "7052": "It",
  "7053": "a,",
  "7054": "y,",
  "7055": "ress",
  "7056": "pol",
  "7057": "if",
  "7058": "gr",
  "7059": "ance",
  "7060": "ark",
  "7061": "get",
  "7062": "ink",
  "7063": "my",
  "7064": "tw",
  "7065": "du",
  "7066": "ition",
  "7067": "ction",
  "7068": "our",
  "7069": "reat",
  "7070": "lic",
  "7071": "her",
  "7072": "ne",
  "7073": "rec",
  "7074": "into",
  "7075": "pr",
  "7076": "ations",
  "7077": "ree",
  "7078": "pre",
  "7079": "ase",
  "7080": "irst",
  "7081": "ident",
  "7082": "ਨ",
  "7083": "wn",
  "7084": "rent",
  "7085": "!!",
  "7086": "att",
  "7087": "fe",
  "7088": "ro",
  "7089": ".”",
  "7090": "-",
  "7091": "19",
  "7092": "ov",
  "7093": "ade",
  "7094": "amp",
  "7095": "ove",
  "7096": "ause",
  "7097": "ek",
  "7098": "ning",
  "7099": "He",
  "7100": "hing",
  "7101": "time",
  "7102": "how",
  "7103": "play",
  "7104": "could",
  "7105": ".\n\nA",
  "7106": "vers",
  "7107": "after",
  "7108": "she",
  "7109": "acc",
  "7110": "old",
  "7111": "des",
  "7112": "rit",
  "7113": "bl",
  "7114": "ser",
  "7115": "ory",
  "7116": "form",
  "7117": "ਜ",
  "7118": "4",
  "7119": "ft",
  "7120": "first",
  "7121": "comm",
  "7122": "ck",
  "7123": "es.",
  "7124": "'t",
  "7125": "him",
  "7126": "act",
  "7127": "ors",
  "7128": "ious",
  "7129": "two",
  "7130": "ild",
  "7131": "only",
  "7132": "we",
  "7133": "م",
  "7134": "п",
  "7135": "iss",
  "7136": "ings",
  "7137": "क",
  "7138": "ict",
  "7139": "ng",
  "7140": "am",
  "7141": "ish",
  "7142": "bet",
  "7143": "ب",
  "7144": "hed",
  "7145": "day",
  "7146": "на",
  "7147": "ਅ",
  "7148": "oll",
  "7149": "i",
  "7150": "igh",
  "7151": "z",
  "7152": "ock",
  "7153": ".\n\nI",
  "7154": "5",
  "7155": "po",
  "7156": "co",
  "7157": "back",
  "7158": "ed,",
  "7159": "ਪ",
  "7160": "dec",
  "7161": "ons",
  "7162": "again",
  "7163": "man",
  "7164": "mu",
  "7165": "most",
  "7166": "under",
  "7167": "anc",
  "7168": "oy",
  "7169": "min",
  "7170": "ing,",
  "7171": "–",
  "7172": "er,",
  "7173": "ood",
  "7174": "ual",
  "7175": "sel",
  "7176": "itt",
  "7177": "ates",
  "7178": ".\"",
  "7179": "ind",
  "7180": "did",
  "7181": "want",
  "7182": "fe",
  "7183": "em",
  "7184": "ents",
  "7185": "ਵਿ",
  "7186": "n’t",
  "7187": "even",
  "7188": "inv",
  "7189": "aj",
  "7190": "pect",
  "7191": "ublic",
  "7192": "tern",
  "7193": "know",
  "7194": "—",
  "7195": "$",
  "7196": "Un",
  "7197": "because",
  "7198": "az",
  "7199": "ک",
  "7200": "a.",
  "7201": "say",
  "7202": "ank",
  "7203": "need",
  "7204": "cons",
  "7205": "now",
  "7206": "sec",
  "7207": "ax",
  "7208": "We",
  "7209": "add",
  "7210": "lud",
  "7211": "pos",
  "7212": "с",
  "7213": "gr",
  "7214": "urn",
  "7215": "o,",
  "7216": "every",
  "7217": "al-",
  "7218": "ਤੇ",
  "7219": "enc",
  "7220": "vern",
  "7221": "br",
  "7222": "don",
  "7223": "ਇ",
  "7224": "way",
  "7225": "ont",
  "7226": "ph",
  "7227": "ational",
  "7228": "sy",
  "7229": "ump",
  "7230": "And",
  "7231": "ater",
  "7232": "think",
  "7233": "make",
  "7234": "fore",
  "7235": "these",
  "7236": "ath",
  "7237": "hen",
  "7238": "pe",
  "7239": "ful",
  "7240": "bu",
  "7241": "supp",
  "7242": "ਤ",
  "7243": "rel",
  "7244": "200",
  "7245": "Tr",
  "7246": "may",
  "7247": "xt",
  "7248": "where",
  "7249": "rib",
  "7250": "ра",
  "7251": "reg",
  "7252": "ject",
  "7253": "fl",
  "7254": "ev",
  "7255": "dif",
  "7256": "rough",
  "7257": "rem",
  "7258": "then",
  "7259": "call",
  "7260": "right",
  "7261": "ise",
  "7262": "row",
  "7263": "в",
  "7264": "look",
  "7265": "ass",
  "7266": "hat",
  "7267": "ason",
  "7268": "many",
  "7269": "oup",
  "7270": "arg",
  "7271": ".”\n\n",
  "7272": "स",
  "7273": "imp",
  "7274": "But",
  "7275": "ਾਰ",
  "7276": "ere",
  "7277": "being",
  "7278": "pres",
  "7279": "ific",
  "7280": "ased",
  "7281": "end",
  "7282": "ied",
  "7283": "up",
  "7284": "lect",
  "7285": "ities",
  "7286": "see",
  "7287": "own",
  "7288": "ating",
  "7289": "ert",
  "7290": "7",
  "7291": "last",
  "7292": "6",
  "7293": "ਹੈ",
  "7294": "ss",
  "7295": ".\n\n“",
  "7296": "much",
  "7297": "should",
  "7298": "्य",
  "7299": "und",
  "7300": "includ",
  "7301": "through",
  "7302": "This",
  "7303": "iy",
  "7304": "gan",
  "7305": "ower",
  "7306": "ting",
  "7307": "down",
  "7308": "aking",
  "7309": "ਦੇ",
  "7310": "oth",
  "7311": "vernment",
  "7312": "ob",
  "7313": "those",
  "7314": "mon",
  "7315": "ited",
  "7316": "ative",
  "7317": "alk",
  "7318": "very",
  "7319": "la",
  "7320": "iew",
  "7321": "ible",
  "7322": "uring",
  "7323": ".\n\n\"",
  "7324": "ble",
  "7325": "ork",
  "7326": "show",
  "7327": "use",
  "7328": "ward",
  "7329": "gen",
  "7330": "does",
  "7331": "ty",
  "7332": "ਬ",
  "7333": "count",
  "7334": "arly",
  "7335": "omet",
  "7336": "ism",
  "7337": "bel",
  "7338": "well",
  "7339": "other",
  "7340": "ੱਚ",
  "7341": ",”",
  "7342": "def",
  "7343": "olog",
  "7344": "str",
  "7345": "ال",
  "7346": "meric",
  "7347": "),",
  "7348": "start",
  "7349": "ier",
  "7350": "ved",
  "7351": ".\n\nS",
  "7352": "les",
  "7353": "sm",
  "7354": "op",
  "7355": "ان",
  "7356": "ਮ",
  "7357": "New",
  "7358": "ange",
  "7359": "000",
  "7360": "fin",
  "7361": "such",
  "7362": "ke",
  "7363": "long",
  "7364": "ement",
  "7365": "before",
  "7366": "ու",
  "7367": "stem",
  "7368": "ac",
  "7369": "sur",
  "7370": "against",
  "7371": "sub",
  "7372": "'",
  "7373": "ually",
  "7374": "wa",
  "7375": ").",
  "7376": "ince",
  "7377": "erson",
  "7378": "ced",
  "7379": "io",
  "7380": "та",
  "7381": "ug",
  "7382": "y.",
  "7383": "hel",
  "7384": "ten",
  "7385": "world",
  "7386": "report",
  "7387": ":\n\n",
  "7388": "ent",
  "7389": "ਵਿੱਚ",
  "7390": "ter",
  "7391": "ix",
  "7392": "ha",
  "7393": "ਲ",
  "7394": "made",
  "7395": "Al",
  "7396": "good",
  "7397": "years",
  "7398": "sim",
  "7399": "то",
  "7400": "government",
  "7401": "going",
  "7402": "num",
  "7403": "stud",
  "7404": "team",
  "7405": "land",
  "7406": "ull",
  "7407": "e.",
  "7408": "Americ",
  "7409": "[",
  "7410": "...",
  "7411": "ys",
  "7412": "med",
  "7413": "Re",
  "7414": "prov",
  "7415": "ility",
  "7416": "disc",
  "7417": "lead",
  "7418": "ins",
  "7419": "set",
  "7420": "ਸ਼",
  "7421": "inst",
  "7422": "ution",
  "7423": "illion",
  "7424": "still",
  "7425": "com",
  "7426": "ਿਆ",
  "7427": "offic",
  "7428": "-b",
  "7429": "ues",
  "7430": "8",
  "7431": "trans",
  "7432": "ool",
  "7433": "help",
  "7434": "ient",
  "7435": "col",
  "7436": "ween",
  "7437": "oh",
  "7438": "ving",
  "7439": "day",
  "7440": "eff",
  "7441": "any",
  "7442": "ily",
  "7443": "ics",
  "7444": "!!!!",
  "7445": "air",
  "7446": "i,",
  "7447": "ke",
  "7448": "ت",
  "7449": "car",
  "7450": "point",
  "7451": "ern",
  "7452": "ed",
  "7453": "det",
  "7454": "week",
  "7455": "run",
  "7456": ".\n\nT",
  "7457": "ale",
  "7458": "inter",
  "7459": "प",
  "7460": "self",
  "7461": "eral",
  "7462": "gu",
  "7463": "same",
  "7464": "ed.",
  "7465": "produ",
  "7466": "nd",
  "7467": "atch",
  "7468": "\n\nThe",
  "7469": "read",
  "7470": "take",
  "7471": "ters",
  "7472": "its",
  "7473": "velop",
  "7474": "Ar",
  "7475": "while",
  "7476": "aw",
  "7477": "system",
  "7478": "cess",
  "7479": "ва",
  "7480": "hand",
  "7481": "ever",
  "7482": "att",
  "7483": "high",
  "7484": "law",
  "7485": "mod",
  "7486": "arch",
  "7487": "between",
  "7488": "diffe",
  "7489": "ह",
  "7490": "hip",
  "7491": "cr",
  "7492": "ly,",
  "7493": "di",
  "7494": "\n\nA",
  "7495": "ret",
  "7496": "orn",
  "7497": "cour",
  "7498": "ਾਲ",
  "7499": "10",
  "7500": "n't",
  "7501": "somet",
  "7502": "ular",
  "7503": "uss",
  "7504": "ক",
  "7505": "sl",
  "7506": ".\n\nW",
  "7507": "spec",
  "7508": "য়",
  "7509": "De",
  "7510": "ann",
  "7511": "really",
  "7512": "iel",
  "7513": "ار",
  "7514": "mem",
  "7515": "ollow",
  "7516": "’re",
  "7517": "pr",
  "7518": "game",
  "7519": "it’s",
  "7520": "tim",
  "7521": "cent",
  "7522": "exp",
  "7523": "oot",
  "7524": "ures",
  "7525": "д",
  "7526": "்க",
  "7527": "ense",
  "7528": "min",
  "7529": "ought",
  "7530": "als",
  "7531": "three",
  "7532": "Com",
  "7533": "around",
  "7534": "real",
  "7535": "sign",
  "7536": "ни",
  "7537": "ces",
  "7538": "lif",
  "7539": "uth",
  "7540": "ash",
  "7541": "ata",
  "7542": "ari",
  "7543": "ing.",
  "7544": "Le",
  "7545": "ists",
  "7546": "cept",
  "7547": "war",
  "7548": ",000",
  "7549": "ama",
  "7550": "ext",
  "7551": "public",
  "7552": "‘",
  "7553": "support",
  "7554": "met",
  "7555": "ph",
  "7556": "ੂੰ",
  "7557": "You",
  "7558": "group",
  "7559": "ather",
  "7560": "son",
  "7561": "Cl",
  "7562": "el",
  "7563": "Trump",
  "7564": "led",
  "7565": "9",
  "7566": "но",
  "7567": "ئ",
  "7568": ".\n\nB",
  "7569": "che",
  "7570": "fr",
  "7571": ",\"",
  "7572": "exper",
  "7573": "cap",
  "7574": "म",
  "7575": "cur",
  "7576": "ਦੀ",
  "7577": "de",
  "7578": "्र",
  "7579": "ton",
  "7580": "here",
  "7581": "used",
  "7582": "fam",
  "7583": "gg",
  "7584": "As",
  "7585": "з",
  "7586": "state",
  "7587": "fil",
  "7588": "ਰ",
  "7589": "ave",
  "7590": "happ",
  "7591": "month",
  "7592": "find",
  "7593": "wom",
  "7594": "ouse",
  "7595": "get",
  "7596": "alth",
  "7597": "great",
  "7598": "develop",
  "7599": "con",
  "7600": "Is",
  "7601": "ts",
  "7602": "They",
  "7603": "cre",
  "7604": "rep",
  "7605": "ան",
  "7606": "o.",
  "7607": "iss",
  "7608": "ric",
  "7609": "cent",
  "7610": "fact",
  "7611": "found",
  "7612": "ка",
  "7613": "ka",
  "7614": "ਅਤੇ",
  "7615": "person",
  "7616": "ms",
  "7617": "\n\nI",
  "7618": "conf",
  "7619": "на",
  "7620": "av",
  "7621": "men",
  "7622": "Wh",
  "7623": "ience",
  "7624": "both",
  "7625": "polit",
  "7626": "dire",
  "7627": "ਉ",
  "7628": "ision",
  "7629": "pri",
  "7630": "د",
  "7631": "ying",
  "7632": "leg",
  "7633": "read",
  "7634": "far",
  "7635": "put",
  "7636": "during",
  "7637": "bo",
  "7638": "ically",
  "7639": "expl",
  "7640": "soc",
  "7641": "the",
  "7642": "ared",
  "7643": "Fr",
  "7644": "Z",
  "7645": "few",
  "7646": "told",
  "7647": "resp",
  "7648": "|",
  "7649": "big",
  "7650": "ret",
  "7651": "chool",
  "7652": "cl",
  "7653": "ording",
  "7654": "na",
  "7655": "opp",
  "7656": "requ",
  "7657": "prot",
  "7658": "ation,",
  "7659": "ੋਂ",
  "7660": "س",
  "7661": "ex",
  "7662": "akes",
  "7663": "follow",
  "7664": "ai",
  "7665": "ames",
  "7666": "ਕਰ",
  "7667": "لى",
  "7668": "rat",
  "7669": "Sh",
  "7670": "ene",
  "7671": "I’",
  "7672": "cle",
  "7673": "since",
  "7674": "ves",
  "7675": "প",
  "7676": "stat",
  "7677": "loc",
  "7678": "ко",
  "7679": "If",
  "7680": "ക്",
  "7681": "-s",
  "7682": "20",
  "7683": "mark",
  "7684": "don’t",
  "7685": "poss",
  "7686": "ਆਂ",
  "7687": "ments",
  "7688": "uk",
  "7689": "number",
  "7690": "to",
  "7691": "bus",
  "7692": "lot",
  "7693": "invest",
  "7694": "hes",
  "7695": "ner",
  "7696": "contin",
  "7697": "We",
  "7698": "best",
  "7699": "plan",
  "7700": "ee",
  "7701": "orth",
  "7702": "ets",
  "7703": "ars",
  "7704": "ines",
  "7705": "allow",
  "7706": "ро",
  "7707": "र्",
  "7708": "something",
  "7709": "form",
  "7710": "ask",
  "7711": "ives",
  "7712": "different",
  "7713": "let",
  "7714": "belie",
  "7715": "ention",
  "7716": "val",
  "7717": "੍ਰ",
  "7718": "dem",
  "7719": "char",
  "7720": "м",
  "7721": "never",
  "7722": "pass",
  "7723": "iet",
  "7724": "τ",
  "7725": "commun",
  "7726": "dist",
  "7727": "не",
  "7728": "ਦਾ",
  "7729": "est",
  "7730": "dep",
  "7731": "्या",
  "7732": "ially",
  "7733": "proble",
  "7734": ".\n\nH",
  "7735": "another",
  "7736": "vot",
  "7737": "es",
  "7738": "স",
  "7739": "quest",
  "7740": "ref",
  "7741": "0",
  "7742": "S.",
  "7743": "ന്",
  "7744": "ivers",
  "7745": "ann",
  "7746": "camp",
  "7747": "might",
  "7748": "ve",
  "7749": "child",
  "7750": ".\n\nIn",
  "7751": "power",
  "7752": "ital",
  "7753": "erest",
  "7754": "adv",
  "7755": "le,",
  "7756": "rele",
  "7757": "ral",
  "7758": "ਨੂੰ",
  "7759": "uc",
  "7760": "care",
  "7761": "ized",
  "7762": "each",
  "7763": "open",
  "7764": "head",
  "7765": "inf",
  "7766": "says",
  "7767": "ব",
  "7768": "arl",
  "7769": "ih",
  "7770": "me",
  "7771": ".\n\nM",
  "7772": "ross",
  "7773": "art",
  "7774": "cor",
  "7775": "inform",
  "7776": "US",
  "7777": "For",
  "7778": "ст",
  "7779": "got",
  "7780": "ages",
  "7781": "ਗ",
  "7782": "seem",
  "7783": "dr",
  "7784": "next",
  "7785": "del",
  "7786": "gram",
  "7787": "af",
  "7788": "و",
  "7789": "contro",
  "7790": "second",
  "7791": "ins",
  "7792": "post",
  "7793": "rop",
  "7794": "eng",
  "7795": "let",
  "7796": "his",
  "7797": "ਕਿ",
  "7798": "\n\nS",
  "7799": "ute",
  "7800": "come",
  "7801": "partic",
  "7802": "आ",
  "7803": "med",
  "7804": "That",
  "7805": "be",
  "7806": "chn",
  "7807": "mil",
  "7808": "aim",
  "7809": "Rep",
  "7810": "fun",
  "7811": "iness",
  "7812": "arn",
  "7813": "gl",
  "7814": "pop",
  "7815": "import",
  "7816": "ה",
  "7817": "beh",
  "7818": "18",
  "7819": "tri",
  "7820": "ال",
  "7821": "ij",
  "7822": "ize",
  "7823": "gy",
  "7824": "Q",
  "7825": "result",
  "7826": "bers",
  "7827": "erv",
  "7828": "incre",
  "7829": "ਆ",
  "7830": "uman",
  "7831": "sk",
  "7832": "stand",
  "7833": "direct",
  "7834": "Pro",
  "7835": "ers,",
  "7836": "less",
  "7837": "ittle",
  "7838": ".S.",
  "7839": "ng",
  "7840": "feel",
  "7841": "without",
  "7842": "thing",
  "7843": "hard",
  "7844": "interest",
  "7845": "leg",
  "7846": "talk",
  "7847": "ada",
  "7848": "ре",
  "7849": "եր",
  "7850": "ield",
  "7851": "percent",
  "7852": "ody",
  "7853": "ired",
  "7854": "i.",
  "7855": "er",
  "7856": "ered",
  "7857": "turn",
  "7858": "mat",
  "7859": "top",
  "7860": "ohn",
  "7861": "osed",
  "7862": "i-",
  "7863": "ਹੋ",
  "7864": "tt",
  "7865": "four",
  "7866": "better",
  "7867": "There",
  "7868": "view",
  "7869": "те",
  "7870": "अ",
  "7871": "о",
  "7872": "ka",
  "7873": "ana",
  "7874": "things",
  "7875": "conc",
  "7876": "uck",
  "7877": "school",
  "7878": "ness",
  "7879": "ission",
  "7880": "ya",
  "7881": "ide",
  "7882": "ina",
  "7883": "May",
  "7884": ".\"\n\n",
  "7885": "ty",
  "7886": "আ",
  "7887": "million",
  "7888": "ott",
  "7889": "rest",
  "7890": "en,",
  "7891": "an,",
  "7892": "conom",
  "7893": "eb",
  "7894": "organ",
  "7895": "riend",
  "7896": "oss",
  "7897": "attack",
  "7898": "program",
  "7899": "?\n\n",
  "7900": "ung",
  "7901": "app",
  "7902": "design",
  "7903": "keep",
  "7904": "too",
  "7905": "ever,",
  "7906": "ider",
  "7907": "Sc",
  "7908": "country",
  "7909": "par",
  "7910": "including",
  "7911": "said.",
  "7912": "recent",
  "7913": "called",
  "7914": "aph",
  "7915": "main",
  "7916": "little",
  "7917": "ices",
  "7918": "won",
  "7919": "ம்",
  "7920": "die",
  "7921": "police",
  "7922": "inal",
  "7923": "и",
  "7924": "home",
  "7925": "bro",
  "7926": "ли",
  "7927": "đ",
  "7928": "Sp",
  "7929": "tax",
  "7930": "ਹੈ।",
  "7931": "10",
  "7932": "move",
  "7933": "Bl",
  "7934": ")\n\n",
  "7935": "ways",
  "7936": "er.",
  "7937": ".\n\nO",
  "7938": "ature",
  "7939": "ajor",
  "7940": "season",
  "7941": "ior",
  "7942": "must",
  "7943": "using",
  "7944": "ertain",
  "7945": "Ph",
  "7946": "15",
  "7947": "serv",
  "7948": "inc",
  "7949": "pa",
  "7950": "left",
  "7951": "U.S.",
  "7952": "sol",
  "7953": "-p",
  "7954": "pay",
  "7955": "ained",
  "7956": "ead",
  "7957": "ੱਕ",
  "7958": "ably",
  "7959": "build",
  "7960": "ation.",
  "7961": "ron",
  "7962": "imate",
  "7963": "small",
  "7964": "less",
  "7965": "bre",
  "7966": "vi",
  "7967": "ator",
  "7968": "writ",
  "7969": "Ad",
  "7970": "prev",
  "7971": ".\n\nC",
  "7972": "ished",
  "7973": "rence",
  "7974": "ode",
  "7975": "ਦੇ",
  "7976": "win",
  "7977": "place",
  "7978": "ract",
  "7979": "ised",
  "7980": "்த",
  "7981": "ption",
  "7982": "त",
  "7983": "mov",
  "7984": "effect",
  "7985": "-f",
  "7986": ".\n\nF",
  "7987": "current",
  "7988": "r.",
  "7989": "it's",
  "7990": "level",
  "7991": "ruct",
  "7992": "work",
  "7993": "ਾਨ",
  "7994": "ister",
  "7995": "It",
  "7996": "ants",
  "7997": "Ob",
  "7998": "Ind",
  "7999": "uro",
  "8000": "ele",
  "8001": "sit",
  "8002": "bas",
  "8003": "stand",
  "8004": "ra",
  "8005": "hist",
  "8006": "arge",
  "8007": "test",
  "8008": "eas",
  "8009": "ird",
  "8010": "ala",
  "8011": "comple",
  "8012": ".",
  "8013": "ਹਨ",
  "8014": "prom",
  "8015": "unt",
  "8016": "व",
  "8017": "pur",
  "8018": "12",
  "8019": "rese",
  "8020": "John",
  "8021": "en.",
  "8022": "ن",
  "8023": "econom",
  "8024": "process",
  "8025": "ਤੀ",
  "8026": "rece",
  "8027": "thing",
  "8028": "chang",
  "8029": "techn",
  "8030": "alread",
  "8031": "prof",
  "8032": "-c",
  "8033": "here",
  "8034": "line",
  "8035": "ज",
  "8036": "'re",
  "8037": "tak",
  "8038": "president",
  "8039": "б",
  "8040": "giv",
  "8041": "dri",
  "8042": "iqu",
  "8043": "life",
  "8044": "--",
  "8045": "ար",
  "8046": "по",
  "8047": "So",
  "8048": "city",
  "8049": "ہ",
  "8050": "On",
  "8051": "list",
  "8052": "ling",
  "8053": "American",
  "8054": "vis",
  "8055": "Can",
  "8056": "ided",
  "8057": "ept",
  "8058": "old",
  "8059": "already",
  "8060": "را",
  "8061": "го",
  "8062": "How",
  "8063": "mone",
  "8064": "kind",
  "8065": "ration",
  "8066": "uthor",
  "8067": "expect",
  "8068": "claim",
  "8069": "aff",
  "8070": "Gr",
  "8071": "polic",
  "8072": "ined",
  "8073": "intern",
  "8074": "্য",
  "8075": "ane",
  "8076": "এ",
  "8077": "aug",
  "8078": "ains",
  "8079": "news",
  "8080": "କ",
  "8081": "const",
  "8082": "spe",
  "8083": "always",
  "8084": "appro",
  "8085": "major",
  "8086": "word",
  "8087": "ploy",
  "8088": "important",
  "8089": "oper",
  "8090": "atur",
  "8091": "mor",
  "8092": "able",
  "8093": "job",
  "8094": ".\n\nP",
  "8095": "lo",
  "8096": "pat",
  "8097": "on,",
  "8098": "yn",
  "8099": "ope",
  "8100": "away",
  "8101": "past",
  "8102": "aign",
  "8103": "ла",
  "8104": "business",
  "8105": "official",
  "8106": "ush",
  "8107": "ου",
  "8108": "dev",
  "8109": "ਰੀ",
  "8110": "na",
  "8111": "health",
  "8112": "ത്",
  "8113": "book",
  "8114": "used",
  "8115": "change",
  "8116": "eg",
  "8117": "tell",
  "8118": "ney",
  "8119": "ma",
  "8120": "simp",
  "8121": "ament",
  "8122": "why",
  "8123": "vide",
  "8124": "pot",
  "8125": "ार",
  "8126": "ia,",
  "8127": "project",
  "8128": "199",
  "8129": "ле",
  "8130": "wit",
  "8131": "bi",
  "8132": "vert",
  "8133": "cost",
  "8134": "problem",
  "8135": "edit",
  "8136": "view",
  "8137": "por",
  "8138": "ality",
  "8139": "sc",
  "8140": "least",
  "8141": "aff",
  "8142": "ma",
  "8143": "1.",
  "8144": "company",
  "8145": "ਤਾ",
  "8146": "idd",
  "8147": "ور",
  "8148": "imes",
  "8149": "il",
  "8150": "la",
  "8151": "ри",
  "8152": "order",
  "8153": "reen",
  "8154": "ब",
  "8155": "enn",
  "8156": "United",
  "8157": "arc",
  "8158": "!!!!!!!!",
  "8159": "often",
  "8160": "came",
  "8161": "ਦੀ",
  "8162": "Go",
  "8163": "ன்",
  "8164": "air",
  "8165": "isc",
  "8166": "happen",
  "8167": "enough",
  "8168": "case",
  "8169": "aining",
  "8170": "prop",
  "8171": "it.",
  "8172": "eng",
  "8173": "ль",
  "8174": "rist",
  "8175": "نى",
  "8176": "gener",
  "8177": "data",
  "8178": "women",
  "8179": "ional",
  "8180": "human",
  "8181": "ق",
  "8182": "Comm",
  "8183": "ਜ਼",
  "8184": "free",
  "8185": "though",
  "8186": "र",
  "8187": "grow",
  "8188": "making",
  "8189": "а",
  "8190": "She",
  "8191": "ox",
  "8192": "uff",
  "8193": "fund",
  "8194": "alm",
  "8195": "π",
  "8196": "ার",
  "8197": "=",
  "8198": "iver",
  "8199": "urity",
  "8200": "ccess",
  "8201": "RE",
  "8202": "friend",
  "8203": "Pres",
  "8204": "ப",
  "8205": "ج",
  "8206": "deal",
  "8207": "ency",
  "8208": "campaign",
  "8209": "ger",
  "8210": "ending",
  "8211": "class",
  "8212": "ला",
  "8213": "ks",
  "8214": "ல்",
  "8215": "Republic",
  "8216": "50",
  "8217": "gin",
  "8218": "ured",
  "8219": "took",
  "8220": "side",
  "8221": "At",
  "8222": "large",
  "8223": ".[",
  "8224": "kill",
  "8225": "-1",
  "8226": "political",
  "8227": "social",
  "8228": "information",
  "8229": "fight",
  "8230": "I'",
  "8231": "sh",
  "8232": "ies,",
  "8233": "actually",
  "8234": "پ",
  "8235": "ides",
  "8236": "ror",
  "8237": "]\n\n",
  "8238": "2.",
  "8239": "deb",
  "8240": "vers",
  "8241": "ember",
  "8242": "Or",
  "8243": "fi",
  "8244": "Be",
  "8245": "ever",
  "8246": "mean",
  "8247": "cas",
  "8248": "question",
  "8249": "thought",
  "8250": "perform",
  "8251": "-y",
  "8252": "according",
  "8253": "fac",
  "8254": "ara",
  "8255": "-t",
  "8256": "former",
  "8257": "16",
  "8258": "den",
  "8259": "ivid",
  "8260": "raft",
  "8261": ".\n\nD",
  "8262": "uture",
  "8263": "non",
  "8264": "bs",
  "8265": "11",
  "8266": "oint",
  "8267": "outh",
  "8268": "ument",
  "8269": "ant",
  "8270": "ਤੋਂ",
  "8271": "story",
  "8272": "ocrat",
  "8273": "iversity",
  "8274": "aring",
  "8275": "way",
  "8276": "land",
  "8277": "full",
  "8278": "ات",
  "8279": "за",
  "8280": "ca",
  "8281": "ream",
  "8282": "until",
  "8283": "Pl",
  "8284": "ي",
  "8285": "lat",
  "8286": "ست",
  "8287": "ਦਾ",
  "8288": "ium",
  "8289": "Am",
  "8290": "become",
  "8291": "je",
  "8292": "የ",
  "8293": "fore",
  "8294": "artment",
  "8295": ",",
  "8296": "ਚ",
  "8297": "ta",
  "8298": "event",
  "8299": "give",
  "8300": "ले",
  "8301": "sever",
  "8302": "ither",
  "8303": "market",
  "8304": "elect",
  "8305": "ти",
  "8306": "charac",
  "8307": "ris",
  "8308": "record",
  "8309": "ology",
  "8310": "desc",
  "8311": "invol",
  "8312": "money",
  "8313": "--",
  "8314": "working",
  "8315": "possible",
  "8316": "ने",
  "8317": "by",
  "8318": "ued",
  "8319": "examp",
  "8320": "return",
  "8321": "sure",
  "8322": "ified",
  "8323": "ସ",
  "8324": "line",
  "8325": "σ",
  "8326": "Dem",
  "8327": "wr",
  "8328": "30",
  "8329": "ل",
  "8330": "bit",
  "8331": "occ",
  "8332": "cho",
  "8333": "urs",
  "8334": "ubl",
  "8335": "crit",
  "8336": "local",
  "8337": "for",
  "8338": "don't",
  "8339": "ev",
  "8340": "today",
  "8341": "elf",
  "8342": "Mc",
  "8343": "certain",
  "8344": "having",
  "8345": "control",
  "8346": "priv",
  "8347": "equ",
  "8348": "reet",
  "8349": "ili",
  "8350": "viol",
  "8351": "York",
  "8352": "une",
  "8353": "investig",
  "8354": "alf",
  "8355": "ization",
  "8356": "ים",
  "8357": "Con",
  "8358": "tem",
  "8359": "ਪ੍ਰ",
  "8360": "icle",
  "8361": "several",
  "8362": ":",
  "8363": "ident",
  "8364": "course",
  "8365": "ers.",
  "8366": "ف",
  "8367": "aps",
  "8368": "’ve",
  "8369": "of",
  "8370": "bad",
  "8371": "ક",
  "8372": "ны",
  "8373": "whether",
  "8374": "ster",
  "8375": "author",
  "8376": "stop",
  "8377": "five",
  "8378": "nes",
  "8379": "likely",
  "8380": "activ",
  "8381": "ପ",
  "8382": "rest",
  "8383": "Sy",
  "8384": "ze",
  "8385": "et",
  "8386": "ion,",
  "8387": "strong",
  "8388": "ived",
  "8389": "lo",
  "8390": "doing",
  "8391": "lim",
  "8392": "children",
  "8393": "early",
  "8394": "100",
  "8395": "It’s",
  "8396": "li",
  "8397": "osp",
  "8398": "ourn",
  "8399": "All",
  "8400": "went",
  "8401": "night",
  "8402": "reason",
  "8403": "meet",
  "8404": "-year",
  "8405": "ering",
  "8406": "ho",
  "8407": "ग",
  "8408": "When",
  "8409": "understand",
  "8410": "-d",
  "8411": "Se",
  "8412": "ising",
  "8413": "arg",
  "8414": "2015",
  "8415": "ತ್",
  "8416": "-m",
  "8417": "“I",
  "8418": "els",
  "8419": "મા",
  "8420": "once",
  "8421": "α",
  "8422": "ential",
  "8423": "protect",
  "8424": "ക്ക",
  "8425": "sing",
  "8426": "ver",
  "8427": "হ",
  "8428": "Te",
  "8429": "Col",
  "8430": "ம",
  "8431": "न्",
  "8432": "ਹੀ",
  "8433": "ley",
  "8434": "ald",
  "8435": "trad",
  "8436": "ards",
  "8437": "itive",
  "8438": "name",
  "8439": "मा",
  "8440": "ش",
  "8441": "ensive",
  "8442": "milit",
  "8443": "ਰਾ",
  "8444": "க்க",
  "8445": "mus",
  "8446": "ান",
  "8447": "later",
  "8448": "que",
  "8449": "&",
  "8450": "mber",
  "8451": "ும்",
  "8452": "President",
  "8453": "young",
  "8454": "press",
  "8455": "X",
  "8456": "future",
  "8457": "ief",
  "8458": "erman",
  "8459": "Ro",
  "8460": "community",
  "8461": "lu",
  "8462": "idence",
  "8463": "ות",
  "8464": "appear",
  "8465": "avail",
  "8466": "ನ್",
  "8467": "within",
  "8468": "arm",
  "8469": "across",
  "8470": "compan",
  "8471": "iate",
  "8472": "\n\nT",
  "8473": "াৰ",
  "8474": ".\n\nR",
  "8475": "ك",
  "8476": "ony",
  "8477": "Br",
  "8478": "I’m",
  "8479": "ww",
  "8480": "prob",
  "8481": "یں",
  "8482": "Min",
  "8483": "17",
  "8484": "ਇੱਕ",
  "8485": "empt",
  "8486": "1,",
  "8487": "raw",
  "8488": "מ",
  "8489": "net",
  "8490": "yet",
  "8491": "да",
  "8492": "Pol",
  "8493": "aint",
  "8494": "nect",
  "8495": "Obama",
  "8496": "li",
  "8497": "को",
  "8498": "short",
  "8499": "30",
  "8500": "media",
  "8501": "ਲਈ",
  "8502": "ortun",
  "8503": "isk",
  "8504": ".\n\nN",
  "8505": "van",
  "8506": "க",
  "8507": "ב",
  "8508": "द",
  "8509": "oin",
  "8510": "ਕੀ",
  "8511": "ched",
  "8512": "success",
  "8513": "means",
  "8514": "rew",
  "8515": "κ",
  "8516": "br",
  "8517": "hold",
  "8518": "ki",
  "8519": "iting",
  "8520": "tot",
  "8521": "makes",
  "8522": "product",
  "8523": "days",
  "8524": "along",
  "8525": "known",
  "8526": "among",
  "8527": "א",
  "8528": "ना",
  "8529": "it,",
  "8530": "done",
  "8531": "mar",
  "8532": "individ",
  "8533": "said,",
  "8534": "close",
  "8535": "creat",
  "8536": "hour",
  "8537": "Euro",
  "8538": "go",
  "8539": "gress",
  "8540": "ରେ",
  "8541": "cut",
  "8542": "ні",
  "8543": "orig",
  "8544": "ਸ਼",
  "8545": "ats",
  "8546": "fav",
  "8547": "fail",
  "8548": ".\n\nBut",
  "8549": "ball",
  "8550": "manag",
  "8551": "ots",
  "8552": "sour",
  "8553": "ederal",
  "8554": "aut",
  "8555": "family",
  "8556": "ulation",
  "8557": "cond",
  "8558": "court",
  "8559": "ler",
  "8560": "ל",
  "8561": "vo",
  "8562": "ries",
  "8563": "sugg",
  "8564": "ਹਾ",
  "8565": "ਜਾਂ",
  "8566": "indust",
  "8567": "iving",
  "8568": "Fl",
  "8569": "suggest",
  "8570": "ని",
  "8571": "acy",
  "8572": "AT",
  "8573": "ப்",
  "8574": "fic",
  "8575": "ਿੱ",
  "8576": "al,",
  "8577": "verage",
  "8578": "given",
  "8579": "iron",
  "8580": "not",
  "8581": "να",
  "8582": "sex",
  "8583": "rul",
  "8584": "ਖ",
  "8585": "mom",
  "8586": "Mar",
  "8587": "aster",
  "8588": "ury",
  "8589": "seen",
  "8590": "announ",
  "8591": "Russ",
  "8592": "exc",
  "8593": "ന്ന",
  "8594": "side",
  "8595": "sal",
  "8596": "sw",
  "8597": "available",
  "8598": "’ll",
  "8599": "Cent",
  "8600": "trying",
  "8601": "iously",
  "8602": "gam",
  "8603": ".\n\nL",
  "8604": "որ",
  "8605": "ε",
  "8606": "ored",
  "8607": "fre",
  "8608": "believe",
  "8609": "ند",
  "8610": "members",
  "8611": "ories",
  "8612": "በ",
  "8613": "itional",
  "8614": "સ",
  "8615": "national",
  "8616": "ER",
  "8617": "video",
  "8618": "य",
  "8619": "sent",
  "8620": "orld",
  "8621": "inton",
  "8622": "anal",
  "8623": "aq",
  "8624": "ч",
  "8625": "House",
  "8626": "Eng",
  "8627": "pec",
  "8628": "water",
  "8629": "mess",
  "8630": "3.",
  "8631": "almost",
  "8632": "rael",
  "8633": "Aust",
  "8634": "Pr",
  "8635": "Ex",
  "8636": "To",
  "8637": "ਹਿ",
  "8638": "ੁੰ",
  "8639": "clear",
  "8640": "ended",
  "8641": "special",
  "8642": "film",
  "8643": "low",
  "8644": "resent",
  "8645": "University",
  "8646": "்ட",
  "8647": "getting",
  "8648": "players",
  "8649": "bill",
  "8650": "individual",
  "8651": "Democrat",
  "8652": "urg",
  "8653": "hi",
  "8654": "discuss",
  "8655": "Af",
  "8656": "irm",
  "8657": "के",
  "8658": "14",
  "8659": "love",
  "8660": "What",
  "8661": "rad",
  "8662": "ве",
  "8663": "an.",
  "8664": "dom",
  "8665": "based",
  "8666": "ակ",
  "8667": "ма",
  "8668": "2016",
  "8669": "ম",
  "8670": "employ",
  "8671": "h,",
  "8672": "પ",
  "8673": "ಸ",
  "8674": "started",
  "8675": "unch",
  "8676": "#",
  "8677": "ians",
  "8678": "irl",
  "8679": "oto",
  "8680": "games",
  "8681": "colle",
  "8682": "-l",
  "8683": "National",
  "8684": "ಮ",
  "8685": "hom",
  "8686": "asked",
  "8687": "uly",
  "8688": "ware",
  "8689": "ipp",
  "8690": "ਸੀ",
  "8691": "ference",
  "8692": "во",
  "8693": "rodu",
  "8694": "pract",
  "8695": "ки",
  "8696": "You",
  "8697": "q",
  "8698": "أ",
  "8699": "proper",
  "8700": "Christ",
  "8701": "no",
  "8702": "ashing",
  "8703": "use",
  "8704": "iya",
  "8705": "comes",
  "8706": "that’s",
  "8707": "ام",
  "8708": "plac",
  "8709": "Su",
  "8710": "gether",
  "8711": "ability",
  "8712": "book",
  "8713": "together",
  "8714": "comb",
  "8715": "time,",
  "8716": "foc",
  "8717": "ता",
  "8718": "ogr",
  "8719": "sk",
  "8720": "didn’t",
  "8721": "ప",
  "8722": "State",
  "8723": "ands",
  "8724": "oci",
  "8725": "այ",
  "8726": "ay,",
  "8727": "hile",
  "8728": "or,",
  "8729": "One",
  "8730": "га",
  "8731": "ap",
  "8732": "bene",
  "8733": "impro",
  "8734": "urther",
  "8735": "compet",
  "8736": "try",
  "8737": "present",
  "8738": "ին",
  "8739": "ener",
  "8740": "meas",
  "8741": "ع",
  "8742": "ள்",
  "8743": "మ",
  "8744": "comment",
  "8745": "minist",
  "8746": "account",
  "8747": "taken",
  "8748": "death",
  "8749": "Don",
  "8750": "Sec",
  "8751": "over",
  "8752": "War",
  "8753": "var",
  "8754": "ague",
  "8755": "ло",
  "8756": "্র",
  "8757": "ਇਸ",
  "8758": "ี่",
  "8759": "mult",
  "8760": "behind",
  "8761": "ilar",
  "8762": "though",
  "8763": "11",
  "8764": "অ",
  "8765": "opt",
  "8766": "2,",
  "8767": "Europe",
  "8768": "mb",
  "8769": "ote",
  "8770": ".\n\nIt",
  "8771": "back",
  "8772": "lex",
  "8773": "uf",
  "8774": "hig",
  "8775": "following",
  "8776": "research",
  "8777": "िक",
  "8778": "decision",
  "8779": "sum",
  "8780": "compl",
  "8781": ".com",
  "8782": "mind",
  "8783": "che",
  "8784": "experience",
  "8785": "six",
  "8786": "entire",
  "8787": "reported",
  "8788": "light",
  "8789": "3,",
  "8790": "lement",
  "8791": "Dep",
  "8792": "/",
  "8793": "oud",
  "8794": "miss",
  "8795": "times",
  "8796": "En",
  "8797": "ਾਈ",
  "8798": "പ",
  "8799": "detail",
  "8800": "near",
  "8801": "у",
  "8802": "my",
  "8803": "ham",
  "8804": "rather",
  "8805": "ny",
  "8806": "strate",
  "8807": "ש",
  "8808": "arter",
  "8809": "ino",
  "8810": "rug",
  "8811": "exist",
  "8812": "है",
  "8813": "issue",
  "8814": "ones",
  "8815": "ape",
  "8816": "atic",
  "8817": "doesn’t",
  "8818": "cop",
  "8819": "witter",
  "8820": "access",
  "8821": "ول",
  "8822": "ribut",
  "8823": "concern",
  "8824": "Israel",
  "8825": "19",
  "8826": "ustom",
  "8827": "য",
  "8828": "olution",
  "8829": "complete",
  "8830": "position",
  "8831": "து",
  "8832": "ਨੇ",
  "8833": "oo",
  "8834": ".\n\nE",
  "8835": "vict",
  "8836": "্ত",
  "8837": "ati",
  "8838": "Man",
  "8839": "learn",
  "8840": "ey",
  "8841": "sy",
  "8842": "mass",
  "8843": "series",
  "8844": "ran",
  "8845": "bank",
  "8846": "enc",
  "8847": "Brit",
  "8848": "neg",
  "8849": "der",
  "8850": "sus",
  "8851": "வ",
  "8852": "rict",
  "8853": "ault",
  "8854": "ift",
  "8855": "abl",
  "8856": "describ",
  "8857": "coun",
  "8858": "ਨਾਲ",
  "8859": "ination",
  "8860": "quick",
  "8861": "tra",
  "8862": "wa",
  "8863": "unt",
  "8864": "env",
  "8865": "rown",
  "8866": "da",
  "8867": "repl",
  "8868": "German",
  "8869": "yr",
  "8870": "ین",
  "8871": "ন",
  "8872": "cult",
  "8873": "North",
  "8874": "лі",
  "8875": "அ",
  "8876": "ele",
  "8877": "hers",
  "8878": "consider",
  "8879": "ся",
  "8880": "ের",
  "8881": "par",
  "8882": "security",
  "8883": "bring",
  "8884": "pick",
  "8885": "threat",
  "8886": "یا",
  "8887": "ef",
  "8888": "someone",
  "8889": "ੀਆਂ",
  "8890": "հ",
  "8891": "foot",
  "8892": "den",
  "8893": "else",
  "8894": "і",
  "8895": "2014",
  "8896": "าร",
  "8897": "x",
  "8898": "не",
  "8899": "off",
  "8900": "hit",
  "8901": "redu",
  "8902": "Im",
  "8903": "wanted",
  "8904": "nothing",
  "8905": "ity,",
  "8906": "general",
  "8907": "check",
  "8908": "स्",
  "8909": "్ర",
  "8910": "ਇਹ",
  "8911": "ում",
  "8912": "sw",
  "8913": "effort",
  "8914": "attempt",
  "8915": "apt",
  "8916": "self",
  "8917": "character",
  "8918": "action",
  "8919": "months",
  "8920": "publ",
  "8921": "lab",
  "8922": "lim",
  "8923": "elt",
  "8924": "town",
  "8925": "toward",
  "8926": "begin",
  "8927": "comput",
  "8928": "న్",
  "8929": "μ",
  "8930": "ନ୍",
  "8931": "looking",
  "8932": "Clinton",
  "8933": "alif",
  "8934": "ison",
  "8935": "Har",
  "8936": "urch",
  "8937": "value",
  "8938": "cand",
  "8939": "IN",
  "8940": "ಲ್",
  "8941": "probably",
  "8942": "24",
  "8943": "15",
  "8944": "rem",
  "8945": "্ৰ",
  "8946": "du",
  "8947": "connect",
  "8948": "that,",
  "8949": "\n\nIn",
  "8950": "fall",
  "8951": "dat",
  "8952": "black",
  "8953": "party",
  "8954": "matter",
  "8955": "τα",
  "8956": "ತ್ತ",
  "8957": "آ",
  "8958": "ବ",
  "8959": "half",
  "8960": "ety",
  "8961": "lin",
  "8962": "Ed",
  "8963": "conv",
  "8964": "either",
  "8965": "୍ର",
  "8966": "spok",
  "8967": "bar",
  "8968": "amount",
  "8969": "Sun",
  "8970": "pret",
  "8971": "idea",
  "8972": "ON",
  "8973": "military",
  "8974": "watch",
  "8975": "oe",
  "8976": "larg",
  "8977": "ground",
  "8978": "ും",
  "8979": "ators",
  "8980": "Sen",
  "8981": "added",
  "8982": "specific",
  "8983": "ances",
  "8984": "respons",
  "8985": "ها",
  "8986": "relations",
  "8987": "face",
  "8988": "above",
  "8989": "a3",
  "8990": "leaders",
  "8991": "ashington",
  "8992": "umb",
  "8993": "seems",
  "8994": "ਫ",
  "8995": "reme",
  "8996": "treat",
  "8997": "ля",
  "8998": "dou",
  "8999": "dam",
  "9000": "create",
  "9001": "typ",
  "9002": "ੰਗ",
  "9003": "ੱਖ",
  "9004": "እ",
  "9005": "year,",
  "9006": "fer",
  "9007": "similar",
  "9008": "ત",
  "9009": "targ",
  "9010": "omb",
  "9011": "you’re",
  "9012": "charg",
  "9013": "World",
  "9014": "ring",
  "9015": "began",
  "9016": "istic",
  "9017": "selves",
  "9018": "taking",
  "9019": "others",
  "9020": "running",
  "9021": "IS",
  "9022": "super",
  "9023": "प्र",
  "9024": "uge",
  "9025": "development",
  "9026": "ivil",
  "9027": "break",
  "9028": "ଏ",
  "9029": "я",
  "9030": "as,",
  "9031": "14",
  "9032": "ிய",
  "9033": "ен",
  "9034": "situ",
  "9035": "క",
  "9036": "field",
  "9037": "live",
  "9038": "ida",
  "9039": "space",
  "9040": "ାର",
  "9041": "ien",
  "9042": "ਿਕ",
  "9043": "angu",
  "9044": "irc",
  "9045": "ilt",
  "9046": "With",
  "9047": "দ",
  "9048": "asing",
  "9049": "છ",
  "9050": "ask",
  "9051": "ly.",
  "9052": "Car",
  "9053": "uj",
  "9054": "Part",
  "9055": "zy",
  "9056": "Ge",
  "9057": "statement",
  "9058": "ਸਕ",
  "9059": "dest",
  "9060": "__",
  "9061": "In",
  "9062": "\n\nC",
  "9063": "“The",
  "9064": "single",
  "9065": "ры",
  "9066": "chall",
  "9067": "history",
  "9068": "sec",
  "9069": "signific",
  "9070": "ironment",
  "9071": "ಗಳ",
  "9072": "put",
  "9073": "ender",
  "9074": "ps",
  "9075": "વા",
  "9076": "omm",
  "9077": "തി",
  "9078": "step",
  "9079": "saying",
  "9080": "doc",
  "9081": "ctor",
  "9082": "ਣਾ",
  "9083": ".0",
  "9084": "agre",
  "9085": "No",
  "9086": "ਕਰਨ",
  "9087": "He",
  "9088": "ged",
  "9089": "ey",
  "9090": "ye",
  "9091": "-w",
  "9092": "aut",
  "9093": "front",
  "9094": "Co",
  "9095": "lam",
  "9096": "ที่",
  "9097": "ery",
  "9098": "itself",
  "9099": "స్",
  "9100": "ర్",
  "9101": "fig",
  "9102": "This",
  "9103": "ե",
  "9104": "7,",
  "9105": "Pa",
  "9106": "now",
  "9107": "...",
  "9108": "m.",
  "9109": "\n\nW",
  "9110": "irt",
  "9111": "mag",
  "9112": "und",
  "9113": "hy",
  "9114": "minut",
  "9115": "anything",
  "9116": "provide",
  "9117": "mot",
  "9118": "obal",
  "9119": "si",
  "9120": "gun",
  "9121": "ule",
  "9122": "ibility",
  "9123": "continue",
  "9124": "่า",
  "9125": "sense",
  "9126": "ਸਮ",
  "9127": "ಾಗ",
  "9128": "age,",
  "9129": "ate,",
  "9130": "த்த",
  "9131": "ப்ப",
  "9132": "ienc",
  "9133": "Washington",
  "9134": "አ",
  "9135": "federal",
  "9136": "third",
  "9137": "न",
  "9138": "ify",
  "9139": "ச",
  "9140": "final",
  "9141": "block",
  "9142": "simply",
  "9143": "itions",
  "9144": "vol",
  "9145": "wro",
  "9146": "hope",
  "9147": "whole",
  "9148": "ને",
  "9149": "States",
  "9150": "ini",
  "9151": "hy",
  "9152": "ife",
  "9153": "iod",
  "9154": "iam",
  "9155": "25",
  "9156": "released",
  "9157": "hod",
  "9158": "stri",
  "9159": "applic",
  "9160": "food",
  "9161": "bert",
  "9162": "relig",
  "9163": "everything",
  "9164": "due",
  "9165": "favor",
  "9166": "دى",
  "9167": "in,",
  "9168": "himself",
  "9169": "sound",
  "9170": "outside",
  "9171": "benef",
  "9172": "ficult",
  "9173": "AS",
  "9174": "िय",
  "9175": "ogn",
  "9176": "cred",
  "9177": "App",
  "9178": "\n\nM",
  "9179": "share",
  "9180": "reg",
  "9181": "feat",
  "9182": "common",
  "9183": "key",
  "9184": "pite",
  "9185": "रू",
  "9186": "ել",
  "9187": "AN",
  "9188": "Bar",
  "9189": "อง",
  "9190": "pred",
  "9191": "ரு",
  "9192": "itte",
  "9193": "prim",
  "9194": "ون",
  "9195": "ικ",
  "9196": "head",
  "9197": "function",
  "9198": "ಅ",
  "9199": "further",
  "9200": "ನ",
  "9201": "epend",
  "9202": "ournal",
  "9203": "kh",
  "9204": "ion.",
  "9205": "16",
  "9206": "became",
  "9207": "pecially",
  "9208": "ر",
  "9209": "billion",
  "9210": "ado",
  "9211": "administ",
  "9212": "val",
  "9213": "ть",
  "9214": "represent",
  "9215": "room",
  "9216": "difficult",
  "9217": "body",
  "9218": "election",
  "9219": "profess",
  "9220": "്ട",
  "9221": "moment",
  "9222": "sen",
  "9223": "phys",
  "9224": "bl",
  "9225": "Gu",
  "9226": "ux",
  "9227": "onse",
  "9228": "oid",
  "9229": "coming",
  "9230": "ந",
  "9231": "financ",
  "9232": "ਜਿ",
  "9233": "িল",
  "9234": "ви",
  "9235": "nam",
  "9236": "-old",
  "9237": "का",
  "9238": "oon",
  "9239": "भ",
  "9240": "policy",
  "9241": "ക",
  "9242": "reve",
  "9243": "Dav",
  "9244": "candid",
  "9245": "anu",
  "9246": "saw",
  "9247": "িক",
  "9248": "area",
  "9249": "Intern",
  "9250": "ня",
  "9251": "ко",
  "9252": "Inst",
  "9253": "ια",
  "9254": "кі",
  "9255": "ਵੇ",
  "9256": "custom",
  "9257": "day,",
  "9258": "ನು",
  "9259": "ങ്",
  "9260": "Ab",
  "9261": "వ",
  "9262": "Ass",
  "9263": "init",
  "9264": "ett",
  "9265": "ੈਂ",
  "9266": "abs",
  "9267": "legal",
  "9268": "ural",
  "9269": "hel",
  "9270": "198",
  "9271": "ple",
  "9272": "અ",
  "9273": "itted",
  "9274": "exec",
  "9275": "ole",
  "9276": "jud",
  "9277": "خ",
  "9278": "icro",
  "9279": "ival",
  "9280": "197",
  "9281": "ें",
  "9282": "ste",
  "9283": "can’t",
  "9284": "ccording",
  "9285": "het",
  "9286": "//",
  "9287": "ance,",
  "9288": "Austral",
  "9289": "uel",
  "9290": "ներ",
  "9291": "private",
  "9292": "ku",
  "9293": "ত",
  "9294": "held",
  "9295": "companies",
  "9296": "parent",
  "9297": "aged",
  "9298": "aper",
  "9299": "ently",
  "9300": "imm",
  "9301": "സ",
  "9302": "200",
  "9303": "su",
  "9304": "div",
  "9305": "af",
  "9306": "instead",
  "9307": "play",
  "9308": "acebook",
  "9309": "па",
  "9310": "network",
  "9311": "mp",
  "9312": "drug",
  "9313": "\n\nB",
  "9314": "model",
  "9315": ")",
  "9316": "deep",
  "9317": "industry",
  "9318": "AR",
  "9319": "deter",
  "9320": "అ",
  "9321": "\n\nP",
  "9322": "da",
  "9323": "pie",
  "9324": "onst",
  "9325": "After",
  "9326": "However,",
  "9327": "arrest",
  "9328": "Department",
  "9329": "study",
  "9330": "rev",
  "9331": "્ય",
  "9332": "necess",
  "9333": "iday",
  "9334": "Feb",
  "9335": "-h",
  "9336": "port",
  "9337": "Ste",
  "9338": "evidence",
  "9339": "significant",
  "9340": "അ",
  "9341": "BC",
  "9342": "cing",
  "9343": "क्",
  "9344": "quite",
  "9345": "email",
  "9346": "needs",
  "9347": "Just",
  "9348": "î",
  "9349": "ep",
  "9350": "ades",
  "9351": "iment",
  "9352": "webs",
  "9353": "period",
  "9354": "է",
  "9355": "bo",
  "9356": "capt",
  "9357": "His",
  "9358": "aha",
  "9359": "wat",
  "9360": "ani",
  "9361": ".5",
  "9362": "ique",
  "9363": "son",
  "9364": "رى",
  "9365": "մ",
  "9366": "officials",
  "9367": "aur",
  "9368": "West",
  "9369": "appe",
  "9370": "These",
  "9371": "forward",
  "9372": "13",
  "9373": "50",
  "9374": "کے",
  "9375": "Republican",
  "9376": "ਜਾ",
  "9377": "bir",
  "9378": "rac",
  "9379": "role",
  "9380": ".\n\nThis",
  "9381": "energy",
  "9382": "include",
  "9383": "-r",
  "9384": "Res",
  "9385": "music",
  "9386": "wrote",
  "9387": "iddle",
  "9388": "red",
  "9389": "iding",
  "9390": "educ",
  "9391": "economic",
  "9392": "κα",
  "9393": "om",
  "9394": "pretty",
  "9395": "za",
  "9396": "arth",
  "9397": "ser",
  "9398": "anim",
  "9399": "total",
  "9400": "years,",
  "9401": "where",
  "9402": "lev",
  "9403": "langu",
  "9404": "walk",
  "9405": "popular",
  "9406": "ograph",
  "9407": "od",
  "9408": "Jap",
  "9409": "fire",
  "9410": "ached",
  "9411": "attle",
  "9412": "ಕ",
  "9413": "ка",
  "9414": "ngā",
  "9415": "୍ୟ",
  "9416": "potential",
  "9417": "да",
  "9418": "ut",
  "9419": "white",
  "9420": "Sch",
  "9421": "pro",
  "9422": "્ર",
  "9423": "17",
  "9424": "students",
  "9425": "everyone",
  "9426": "ਟ",
  "9427": "ਭ",
  "9428": "South",
  "9429": "I'm",
  "9430": "Twitter",
  "9431": "18",
  "9432": "goal",
  "9433": "arlier",
  "9434": "yle",
  "9435": "surpr",
  "9436": "જ",
  "9437": "atter",
  "9438": "like",
  "9439": "City",
  "9440": "itting",
  "9441": "playing",
  "9442": "defin",
  "9443": "Apr",
  "9444": "sold",
  "9445": "bit",
  "9446": "u,",
  "9447": "ried",
  "9448": "cil",
  "9449": "han",
  "9450": "40",
  "9451": "shows",
  "9452": "ಿದ",
  "9453": "led",
  "9454": "-year-old",
  "9455": "vari",
  "9456": "\",",
  "9457": "છે",
  "9458": "opportun",
  "9459": "ਹਨ।",
  "9460": "kid",
  "9461": "ਲਾ",
  "9462": "decl",
  "9463": "ming",
  "9464": "environment",
  "9465": "answ",
  "9466": "AI",
  "9467": "response",
  "9468": "iff",
  "9469": "et,",
  "9470": "fect",
  "9471": "norm",
  "9472": "player",
  "9473": "pack",
  "9474": "ਉਹ",
  "9475": "Aug",
  "9476": "interview",
  "9477": "ta",
  "9478": "alleg",
  "9479": "är",
  "9480": "service",
  "9481": "erc",
  "9482": "online",
  "9483": "ogle",
  "9484": "especially",
  "9485": "ively",
  "9486": "25",
  "9487": "ill",
  "9488": "focus",
  "9489": "یک",
  "9490": "accept",
  "9491": "ه",
  "9492": "issues",
  "9493": "shoot",
  "9494": "is,",
  "9495": ".\n\nG",
  "9496": "address",
  "9497": "relationship",
  "9498": "mid",
  "9499": "ਤਰ",
  "9500": "Med",
  "9501": "org",
  "9502": "Not",
  "9503": "link",
  "9504": "Mus",
  "9505": "т",
  "9506": "ularly",
  "9507": "!!!!!!!!!!!!!!!!",
  "9508": "://",
  "9509": "suff",
  "9510": "amer",
  "9511": "house",
  "9512": "version",
  "9513": "object",
  "9514": "express",
  "9515": "**",
  "9516": "\n\nF",
  "9517": "um",
  "9518": "್ರ",
  "9519": "late",
  "9520": "Street",
  "9521": "stay",
  "9522": "respect",
  "9523": "behav",
  "9524": "இ",
  "9525": "girl",
  "9526": "لا",
  "9527": "2010",
  "9528": "ന",
  "9529": "60",
  "9530": "fully",
  "9531": "ilities",
  "9532": "rights",
  "9533": "stru",
  "9534": "coup",
  "9535": "ുന്ന",
  "9536": "Off",
  "9537": "ବା",
  "9538": "inj",
  "9539": "soft",
  "9540": "ological",
  "9541": "America",
  "9542": "ਵੀ",
  "9543": "content",
  "9544": "lost",
  "9545": "ਨਾਂ",
  "9546": "ના",
  "9547": "ellig",
  "9548": "ць",
  "9549": "speak",
  "9550": "ամ",
  "9551": "വ",
  "9552": "Mond",
  "9553": "उ",
  "9554": "March",
  "9555": "تى",
  "9556": "heart",
  "9557": "target",
  "9558": "گ",
  "9559": "true",
  "9560": "pain",
  "9561": "inn",
  "9562": "al-m",
  "9563": "ान",
  "9564": "Cong",
  "9565": "ies.",
  "9566": "sell",
  "9567": "anyone",
  "9568": "та",
  "9569": "Sept",
  "9570": "ଅ",
  "9571": "osing",
  "9572": "wrong",
  "9573": "alt",
  "9574": "April",
  "9575": "created",
  "9576": "е",
  "9577": "action",
  "9578": "isl",
  "9579": "ಲ್ಲ",
  "9580": "կ",
  "9581": "ika",
  "9582": "ди",
  "9583": "ਲੀ",
  "9584": "pped",
  "9585": "ren",
  "9586": "ally,",
  "9587": "anger",
  "9588": "40",
  "9589": "circ",
  "9590": "exact",
  "9591": "من",
  "9592": "shot",
  "9593": "log",
  "9594": "ali",
  "9595": "ರ್",
  "9596": "subject",
  "9597": "becom",
  "9598": "histor",
  "9599": "code",
  "9600": "Per",
  "9601": "ext",
  "9602": "office",
  "9603": "ми",
  "9604": "itor",
  "9605": "saf",
  "9606": "soon",
  "9607": "UK",
  "9608": "scient",
  "9609": "'ve",
  "9610": "t.",
  "9611": "ది",
  "9612": "Mich",
  "9613": "building",
  "9614": "sat",
  "9615": "points",
  "9616": "international",
  "9617": "ما",
  "9618": "itution",
  "9619": "در",
  "9620": "needed",
  "9621": "gen",
  "9622": "ए",
  "9623": "longer",
  "9624": "8,",
  "9625": "ਸੰ",
  "9626": "다.",
  "9627": "हरू",
  "9628": "famil",
  "9629": "range",
  "9630": "ରି",
  "9631": "however,",
  "9632": "ese",
  "9633": "White",
  "9634": "risk",
  "9635": "El",
  "9636": "با",
  "9637": "în",
  "9638": "\"I",
  "9639": "indow",
  "9640": "mediate",
  "9641": "store",
  "9642": "Oct",
  "9643": "ాల",
  "9644": "cy",
  "9645": "hands",
  "9646": "ray",
  "9647": "amb",
  "9648": "woman",
  "9649": "page",
  "9650": "12",
  "9651": "ice,",
  "9652": "release",
  "9653": "tur",
  "9654": "lik",
  "9655": "Hill",
  "9656": "mater",
  "9657": "personal",
  "9658": "9,",
  "9659": "੍ਹ",
  "9660": "rend",
  "9661": "force",
  "9662": "ਹੁੰ",
  "9663": "-in",
  "9664": "played",
  "9665": "до",
  "9666": "higher",
  "9667": "سى",
  "9668": "particip",
  "9669": "മാ",
  "9670": "dead",
  "9671": "cover",
  "9672": "ित",
  "9673": "ਨੀ",
  "9674": "ript",
  "9675": "require",
  "9676": "ston",
  "9677": "ர்",
  "9678": "original",
  "9679": "involved",
  "9680": "ಂದ",
  "9681": "Count",
  "9682": "ör",
  "9683": "tit",
  "9684": "site",
  "9685": "rect",
  "9686": "host",
  "9687": "method",
  "9688": "consum",
  "9689": "ste",
  "9690": "Rom",
  "9691": "staff",
  "9692": "clus",
  "9693": "'ll",
  "9694": "τε",
  "9695": "ਯ",
  "9696": "്പ",
  "9697": "ruary",
  "9698": "below",
  "9699": "wide",
  "9700": "ii",
  "9701": "states",
  "9702": "themselves",
  "9703": "tre",
  "9704": "ру",
  "9705": "ल",
  "9706": "श",
  "9707": "ball",
  "9708": "My",
  "9709": ".\n\nHe",
  "9710": "unk",
  "9711": "example,",
  "9712": "ations,",
  "9713": "capital",
  "9714": "ात",
  "9715": "Gl",
  "9716": "ni",
  "9717": "ਤੁ",
  "9718": "foreign",
  "9719": "oor",
  "9720": "arri",
  "9721": "യി",
  "9722": "fa",
  "9723": "request",
  "9724": "t,",
  "9725": "ର୍",
  "9726": "'ਤੇ",
  "9727": "cannot",
  "9728": "ча",
  "9729": "کی",
  "9730": "body",
  "9731": "రి",
  "9732": "к",
  "9733": "It's",
  "9734": "Qu",
  "9735": "decided",
  "9736": "phot",
  "9737": "countries",
  "9738": "г",
  "9739": "thous",
  "9740": "repe",
  "9741": "eter",
  "9742": "influ",
  "9743": "overed",
  "9744": "ਹੀਂ",
  "9745": "Mr.",
  "9746": "average",
  "9747": "ில்",
  "9748": "ಪ",
  "9749": "Facebook",
  "9750": "iple",
  "9751": "än",
  "9752": "financial",
  "9753": "ples",
  "9754": "@",
  "9755": "ober",
  "9756": "6,",
  "9757": "ಹ",
  "9758": "isn’t",
  "9759": "While",
  "9760": "ua",
  "9761": "ந்த",
  "9762": "Her",
  "9763": "us,",
  "9764": "exam",
  "9765": "club",
  "9766": "reveal",
  "9767": "ends",
  "9768": "there’s",
  "9769": "aud",
  "9770": "global",
  "9771": "bud",
  "9772": "haps",
  "9773": "Tues",
  "9774": "iter",
  "9775": "he’s",
  "9776": "coach",
  "9777": "по",
  "9778": "icated",
  "9779": "turned",
  "9780": "light",
  "9781": "ங்க",
  "9782": "ற்",
  "9783": "worth",
  "9784": ".,",
  "9785": "natur",
  "9786": "groups",
  "9787": "movement",
  "9788": "source",
  "9789": "easy",
  "9790": "ું",
  "9791": "ST",
  "9792": "omp",
  "9793": "vertis",
  "9794": "announced",
  "9795": "-st",
  "9796": "ā",
  "9797": "ases",
  "9798": "Ag",
  "9799": "inside",
  "9800": "societ",
  "9801": "জ",
  "9802": "July",
  "9803": "upd",
  "9804": "த",
  "9805": "’d",
  "9806": "چ",
  "9807": "we’re",
  "9808": "type",
  "9809": "s.”",
  "9810": "affect",
  "9811": "ira",
  "9812": "ح",
  "9813": "leave",
  "9814": "har",
  "9815": "review",
  "9816": "imag",
  "9817": "ge",
  "9818": "God",
  "9819": "ructure",
  "9820": "particular",
  "9821": "buy",
  "9822": "card",
  "9823": "augh",
  "9824": "ku",
  "9825": "mon",
  "9826": "lying",
  "9827": "Act",
  "9828": "track",
  "9829": "Cor",
  "9830": "collect",
  "9831": "কৰ",
  "9832": "takes",
  "9833": "ability",
  "9834": "kin",
  "9835": "dig",
  "9836": "emer",
  "9837": "member",
  "9838": "Syri",
  "9839": "cy",
  "9840": "การ",
  "9841": "sort",
  "9842": "St",
  "9843": "ਵਾ",
  "9844": "9.",
  "9845": "Do",
  "9846": "them.",
  "9847": "February",
  "9848": "base",
  "9849": "ہے",
  "9850": "cle",
  "9851": "oph",
  "9852": "box",
  "9853": "aving",
  "9854": "regard",
  "9855": "ра",
  "9856": "hern",
  "9857": "માં",
  "9858": "wo",
  "9859": "িয়",
  "9860": "હ",
  "9861": "hop",
  "9862": "nearly",
  "9863": "hours",
  "9864": "vent",
  "9865": "News",
  "9866": "мо",
  "9867": "vote",
  "9868": "received",
  "9869": "Will",
  "9870": "ruction",
  "9871": "didn't",
  "9872": "ਸੀ",
  "9873": "స",
  "9874": "\n\nD",
  "9875": "ನ್ನು",
  "9876": "hot",
  "9877": "ko",
  "9878": "Canad",
  "9879": "Some",
  "9880": "via",
  "9881": "osition",
  "9882": "road",
  "9883": "secret",
  "9884": "joy",
  "9885": "ci",
  "9886": "immediate",
  "9887": "recently",
  "9888": "ches",
  "9889": "ga",
  "9890": "izing",
  "9891": "HE",
  "9892": "travel",
  "9893": "cal",
  "9894": "pers",
  "9895": "ਿਆਂ",
  "9896": "June",
  "9897": "phone",
  "9898": "ει",
  "9899": "Pal",
  "9900": "2017",
  "9901": "moral",
  "9902": "squ",
  "9903": "ground",
  "9904": "3ala",
  "9905": "rav",
  "9906": "order",
  "9907": "currently",
  "9908": "mit",
  "9909": "\"The",
  "9910": "coll",
  "9911": "kan",
  "9912": "റ്",
  "9913": ".\n\nJ",
  "9914": "AL",
  "9915": "civil",
  "9916": "din",
  "9917": "gave",
  "9918": "introdu",
  "9919": "ude",
  "9920": "cell",
  "9921": "ను",
  "9922": "Cont",
  "9923": "Post",
  "9924": "कर",
  "9925": "anuary",
  "9926": "board",
  "9927": "ਹੈ,",
  "9928": "6.",
  "9929": "example",
  "9930": "rob",
  "9931": "ue,",
  "9932": "rel",
  "9933": "price",
  "9934": "expected",
  "9935": "anti-",
  "9936": "\"\"",
  "9937": "knew",
  "9938": "arent",
  "9939": "recogn",
  "9940": "Japan",
  "9941": ".\n\nU",
  "9942": "ednes",
  "9943": "duct",
  "9944": "Me",
  "9945": "Gen",
  "9946": "standard",
  "9947": "ങ്ങ",
  "9948": "كى",
  "9949": "lack",
  "9950": "cement",
  "9951": "park",
  "9952": "time.",
  "9953": "ಿಸ",
  "9954": "respond",
  "9955": "്ര",
  "9956": "bor",
  "9957": "star",
  "9958": ".\n\nAnd",
  "9959": "face",
  "9960": "nation",
  "9961": "add",
  "9962": "By",
  "9963": "whose",
  "9964": "term",
  "9965": "age",
  "9966": "arning",
  "9967": "broad",
  "9968": "execut",
  "9969": "ட்ட",
  "9970": "pict",
  "9971": "changes",
  "9972": "ighter",
  "9973": "ity.",
  "9974": "35",
  "9975": "itiz",
  "9976": "student",
  "9977": "τη",
  "9978": "ky",
  "9979": "rat",
  "9980": "s,”",
  "9981": "Rich",
  "9982": "wants",
  "9983": "earlier",
  "9984": "ato",
  "9985": "mur",
  "9986": "contract",
  "9987": "mis",
  "9988": "చ",
  "9989": "crim",
  "9990": "problems",
  "9991": "hon",
  "9992": "Mr",
  "9993": "Now",
  "9994": "Em",
  "9995": "Ang",
  "9996": ".\n\nAs",
  "9997": "roll",
  "9998": "ەر",
  "9999": "Sm",
  "10000": "ମ",
  "10001": "increase",
  "10002": "اد",
  "10003": "tool",
  "10004": "works",
  "10005": "approach",
  "10006": "ાર",
  "10007": "{",
  "10008": "plans",
  "10009": "ود",
  "10010": "ਆਪ",
  "10011": "24",
  "10012": "99",
  "10013": "bur",
  "10014": "that's",
  "10015": "-based",
  "10016": "purp",
  "10017": "ਲੇ",
  "10018": "material",
  "10019": "ia.",
  "10020": "January",
  "10021": "हो",
  "10022": "ме",
  "10023": "aught",
  "10024": "वा",
  "10025": "sens",
  "10026": "perfect",
  "10027": "poll",
  "10028": "impact",
  "10029": "Cour",
  "10030": "কর",
  "10031": "article",
  "10032": "load",
  "10033": "questions",
  "10034": "establ",
  "10035": "ੂਰ",
  "10036": "som",
  "10037": "ਫ਼",
  "10038": "ਘ",
  "10039": "Pe",
  "10040": "rate",
  "10041": "terror",
  "10042": "friends",
  "10043": "August",
  "10044": "ەن",
  "10045": "separ",
  "10046": "্ট",
  "10047": "is,",
  "10048": "sequ",
  "10049": "«",
  "10050": "Google",
  "10051": "ires",
  "10052": "हे",
  "10053": "San",
  "10054": "ਨਹੀਂ",
  "10055": "allowed",
  "10056": "ավ",
  "10057": "hold",
  "10058": "cast",
  "10059": "Wednes",
  "10060": "nh",
  "10061": "lower",
  "10062": "δ",
  "10063": "Red",
  "10064": "sport",
  "10065": ".\n\n\"I",
  "10066": "visit",
  "10067": "seek",
  "10068": "couple",
  "10069": "ur",
  "10070": "text",
  "10071": "arily",
  "10072": "cer",
  "10073": "ուն",
  "10074": ".\n\n“I",
  "10075": "ਕਿ",
  "10076": "asc",
  "10077": "же",
  "10078": "users",
  "10079": "\".",
  "10080": "OR",
  "10081": "ises",
  "10082": "де",
  "10083": "ouch",
  "10084": "ovember",
  "10085": "bal",
  "10086": "Bro",
  "10087": "1,",
  "10088": "doesn't",
  "10089": "results",
  "10090": "September",
  "10091": "]",
  "10092": "match",
  "10093": "spent",
  "10094": "blood",
  "10095": "ees",
  "10096": "legisl",
  "10097": "director",
  "10098": "chie",
  "10099": "corpor",
  "10100": "improve",
  "10101": "trade",
  "10102": "21",
  "10103": "published",
  "10104": "ın",
  "10105": "hem",
  "10106": "tried",
  "10107": "ko",
  "10108": "িত",
  "10109": "journal",
  "10110": "1.",
  "10111": "offer",
  "10112": "نا",
  "10113": "্ব",
  "10114": "60",
  "10115": "ութ",
  "10116": "sett",
  "10117": "violence",
  "10118": "gest",
  "10119": "critic",
  "10120": "victim",
  "10121": "Paul",
  "10122": "u.",
  "10123": "च",
  "10124": "fair",
  "10125": "La",
  "10126": "tic",
  "10127": "Afric",
  "10128": "ites",
  "10129": "ine,",
  "10130": "round",
  "10131": "8.",
  "10132": "huge",
  "10133": "ams",
  "10134": "oved",
  "10135": "کر",
  "10136": "ja",
  "10137": "ael",
  "10138": "്യ",
  "10139": "pull",
  "10140": "ell,",
  "10141": "boy",
  "10142": "lig",
  "10143": "ar,",
  "10144": "Kore",
  "10145": "European",
  "10146": "On",
  "10147": "ية",
  "10148": "ips",
  "10149": "от",
  "10150": "bed",
  "10151": "ester",
  "10152": "का",
  "10153": "?”",
  "10154": "ging",
  "10155": "hor",
  "10156": "lic",
  "10157": "modern",
  "10158": "hal",
  "10159": "enjoy",
  "10160": "worked",
  "10161": "rim",
  "10162": "cause",
  "10163": "aliforn",
  "10164": "до",
  "10165": "ছিল",
  "10166": "addition",
  "10167": "weeks",
  "10168": "living",
  "10169": "I’ve",
  "10170": "uz",
  "10171": "fear",
  "10172": "obv",
  "10173": "mother",
  "10174": "aan",
  "10175": "é",
  "10176": "onent",
  "10177": "minutes",
  "10178": "idered",
  "10179": "ens",
  "10180": "ିକ",
  "10181": "ਨਾ",
  "10182": "latest",
  "10183": "2012",
  "10184": "pow",
  "10185": "ful",
  "10186": "avy",
  "10187": "prior",
  "10188": "yond",
  "10189": "cember",
  "10190": "independ",
  "10191": "assist",
  "10192": "user",
  "10193": "ही",
  "10194": "આ",
  "10195": "performance",
  "10196": "ку",
  "10197": "heard",
  "10198": "simple",
  "10199": "British",
  "10200": "Par",
  "10201": "πο",
  "10202": "aspect",
  "10203": "experienc",
  "10204": "Park",
  "10205": "it,",
  "10206": "morning",
  "10207": "في",
  "10208": "ittee",
  "10209": "ിക്ക",
  "10210": "स्",
  "10211": "growth",
  "10212": "ess",
  "10213": "built",
  "10214": "ํา",
  "10215": "felt",
  "10216": "\n\nN",
  "10217": "\n\nR",
  "10218": "gets",
  "10219": "се",
  "10220": "undred",
  "10221": "nh",
  "10222": "inte",
  "10223": "ecause",
  "10224": "Thurs",
  "10225": "hib",
  "10226": "ure,",
  "10227": "ਵੱ",
  "10228": "aka",
  "10229": "می",
  "10230": "ىل",
  "10231": "reach",
  "10232": "China",
  "10233": "technology",
  "10234": "ρο",
  "10235": "ways",
  "10236": "areas",
  "10237": "13",
  "10238": "ರು",
  "10239": "firm",
  "10240": "various",
  "10241": "chief",
  "10242": "doub",
  "10243": "gu",
  "10244": "-bet",
  "10245": "complex",
  "10246": "లో",
  "10247": "option",
  "10248": "ceed",
  "10249": "িন",
  "10250": "CS",
  "10251": "میں",
  "10252": "remain",
  "10253": "rast",
  "10254": "hear",
  "10255": "atives",
  "10256": "considered",
  "10257": "Canada",
  "10258": "EN",
  "10259": "ní",
  "10260": "chance",
  "10261": "па",
  "10262": "sych",
  "10263": "asons",
  "10264": "ten",
  "10265": "demand",
  "10266": "organiz",
  "10267": "ospital",
  "10268": "రు",
  "10269": "aging",
  "10270": "yl",
  "10271": "mo",
  "10272": "goes",
  "10273": "ությ",
  "10274": "াল",
  "10275": "ening",
  "10276": "-up",
  "10277": "zen",
  "10278": "ની",
  "10279": "વ",
  "10280": "Islam",
  "10281": "estern",
  "10282": "me,",
  "10283": "gi",
  "10284": "raq",
  "10285": "ɔn",
  "10286": "TV",
  "10287": "increased",
  "10288": "protest",
  "10289": "vil",
  "10290": "previous",
  "10291": "80",
  "10292": "ਿਤ",
  "10293": "included",
  "10294": "mention",
  "10295": "2013",
  "10296": "ਗਿਆ",
  "10297": "4.",
  "10298": "ops",
  "10299": "anned",
  "10300": "talking",
  "10301": "το",
  "10302": "uch",
  "10303": "ਜੋ",
  "10304": "ଆ",
  "10305": "Dis",
  "10306": "looks",
  "10307": "ਵਾਲ",
  "10308": "7.",
  "10309": "ago",
  "10310": "5.",
  "10311": "ੌਰ",
  "10312": "ਰਾ",
  "10313": "engine",
  "10314": "ଥି",
  "10315": "father",
  "10316": "them,",
  "10317": "ken",
  "10318": "elligence",
  "10319": "хо",
  "10320": "Ne",
  "10321": "November",
  "10322": "про",
  "10323": "brought",
  "10324": "serious",
  "10325": "eight",
  "10326": "aily",
  "10327": "ці",
  "10328": "language",
  "10329": "ão",
  "10330": "Mark",
  "10331": "ਟਰ",
  "10332": "umber",
  "10333": "alled",
  "10334": "pan",
  "10335": "igr",
  "10336": "uments",
  "10337": "ension",
  "10338": "Congress",
  "10339": "الم",
  "10340": "doll",
  "10341": "December",
  "10342": "ba",
  "10343": "prep",
  "10344": "ju",
  "10345": "(w",
  "10346": "medical",
  "10347": "veh",
  "10348": ".\n\n“The",
  "10349": "ەت",
  "10350": "hur",
  "10351": "contact",
  "10352": "written",
  "10353": "analys",
  "10354": "hood",
  "10355": "ir",
  "10356": "pen",
  "10357": "production",
  "10358": "में",
  "10359": "мо",
  "10360": "4,",
  "10361": "ened",
  "10362": "scen",
  "10363": "politic",
  "10364": "sil",
  "10365": "imum",
  "10366": "required",
  "10367": "anks",
  "10368": "ਡ",
  "10369": "terms",
  "10370": "increasing",
  "10371": "نىڭ",
  "10372": "াই",
  "10373": "Alex",
  "10374": "que",
  "10375": "slow",
  "10376": "extreme",
  "10377": "oil",
  "10378": "command",
  "10379": "dro",
  "10380": "Friday",
  "10381": "situation",
  "10382": "wal",
  "10383": "yan",
  "10384": ".\n\nOn",
  "10385": "seven",
  "10386": "Donald",
  "10387": "usually",
  "10388": "October",
  "10389": "2011",
  "10390": "document",
  "10391": "క్",
  "10392": "teams",
  "10393": "ult",
  "10394": "ment",
  "10395": "killed",
  "10396": "Senate",
  "10397": "ற்ற",
  "10398": "ki",
  "10399": "ید",
  "10400": "ibly",
  "10401": "-A",
  "10402": "they’re",
  "10403": "ibr",
  "10404": "obile",
  "10405": "reports",
  "10406": "meeting",
  "10407": "fort",
  "10408": "ัน",
  "10409": "table",
  "10410": "implement",
  "10411": "Tur",
  "10412": "lay",
  "10413": "ide,",
  "10414": "atory",
  "10415": "fem",
  "10416": "plant",
  "10417": "است",
  "10418": "\n\nL",
  "10419": "attention",
  "10420": "paid",
  "10421": "har",
  "10422": "iber",
  "10423": "je",
  "10424": "ца",
  "10425": "గా",
  "10426": "sem",
  "10427": "Tex",
  "10428": "Californ",
  "10429": "ita",
  "10430": "\n\nH",
  "10431": "associ",
  "10432": "strugg",
  "10433": "neigh",
  "10434": "പ്പ",
  "10435": "எ",
  "10436": "draw",
  "10437": "prec",
  "10438": "Des",
  "10439": "n,",
  "10440": "sam",
  "10441": "prevent",
  "10442": "behavior",
  "10443": "you're",
  "10444": "Sand",
  "10445": "numbers",
  "10446": "pir",
  "10447": "extra",
  "10448": "ρα",
  "10449": "П",
  "10450": "mill",
  "10451": "Monday",
  "10452": "kt",
  "10453": "researc",
  "10454": "5,",
  "10455": "eth",
  "10456": "tro",
  "10457": "cross",
  "10458": "og",
  "10459": "fell",
  "10460": "(A",
  "10461": "surve",
  "10462": "avoid",
  "10463": "resour",
  "10464": "quickly",
  "10465": "ted",
  "10466": "+",
  "10467": "RED",
  "10468": "ba",
  "10469": "ատ",
  "10470": "one,",
  "10471": "resident",
  "10472": "launch",
  "10473": "ವ",
  "10474": "fast",
  "10475": "football",
  "10476": "bott",
  "10477": "despite",
  "10478": "uy",
  "10479": "бо",
  "10480": "ਵਾਂ",
  "10481": "ച്",
  "10482": "oul",
  "10483": "ima",
  "10484": "reb",
  "10485": "Lond",
  "10486": "particularly",
  "10487": "purch",
  "10488": "kl",
  "10489": "ja",
  "10490": "showed",
  "10491": "contribut",
  "10492": "impl",
  "10493": "mach",
  "10494": "loss",
  "10495": "abor",
  "10496": "atal",
  "10497": "ਜ਼",
  "10498": "weap",
  "10499": "demonst",
  "10500": "challeng",
  "10501": "Black",
  "10502": ".\n\nWe",
  "10503": "েন",
  "10504": "ੁੱ",
  "10505": "“A",
  "10506": "ishing",
  "10507": "except",
  "10508": "safe",
  "10509": "ahi",
  "10510": "tr",
  "10511": "lish",
  "10512": "ಿಯ",
  "10513": "wasn’t",
  "10514": "quarter",
  "10515": "strateg",
  "10516": "First",
  "10517": "ights",
  "10518": "plat",
  "10519": "achie",
  "10520": "uh",
  "10521": "ାନ",
  "10522": "ਸੀ।",
  "10523": "danger",
  "10524": "Sim",
  "10525": ".\n\nIf",
  "10526": "conduct",
  "10527": "Iraq",
  "10528": "ients",
  "10529": "starting",
  "10530": "come",
  "10531": "-to",
  "10532": "science",
  "10533": "features",
  "10534": "ў",
  "10535": "www",
  "10536": "iling",
  "10537": "indic",
  "10538": "occur",
  "10539": "edom",
  "10540": "ni",
  "10541": "deg",
  "10542": "ban",
  "10543": "મ",
  "10544": "াব",
  "10545": "ாக",
  "10546": "ைய",
  "10547": "II",
  "10548": "Americans",
  "10549": "ਆਪਣ",
  "10550": "wax",
  "10551": "ume",
  "10552": "investigation",
  "10553": "described",
  "10554": "ho",
  "10555": "officers",
  "10556": "ାଇ",
  "10557": "(and",
  "10558": "search",
  "10559": "administration",
  "10560": "ain,",
  "10561": "David",
  "10562": "ila",
  "10563": "beyond",
  "10564": "That’s",
  "10565": "Je",
  "10566": "skill",
  "10567": "software",
  "10568": "zi",
  "10569": "majority",
  "10570": "ਸੇ",
  "10571": "ുക",
  "10572": "fans",
  "10573": "spokes",
  "10574": ".m.",
  "10575": "াত",
  "10576": "concept",
  "10577": "sometimes",
  "10578": "urance",
  "10579": "Ke",
  "10580": "sn",
  "10581": "hundred",
  "10582": "টি",
  "10583": "כ",
  "10584": "ona",
  "10585": "ਬਾ",
  "10586": "website",
  "10587": "ভ",
  "10588": "orters",
  "10589": "rupt",
  "10590": "ribution",
  "10591": "yo",
  "10592": "চ",
  "10593": "ic,",
  "10594": "за",
  "10595": "ों",
  "10596": "citiz",
  "10597": "ica",
  "10598": "budget",
  "10599": "fit",
  "10600": "max",
  "10601": "ago",
  "10602": "лю",
  "10603": "ائ",
  "10604": "Tuesday",
  "10605": "ци",
  "10606": "progress",
  "10607": "ਲੋ",
  "10608": "maint",
  "10609": "BI",
  "10610": "omen",
  "10611": "regul",
  "10612": "ui",
  "10613": "room",
  "10614": ".\n\n\"The",
  "10615": "course,",
  "10616": "at,",
  "10617": "item",
  "10618": "vertisement",
  "10619": "ɛn",
  "10620": "join",
  "10621": "down",
  "10622": "С",
  "10623": "Star",
  "10624": "events",
  "10625": "select",
  "10626": "ges",
  "10627": "cial",
  "10628": "ਕਾ",
  "10629": "men",
  "10630": "rol",
  "10631": "More",
  "10632": "training",
  "10633": "Super",
  "10634": "natural",
  "10635": "Court",
  "10636": "Jack",
  "10637": "quality",
  "10638": "convers",
  "10639": "carry",
  "10640": "ใน",
  "10641": "dan",
  "10642": "services",
  "10643": "mut",
  "10644": "upon",
  "10645": "remains",
  "10646": "eech",
  "10647": "unf",
  "10648": "surv",
  "10649": "leading",
  "10650": "ری",
  "10651": "ంచ",
  "10652": "fan",
  "10653": "looked",
  "10654": "ban",
  "10655": "Soc",
  "10656": "(C",
  "10657": "قى",
  "10658": "hest",
  "10659": "ਪਰ",
  "10660": "princ",
  "10661": "happened",
  "10662": "exactly",
  "10663": "inary",
  "10664": "Net",
  "10665": "jo",
  "10666": "ah",
  "10667": "adm",
  "10668": "But",
  "10669": "গ",
  "10670": "80",
  "10671": "ay",
  "10672": "pun",
  "10673": "Even",
  "10674": "به",
  "10675": "Sa",
  "10676": "prem",
  "10677": "Russian",
  "10678": "dog",
  "10679": "workers",
  "10680": "message",
  "10681": "enfor",
  "10682": "orter",
  "10683": "£",
  "10684": "les",
  "10685": "conference",
  "10686": "poor",
  "10687": "lar",
  "10688": "-M",
  "10689": "oring",
  "10690": "cool",
  "10691": "roid",
  "10692": "What",
  "10693": "Pat",
  "10694": "remember",
  "10695": "fix",
  "10696": "mission",
  "10697": "measure",
  "10698": "AC",
  "10699": "completely",
  "10700": "ately",
  "10701": "incident",
  "10702": "counter",
  "10703": "clos",
  "10704": "(S",
  "10705": "designed",
  "10706": "इ",
  "10707": "rap",
  "10708": "multiple",
  "10709": "Coun",
  "10710": "ну",
  "10711": "ವು",
  "10712": "AIRED",
  "10713": "caus",
  "10714": "ତି",
  "10715": "King",
  "10716": "Add",
  "10717": "غان",
  "10718": "]\n\n",
  "10719": "speech",
  "10720": "ায়",
  "10721": "ord",
  "10722": "additional",
  "10723": "Mart",
  "10724": "atever",
  "10725": "towards",
  "10726": "่ง",
  "10727": "শ",
  "10728": "erry",
  "10729": "Mor",
  "10730": "interesting",
  "10731": "Franc",
  "10732": "answer",
  "10733": "-2",
  "10734": "ctions",
  "10735": "income",
  "10736": "ti",
  "10737": "ста",
  "10738": "ע",
  "10739": "religious",
  "10740": "Minister",
  "10741": "లు",
  "10742": "reven",
  "10743": "forces",
  "10744": "iction",
  "10745": "giving",
  "10746": "Air",
  "10747": "climate",
  "10748": ".\n\nThere",
  "10749": "systems",
  "10750": "ହ",
  "10751": "entially",
  "10752": "yang",
  "10753": "conserv",
  "10754": "imately",
  "10755": "Sw",
  "10756": "াক",
  "10757": "മ",
  "10758": "opportunity",
  "10759": "Satur",
  "10760": "net",
  "10761": "ners",
  "10762": "‘ਤੇ",
  "10763": "file",
  "10764": "population",
  "10765": "ਮੁ",
  "10766": "strategy",
  "10767": "named",
  "10768": "ਮੀ",
  "10769": "agon",
  "10770": "ucle",
  "10771": "rules",
  "10772": "ఉ",
  "10773": "los",
  "10774": "epis",
  "10775": "-g",
  "10776": "وں",
  "10777": "ਿੰ",
  "10778": "Democratic",
  "10779": "ES",
  "10780": "को",
  "10781": "minister",
  "10782": "nom",
  "10783": "stra",
  "10784": "inn",
  "10785": "thousands",
  "10786": "-se",
  "10787": "す。",
  "10788": "bul",
  "10789": "arr",
  "10790": "Mon",
  "10791": "letter",
  "10792": "race",
  "10793": "biggest",
  "10794": "leader",
  "10795": "cases",
  "10796": "ते",
  "10797": "Dr",
  "10798": "image",
  "10799": "illeg",
  "10800": "summer",
  "10801": "necessary",
  "10802": "tal",
  "10803": "aced",
  "10804": "Micro",
  "10805": "icit",
  "10806": "charge",
  "10807": "ਿਰ",
  "10808": "hum",
  "10809": "$1",
  "10810": "ಕ್",
  "10811": "ula",
  "10812": ".”\n\nThe",
  "10813": "੍ਹਾਂ",
  "10814": "co",
  "10815": "സ്",
  "10816": "guy",
  "10817": "ור",
  "10818": "Cons",
  "10819": "blog",
  "10820": "inese",
  "10821": "Muslim",
  "10822": "ില",
  "10823": "orge",
  "10824": "reform",
  "10825": "web",
  "10826": "trust",
  "10827": "English",
  "10828": "உ",
  "10829": "ಬ",
  "10830": "và",
  "10831": "सा",
  "10832": "ર",
  "10833": "på",
  "10834": "از",
  "10835": "esc",
  "10836": "را",
  "10837": "san",
  "10838": ".\n\nFor",
  "10839": "ped",
  "10840": "це",
  "10841": "iny",
  "10842": "akers",
  "10843": "size",
  "10844": "astic",
  "10845": "thinking",
  "10846": "middle",
  "10847": "rain",
  "10848": "McC",
  "10849": "and,",
  "10850": "kun",
  "10851": "EO",
  "10852": "aa",
  "10853": "ிற",
  "10854": "verse",
  "10855": "promot",
  "10856": "correct",
  "10857": "certainly",
  "10858": "computer",
  "10859": "consist",
  "10860": "provided",
  "10861": "ledge",
  "10862": "বি",
  "10863": "ਦਰ",
  "10864": "sle",
  "10865": "(@",
  "10866": "anga",
  "10867": "ification",
  "10868": "το",
  "10869": "Tom",
  "10870": "Sunday",
  "10871": "al.",
  "10872": "Fin",
  "10873": "receive",
  "10874": "kan",
  "10875": "की",
  "10876": "แล",
  "10877": "ख",
  "10878": "enge",
  "10879": "subst",
  "10880": "erve",
  "10881": ".\n\nAd",
  "10882": "cris",
  "10883": "aries",
  "10884": "smart",
  "10885": "anced",
  "10886": "rowd",
  "10887": "ice.",
  "10888": "FL",
  "10889": "τη",
  "10890": "че",
  "10891": "limited",
  "10892": "ಲ್ಲಿ",
  "10893": "tick",
  "10894": "olic",
  "10895": "Matt",
  "10896": "fl",
  "10897": "communic",
  "10898": "arli",
  "10899": "claims",
  "10900": "Richard",
  "10901": "উ",
  "10902": "Times",
  "10903": "ok",
  "10904": "ements",
  "10905": "ві",
  "10906": "mer",
  "10907": "encour",
  "10908": "forced",
  "10909": "सा",
  "10910": "hous",
  "10911": "olute",
  "10912": "East",
  "10913": "wonder",
  "10914": "now,",
  "10915": "beginning",
  "10916": "୍କ",
  "10917": "college",
  "10918": "sp",
  "10919": "መ",
  "10920": "fill",
  "10921": "ਉਸ",
  "10922": "'d",
  "10923": "ின்",
  "10924": "pod",
  "10925": "adem",
  "10926": "drive",
  "10927": "мі",
  "10928": "دا",
  "10929": "ਹੁ",
  "10930": "కు",
  "10931": "just",
  "10932": "perhaps",
  "10933": "ateg",
  "10934": "safety",
  "10935": "ני",
  "10936": "iki",
  "10937": "ான",
  "10938": "ang",
  "10939": "uses",
  "10940": "includes",
  "10941": "-C",
  "10942": "alu",
  "10943": "ਕੀਤਾ",
  "10944": "writing",
  "10945": "burg",
  "10946": "าม",
  "10947": "soft",
  "10948": "reading",
  "10949": "clearly",
  "10950": "powerful",
  "10951": "IS",
  "10952": "region",
  "10953": "nature",
  "10954": "rock",
  "10955": "Jew",
  "10956": "recomm",
  "10957": "career",
  "10958": "relative",
  "10959": "-T",
  "10960": "arian",
  "10961": "although",
  "10962": "prison",
  "10963": "platform",
  "10964": "ز",
  "10965": "date",
  "10966": "roll",
  "10967": "details",
  "10968": "rout",
  "10969": "grad",
  "10970": "cele",
  "10971": "ment,",
  "10972": "AM",
  "10973": "mal",
  "10974": ".\n\nHow",
  "10975": "stor",
  "10976": "s,\"",
  "10977": "ive,",
  "10978": "اي",
  "10979": "าก",
  "10980": "moved",
  "10981": "Police",
  "10982": "can't",
  "10983": "ਕੋ",
  "10984": "Republicans",
  "10985": "ned",
  "10986": "pressure",
  "10987": "IC",
  "10988": "\n\nE",
  "10989": "mist",
  "10990": "htt",
  "10991": "allows",
  "10992": "आहे",
  "10993": "Met",
  "10994": "arm",
  "10995": "rated",
  "10996": "то",
  "10997": "shut",
  "10998": "reng",
  "10999": "500",
  "11000": "kh",
  "11001": "(P",
  "11002": "James",
  "11003": "ocked",
  "11004": "ছে",
  "11005": "ിയ",
  "11006": "corn",
  "11007": "Michael",
  "11008": "ନ",
  "11009": "Stat",
  "11010": "छ",
  "11011": "Wednesday",
  "11012": "थ",
  "11013": "isa",
  "11014": "psych",
  "11015": "ico",
  "11016": "el,",
  "11017": "drink",
  "11018": "field",
  "11019": "ਾਪ",
  "11020": "पर",
  "11021": "condition",
  "11022": "more",
  "11023": "rig",
  "11024": "К",
  "11025": "Hol",
  "11026": "ple",
  "11027": "Bill",
  "11028": "sexual",
  "11029": "suspect",
  "11030": "से",
  "11031": "్య",
  "11032": "ш",
  "11033": "\n\n“",
  "11034": "enty",
  "11035": "know,",
  "11036": "Scott",
  "11037": "presidential",
  "11038": "year.",
  "11039": "speed",
  "11040": "County",
  "11041": "μα",
  "11042": "stuff",
  "11043": "stories",
  "11044": "arch",
  "11045": "ession",
  "11046": "calls",
  "11047": "aya",
  "11048": "ores",
  "11049": "udi",
  "11050": "van",
  "11051": "್ಯ",
  "11052": "idge",
  "11053": "23",
  "11054": "TC",
  "11055": "ford",
  "11056": "ਾਇ",
  "11057": "inated",
  "11058": "that.",
  "11059": "twe",
  "11060": "growing",
  "11061": "property",
  "11062": "ਕੇ",
  "11063": "ros",
  "11064": "και",
  "11065": ".)",
  "11066": "tour",
  "11067": "piece",
  "11068": "That",
  "11069": "ነ",
  "11070": "ਵਰ",
  "11071": "ahead",
  "11072": "196",
  "11073": "opin",
  "11074": "എ",
  "11075": "ھ",
  "11076": "organization",
  "11077": "شى",
  "11078": "frequ",
  "11079": "Tor",
  "11080": "band",
  "11081": "s)",
  "11082": "va",
  "11083": "positive",
  "11084": "ма",
  "11085": "તે",
  "11086": "رو",
  "11087": "ৰু",
  "11088": "Green",
  "11089": "ami",
  "11090": "rief",
  "11091": "કર",
  "11092": "iers",
  "11093": "send",
  "11094": "een",
  "11095": "“We",
  "11096": "iders",
  "11097": "teac",
  "11098": "aker",
  "11099": "vill",
  "11100": "difference",
  "11101": "ready",
  "11102": "Center",
  "11103": "limit",
  "11104": "p://",
  "11105": "ו",
  "11106": "finally",
  "11107": "<",
  "11108": "ign",
  "11109": "ด้",
  "11110": "feature",
  "11111": "Indian",
  "11112": "analy",
  "11113": "ufact",
  "11114": "Party",
  "11115": "फ",
  "11116": "song",
  "11117": "spac",
  "11118": "developed",
  "11119": "favorite",
  "11120": "22",
  "11121": "laun",
  "11122": "conflic",
  "11123": "Christian",
  "11124": "yright",
  "11125": "et.",
  "11126": "ences",
  "11127": "pil",
  "11128": "iance",
  "11129": "कि",
  "11130": "damage",
  "11131": "controll",
  "11132": "cast",
  "11133": "aves",
  "11134": "write",
  "11135": "isions",
  "11136": "bod",
  "11137": "advant",
  "11138": "एक",
  "11139": "levels",
  "11140": "ுக",
  "11141": "day,",
  "11142": "years.",
  "11143": "crowd",
  "11144": "eth",
  "11145": "Bo",
  "11146": "susp",
  "11147": "uing",
  "11148": "ș",
  "11149": "oper",
  "11150": "defense",
  "11151": "refer",
  "11152": "OM",
  "11153": "Det",
  "11154": "figure",
  "11155": "OP",
  "11156": "ਕਾਰ",
  "11157": "attacks",
  "11158": "ਦੁ",
  "11159": "display",
  "11160": "eventually",
  "11161": "हा",
  "11162": "lives",
  "11163": "kar",
  "11164": "ables",
  "11165": "berg",
  "11166": "rences",
  "11167": "Flor",
  "11168": "ym",
  "11169": "બ",
  "11170": "ଦ",
  "11171": "ଯ",
  "11172": "le.",
  "11173": "udd",
  "11174": "credit",
  "11175": "вы",
  "11176": "directly",
  "11177": "traditional",
  "11178": "ર્",
  "11179": "meant",
  "11180": "died",
  "11181": "fact,",
  "11182": "Mo",
  "11183": "parents",
  "11184": "och",
  "11185": "են",
  "11186": "estim",
  "11187": "moving",
  "11188": "criminal",
  "11189": "truth",
  "11190": "?\"",
  "11191": "rench",
  "11192": "वि",
  "11193": "ampions",
  "11194": "Tim",
  "11195": "akh",
  "11196": "Rob",
  "11197": "optim",
  "11198": "path",
  "11199": "chan",
  "11200": "appears",
  "11201": "iven",
  "11202": "....",
  "11203": "Thursday",
  "11204": "touch",
  "11205": "roy",
  "11206": "aks",
  "11207": "id",
  "11208": "Dan",
  "11209": "cities",
  "11210": "door",
  "11211": "ously",
  "11212": "awa",
  "11213": ".\n\nWhat",
  "11214": "words",
  "11215": "candidate",
  "11216": "tu",
  "11217": "gold",
  "11218": "straight",
  "11219": "India",
  "11220": "اب",
  "11221": "А",
  "11222": "pus",
  "11223": "laws",
  "11224": "lant",
  "11225": "aim",
  "11226": "itch",
  "11227": "hack",
  "11228": "\n\n\"",
  "11229": "Cap",
  "11230": "shown",
  "11231": "people,",
  "11232": "benefit",
  "11233": "hospital",
  "11234": "officer",
  "11235": "ero",
  "11236": "paper",
  "11237": "NA",
  "11238": "oma",
  "11239": "ED",
  "11240": "वा",
  "11241": "temper",
  "11242": "fully",
  "11243": "mark",
  "11244": "rad",
  "11245": "িব",
  "11246": "ਬਹੁ",
  "11247": "changed",
  "11248": "meaning",
  "11249": "center",
  "11250": "ೆಯ",
  "11251": "batter",
  "11252": "this,",
  "11253": "passed",
  "11254": "----",
  "11255": "OT",
  "11256": "cul",
  "11257": "В",
  "11258": "nucle",
  "11259": "bomb",
  "11260": "EU",
  "11261": "key",
  "11262": "-S",
  "11263": "сто",
  "11264": "니다.",
  "11265": "paint",
  "11266": "mere",
  "11267": "να",
  "11268": "myself",
  "11269": "liber",
  "11270": "च्या",
  "11271": "jump",
  "11272": "adop",
  "11273": ");",
  "11274": "ਰੇ",
  "11275": "battle",
  "11276": "train",
  "11277": "ప్ర",
  "11278": "(R",
  "11279": "London",
  "11280": "pa",
  "11281": "ับ",
  "11282": "ige",
  "11283": "27",
  "11284": "ту",
  "11285": "itc",
  "11286": "highly",
  "11287": "дз",
  "11288": "out,",
  "11289": "propos",
  "11290": "ிக",
  "11291": "spir",
  "11292": "screen",
  "11293": "maybe",
  "11294": "ਟੀ",
  "11295": "2,",
  "11296": "пра",
  "11297": "physical",
  "11298": "ela",
  "11299": "haven",
  "11300": "It’s",
  "11301": "ਾਮ",
  "11302": "kept",
  "11303": "enem",
  "11304": "intelligence",
  "11305": "Here",
  "11306": "throughout",
  "11307": "larger",
  "11308": "ер",
  "11309": "apparent",
  "11310": "clean",
  "11311": "প্র",
  "11312": "bil",
  "11313": "estic",
  "11314": "disapp",
  "11315": "Play",
  "11316": "autom",
  "11317": "Canadian",
  "11318": "Del",
  "11319": "helped",
  "11320": "ണ്",
  "11321": "camer",
  "11322": "itut",
  "11323": "Russia",
  "11324": "ంది",
  "11325": "dark",
  "11326": "*",
  "11327": "icles",
  "11328": "nie",
  "11329": "Bob",
  "11330": "Up",
  "11331": "Chinese",
  "11332": "central",
  "11333": "agreement",
  "11334": "ol",
  "11335": "learning",
  "11336": "emb",
  "11337": "culture",
  "11338": "s.\"",
  "11339": "said:",
  "11340": "rial",
  "11341": "DA",
  "11342": "grand",
  "11343": "ระ",
  "11344": "เป",
  "11345": "Die",
  "11346": "opp",
  "11347": "senior",
  "11348": "disp",
  "11349": "won’t",
  "11350": "bon",
  "11351": "ɔr",
  "11352": "্ষ",
  "11353": "altern",
  "11354": "spread",
  "11355": "}",
  "11356": "γ",
  "11357": "Associ",
  "11358": "ਉਂ",
  "11359": "hol",
  "11360": "wood",
  "11361": "icient",
  "11362": "ਕਾਂ",
  "11363": "wall",
  "11364": "ET",
  "11365": "ano",
  "11366": "Day",
  "11367": "immediately",
  "11368": ".\n\nK",
  "11369": "ئى",
  "11370": "predict",
  "11371": "OS",
  "11372": "որ",
  "11373": "as.",
  "11374": "all,",
  "11375": "minor",
  "11376": "του",
  "11377": "analysis",
  "11378": "drop",
  "11379": "سے",
  "11380": "successful",
  "11381": "itely",
  "11382": "overall",
  "11383": "ên",
  "11384": "comments",
  "11385": "Vir",
  "11386": "movie",
  "11387": "ava",
  "11388": "para",
  "11389": "Council",
  "11390": "ο",
  "11391": "tend",
  "11392": "continued",
  "11393": "spend",
  "11394": "set",
  "11395": "िए",
  "11396": "ф",
  "11397": "ones",
  "11398": "istan",
  "11399": "adi",
  "11400": "ਾਰੇ",
  "11401": "жа",
  "11402": "parts",
  "11403": "രു",
  "11404": "impress",
  "11405": "ength",
  "11406": "22",
  "11407": "fal",
  "11408": "icip",
  "11409": "uba",
  "11410": "Of",
  "11411": "rec",
  "11412": "Bre",
  "11413": "normal",
  "11414": "Church",
  "11415": "weekend",
  "11416": "ਕੀਤੀ",
  "11417": "William",
  "11418": "US",
  "11419": "ਸਥ",
  "11420": "کو",
  "11421": "practice",
  "11422": "whatever",
  "11423": "0.",
  "11424": "determin",
  "11425": "าย",
  "11426": "త",
  "11427": "term",
  "11428": "”,",
  "11429": "ded",
  "11430": "lease",
  "11431": "oti",
  "11432": "EC",
  "11433": "ān",
  "11434": "itness",
  "11435": "ora",
  "11436": "streng",
  "11437": "ship",
  "11438": "Que",
  "11439": "church",
  "11440": "yourself",
  "11441": "happy",
  "11442": "IA",
  "11443": "vest",
  "11444": "virt",
  "11445": ".”\n\nA",
  "11446": "ism,",
  "11447": "ां",
  "11448": "itute",
  "11449": "ви",
  "11450": "Comp",
  "11451": "औ",
  "11452": "ਹਨ,",
  "11453": "Apple",
  "11454": "็น",
  "11455": ".\n\nThat",
  "11456": "ਜਿਸ",
  "11457": "integr",
  "11458": "he's",
  "11459": "ρι",
  "11460": "са",
  "11461": "ط",
  "11462": "ropri",
  "11463": "ito",
  "11464": "(N",
  "11465": "unc",
  "11466": "“the",
  "11467": "של",
  "11468": "ली",
  "11469": "asi",
  "11470": "uty",
  "11471": "una",
  "11472": "ota",
  "11473": "Ital",
  "11474": "Commission",
  "11475": "ye",
  "11476": "ಆ",
  "11477": "gives",
  "11478": "save",
  "11479": "তে",
  "11480": "(M",
  "11481": "previously",
  "11482": "kw",
  "11483": "trou",
  "11484": "ದು",
  "11485": "anch",
  "11486": "ription",
  "11487": "Val",
  "11488": ".\n\nSo",
  "11489": "са",
  "11490": "acc",
  "11491": "stage",
  "11492": "economy",
  "11493": "ία",
  "11494": "่อ",
  "11495": "gone",
  "11496": "weak",
  "11497": "For",
  "11498": "IT",
  "11499": "s:",
  "11500": "35",
  "11501": "aughter",
  "11502": "word",
  "11503": "pen",
  "11504": "cod",
  "11505": "perm",
  "11506": "ਉੱ",
  "11507": "गर्",
  "11508": "secut",
  "11509": "hab",
  "11510": "ട്ട",
  "11511": "draft",
  "11512": "bab",
  "11513": "ipe",
  "11514": "ത്തി",
  "11515": "alleged",
  "11516": "mix",
  "11517": "whak",
  "11518": "compared",
  "11519": "Iran",
  "11520": "beat",
  "11521": "manufact",
  "11522": ".com/",
  "11523": "-0",
  "11524": "ಾರ",
  "11525": "het",
  "11526": "una",
  "11527": "how",
  "11528": "asa",
  "11529": "Ser",
  "11530": "scr",
  "11531": "appeared",
  "11532": "raised",
  "11533": "bes",
  "11534": "uk",
  "11535": "brain",
  "11536": "Ham",
  "11537": "):",
  "11538": "ೆ.",
  "11539": "earn",
  "11540": "acqu",
  "11541": "ين",
  "11542": "street",
  "11543": "Most",
  "11544": "при",
  "11545": "-3",
  "11546": "right",
  "11547": "or.",
  "11548": "fol",
  "11549": "throw",
  "11550": "brand",
  "11551": "device",
  "11552": "raz",
  "11553": "signed",
  "11554": "fighting",
  "11555": "lay",
  "11556": "oke",
  "11557": "spending",
  "11558": "schools",
  "11559": "vere",
  "11560": "ىلى",
  "11561": "voters",
  "11562": "failed",
  "11563": "in.",
  "11564": "attract",
  "11565": "him.",
  "11566": "basic",
  "11567": "Н",
  "11568": "là",
  "11569": "insurance",
  "11570": "hich",
  "11571": "त्",
  "11572": "Wa",
  "11573": "solution",
  "11574": "choose",
  "11575": "70",
  "11576": "ੇਸ਼",
  "11577": "Trans",
  "11578": "mi",
  "11579": "League",
  "11580": "revealed",
  "11581": "but",
  "11582": "por",
  "11583": "دۇ",
  "11584": "ਕਾਰ",
  "11585": "explain",
  "11586": "Ir",
  "11587": "actual",
  "11588": "brother",
  "11589": "arrested",
  "11590": "him,",
  "11591": "શ",
  "11592": "Che",
  "11593": "2009",
  "11594": "assault",
  "11595": "Hillary",
  "11596": "irmed",
  "11597": "unique",
  "11598": "Reg",
  "11599": "ਬਹੁਤ",
  "11600": "seemed",
  "11601": "Microsoft",
  "11602": "إ",
  "11603": "actions",
  "11604": "largest",
  "11605": "\"A",
  "11606": "me.",
  "11607": "feed",
  "11608": "produce",
  "11609": "m,",
  "11610": "à",
  "11611": "gas",
  "11612": "products",
  "11613": "According",
  "11614": "ante",
  "11615": "اس",
  "11616": ".\n\nSt",
  "11617": "expand",
  "11618": "indows",
  "11619": "ront",
  "11620": "ē",
  "11621": "rare",
  "11622": "اور",
  "11623": "RA",
  "11624": "Int",
  "11625": "reality",
  "11626": "ହା",
  "11627": "ল",
  "11628": "sch",
  "11629": "Mac",
  "11630": "Every",
  "11631": "ਜਾਣ",
  "11632": "researchers",
  "11633": "ือ",
  "11634": "marri",
  "11635": "чи",
  "11636": "ն",
  "11637": "ական",
  "11638": "้น",
  "11639": "mount",
  "11640": "antly",
  "11641": "guys",
  "11642": "equ",
  "11643": "ਲਾਂ",
  "11644": "ಗೆ",
  "11645": "ations.",
  "11646": "costs",
  "11647": "ila",
  "11648": "kids",
  "11649": "while",
  "11650": "followed",
  "11651": "absolute",
  "11652": "աս",
  "11653": "տ",
  "11654": "characters",
  "11655": "45",
  "11656": "sa",
  "11657": "push",
  "11658": "2.",
  "11659": "नी",
  "11660": "ਾਤ",
  "11661": "igration",
  "11662": "cu",
  "11663": "Earth",
  "11664": "osh",
  "11665": "related",
  "11666": "non-",
  "11667": "govern",
  "11668": "ਕਸ",
  "11669": ".\n\nAn",
  "11670": "Mex",
  "11671": "Chic",
  "11672": "England",
  "11673": "се",
  "11674": "asy",
  "11675": "lose",
  "11676": "kick",
  "11677": "up,",
  "11678": "3.",
  "11679": "supposed",
  "11680": "ಸ್",
  "11681": "ilit",
  "11682": "regular",
  "11683": "\n\nO",
  "11684": "ivity",
  "11685": "2008",
  "11686": ".\n\n“We",
  "11687": "independent",
  "11688": "্থ",
  "11689": "ପ୍ର",
  "11690": "(the",
  "11691": "calling",
  "11692": "Secret",
  "11693": "și",
  "11694": "“S",
  "11695": "ón",
  "11696": "ce",
  "11697": "hero",
  "11698": "Ben",
  "11699": "OL",
  "11700": "we're",
  "11701": "CEO",
  "11702": "traff",
  "11703": "Johnson",
  "11704": "ול",
  "11705": "erm",
  "11706": "male",
  "11707": "ತ್ತು",
  "11708": "ହି",
  "11709": "brief",
  "11710": "icy",
  "11711": "Mod",
  "11712": "Get",
  "11713": "provides",
  "11714": "आण",
  "11715": "му",
  "11716": "ച",
  "11717": "owners",
  "11718": "continues",
  "11719": "proposed",
  "11720": "treatment",
  "11721": "dom",
  "11722": "ով",
  "11723": "ਿਸ਼",
  "11724": "debate",
  "11725": "eles",
  "11726": "Let",
  "11727": "iP",
  "11728": "easily",
  "11729": "l'",
  "11730": "greater",
  "11731": "ከ",
  "11732": "General",
  "11733": "Д",
  "11734": "at.",
  "11735": "ella",
  "11736": "society",
  "11737": "Over",
  "11738": "crime",
  "11739": "jobs",
  "11740": "-time",
  "11741": "म्",
  "11742": "ੇਂ",
  "11743": "ట్",
  "11744": "ണ്ട",
  "11745": "People",
  "11746": "Ma",
  "11747": "restaur",
  "11748": "caused",
  "11749": "orney",
  "11750": "କରି",
  "11751": "और",
  "11752": "aded",
  "11753": "style",
  "11754": "Ho",
  "11755": "Lou",
  "11756": "symb",
  "11757": "90",
  "11758": "റ്റ",
  "11759": "ago,",
  "11760": "ния",
  "11761": "ੁਰ",
  "11762": "anda",
  "11763": "From",
  "11764": "efforts",
  "11765": "અને",
  "11766": "ಇ",
  "11767": "beg",
  "11768": "Bank",
  "11769": "pros",
  "11770": "28",
  "11771": "chair",
  "11772": "knows",
  "11773": "flag",
  "11774": "George",
  "11775": "تا",
  "11776": "ती",
  "11777": "ুল",
  "11778": "\n\nG",
  "11779": "ading",
  "11780": "earch",
  "11781": "offered",
  "11782": "Serv",
  "11783": "ση",
  "11784": "rian",
  "11785": "til",
  "11786": "liter",
  "11787": "adding",
  "11788": "challenge",
  "11789": "ura",
  "11790": "י",
  "11791": "lawy",
  "11792": "প্ৰ",
  "11793": "mar",
  "11794": "که",
  "11795": "ող",
  "11796": "ति",
  "11797": "Т",
  "11798": "teach",
  "11799": "telev",
  "11800": "dise",
  "11801": ".\n\nWhen",
  "11802": "Robert",
  "11803": "mine",
  "11804": "za",
  "11805": "!!!!!!!!!!!!!!!!!!!!!!!!!!!!!!!!",
  "11806": "rac",
  "11807": "French",
  "11808": "seeing",
  "11809": "obt",
  "11810": "Saturday",
  "11811": "що",
  "11812": "ଭ",
  "11813": "wel",
  "11814": "oj",
  "11815": "ਡੀ",
  "11816": "lection",
  "11817": "opening",
  "11818": "____",
  "11819": "го",
  "11820": "cru",
  "11821": "experiment",
  "11822": "advoc",
  "11823": "bag",
  "11824": "flow",
  "11825": "rs",
  "11826": "aling",
  "11827": "reached",
  "11828": "ended",
  "11829": "সম",
  "11830": "(D",
  "11831": "пре",
  "11832": "Government",
  "11833": "freedom",
  "11834": "ram",
  "11835": "ئۇ",
  "11836": "values",
  "11837": "purpose",
  "11838": "band",
  "11839": "week,",
  "11840": "-n",
  "11841": "c.",
  "11842": "direction",
  "11843": "individuals",
  "11844": "ਸੀਂ",
  "11845": "Then",
  "11846": "California",
  "11847": "ஆ",
  "11848": "identity",
  "11849": "”.",
  "11850": "orrow",
  "11851": "ਪਹਿ",
  "11852": "generally",
  "11853": "Democrats",
  "11854": "ID",
  "11855": "craft",
  "11856": "rate",
  "11857": "وا",
  "11858": "orial",
  "11859": "crew",
  "11860": "એ",
  "11861": "rang",
  "11862": "EL",
  "11863": "ry,",
  "11864": "agency",
  "11865": "man,",
  "11866": "ache",
  "11867": "rank",
  "11868": "-term",
  "11869": "sun",
  "11870": "way,",
  "11871": "ண்ட",
  "11872": "আৰু",
  "11873": "education",
  "11874": "kn",
  "11875": "yp",
  "11876": "Virgin",
  "11877": "][",
  "11878": "ông",
  "11879": "70",
  "11880": "School",
  "11881": "alo",
  "11882": "mostly",
  "11883": "ariju",
  "11884": "responsible",
  "11885": "pre",
  "11886": "ici",
  "11887": "usion",
  "11888": "incred",
  "11889": "ած",
  "11890": "fine",
  "11891": "you,",
  "11892": ".\n\nTh",
  "11893": "massive",
  "11894": "there's",
  "11895": "cher",
  "11896": "ты",
  "11897": "agn",
  "11898": "26",
  "11899": "league",
  "11900": "କୁ",
  "11901": "した",
  "11902": "beaut",
  "11903": "imb",
  "11904": "isn't",
  "11905": "vir",
  "11906": "Smith",
  "11907": "ING",
  "11908": "ਾਸ",
  "11909": "install",
  "11910": "swe",
  "11911": "Sl",
  "11912": "mechan",
  "11913": ":30",
  "11914": "وم",
  "11915": "ଙ୍କ",
  "11916": "erk",
  "11917": "AM",
  "11918": "status",
  "11919": "choice",
  "11920": "sales",
  "11921": "มี",
  "11922": "ist,",
  "11923": "internet",
  "11924": "ther",
  "11925": "is.",
  "11926": "Sam",
  "11927": "ring",
  "11928": "ਦੀਆਂ",
  "11929": "Law",
  "11930": "learned",
  "11931": "Texas",
  "11932": "offers",
  "11933": "wards",
  "11934": "ing",
  "11935": "Found",
  "11936": "exch",
  "11937": "understanding",
  "11938": "on.",
  "11939": "för",
  "11940": "ocal",
  "11941": "leaving",
  "11942": "defend",
  "11943": "Phil",
  "11944": "এক",
  "11945": "iti",
  "11946": "ah,",
  "11947": "claimed",
  "11948": "้า",
  "11949": "erd",
  "11950": "round",
  "11951": "ਵਰ",
  "11952": "shared",
  "11953": "creating",
  "11954": "voice",
  "11955": "ੱਟ",
  "11956": "έ",
  "11957": "Wil",
  "11958": "amb",
  "11959": "slight",
  "11960": "influence",
  "11961": "executive",
  "11962": "Port",
  "11963": "ensure",
  "11964": "High",
  "11965": "serve",
  "11966": "phil",
  "11967": "ме",
  "11968": "places",
  "11969": "AP",
  "11970": "box",
  "11971": "noted",
  "11972": "ਤੌਰ",
  "11973": "authorities",
  "11974": "դ",
  "11975": "effective",
  "11976": "z,",
  "11977": "ant,",
  "11978": "sche",
  "11979": "नु",
  "11980": "cry",
  "11981": "nice",
  "11982": "activity",
  "11983": "Palest",
  "11984": "ആ",
  "11985": "aga",
  "11986": "application",
  "11987": "Office",
  "11988": "आणि",
  "11989": "Bush",
  "11990": "commission",
  "11991": "તા",
  "11992": "harm",
  "11993": "scene",
  "11994": "opposition",
  "11995": "later,",
  "11996": "!\"",
  "11997": "time",
  "11998": "لی",
  "11999": "alone",
  "12000": "Bu",
  "12001": ".\n\n\"We",
  "12002": "finding",
  "12003": "ਦੀਆਂ",
  "12004": "ਉਹਨਾਂ",
  "12005": "ತ",
  "12006": ".\"\n\nThe",
  "12007": "restrict",
  "12008": "Rec",
  "12009": "background",
  "12010": "believed",
  "12011": "nuclear",
  "12012": "vi",
  "12013": "്ല",
  "12014": "iyya",
  "12015": "री",
  "12016": "wind",
  "12017": "Our",
  "12018": "spect",
  "12019": "igned",
  "12020": "ਕੁ",
  "12021": "transport",
  "12022": "==",
  "12023": "Because",
  "12024": "adult",
  "12025": "say,",
  "12026": "ων",
  "12027": "ர்க",
  "12028": "wait",
  "12029": "repeated",
  "12030": "ɔrɔ",
  "12031": "-4",
  "12032": "do",
  "12033": "со",
  "12034": "pet",
  "12035": "department",
  "12036": "overy",
  "12037": "ಿಕ",
  "12038": "active",
  "12039": "աց",
  "12040": "ੋਰ",
  "12041": "mai",
  "12042": "advantage",
  "12043": "les,",
  "12044": "tun",
  "12045": "ise,",
  "12046": "Cle",
  "12047": "Many",
  "12048": "29",
  "12049": "Health",
  "12050": "ของ",
  "12051": "interested",
  "12052": "iled",
  "12053": "we’ve",
  "12054": "ਇਕ",
  "12055": "occas",
  "12056": "International",
  "12057": "ipl",
  "12058": "առ",
  "12059": "ುತ್ತ",
  "12060": ".\n\nAl",
  "12061": "amaz",
  "12062": "neighbor",
  "12063": "itable",
  "12064": "iring",
  "12065": "htt",
  "12066": "ва",
  "12067": "enter",
  "12068": "Internet",
  "12069": ".C",
  "12070": "لار",
  "12071": "से",
  "12072": "های",
  "12073": "ۋ",
  "12074": "tē",
  "12075": "Rock",
  "12076": "images",
  "12077": "dered",
  "12078": "pattern",
  "12079": "becomes",
  "12080": "fle",
  "12081": "ola",
  "12082": "obser",
  "12083": "из",
  "12084": "হয়",
  "12085": "separate",
  "12086": "defe",
  "12087": "atan",
  "12088": "unlike",
  "12089": "confirmed",
  "12090": "benefits",
  "12091": "title",
  "12092": "ത്ത",
  "12093": "spot",
  "12094": "worse",
  "12095": "dream",
  "12096": "\n\nIt",
  "12097": "ein",
  "12098": "aches",
  "12099": "commer",
  "12100": "plus",
  "12101": "asking",
  "12102": "raise",
  "12103": "และ",
  "12104": "เป็น",
  "12105": "illa",
  "12106": "agree",
  "12107": "ду",
  "12108": ".\n\nAt",
  "12109": "FC",
  "12110": "നി",
  "12111": "„",
  "12112": "ar.",
  "12113": "says.",
  "12114": "bre",
  "12115": "ਧ",
  "12116": "whom",
  "12117": "Ber",
  "12118": "Bay",
  "12119": "strik",
  "12120": "corporate",
  "12121": "रा",
  "12122": "eration",
  "12123": "mobile",
  "12124": "peace",
  "12125": "\"We",
  "12126": "ow,",
  "12127": "structure",
  "12128": "Bel",
  "12129": "When",
  "12130": "pair",
  "12131": "ent,",
  "12132": "Ap",
  "12133": "investment",
  "12134": "fundament",
  "12135": "categ",
  "12136": "knowledge",
  "12137": "technolog",
  "12138": "23",
  "12139": "ti",
  "12140": "dh",
  "12141": "pping",
  "12142": "ary,",
  "12143": "ություն",
  "12144": "nor",
  "12145": "wealth",
  "12146": "Pri",
  "12147": "anche",
  "12148": "ча",
  "12149": "las",
  "12150": "resist",
  "12151": "Arab",
  "12152": ":00",
  "12153": "Th",
  "12154": "nam",
  "12155": "दा",
  "12156": "lil",
  "12157": "Fre",
  "12158": "resh",
  "12159": "novel",
  "12160": "runs",
  "12161": "Australia",
  "12162": "ਾਣ",
  "12163": "ic.",
  "12164": "ulu",
  "12165": "ಪ್ರ",
  "12166": "willing",
  "12167": "Union",
  "12168": "Germany",
  "12169": "ння",
  "12170": "ton",
  "12171": "alt",
  "12172": "aked",
  "12173": "ಾಗಿ",
  "12174": "citizens",
  "12175": "planning",
  "12176": "leadership",
  "12177": "bottom",
  "12178": "PS",
  "12179": "ya",
  "12180": "stated",
  "12181": "Jon",
  "12182": "encies",
  "12183": "있",
  "12184": "Mill",
  "12185": "الأ",
  "12186": "िया",
  "12187": "Miss",
  "12188": "aba",
  "12189": "commit",
  "12190": "posted",
  "12191": "illegal",
  "12192": "ես",
  "12193": "բ",
  "12194": "iced",
  "12195": "wild",
  "12196": "negative",
  "12197": "rise",
  "12198": "Den",
  "12199": "contain",
  "12200": "caught",
  "12201": "green",
  "12202": "rates",
  "12203": "Why",
  "12204": "scrib",
  "12205": "Atlant",
  "12206": "eyes",
  "12207": "ác",
  "12208": "ս",
  "12209": "ist",
  "12210": "Mal",
  "12211": "Gold",
[...]
