{
  "0": "!",
  "1": "\"",
  "2": "#",
  "3": "$",
  "4": "%",
  "5": "&",
  "6": "'",
  "7": "(",
  "8": ")",
  "9": "*",
  "10": "+",
  "11": ",",
  "12": "-",
  "13": ".",
  "14": "/",
  "15": "0",
  "16": "1",
  "17": "2",
  "18": "3",
  "19": "4",
  "20": "5",
  "21": "6",
  "22": "7",
  "23": "8",
  "24": "9",
  "25": ":",
  "26": ";",
  "27": "<",
  "28": "=",
  "29": ">",
  "30": "?",
  "31": "@",
  "32": "A",
  "33": "B",
  "34": "C",
  "35": "D",
  "36": "E",
  "37": "F",
  "38": "G",
  "39": "H",
  "40": "I",
  "41": "J",
  "42": "K",
  "43": "L",
  "44": "M",
  "45": "N",
  "46": "O",
  "47": "P",
  "48": "Q",
  "49": "R",
  "50": "S",
  "51": "T",
  "52": "U",
  "53": "V",
  "54": "W",
  "55": "X",
  "56": "Y",
  "57": "Z",
  "58": "[",
  "59": "\\",
  "60": "]",
  "61": "^",
  "62": "_",
  "63": "`",
  "64": "a",
  "65": "b",
  "66": "c",
  "67": "d",
  "68": "e",
  "69": "f",
  "70": "g",
  "71": "h",
  "72": "i",
  "73": "j",
  "74": "k",
  "75": "l",
  "76": "m",
  "77": "n",
  "78": "o",
  "79": "p",
  "80": "q",
  "81": "r",
  "82": "s",
  "83": "t",
  "84": "u",
  "85": "v",
  "86": "w",
  "87": "x",
  "88": "y",
  "89": "z",
  "90": "{",
  "91": "|",
  "92": "}",
  "93": "~",
  "94": "�",
  "95": "�",
  "96": "�",
  "97": "�",
  "98": "�",
  "99": "�",
  "100": "�",
  "101": "�",
  "102": "�",
  "103": "�",
  "104": "�",
  "105": "�",
  "106": "�",
  "107": "�",
  "108": "�",
  "109": "�",
  "110": "�",
  "111": "�",
  "112": "�",
  "113": "�",
  "114": "�",
  "115": "�",
  "116": "�",
  "117": "�",
  "118": "�",
  "119": "�",
  "120": "�",
  "121": "�",
  "122": "�",
  "123": "�",
  "124": "�",
  "125": "�",
  "126": "�",
  "127": "�",
  "128": "�",
  "129": "�",
  "130": "�",
  "131": "�",
  "132": "�",
  "133": "�",
  "134": "�",
  "135": "�",
  "136": "�",
  "137": "�",
  "138": "�",
  "139": "�",
  "140": "�",
  "141": "�",
  "142": "�",
  "143": "�",
  "144": "�",
  "145": "�",
  "146": "�",
  "147": "�",
  "148": "�",
  "149": "�",
  "150": "�",
  "151": "�",
  "152": "�",
  "153": "�",
  "154": "�",
  "155": "�",
  "156": "�",
  "157": "�",
  "158": "�",
  "159": "�",
  "160": "�",
  "161": "�",
  "162": "�",
  "163": "�",
  "164": "�",
  "165": "�",
  "166": "�",
  "167": "�",
  "168": "�",
  "169": "�",
  "170": "�",
  "171": "�",
  "172": "�",
  "173": "�",
  "174": "�",
  "175": "�",
  "176": "�",
  "177": "�",
  "178": "�",
  "179": "�",
  "180": "�",
  "181": "�",
  "182": "�",
  "183": "�",
  "184": "�",
  "185": "�",
  "186": "�",
  "187": "�",
  "188": "\u0000",
  "189": "\u0001",
  "190": "\u0002",
  "191": "\u0003",
  "192": "\u0004",
  "193": "\u0005",
  "194": "\u0006",
  "195": "\u0007",
  "196": "\b",
  "197": "\t",
  "198": "\n",
  "199": "\u000b",
  "200": "\f",
  "201": "\r",
  "202": "\u000e",
  "203": "\u000f",
  "204": "\u0010",
  "205": "\u0011",
  "206": "\u0012",
  "207": "\u0013",
  "208": "\u0014",
  "209": "\u0015",
  "210": "\u0016",
  "211": "\u0017",
  "212": "\u0018",
  "213": "\u0019",
  "214": "\u001a",
  "215": "\u001b",
  "216": "\u001c",
  "217": "\u001d",
  "218": "\u001e",
  "219": "\u001f",
  "220": " ",
  "221": "",
  "222": "�",
  "223": "�",
  "224": "�",
  "225": "�",
  "226": "�",
  "227": "�",
  "228": "�",
  "229": "�",
  "230": "�",
  "231": "�",
  "232": "�",
  "233": "�",
  "234": "�",
  "235": "�",
  "236": "�",
  "237": "�",
  "238": "�",
  "239": "�",
  "240": "�",
  "241": "�",
  "242": "�",
  "243": "�",
  "244": "�",
  "245": "�",
  "246": "�",
  "247": "�",
  "248": "�",
  "249": "�",
  "250": "�",
  "251": "�",
  "252": "�",
  "253": "�",
  "254": "�",
  "255": "�",
  "256": "  ",
  "257": "    ",
  "258": "in",
  "259": " t",
  "260": "        ",
  "261": "er",
  "262": "   ",
  "263": "on",
  "264": " a",
  "265": "re",
  "266": "at",
  "267": "st",
  "268": "en",
  "269": "or",
  "270": " th",
  "271": "\n\n",
  "272": " c",
  "273": "le",
  "274": " s",
  "275": "it",
  "276": "an",
  "277": "ar",
  "278": "al",
  "279": " the",
  "280": ";\n",
  "281": " p",
  "282": " f",
  "283": "ou",
  "284": " =",
  "285": "is",
  "286": "       ",
  "287": "ing",
  "288": "es",
  "289": " w",
  "290": "ion",
  "291": "ed",
  "292": "ic",
  "293": " b",
  "294": " d",
  "295": "et",
  "296": " m",
  "297": " o",
  "298": "\t\t",
  "299": "ro",
  "300": "as",
  "301": "el",
  "302": "ct",
  "303": "nd",
  "304": " in",
  "305": " h",
  "306": "ent",
  "307": "id",
  "308": " n",
  "309": "am",
  "310": "           ",
  "311": " to",
  "312": " re",
  "313": "--",
  "314": " {",
  "315": " of",
  "316": "om",
  "317": ");\n",
  "318": "im",
  "319": "\r\n",
  "320": " (",
  "321": "il",
  "322": "//",
  "323": " and",
  "324": "ur",
  "325": "se",
  "326": " l",
  "327": "ex",
  "328": " S",
  "329": "ad",
  "330": " \"",
  "331": "ch",
  "332": "ut",
  "333": "if",
  "334": "**",
  "335": " }",
  "336": "em",
  "337": "ol",
  "338": "                ",
  "339": "th",
  "340": ")\n",
  "341": " {\n",
  "342": " g",
  "343": "ig",
  "344": "iv",
  "345": ",\n",
  "346": "ce",
  "347": "od",
  "348": " v",
  "349": "ate",
  "350": " T",
  "351": "ag",
  "352": "ay",
  "353": " *",
  "354": "ot",
  "355": "us",
  "356": " C",
  "357": " st",
  "358": " I",
  "359": "un",
  "360": "ul",
  "361": "ue",
  "362": " A",
  "363": "ow",
  "364": " '",
  "365": "ew",
  "366": " <",
  "367": "ation",
  "368": "()",
  "369": " for",
  "370": "ab",
  "371": "ort",
  "372": "um",
  "373": "ame",
  "374": " is",
  "375": "pe",
  "376": "tr",
  "377": "ck",
  "378": "�",
  "379": " y",
  "380": "ist",
  "381": "----",
  "382": ".\n\n",
  "383": "he",
  "384": " e",
  "385": "lo",
  "386": " M",
  "387": " be",
  "388": "ers",
  "389": " on",
  "390": " con",
  "391": "ap",
  "392": "ub",
  "393": " P",
  "394": "               ",
  "395": "ass",
  "396": "int",
  "397": ">\n",
  "398": "ly",
  "399": "urn",
  "400": " $",
  "401": ";\n\n",
  "402": "av",
  "403": "port",
  "404": "ir",
  "405": "->",
  "406": "nt",
  "407": "ction",
  "408": "end",
  "409": " de",
  "410": "ith",
  "411": "out",
  "412": "turn",
  "413": "our",
  "414": "     ",
  "415": "lic",
  "416": "res",
  "417": "pt",
  "418": "==",
  "419": " this",
  "420": " wh",
  "421": " if",
  "422": " D",
  "423": "ver",
  "424": "age",
  "425": " B",
  "426": "ht",
  "427": "ext",
  "428": "=\"",
  "429": " that",
  "430": "****",
  "431": " R",
  "432": " it",
  "433": "ess",
  "434": " F",
  "435": " r",
  "436": "os",
  "437": "and",
  "438": " as",
  "439": "ect",
  "440": "ke",
  "441": "rom",
  "442": " //",
  "443": "con",
  "444": " L",
  "445": "(\"",
  "446": "qu",
  "447": "lass",
  "448": " with",
  "449": "iz",
  "450": "de",
  "451": " N",
  "452": " al",
  "453": "op",
  "454": "up",
  "455": "get",
  "456": " }\n",
  "457": "ile",
  "458": " an",
  "459": "ata",
  "460": "ore",
  "461": "ri",
  "462": " pro",
  "463": ";\r\n",
  "464": "\t\t\t\t",
  "465": "ter",
  "466": "ain",
  "467": " W",
  "468": " E",
  "469": " com",
  "470": " return",
  "471": "art",
  "472": " H",
  "473": "ack",
  "474": "import",
  "475": "ublic",
  "476": " or",
  "477": "est",
  "478": "ment",
  "479": " G",
  "480": "able",
  "481": " -",
  "482": "ine",
  "483": "ill",
  "484": "ind",
  "485": "ere",
  "486": "::",
  "487": "ity",
  "488": " +",
  "489": " tr",
  "490": "elf",
  "491": "ight",
  "492": "('",
  "493": "orm",
  "494": "ult",
  "495": "str",
  "496": "..",
  "497": "\",",
  "498": " you",
  "499": "ype",
  "500": "pl",
  "501": " new",
  "502": " j",
  "503": "                   ",
  "504": " from",
  "505": " ex",
  "506": " O",
  "507": "ld",
  "508": " [",
  "509": "oc",
  "510": ":\n",
  "511": " se",
  "512": " le",
  "513": "--------",
  "514": ".s",
  "515": "{\n",
  "516": "',",
  "517": "ant",
  "518": " at",
  "519": "ase",
  "520": ".c",
  "521": " ch",
  "522": "</",
  "523": "ave",
  "524": "ang",
  "525": " are",
  "526": " int",
  "527": "’",
  "528": "_t",
  "529": "ert",
  "530": "ial",
  "531": "act",
  "532": "}\n",
  "533": "ive",
  "534": "ode",
  "535": "ost",
  "536": " class",
  "537": " not",
  "538": "og",
  "539": "ord",
  "540": "alue",
  "541": "all",
  "542": "ff",
  "543": "();\n",
  "544": "ont",
  "545": "ime",
  "546": "are",
  "547": " U",
  "548": " pr",
  "549": " :",
  "550": "ies",
  "551": "ize",
  "552": "ure",
  "553": " by",
  "554": "ire",
  "555": " }\n\n",
  "556": ".p",
  "557": " sh",
  "558": "ice",
  "559": "ast",
  "560": "ption",
  "561": "tring",
  "562": "ok",
  "563": "__",
  "564": "cl",
  "565": "##",
  "566": " he",
  "567": "ard",
  "568": ").",
  "569": " @",
  "570": "iew",
  "571": "\t\t\t",
  "572": " was",
  "573": "ip",
  "574": "this",
  "575": " u",
  "576": " The",
  "577": "ide",
  "578": "ace",
  "579": "ib",
  "580": "ac",
  "581": "rou",
  "582": " we",
  "583": "ject",
  "584": " public",
  "585": "ak",
  "586": "ve",
  "587": "ath",
  "588": "oid",
  "589": " =>",
  "590": "ust",
  "591": "que",
  "592": " res",
  "593": "))",
  "594": "'s",
  "595": " k",
  "596": "ans",
  "597": "yst",
  "598": "unction",
  "599": "********",
  "600": " i",
  "601": " us",
  "602": "pp",
  "603": "one",
  "604": "ail",
  "605": "====",
  "606": "name",
  "607": " str",
  "608": " /",
  "609": " &",
  "610": "ach",
  "611": "div",
  "612": "ystem",
  "613": "ell",
  "614": " have",
  "615": "err",
  "616": "ould",
  "617": "ull",
  "618": "pon",
  "619": " J",
  "620": "_p",
  "621": " ==",
  "622": "ign",
  "623": "St",
  "624": ".\n",
  "625": " pl",
  "626": ");\n\n",
  "627": "form",
  "628": "put",
  "629": "ount",
  "630": "}\n\n",
  "631": "dd",
  "632": "ite",
  "633": " get",
  "634": "rr",
  "635": "ome",
  "636": " �",
  "637": "aram",
  "638": "cc",
  "639": " */",
  "640": "ER",
  "641": "In",
  "642": "les",
  "643": "_s",
  "644": "ong",
  "645": "ie",
  "646": " can",
  "647": " V",
  "648": "erv",
  "649": "pr",
  "650": " un",
  "651": "row",
  "652": "ber",
  "653": " do",
  "654": "ll",
  "655": " el",
  "656": " self",
  "657": "ated",
  "658": "ary",
  "659": " .",
  "660": "']",
  "661": "ud",
  "662": " en",
  "663": " Th",
  "664": "                       ",
  "665": "te",
  "666": "_c",
  "667": "uct",
  "668": " ab",
  "669": "ork",
  "670": ".get",
  "671": " #",
  "672": "aw",
  "673": "ress",
  "674": "ob",
  "675": "Name",
  "676": "app",
  "677": "['",
  "678": " all",
  "679": "ory",
  "680": "ition",
  "681": "ance",
  "682": "ear",
  "683": " cont",
  "684": "vent",
  "685": "ia",
  "686": " will",
  "687": "IN",
  "688": "         ",
  "689": "return",
  "690": " </",
  "691": "data",
  "692": ")\n\n",
  "693": "Re",
  "694": "ple",
  "695": "ild",
  "696": "ther",
  "697": " your",
  "698": "\"\n",
  "699": "($",
  "700": " out",
  "701": "),",
  "702": " has",
  "703": "String",
  "704": "so",
  "705": " up",
  "706": "ax",
  "707": " def",
  "708": " bo",
  "709": "ge",
  "710": "alse",
  "711": "ON",
  "712": "per",
  "713": "ich",
  "714": " but",
  "715": " \n",
  "716": " _",
  "717": "_m",
  "718": "add",
  "719": "quest",
  "720": "odel",
  "721": "self",
  "722": "ery",
  "723": "ft",
  "724": "ens",
  "725": "////",
  "726": "ake",
  "727": ".C",
  "728": " go",
  "729": " function",
  "730": " K",
  "731": "ivate",
  "732": " im",
  "733": " const",
  "734": ".t",
  "735": " */\n",
  "736": ");\r\n",
  "737": " void",
  "738": " set",
  "739": " System",
  "740": "cri",
  "741": "()\n",
  "742": "li",
  "743": "\tif",
  "744": ".m",
  "745": "ally",
  "746": "set",
  "747": "ep",
  "748": "’s",
  "749": "bo",
  "750": "def",
  "751": "',\n",
  "752": " me",
  "753": " !",
  "754": "atch",
  "755": "\">",
  "756": "\",\n",
  "757": "ec",
  "758": " In",
  "759": "ph",
  "760": " |",
  "761": "_f",
  "762": " var",
  "763": "ence",
  "764": "Id",
  "765": "ree",
  "766": "ink",
  "767": "lect",
  "768": "ug",
  "769": "eth",
  "770": " else",
  "771": "----------------",
  "772": "cont",
  "773": " so",
  "774": "atic",
  "775": " lo",
  "776": "pro",
  "777": "ton",
  "778": "ss",
  "779": "own",
  "780": "abel",
  "781": "oint",
  "782": "ous",
  "783": "eld",
  "784": "ST",
  "785": "The",
  "786": "                                ",
  "787": "RE",
  "788": "\":",
  "789": "olor",
  "790": "tp",
  "791": "eg",
  "792": "key",
  "793": "ude",
  "794": " St",
  "795": "ound",
  "796": " ar",
  "797": "\");\n",
  "798": "ener",
  "799": "ser",
  "800": "bject",
  "801": "essage",
  "802": "fer",
  "803": " more",
  "804": "ations",
  "805": "ents",
  "806": " his",
  "807": " they",
  "808": ".S",
  "809": " Y",
  "810": "use",
  "811": "ne",
  "812": "ish",
  "813": "old",
  "814": "_d",
  "815": "io",
  "816": "ield",
  "817": " per",
  "818": "Cont",
  "819": "ings",
  "820": "####",
  "821": " data",
  "822": " sa",
  "823": "ef",
  "824": "fo",
  "825": " one",
  "826": "eng",
  "827": " dis",
  "828": "AT",
  "829": " name",
  "830": " true",
  "831": "val",
  "832": "led",
  "833": ".f",
  "834": " ne",
  "835": " end",
  "836": ".T",
  "837": "cre",
  "838": "ark",
  "839": "log",
  "840": "Ex",
  "841": "error",
  "842": "_id",
  "843": "urre",
  "844": "ange",
  "845": " null",
  "846": "rray",
  "847": " my",
  "848": "pan",
  "849": "ict",
  "850": "ator",
  "851": "View",
  "852": "List",
  "853": "\treturn",
  "854": "”",
  "855": " pre",
  "856": " x",
  "857": "clude",
  "858": "arg",
  "859": "ov",
  "860": ".h",
  "861": " >",
  "862": " their",
  "863": "')",
  "864": "irst",
  "865": "ick",
  "866": "gh",
  "867": "LE",
  "868": "OR",
  "869": " private",
  "870": "tem",
  "871": "\r\n\r\n",
  "872": "user",
  "873": " )",
  "874": "com",
  "875": ".A",
  "876": "\";\n",
  "877": " id",
  "878": "read",
  "879": " who",
  "880": "_b",
  "881": "\">\n",
  "882": " time",
  "883": " man",
  "884": "ry",
  "885": "========",
  "886": "roup",
  "887": "rop",
  "888": "public",
  "889": "vel",
  "890": "umber",
  "891": "ble",
  "892": " which",
  "893": "****************",
  "894": " any",
  "895": " false",
  "896": "we",
  "897": " value",
  "898": " li",
  "899": "\")",
  "900": "nder",
  "901": "gr",
  "902": " no",
  "903": "param",
  "904": "fig",
  "905": ".com",
  "906": " app",
  "907": "_l",
  "908": "ions",
  "909": ".D",
  "910": " Ch",
  "911": " about",
  "912": " add",
  "913": " su",
  "914": " string",
  "915": "ID",
  "916": " over",
  "917": "string",
  "918": ".l",
  "919": "ource",
  "920": "_C",
  "921": "]\n",
  "922": " qu",
  "923": " String",
  "924": "ca",
  "925": "SE",
  "926": " ro",
  "927": "sh",
  "928": "ual",
  "929": "Type",
  "930": "son",
  "931": "new",
  "932": "ern",
  "933": " ag",
  "934": "AR",
  "935": "];\n",
  "936": "].",
  "937": " ?",
  "938": "ical",
  "939": " des",
  "940": "uth",
  "941": "ix",
  "942": "ays",
  "943": " type",
  "944": "'t",
  "945": "ault",
  "946": " inter",
  "947": "var",
  "948": ".b",
  "949": " part",
  "950": ".d",
  "951": "urrent",
  "952": "IT",
  "953": "EN",
  "954": "enc",
  "955": "(f",
  "956": "ra",
  "957": "value",
  "958": "cho",
  "959": "utton",
  "960": "ose",
  "961": " !=",
  "962": "ater",
  "963": "é",
  "964": "reate",
  "965": "oll",
  "966": "pos",
  "967": "yle",
  "968": "ng",
  "969": "AL",
  "970": "using",
  "971": "ames",
  "972": " {\r\n",
  "973": "ates",
  "974": "ely",
  "975": " work",
  "976": " em",
  "977": "inal",
  "978": " sp",
  "979": " when",
  "980": ".set",
  "981": "      ",
  "982": "):\n",
  "983": "to",
  "984": "quire",
  "985": "indow",
  "986": "lement",
  "987": "pect",
  "988": "ash",
  "989": "[i",
  "990": " use",
  "991": ".F",
  "992": "pec",
  "993": " ad",
  "994": "ove",
  "995": "ception",
  "996": "ength",
  "997": "include",
  "998": "ader",
  "999": "                           ",
  "1000": "atus",
  "1001": "Th",
  "1002": "itle",
  "1003": "rit",
  "1004": "void",
  "1005": "().",
  "1006": "(\n",
  "1007": " off",
  "1008": " other",
  "1009": " &&",
  "1010": "';\n",
  "1011": "ms",
  "1012": " been",
  "1013": " te",
  "1014": "ml",
  "1015": "co",
  "1016": "nc",
  "1017": "ervice",
  "1018": " %",
  "1019": "**\n",
  "1020": "ann",
  "1021": "ade",
  "1022": "\n\n\n\n",
  "1023": "lock",
  "1024": "const",
  "1025": "ponse",
  "1026": " sup",
  "1027": "++",
  "1028": "date",
  "1029": " acc",
  "1030": " had",
  "1031": " bu",
  "1032": " Re",
  "1033": " were",
  "1034": " file",
  "1035": " would",
  "1036": " “",
  "1037": "ven",
  "1038": "iss",
  "1039": " our",
  "1040": "class",
  "1041": "raw",
  "1042": " year",
  "1043": "Data",
  "1044": " val",
  "1045": " some",
  "1046": "fter",
  "1047": "ys",
  "1048": " ///",
  "1049": "round",
  "1050": "view",
  "1051": " pe",
  "1052": " there",
  "1053": " said",
  "1054": "du",
  "1055": "of",
  "1056": "line",
  "1057": "/*",
  "1058": "duct",
  "1059": " her",
  "1060": "             ",
  "1061": "Res",
  "1062": " co",
  "1063": " comm",
  "1064": "ise",
  "1065": "min",
  "1066": "    \n",
  "1067": "#include",
  "1068": "ethod",
  "1069": ".P",
  "1070": "ute",
  "1071": " ass",
  "1072": "Int",
  "1073": "ask",
  "1074": "loc",
  "1075": " like",
  "1076": "ody",
  "1077": " let",
  "1078": "load",
  "1079": " am",
  "1080": "rol",
  "1081": " gr",
  "1082": "yp",
  "1083": " also",
  "1084": " It",
  "1085": "url",
  "1086": "ific",
  "1087": "ors",
  "1088": "_P",
  "1089": "_n",
  "1090": "igh",
  "1091": " than",
  "1092": "Com",
  "1093": "AN",
  "1094": "UL",
  "1095": "ating",
  "1096": " This",
  "1097": "ref",
  "1098": "_S",
  "1099": " static",
  "1100": "roll",
  "1101": " just",
  "1102": " result",
  "1103": "ian",
  "1104": "idth",
  "1105": " them",
  "1106": "));\n",
  "1107": "der",
  "1108": "reak",
  "1109": "Con",
  "1110": "://",
  "1111": "ule",
  "1112": "...",
  "1113": "arch",
  "1114": "ement",
  "1115": " <<",
  "1116": "ush",
  "1117": "ense",
  "1118": "arr",
  "1119": " into",
  "1120": "cess",
  "1121": "amp",
  "1122": "ied",
  "1123": "ument",
  "1124": " \\",
  "1125": "],",
  "1126": "wo",
  "1127": "als",
  "1128": " what",
  "1129": "anc",
  "1130": "Value",
  "1131": "='",
  "1132": "olum",
  "1133": " pos",
  "1134": "ages",
  "1135": "ayer",
  "1136": " sc",
  "1137": "ues",
  "1138": "\")\n",
  "1139": "_T",
  "1140": " list",
  "1141": "(s",
  "1142": " case",
  "1143": "Ch",
  "1144": "\t\t\t\t\t",
  "1145": "////////",
  "1146": "ponent",
  "1147": " z",
  "1148": " kn",
  "1149": "let",
  "1150": "DE",
  "1151": "red",
  "1152": " fe",
  "1153": " },\n",
  "1154": " ,",
  "1155": "(t",
  "1156": " first",
  "1157": "');\n",
  "1158": "word",
  "1159": " import",
  "1160": " act",
  "1161": " char",
  "1162": "CT",
  "1163": " Tr",
  "1164": "ople",
  "1165": "={",
  "1166": "\tf",
  "1167": "ient",
  "1168": "cent",
  "1169": ".j",
  "1170": "lection",
  "1171": "))\n",
  "1172": " only",
  "1173": " print",
  "1174": "mer",
  "1175": ".W",
  "1176": "ock",
  "1177": " --",
  "1178": "Text",
  "1179": " op",
  "1180": "ank",
  "1181": " its",
  "1182": " back",
  "1183": "[\"",
  "1184": " need",
  "1185": " cl",
  "1186": " sub",
  "1187": " la",
  "1188": "((",
  "1189": ".\"",
  "1190": "Object",
  "1191": " start",
  "1192": "file",
  "1193": "(self",
  "1194": "ner",
  "1195": "ey",
  "1196": " user",
  "1197": " ent",
  "1198": " Com",
  "1199": "its",
  "1200": " Con",
  "1201": "ouble",
  "1202": "ower",
  "1203": "item",
  "1204": "very",
  "1205": " We",
  "1206": "lick",
  "1207": " Q",
  "1208": "php",
  "1209": "ttp",
  "1210": "':",
  "1211": "ics",
  "1212": " under",
  "1213": " *\n",
  "1214": ".L",
  "1215": ");",
  "1216": "ices",
  "1217": " reg",
  "1218": ")\r\n",
  "1219": "\tpublic",
  "1220": "SS",
  "1221": " then",
  "1222": "reat",
  "1223": "ious",
  "1224": ".G",
  "1225": "ek",
  "1226": "irect",
  "1227": "heck",
  "1228": "cript",
  "1229": "ning",
  "1230": " Un",
  "1231": " may",
  "1232": " Wh",
  "1233": "Bo",
  "1234": "Item",
  "1235": "struct",
  "1236": ".st",
  "1237": "ream",
  "1238": "ible",
  "1239": "loat",
  "1240": " org",
  "1241": "und",
  "1242": "sum",
  "1243": "_in",
  "1244": "../",
  "1245": "_M",
  "1246": " how",
  "1247": "rite",
  "1248": "'\n",
  "1249": "To",
  "1250": "ww",
  "1251": " people",
  "1252": "index",
  "1253": ".n",
  "1254": "http",
  "1255": "(m",
  "1256": "ector",
  "1257": " ind",
  "1258": " jav",
  "1259": "],\n",
  "1260": " He",
  "1261": "_st",
  "1262": "ful",
  "1263": "ole",
  "1264": "){\n",
  "1265": " should",
  "1266": "opy",
  "1267": "elp",
  "1268": "ier",
  "1269": "_name",
  "1270": "erson",
  "1271": "ION",
  "1272": "ote",
  "1273": " test",
  "1274": " bet",
  "1275": "rror",
  "1276": "ular",
  "1277": "�",
  "1278": " �",
  "1279": "bs",
  "1280": "ting",
  "1281": " make",
  "1282": "Tr",
  "1283": " after",
  "1284": "arget",
  "1285": "RO",
  "1286": "olumn",
  "1287": "rc",
  "1288": "_re",
  "1289": "define",
  "1290": " right",
  "1291": "right",
  "1292": "day",
  "1293": " long",
  "1294": "[]",
  "1295": "(p",
  "1296": "td",
  "1297": "cond",
  "1298": " Pro",
  "1299": " rem",
  "1300": "ptions",
  "1301": "vid",
  "1302": ".g",
  "1303": " ext",
  "1304": " __",
  "1305": "')\n",
  "1306": "pace",
  "1307": "mp",
  "1308": " min",
  "1309": "stance",
  "1310": "air",
  "1311": "action",
  "1312": "wh",
  "1313": "type",
  "1314": "util",
  "1315": "ait",
  "1316": "<?",
  "1317": "IC",
  "1318": "text",
  "1319": " ph",
  "1320": " fl",
  "1321": ".M",
  "1322": "ccess",
  "1323": "br",
  "1324": "fore",
  "1325": "ersion",
  "1326": "),\n",
  "1327": ".re",
  "1328": "ateg",
  "1329": " loc",
  "1330": "ins",
  "1331": "-s",
  "1332": "trib",
  "1333": " Int",
  "1334": " array",
  "1335": ",\"",
  "1336": "Pro",
  "1337": "(c",
  "1338": "ession",
  "1339": ">\n\n",
  "1340": " she",
  "1341": "\"]",
  "1342": "aph",
  "1343": " exp",
  "1344": "erty",
  "1345": " Se",
  "1346": " par",
  "1347": "unc",
  "1348": "ET",
  "1349": " read",
  "1350": "print",
  "1351": " rel",
  "1352": " form",
  "1353": " dr",
  "1354": "Exception",
  "1355": "input",
  "1356": " trans",
  "1357": "########",
  "1358": "order",
  "1359": "By",
  "1360": " aw",
  "1361": "ities",
  "1362": "uff",
  "1363": "play",
  "1364": ".add",
  "1365": " –",
  "1366": " want",
  "1367": " comp",
  "1368": "ments",
  "1369": " ||",
  "1370": "az",
  "1371": "be",
  "1372": " number",
  "1373": " require",
  "1374": " Ex",
  "1375": " col",
  "1376": " key",
  "1377": "ember",
  "1378": " two",
  "1379": " size",
  "1380": " where",
  "1381": "UT",
  "1382": "result",
  "1383": "                               ",
  "1384": "ough",
  "1385": "orld",
  "1386": "ood",
  "1387": "uch",
  "1388": "ative",
  "1389": "ger",
  "1390": "arent",
  "1391": " /*",
  "1392": " arg",
  "1393": " while",
  "1394": "(this",
  "1395": " rec",
  "1396": " dif",
  "1397": "State",
  "1398": " spec",
  "1399": "ride",
  "1400": "_F",
  "1401": " look",
  "1402": "AM",
  "1403": "ility",
  "1404": "eter",
  "1405": "’t",
  "1406": "\n\n\n",
  "1407": "ayout",
  "1408": "--------------------------------",
  "1409": "ager",
  "1410": " could",
  "1411": " br",
  "1412": "ends",
  "1413": "ures",
  "1414": " know",
  "1415": "ets",
  "1416": " If",
  "1417": " Sh",
  "1418": ".w",
  "1419": "back",
  "1420": " ser",
  "1421": " +=",
  "1422": " fr",
  "1423": "());\n",
  "1424": " hand",
  "1425": "Ind",
  "1426": "ULL",
  "1427": "Im",
  "1428": "();\n\n",
  "1429": " most",
  "1430": " try",
  "1431": " now",
  "1432": "rough",
  "1433": ">\r\n",
  "1434": "ackage",
  "1435": " him",
  "1436": "._",
  "1437": "ify",
  "1438": " break",
  "1439": " );\n",
  "1440": "ren",
  "1441": "#define",
  "1442": "itt",
  "1443": " ap",
  "1444": "\tc",
  "1445": "(n",
  "1446": " You",
  "1447": ":\n\n",
  "1448": "-m",
  "1449": " every",
  "1450": "ustom",
  "1451": "lient",
  "1452": "ocument",
  "1453": "cription",
  "1454": "Error",
  "1455": "-b",
  "1456": "о",
  "1457": "][",
  "1458": "trans",
  "1459": " point",
  "1460": " std",
  "1461": " fil",
  "1462": "Time",
  "1463": " mod",
  "1464": " ->",
  "1465": " error",
  "1466": "ah",
  "1467": " text",
  "1468": "roller",
  "1469": "lose",
  "1470": "ql",
  "1471": " pol",
  "1472": "></",
  "1473": " show",
  "1474": "User",
  "1475": "ased",
  "1476": " {\n\n",
  "1477": " find",
  "1478": "а",
  "1479": "ED",
  "1480": "span",
  "1481": "enu",
  "1482": " current",
  "1483": " used",
  "1484": "cept",
  "1485": "clud",
  "1486": " play",
  "1487": " log",
  "1488": "ution",
  "1489": "fl",
  "1490": " see",
  "1491": "indows",
  "1492": " help",
  "1493": " these",
  "1494": " pass",
  "1495": " down",
  "1496": " even",
  "1497": "ason",
  "1498": "uild",
  "1499": "from",
  "1500": "(d",
  "1501": " bl",
  "1502": "label",
  "1503": "else",
  "1504": "е",
  "1505": " (!",
  "1506": "ized",
  "1507": "(),",
  "1508": " ob",
  "1509": " item",
  "1510": "ump",
  "1511": "UR",
  "1512": "orn",
  "1513": " don",
  "1514": "Se",
  "1515": "man",
  "1516": "ample",
  "1517": "tn",
  "1518": "================",
  "1519": "He",
  "1520": "gram",
  "1521": " did",
  "1522": "wn",
  "1523": "_h",
  "1524": "iver",
  "1525": " sm",
  "1526": " through",
  "1527": " An",
  "1528": "che",
  "1529": " inv",
  "1530": "ouse",
  "1531": " es",
  "1532": " New",
  "1533": "export",
  "1534": "mary",
  "1535": "uto",
  "1536": "ler",
  "1537": " last",
  "1538": " event",
  "1539": "try",
  "1540": "�",
  "1541": "ily",
  "1542": "igned",
  "1543": "ines",
  "1544": "ollow",
  "1545": "icense",
  "1546": "sole",
  "1547": "lear",
  "1548": "(int",
  "1549": " again",
  "1550": " high",
  "1551": "html",
  "1552": "Index",
  "1553": "uthor",
  "1554": " /**\n",
  "1555": " line",
  "1556": "Event",
  "1557": "_D",
  "1558": " does",
  "1559": "itial",
  "1560": " cr",
  "1561": "ars",
  "1562": " tem",
  "1563": "cause",
  "1564": "face",
  "1565": " `",
  "1566": "_A",
  "1567": "Button",
  "1568": "ature",
  "1569": "ected",
  "1570": "ES",
  "1571": "ister",
  "1572": "\t\n",
  "1573": " before",
  "1574": "ale",
  "1575": "other",
  "1576": " because",
  "1577": "roid",
  "1578": " ed",
  "1579": "ik",
  "1580": "reg",
  "1581": " De",
  "1582": " dist",
  "1583": "},\n",
  "1584": " state",
  "1585": " cons",
  "1586": "rint",
  "1587": "att",
  "1588": " here",
  "1589": "ined",
  "1590": " final",
  "1591": " \"\"",
  "1592": "Key",
  "1593": "LO",
  "1594": " del",
  "1595": "pty",
  "1596": "thing",
  "1597": " And",
  "1598": " run",
  "1599": " X",
  "1600": "ym",
  "1601": ".app",
  "1602": " very",
  "1603": "ces",
  "1604": "_N",
  "1605": "ared",
  "1606": "ward",
  "1607": "list",
  "1608": "ited",
  "1609": "olog",
  "1610": "itch",
  "1611": "Box",
  "1612": "ife",
  "1613": " ac",
  "1614": " model",
  "1615": " mon",
  "1616": " way",
  "1617": "lete",
  "1618": " call",
  "1619": " att",
  "1620": " cal",
  "1621": "vert",
  "1622": " dec",
  "1623": "lease",
  "1624": "oun",
  "1625": " });\n",
  "1626": "fr",
  "1627": "formation",
  "1628": "etail",
  "1629": " num",
  "1630": "aj",
  "1631": "query",
  "1632": " well",
  "1633": " object",
  "1634": " As",
  "1635": " years",
  "1636": "Color",
  "1637": "IS",
  "1638": " default",
  "1639": "Wh",
  "1640": " ins",
  "1641": "aint",
  "1642": " java",
  "1643": " sim",
  "1644": " Ar",
  "1645": "mon",
  "1646": "til",
  "1647": "();\r\n",
  "1648": "):",
  "1649": "Set",
  "1650": "atter",
  "1651": " view",
  "1652": " pres",
  "1653": "array",
  "1654": "We",
  "1655": "At",
  "1656": " bel",
  "1657": " many",
  "1658": "Man",
  "1659": "ender",
  "1660": " being",
  "1661": " good",
  "1662": "\t\t\t\t\t\t",
  "1663": "ational",
  "1664": "ware",
  "1665": ".log",
  "1666": "{\r\n",
  "1667": " using",
  "1668": "_B",
  "1669": " :=",
  "1670": "_w",
  "1671": "ists",
  "1672": "lish",
  "1673": " stud",
  "1674": " Al",
  "1675": " gu",
  "1676": "config",
  "1677": "uring",
  "1678": "time",
  "1679": "oken",
  "1680": "amespace",
  "1681": " request",
  "1682": " child",
  "1683": " �",
  "1684": "lob",
  "1685": " param",
  "1686": " }\r\n",
  "1687": " echo",
  "1688": "function",
  "1689": "********************************",
  "1690": "ps",
  "1691": "Element",
  "1692": "alk",
  "1693": "lication",
  "1694": "by",
  "1695": "Size",
  "1696": "rawing",
  "1697": " person",
  "1698": "                 ",
  "1699": "\\n",
  "1700": "object",
  "1701": "ince",
  "1702": "En",
  "1703": "File",
  "1704": "uf",
  "1705": "ffect",
  "1706": "AC",
  "1707": " style",
  "1708": "summary",
  "1709": " que",
  "1710": "_r",
  "1711": " ($",
  "1712": "Model",
  "1713": "ident",
  "1714": " method",
  "1715": "IL",
  "1716": "ott",
  "1717": "less",
  "1718": "ING",
  "1719": " ()",
  "1720": " expect",
  "1721": "ync",
  "1722": "package",
  "1723": "urs",
  "1724": " prot",
  "1725": "./",
  "1726": "pre",
  "1727": " )\n",
  "1728": "ma",
  "1729": " sur",
  "1730": " found",
  "1731": "Info",
  "1732": "par",
  "1733": "imes",
  "1734": ".e",
  "1735": "ains",
  "1736": " post",
  "1737": "-d",
  "1738": "olean",
  "1739": " sl",
  "1740": "PE",
  "1741": " such",
  "1742": "select",
  "1743": "ainer",
  "1744": " think",
  "1745": " differ",
  "1746": ".r",
  "1747": "/**\n",
  "1748": "FF",
  "1749": "ool",
  "1750": "plate",
  "1751": "qual",
  "1752": " For",
  "1753": " much",
  "1754": "uc",
  "1755": "(new",
  "1756": "odule",
  "1757": " som",
  "1758": " http",
  "1759": " List",
  "1760": " count",
  "1761": " inst",
  "1762": "char",
  "1763": "mit",
  "1764": ".id",
  "1765": "aking",
  "1766": " gener",
  "1767": "px",
  "1768": "vice",
  "1769": "_data",
  "1770": " NULL",
  "1771": "}\r\n",
  "1772": "idd",
  "1773": "。",
  "1774": " med",
  "1775": "org",
  "1776": "ider",
  "1777": "ache",
  "1778": "work",
  "1779": " check",
  "1780": "ween",
  "1781": " ((",
  "1782": "the",
  "1783": "ants",
  "1784": "><",
  "1785": ".B",
  "1786": "-c",
  "1787": " open",
  "1788": " est",
  "1789": "        \n",
  "1790": " next",
  "1791": "IM",
  "1792": "т",
  "1793": "OT",
  "1794": "ó",
  "1795": " follow",
  "1796": "content",
  "1797": "            ",
  "1798": " includ",
  "1799": "HE",
  "1800": " Res",
  "1801": " href",
  "1802": "и",
  "1803": " car",
  "1804": "ypes",
  "1805": "image",
  "1806": "Un",
  "1807": " bool",
  "1808": "AD",
  "1809": " game",
  "1810": ".Form",
  "1811": "rows",
  "1812": "*/",
  "1813": "velop",
  "1814": ".Drawing",
  "1815": " path",
  "1816": "ision",
  "1817": " each",
  "1818": " Pl",
  "1819": "_type",
  "1820": "Path",
  "1821": "nection",
  "1822": " av",
  "1823": "').",
  "1824": " support",
  "1825": "ENT",
  "1826": "rem",
  "1827": "\").",
  "1828": " own",
  "1829": " cor",
  "1830": "count",
  "1831": "miss",
  "1832": "ually",
  "1833": " mem",
  "1834": "std",
  "1835": "ience",
  "1836": "search",
  "1837": "\"\n\n",
  "1838": "Form",
  "1839": " sex",
  "1840": "ename",
  "1841": " sign",
  "1842": " et",
  "1843": "          ",
  "1844": "','",
  "1845": " App",
  "1846": " those",
  "1847": "off",
  "1848": " err",
  "1849": " system",
  "1850": " best",
  "1851": "code",
  "1852": " same",
  "1853": " di",
  "1854": "uss",
  "1855": " create",
  "1856": "ather",
  "1857": "Array",
  "1858": ".in",
  "1859": "fe",
  "1860": "Service",
  "1861": "UN",
  "1862": "ats",
  "1863": " Z",
  "1864": "alth",
  "1865": " made",
  "1866": "true",
  "1867": "AB",
  "1868": " mark",
  "1869": "rid",
  "1870": "ified",
  "1871": ",\r\n",
  "1872": "yn",
  "1873": "press",
  "1874": " group",
  "1875": " fin",
  "1876": " License",
  "1877": "Field",
  "1878": "eger",
  "1879": " world",
  "1880": "iness",
  "1881": "ty",
  "1882": " process",
  "1883": "(b",
  "1884": " cre",
  "1885": "arn",
  "1886": "ives",
  "1887": " main",
  "1888": "ideo",
  "1889": "_g",
  "1890": "AG",
  "1891": "valid",
  "1892": "img",
  "1893": "PI",
  "1894": " color",
  "1895": " report",
  "1896": " take",
  "1897": "rib",
  "1898": "OM",
  "1899": " day",
  "1900": "Request",
  "1901": " sk",
  "1902": "bers",
  "1903": "\ts",
  "1904": ".Add",
  "1905": "oot",
  "1906": "Image",
  "1907": " comple",
  "1908": "ollection",
  "1909": " top",
  "1910": " free",
  "1911": "AS",
  "1912": "De",
  "1913": " On",
  "1914": "IG",
  "1915": "eta",
  "1916": "Date",
  "1917": " action",
  "1918": "Over",
  "1919": "itor",
  "1920": "                                   ",
  "1921": "not",
  "1922": " index",
  "1923": "her",
  "1924": "icon",
  "1925": "On",
  "1926": ";\r\n\r\n",
  "1927": "ivity",
  "1928": "mand",
  "1929": ".Windows",
  "1930": "OL",
  "1931": " real",
  "1932": " max",
  "1933": "land",
  "1934": "....",
  "1935": "raph",
  "1936": " build",
  "1937": "leg",
  "1938": "assword",
  "1939": "?\n\n",
  "1940": "…",
  "1941": "ook",
  "1942": "uck",
  "1943": " message",
  "1944": "test",
  "1945": "ivers",
  "1946": " input",
  "1947": " art",
  "1948": " between",
  "1949": "Get",
  "1950": "enter",
  "1951": "ground",
  "1952": "ene",
  "1953": "á",
  "1954": ".length",
  "1955": "Node",
  "1956": "(i",
  "1957": "Class",
  "1958": "for",
  "1959": " —",
  "1960": "ten",
  "1961": "oin",
  "1962": " ke",
  "1963": "ui",
  "1964": " IN",
  "1965": " table",
  "1966": "sub",
  "1967": " Le",
  "1968": " head",
  "1969": " must",
  "1970": "////////////////",
  "1971": ".util",
  "1972": "Context",
  "1973": " order",
  "1974": " mov",
  "1975": "over",
  "1976": " contin",
  "1977": " say",
  "1978": "static",
  "1979": ".Text",
  "1980": " className",
  "1981": "pany",
  "1982": " ter",
  "1983": "head",
  "1984": "rg",
  "1985": " product",
  "1986": "This",
  "1987": ".”",
  "1988": " But",
  "1989": "loy",
  "1990": " double",
  "1991": "sg",
  "1992": " place",
  "1993": ".x",
  "1994": "message",
  "1995": " information",
  "1996": "private",
  "1997": " oper",
  "1998": "ced",
  "1999": "db",
  "2000": "\"></",
  "2001": "Param",
  "2002": "icle",
  "2003": " week",
  "2004": " prop",
  "2005": "table",
  "2006": "idget",
  "2007": "place",
  "2008": "Prop",
  "2009": " All",
  "2010": "els",
  "2011": "box",
  "2012": ".\n\n\n\n",
  "2013": ".R",
  "2014": " To",
  "2015": "iter",
  "2016": "Sh",
  "2017": "uration",
  "2018": "older",
  "2019": "_list",
  "2020": "come",
  "2021": " sw",
  "2022": "ization",
  "2023": "\tfor",
  "2024": "bl",
  "2025": " program",
  "2026": "(e",
  "2027": "ape",
  "2028": "check",
  "2029": ".Forms",
  "2030": " und",
  "2031": "ategory",
  "2032": "ags",
  "2033": " response",
  "2034": "US",
  "2035": "request",
  "2036": " struct",
  "2037": "escription",
  "2038": " code",
  "2039": "_H",
  "2040": "uffer",
  "2041": " without",
  "2042": "lobal",
  "2043": "Manager",
  "2044": "ilter",
  "2045": "PO",
  "2046": "\tthis",
  "2047": "option",
  "2048": " sol",
  "2049": " ===",
  "2050": "akes",
  "2051": "Controller",
  "2052": "Message",
  "2053": " ref",
  "2054": "ever",
  "2055": " So",
  "2056": "aining",
  "2057": ".append",
  "2058": " still",
  "2059": " provid",
  "2060": " assert",
  "2061": "med",
  "2062": " cap",
  "2063": "usiness",
  "2064": " rep",
  "2065": "tings",
  "2066": "ved",
  "2067": ".N",
  "2068": "api",
  "2069": "OD",
  "2070": " field",
  "2071": "iven",
  "2072": "oto",
  "2073": "“",
  "2074": "col",
  "2075": "(x",
  "2076": "ght",
  "2077": "Result",
  "2078": "Code",
  "2079": ".is",
  "2080": "link",
  "2081": " cour",
  "2082": "An",
  "2083": " team",
  "2084": "\tint",
  "2085": "ift",
  "2086": " second",
  "2087": " going",
  "2088": " range",
  "2089": "_E",
  "2090": "ness",
  "2091": " fam",
  "2092": " nil",
  "2093": " Cont",
  "2094": "ailable",
  "2095": "utes",
  "2096": "atab",
  "2097": " fact",
  "2098": " vis",
  "2099": "(&",
  "2100": " AN",
  "2101": "Al",
  "2102": "title",
  "2103": " android",
  "2104": "CE",
  "2105": "\\\"",
  "2106": "irt",
  "2107": " writ",
  "2108": "н",
  "2109": "\tm",
  "2110": "ftware",
  "2111": "ond",
  "2112": " ret",
  "2113": "osition",
  "2114": " home",
  "2115": " left",
  "2116": "args",
  "2117": "meric",
  "2118": " direct",
  "2119": "oci",
  "2120": "Pl",
  "2121": "As",
  "2122": "ret",
  "2123": "ado",
  "2124": "Of",
  "2125": "chn",
  "2126": " Get",
  "2127": "ee",
  "2128": "ross",
  "2129": "();",
  "2130": "____",
  "2131": ".ph",
  "2132": "It",
  "2133": "oute",
  "2134": " exper",
  "2135": "chool",
  "2136": "www",
  "2137": "},",
  "2138": " allow",
  "2139": " �",
  "2140": "())",
  "2141": "size",
  "2142": "ism",
  "2143": "ai",
  "2144": "tract",
  "2145": "ane",
  "2146": "...\n\n",
  "2147": "context",
  "2148": " beg",
  "2149": "CH",
  "2150": " page",
  "2151": "hip",
  "2152": "no",
  "2153": "core",
  "2154": "sp",
  "2155": " different",
  "2156": "iable",
  "2157": " Me",
  "2158": "_IN",
  "2159": "button",
  "2160": " Is",
  "2161": "ervices",
  "2162": " ca",
  "2163": " around",
  "2164": "App",
  "2165": "ration",
  "2166": " rece",
  "2167": " really",
  "2168": " image",
  "2169": " target",
  "2170": " dep",
  "2171": "opyright",
  "2172": "tra",
  "2173": "ingle",
  "2174": "ital",
  "2175": "Layout",
  "2176": " both",
  "2177": "Override",
  "2178": "arm",
  "2179": "=>",
  "2180": "aterial",
  "2181": "iled",
  "2182": " put",
  "2183": "Qu",
  "2184": "р",
  "2185": "ung",
  "2186": "map",
  "2187": "\t\t\t\t\t\t\t\t",
  "2188": " level",
  "2189": "Component",
  "2190": "book",
  "2191": "creen",
  "2192": "_RE",
  "2193": " config",
  "2194": "�",
  "2195": "Or",
  "2196": ".data",
  "2197": " document",
  "2198": "\",\"",
  "2199": "tribute",
  "2200": "ux",
  "2201": "Log",
  "2202": "ference",
  "2203": "post",
  "2204": "_e",
  "2205": " local",
  "2206": "andom",
  "2207": "assert",
  "2208": "Val",
  "2209": "lected",
  "2210": "ina",
  "2211": "atabase",
  "2212": "Add",
  "2213": " content",
  "2214": ".print",
  "2215": "signed",
  "2216": "ric",
  "2217": ".\"\n\n",
  "2218": " fa",
  "2219": "!\n\n",
  "2220": "-f",
  "2221": "ived",
  "2222": " quest",
  "2223": ".ex",
  "2224": " float",
  "2225": " develop",
  "2226": "о�",
  "2227": "Map",
  "2228": "ading",
  "2229": " poss",
  "2230": "UE",
  "2231": "namespace",
  "2232": "_O",
  "2233": "\tb",
  "2234": ".Get",
  "2235": ">(",
  "2236": "json",
  "2237": "etails",
  "2238": " too",
  "2239": " extends",
  "2240": " None",
  "2241": " fore",
  "2242": "(String",
  "2243": "format",
  "2244": " great",
  "2245": "inter",
  "2246": "cale",
  "2247": "с",
  "2248": "ron",
  "2249": "iving",
  "2250": "Ent",
  "2251": "ency",
  "2252": "xt",
  "2253": "oy",
  "2254": " month",
  "2255": " happ",
  "2256": " super",
  "2257": "bar",
  "2258": "default",
  "2259": "_de",
  "2260": "ords",
  "2261": "ln",
  "2262": "({\n",
  "2263": " Ind",
  "2264": "ases",
  "2265": " title",
  "2266": " context",
  "2267": "oh",
  "2268": "-p",
  "2269": "Em",
  "2270": " met",
  "2271": "Test",
  "2272": " life",
  "2273": "_v",
  "2274": " US",
  "2275": "UI",
  "2276": "ocation",
  "2277": "md",
  "2278": " [\n",
  "2279": " ]",
  "2280": "sw",
  "2281": " incre",
  "2282": "script",
  "2283": "ential",
  "2284": "ways",
  "2285": ".de",
  "2286": " src",
  "2287": " catch",
  "2288": " Americ",
  "2289": "//\n",
  "2290": "              ",
  "2291": " pay",
  "2292": "plit",
  "2293": "—",
  "2294": " coun",
  "2295": "obj",
  "2296": ".php",
  "2297": " change",
  "2298": "ething",
  "2299": "'re",
  "2300": "aster",
  "2301": "los",
  "2302": "lation",
  "2303": "  \n",
  "2304": "Le",
  "2305": "ä",
  "2306": "({",
  "2307": "ready",
  "2308": " No",
  "2309": " position",
  "2310": " old",
  "2311": " book",
  "2312": "abled",
  "2313": "bug",
  "2314": "Hand",
  "2315": "};\n\n",
  "2316": "isplay",
  "2317": "aving",
  "2318": " gover",
  "2319": " version",
  "2320": "System",
  "2321": "nect",
  "2322": "response",
  "2323": "Style",
  "2324": "Up",
  "2325": "angu",
  "2326": " three",
  "2327": "init",
  "2328": "ero",
  "2329": " law",
  "2330": "endif",
  "2331": " base",
  "2332": "email",
  "2333": "(l",
  "2334": "_V",
  "2335": " conf",
  "2336": "ATE",
  "2337": " during",
  "2338": "tes",
  "2339": " console",
  "2340": " Pr",
  "2341": " spe",
  "2342": "ves",
  "2343": "path",
  "2344": "ialog",
  "2345": "dition",
  "2346": "_to",
  "2347": "ards",
  "2348": " against",
  "2349": "etwork",
  "2350": " Ph",
  "2351": "_L",
  "2352": "cur",
  "2353": "imit",
  "2354": "With",
  "2355": " power",
  "2356": "ium",
  "2357": "';\n\n",
  "2358": " wom",
  "2359": "left",
  "2360": "ources",
  "2361": "atri",
  "2362": " Im",
  "2363": " Man",
  "2364": "orth",
  "2365": "${",
  "2366": "quals",
  "2367": "ese",
  "2368": "_size",
  "2369": " iss",
  "2370": "otal",
  "2371": "-g",
  "2372": "ique",
  "2373": "rame",
  "2374": " width",
  "2375": "erg",
  "2376": ")(",
  "2377": "ittle",
  "2378": "TR",
  "2379": " They",
  "2380": "ences",
  "2381": "rl",
  "2382": "ons",
  "2383": " label",
  "2384": ".y",
  "2385": "-t",
  "2386": "update",
  "2387": "anel",
  "2388": "sc",
  "2389": ".to",
  "2390": " project",
  "2391": "ü",
  "2392": " element",
  "2393": " success",
  "2394": "\t\t\n",
  "2395": ".sh",
  "2396": "ram",
  "2397": "ched",
  "2398": "())\n",
  "2399": " (\n",
  "2400": " date",
  "2401": " tot",
  "2402": "_ST",
  "2403": "All",
  "2404": "ification",
  "2405": "\tvar",
  "2406": " tri",
  "2407": "chem",
  "2408": "my",
  "2409": " big",
  "2410": " Ad",
  "2411": " At",
  "2412": "ots",
  "2413": "num",
  "2414": "Act",
  "2415": " map",
  "2416": "era",
  "2417": "cope",
  "2418": ".$",
  "2419": ",”",
  "2420": " pop",
  "2421": " few",
  "2422": " len",
  "2423": "uid",
  "2424": "eters",
  "2425": "ules",
  "2426": "í",
  "2427": "source",
  "2428": "https",
  "2429": " dem",
  "2430": " ear",
  "2431": "################",
  "2432": " match",
  "2433": "ories",
  "2434": "aces",
  "2435": " Cl",
  "2436": " node",
  "2437": "irc",
  "2438": "local",
  "2439": "unity",
  "2440": "};\n",
  "2441": " another",
  "2442": "<<",
  "2443": "ogle",
  "2444": " sit",
  "2445": "ework",
  "2446": "TE",
  "2447": ".I",
  "2448": "NS",
  "2449": "ology",
  "2450": "ought",
  "2451": ".Cont",
  "2452": ">>",
  "2453": " care",
  "2454": "state",
  "2455": "\tprivate",
  "2456": " effect",
  "2457": "++)",
  "2458": "_file",
  "2459": "ending",
  "2460": "Line",
  "2461": "For",
  "2462": "ior",
  "2463": " Sc",
  "2464": " fun",
  "2465": ".Size",
  "2466": "\telse",
  "2467": "])",
  "2468": "start",
  "2469": "vious",
  "2470": " },",
  "2471": "ours",
  "2472": " leg",
  "2473": " service",
  "2474": " since",
  "2475": "iron",
  "2476": "Label",
  "2477": " non",
  "2478": " los",
  "2479": "iction",
  "2480": " full",
  "2481": "acter",
  "2482": "board",
  "2483": "gress",
  "2484": " turn",
  "2485": "ither",
  "2486": ".size",
  "2487": " body",
  "2488": "resh",
  "2489": "eturn",
  "2490": "(_",
  "2491": "yles",
  "2492": "ormal",
  "2493": "pi",
  "2494": " something",
  "2495": "!--",
  "2496": "uint",
  "2497": " produ",
  "2498": " stand",
  "2499": " proble",
  "2500": " available",
  "2501": "mt",
  "2502": " Bl",
  "2503": " ...",
  "2504": " block",
  "2505": "Input",
  "2506": " keep",
  "2507": "Count",
  "2508": "open",
  "2509": " ['",
  "2510": " throw",
  "2511": "uilder",
  "2512": "Action",
  "2513": " things",
  "2514": "True",
  "2515": " url",
  "2516": " Bo",
  "2517": "printf",
  "2518": " red",
  "2519": "js",
  "2520": ".create",
  "2521": " Or",
  "2522": "Status",
  "2523": "Instance",
  "2524": " control",
  "2525": " come",
  "2526": " custom",
  "2527": "location",
  "2528": "model",
  "2529": " \r\n",
  "2530": " source",
  "2531": " eas",
  "2532": ".out",
  "2533": "]\n\n",
  "2534": "oney",
  "2535": " await",
  "2536": " partic",
  "2537": "AP",
  "2538": "ublish",
  "2539": "odes",
  "2540": "_pro",
  "2541": "ply",
  "2542": "riter",
  "2543": " prov",
  "2544": " mill",
  "2545": "HT",
  "2546": "])\n",
  "2547": " chang",
  "2548": " ask",
  "2549": "                     ",
  "2550": " output",
  "2551": " email",
  "2552": ".push",
  "2553": " }\r\n\r\n",
  "2554": "ination",
  "2555": "atrix",
  "2556": "Table",
  "2557": "uccess",
  "2558": "]);\n",
  "2559": "                                       ",
  "2560": " disc",
  "2561": "([",
  "2562": " business",
  "2563": "height",
  "2564": ".html",
  "2565": "ta",
  "2566": "field",
  "2567": " required",
  "2568": "_R",
  "2569": " govern",
  "2570": "}\r\n\r\n",
  "2571": "lex",
  "2572": ".,",
  "2573": " Set",
  "2574": "urch",
  "2575": "///",
  "2576": "ts",
  "2577": "af",
  "2578": " might",
  "2579": "istory",
  "2580": "Str",
  "2581": " never",
  "2582": "Response",
  "2583": "arse",
  "2584": "ada",
  "2585": " How",
  "2586": " *)",
  "2587": " ;",
  "2588": " hard",
  "2589": "Ad",
  "2590": " intern",
  "2591": "used",
  "2592": "(data",
  "2593": "mod",
  "2594": "annel",
  "2595": " np",
  "2596": "ugg",
  "2597": " />\n",
  "2598": " called",
  "2599": "body",
  "2600": " cho",
  "2601": "(r",
  "2602": "_set",
  "2603": "ird",
  "2604": " >=",
  "2605": " };\n",
  "2606": " options",
  "2607": " Gener",
  "2608": " height",
  "2609": "Point",
  "2610": "You",
  "2611": "ety",
  "2612": "Click",
  "2613": " small",
  "2614": " ide",
  "2615": " access",
  "2616": "anguage",
  "2617": " protected",
  "2618": " job",
  "2619": " There",
  "2620": "Def",
  "2621": " address",
  "2622": " uint",
  "2623": "Not",
  "2624": "oo",
  "2625": "aps",
  "2626": "<div",
  "2627": "ained",
  "2628": "atur",
  "2629": " sum",
  "2630": "-w",
  "2631": " Date",
  "2632": " little",
  "2633": " fri",
  "2634": "YPE",
  "2635": " port",
  "2636": "eh",
  "2637": "pring",
  "2638": "_path",
  "2639": " status",
  "2640": "aim",
  "2641": "bool",
  "2642": " appe",
  "2643": " os",
  "2644": ".name",
  "2645": "ension",
  "2646": "_G",
  "2647": " update",
  "2648": "Config",
  "2649": "aff",
  "2650": "ERR",
  "2651": " <=",
  "2652": "ately",
  "2653": "#if",
  "2654": "uction",
  "2655": " Te",
  "2656": " link",
  "2657": " User",
  "2658": ".find",
  "2659": ".org",
  "2660": "me",
  "2661": " given",
  "2662": "Out",
  "2663": "#endif",
  "2664": " better",
  "2665": "Page",
  "2666": " feel",
  "2667": "enn",
  "2668": "ML",
  "2669": " already",
  "2670": " including",
  "2671": "oogle",
  "2672": "ru",
  "2673": "ically",
  "2674": "prop",
  "2675": "lean",
  "2676": "outer",
  "2677": " always",
  "2678": "ording",
  "2679": "If",
  "2680": "orage",
  "2681": " parent",
  "2682": "vis",
  "2683": "\t\t\t\t\t\t\t",
  "2684": " got",
  "2685": "stand",
  "2686": " less",
  "2687": "/s",
  "2688": " Ass",
  "2689": "apt",
  "2690": "ired",
  "2691": " Add",
  "2692": " account",
  "2693": "ploy",
  "2694": " der",
  "2695": "resent",
  "2696": " lot",
  "2697": " valid",
  "2698": "\td",
  "2699": " bit",
  "2700": "ponents",
  "2701": " following",
  "2702": "_ex",
  "2703": "SON",
  "2704": " sure",
  "2705": "ocial",
  "2706": " prom",
  "2707": "erties",
  "2708": "header",
  "2709": ".pro",
  "2710": " boolean",
  "2711": " search",
  "2712": "ken",
  "2713": " orig",
  "2714": " er",
  "2715": "Ed",
  "2716": "EM",
  "2717": "aut",
  "2718": "ling",
  "2719": "ality",
  "2720": "ById",
  "2721": "bed",
  "2722": "\tcase",
  "2723": "ether",
  "2724": "posit",
  "2725": " invest",
  "2726": " OR",
  "2727": " says",
  "2728": "mission",
  "2729": "AME",
  "2730": " temp",
  "2731": "oad",
  "2732": " rest",
  "2733": "info",
  "2734": " interest",
  "2735": "Arg",
  "2736": " perform",
  "2737": "pons",
  "2738": " View",
  "2739": " ver",
  "2740": "lib",
  "2741": "(const",
  "2742": "Util",
  "2743": "Listener",
  "2744": "arge",
  "2745": " mult",
  "2746": " die",
  "2747": " site",
  "2748": "../../",
  "2749": "EL",
  "2750": " values",
  "2751": " })\n",
  "2752": "pen",
  "2753": "No",
  "2754": "icro",
  "2755": " beh",
  "2756": " './",
  "2757": "acy",
  "2758": "rec",
  "2759": "()->",
  "2760": "\t   ",
  "2761": "\"))",
  "2762": "Content",
  "2763": "_W",
  "2764": "plement",
  "2765": " won",
  "2766": " video",
  "2767": "adi",
  "2768": "point",
  "2769": "%%",
  "2770": " gl",
  "2771": "erved",
  "2772": "viron",
  "2773": "IF",
  "2774": "uted",
  "2775": "�",
  "2776": "'m",
  "2777": " cert",
  "2778": " prof",
  "2779": " cell",
  "2780": "ari",
  "2781": " player",
  "2782": "ais",
  "2783": " cost",
  "2784": " hum",
  "2785": "(R",
  "2786": " offic",
  "2787": "ks",
  "2788": ".text",
  "2789": "atures",
  "2790": " total",
  "2791": " */\n\n",
  "2792": "ope",
  "2793": " stat",
  "2794": "UM",
  "2795": " load",
  "2796": "ights",
  "2797": " clear",
  "2798": "uro",
  "2799": " techn",
  "2800": "upport",
  "2801": "IR",
  "2802": " row",
  "2803": " seem",
  "2804": " q",
  "2805": " short",
  "2806": " Not",
  "2807": "ipp",
  "2808": "Group",
  "2809": "section",
  "2810": "max",
  "2811": "irl",
  "2812": " override",
  "2813": " company",
  "2814": " done",
  "2815": "\");\r\n",
  "2816": " gre",
  "2817": ".Re",
  "2818": " belie",
  "2819": "rist",
  "2820": " health",
  "2821": "ANT",
  "2822": "()\n\n",
  "2823": " Be",
  "2824": ".value",
  "2825": " Gr",
  "2826": "ottom",
  "2827": " args",
  "2828": "PT",
  "2829": "status",
  "2830": "func",
  "2831": "uments",
  "2832": "-h",
  "2833": "Number",
  "2834": ":\r\n",
  "2835": " Log",
  "2836": "erver",
  "2837": " ),\n",
  "2838": "ament",
  "2839": " obj",
  "2840": "inc",
  "2841": " children",
  "2842": "icy",
  "2843": "IZ",
  "2844": "ands",
  "2845": "ably",
  "2846": " distrib",
  "2847": " cur",
  "2848": "erial",
  "2849": " days",
  "2850": "reated",
  "2851": "rect",
  "2852": "-l",
  "2853": "irm",
  "2854": "idden",
  "2855": "omb",
  "2856": " initial",
  "2857": ".js",
  "2858": " �",
  "2859": "Query",
  "2860": " online",
  "2861": "imal",
  "2862": ".con",
  "2863": "au",
  "2864": "Url",
  "2865": "control",
  "2866": "irection",
  "2867": " instance",
  "2868": "ORT",
  "2869": " Fr",
  "2870": "where",
  "2871": " javax",
  "2872": " organ",
  "2873": "apter",
  "2874": " reason",
  "2875": "options",
  "2876": " Mar",
  "2877": "(a",
  "2878": " within",
  "2879": ".”\n\n",
  "2880": "ODE",
  "2881": "_DE",
  "2882": "admin",
  "2883": "ended",
  "2884": " design",
  "2885": " Data",
  "2886": "une",
  "2887": " File",
  "2888": "root",
  "2889": " cent",
  "2890": " arr",
  "2891": "_add",
  "2892": "len",
  "2893": "page",
  "2894": ",'",
  "2895": "_str",
  "2896": " bro",
  "2897": "ability",
  "2898": "outh",
  "2899": "/c",
  "2900": "pose",
  "2901": "irtual",
  "2902": "earch",
  "2903": "_url",
  "2904": "argin",
  "2905": "Http",
  "2906": " school",
  "2907": "ava",
  "2908": " consider",
  "2909": ".label",
  "2910": " Array",
  "2911": "web",
  "2912": "opt",
  "2913": ".println",
  "2914": "ulation",
  "2915": " func",
  "2916": "PL",
  "2917": " \"\\",
  "2918": " Text",
  "2919": "actory",
  "2920": "(function",
  "2921": "null",
  "2922": " eng",
  "2923": "down",
  "2924": " include",
  "2925": " En",
  "2926": " Dr",
  "2927": " db",
  "2928": "!!",
  "2929": "side",
  "2930": " init",
  "2931": "quired",
  "2932": " She",
  "2933": "Column",
  "2934": "react",
  "2935": " ann",
  "2936": " stop",
  "2937": " later",
  "2938": " That",
  "2939": "ention",
  "2940": "df",
  "2941": "UG",
  "2942": "ILE",
  "2943": " client",
  "2944": "raft",
  "2945": "ffer",
  "2946": "POST",
  "2947": "elper",
  "2948": " love",
  "2949": "quote",
  "2950": "oud",
  "2951": " json",
  "2952": " able",
  "2953": " men",
  "2954": "AX",
  "2955": " Copyright",
  "2956": "ö",
  "2957": "avig",
  "2958": "req",
  "2959": "Client",
  "2960": "});\n",
  "2961": ".Com",
  "2962": "erc",
  "2963": "ilt",
  "2964": "pecial",
  "2965": "_com",
  "2966": "room",
  "2967": ".Name",
  "2968": " give",
  "2969": "amb",
  "2970": "ike",
  "2971": " condition",
  "2972": "client",
  "2973": "ators",
  "2974": ":\"",
  "2975": " copy",
  "2976": "uture",
  "2977": "iversity",
  "2978": "ernal",
  "2979": "{{",
  "2980": " Can",
  "2981": "ounc",
  "2982": "do",
  "2983": " occ",
  "2984": " appro",
  "2985": "thers",
  "2986": "ze",
  "2987": " either",
  "2988": " Fl",
  "2989": " important",
  "2990": " lead",
  "2991": "attr",
  "2992": "ART",
  "2993": "Equal",
  "2994": " da",
  "2995": "etch",
  "2996": "entity",
  "2997": " family",
  "2998": "adding",
  "2999": " option",
  "3000": " exist",
  "3001": "ica",
  "3002": " Object",
  "3003": "'ve",
  "3004": "vers",
  "3005": "itional",
  "3006": "output",
  "3007": " True",
  "3008": " OF",
  "3009": "_time",
  "3010": " offer",
  "3011": " });\n\n",
  "3012": "HER",
  "3013": "egin",
  "3014": "\"\"",
  "3015": " water",
  "3016": " che",
  "3017": " My",
  "3018": "ored",
  "3019": " step",
  "3020": "ances",
  "3021": "CK",
  "3022": "AY",
  "3023": "�",
  "3024": "struction",
  "3025": "(C",
  "3026": "ouch",
  "3027": "Stream",
  "3028": "active",
  "3029": "ama",
  "3030": "Entity",
  "3031": "product",
  "3032": "(){\n",
  "3033": " government",
  "3034": " ID",
  "3035": "ajor",
  "3036": "And",
  "3037": " display",
  "3038": "л",
  "3039": " times",
  "3040": " four",
  "3041": " far",
  "3042": " present",
  "3043": " NS",
  "3044": " \\\n",
  "3045": "uest",
  "3046": " bas",
  "3047": "echo",
  "3048": "child",
  "3049": "ifier",
  "3050": "Handler",
  "3051": " lib",
  "3052": "Property",
  "3053": "translation",
  "3054": " room",
  "3055": " once",
  "3056": " []",
  "3057": "center",
  "3058": "================================",
  "3059": " results",
  "3060": " continue",
  "3061": " talk",
  "3062": "_get",
  "3063": " grow",
  "3064": ".sw",
  "3065": "eb",
  "3066": " Public",
  "3067": "OP",
  "3068": "ecute",
  "3069": "ols",
  "3070": " **",
  "3071": "\");\n\n",
  "3072": " mass",
  "3073": "ured",
  "3074": ".class",
  "3075": "omic",
  "3076": " mean",
  "3077": "ips",
  "3078": " aut",
  "3079": ");\r\n\r\n",
  "3080": " until",
  "3081": " market",
  "3082": " area",
  "3083": "uit",
  "3084": " length",
  "3085": " With",
  "3086": "structor",
  "3087": "event",
  "3088": "\"><",
  "3089": " Sp",
  "3090": "IV",
  "3091": " mus",
  "3092": "iff",
  "3093": " kind",
  "3094": "author",
  "3095": "ounds",
  "3096": "mb",
  "3097": "_key",
  "3098": "width",
  "3099": "pository",
  "3100": " light",
  "3101": "uk",
  "3102": "Row",
  "3103": "ohn",
  "3104": "alf",
  "3105": "vironment",
  "3106": "apper",
  "3107": "ollections",
  "3108": " side",
  "3109": "_info",
  "3110": " example",
  "3111": "imary",
  "3112": " wr",
  "3113": " camp",
  "3114": "cribe",
  "3115": "\"/",
  "3116": " miss",
  "3117": "way",
  "3118": " based",
  "3119": " plan",
  "3120": "Vis",
  "3121": "omain",
  "3122": "unk",
  "3123": " away",
  "3124": "UP",
  "3125": "<T",
  "3126": "OS",
  "3127": "iod",
  "3128": " Mon",
  "3129": "’re",
  "3130": " lik",
  "3131": "ç",
  "3132": "ively",
  "3133": ".v",
  "3134": "imer",
  "3135": "izer",
  "3136": "Sub",
  "3137": " button",
  "3138": " Up",
  "3139": " experience",
  "3140": "CL",
  "3141": " render",
  "3142": "_value",
  "3143": " near",
  "3144": "URL",
  "3145": "alt",
  "3146": " country",
  "3147": "ibility",
  "3148": "(),\n",
  "3149": "ead",
  "3150": " author",
  "3151": " specific",
  "3152": "base",
  "3153": "(name",
  "3154": "ones",
  "3155": " Do",
  "3156": " along",
  "3157": "year",
  "3158": " express",
  "3159": ".'",
  "3160": "env",
  "3161": " begin",
  "3162": " software",
  "3163": " imp",
  "3164": " win",
  "3165": "ón",
  "3166": " thing",
  "3167": "Trans",
  "3168": " THE",
  "3169": " <?",
  "3170": " why",
  "3171": " doesn",
  "3172": "ij",
  "3173": "ging",
  "3174": "\tg",
  "3175": " single",
  "3176": "offset",
  "3177": "arning",
  "3178": "ograph",
  "3179": "ley",
  "3180": "_count",
  "3181": " anal",
  "3182": "create",
  "3183": "/m",
  "3184": " Reg",
  "3185": "unch",
  "3186": "=$",
  "3187": "isk",
  "3188": " rights",
  "3189": "(M",
  "3190": " \"\"\"\n",
  "3191": "aper",
  "3192": ".model",
  "3193": " po",
  "3194": "empty",
  "3195": "artment",
  "3196": " ant",
  "3197": " When",
  "3198": " women",
  "3199": " Ed",
  "3200": " season",
  "3201": " dest",
  "3202": "ã",
  "3203": "(h",
  "3204": " possible",
  "3205": " sever",
  "3206": " btn",
  "3207": " didn",
  "3208": " sent",
  "3209": " enc",
  "3210": " command",
  "3211": " ],\n",
  "3212": "_x",
  "3213": " recent",
  "3214": "olution",
  "3215": "vector",
  "3216": " By",
  "3217": " May",
  "3218": " Act",
  "3219": "��",
  "3220": " money",
  "3221": "INT",
  "3222": "bsite",
  "3223": "\tp",
  "3224": ".\r\n",
  "3225": "﻿",
  "3226": "sl",
  "3227": "attern",
  "3228": " Class",
  "3229": " told",
  "3230": "udio",
  "3231": "current",
  "3232": " equ",
  "3233": " auto",
  "3234": " State",
  "3235": "da",
  "3236": "msg",
  "3237": "));\n\n",
  "3238": " working",
  "3239": " query",
  "3240": " Br",
  "3241": " window",
  "3242": "auth",
  "3243": "only",
  "3244": "\tt",
  "3245": " least",
  "3246": "agn",
  "3247": " expl",
  "3248": "itter",
  "3249": "aring",
  "3250": " column",
  "3251": " General",
  "3252": "\":\"",
  "3253": "eral",
  "3254": "rior",
  "3255": " record",
  "3256": "IB",
  "3257": "EX",
  "3258": " dat",
  "3259": " making",
  "3260": "ued",
  "3261": " Car",
  "3262": "emp",
  "3263": "\".",
  "3264": " Med",
  "3265": " close",
  "3266": " percent",
  "3267": " past",
  "3268": "(g",
  "3269": ":(",
  "3270": " write",
  "3271": " move",
  "3272": " pat",
  "3273": "Control",
  "3274": ".To",
  "3275": " vi",
  "3276": "*/\n",
  "3277": "inate",
  "3278": "'ll",
  "3279": "aged",
  "3280": "Null",
  "3281": " special",
  "3282": "IZE",
  "3283": " city",
  "3284": "/*\n",
  "3285": " Eng",
  "3286": "ixed",
  "3287": "inary",
  "3288": "py",
  "3289": " eff",
  "3290": "ario",
  "3291": " tell",
  "3292": "avor",
  "3293": " select",
  "3294": "level",
  "3295": "imum",
  "3296": "oper",
  "3297": "Builder",
  "3298": "IP",
  "3299": "'),\n",
  "3300": "esc",
  "3301": " font",
  "3302": "\";\n\n",
  "3303": " Am",
  "3304": "ished",
  "3305": "ills",
  "3306": "Inter",
  "3307": "OW",
  "3308": " course",
  "3309": " late",
  "3310": "iddle",
  "3311": " amount",
  "3312": " async",
  "3313": "ino",
  "3314": "cul",
  "3315": " �",
  "3316": "andle",
  "3317": "_user",
  "3318": " ben",
  "3319": " Cal",
  "3320": " $_",
  "3321": " Rep",
  "3322": " enough",
  "3323": "Token",
  "3324": ".user",
  "3325": "(j",
  "3326": "Sc",
  "3327": "Width",
  "3328": "now",
  "3329": "atform",
  "3330": " looking",
  "3331": " hold",
  "3332": "Module",
  "3333": "ITY",
  "3334": "vo",
  "3335": "ison",
  "3336": ".Data",
  "3337": "yc",
  "3338": " pot",
  "3339": " Trump",
  "3340": "idual",
  "3341": "ides",
  "3342": "rt",
  "3343": " property",
  "3344": "                                           ",
  "3345": "amework",
  "3346": "go",
  "3347": " low",
  "3348": " para",
  "3349": " price",
  "3350": "ury",
  "3351": " today",
  "3352": "roy",
  "3353": " '/",
  "3354": " polit",
  "3355": " ''",
  "3356": "ymb",
  "3357": "Ph",
  "3358": " adv",
  "3359": " attack",
  "3360": " Ste",
  "3361": "ROM",
  "3362": "ana",
  "3363": " means",
  "3364": " story",
  "3365": "ids",
  "3366": "aken",
  "3367": " meet",
  "3368": " mom",
  "3369": " ‘",
  "3370": " ?>",
  "3371": " den",
  "3372": "obile",
  "3373": "change",
  "3374": "            \n",
  "3375": "ici",
  "3376": "na",
  "3377": " Form",
  "3378": " sort",
  "3379": "Select",
  "3380": "pare",
  "3381": " thought",
  "3382": "_con",
  "3383": " task",
  "3384": "ocus",
  "3385": " DE",
  "3386": " Min",
  "3387": " opt",
  "3388": "\tbreak",
  "3389": "umer",
  "3390": "KE",
  "3391": "then",
  "3392": " det",
  "3393": " Test",
  "3394": "ports",
  "3395": " review",
  "3396": "('/",
  "3397": "move",
  "3398": " switch",
  "3399": "ERT",
  "3400": "patch",
  "3401": "annot",
  "3402": "�",
  "3403": " above",
  "3404": "itive",
  "3405": " question",
  "3406": " Qu",
  "3407": "。\n\n",
  "3408": "gle",
  "3409": " word",
  "3410": " provide",
  "3411": " Return",
  "3412": " research",
  "3413": "ão",
  "3414": "ustr",
  "3415": " publish",
  "3416": "chema",
  "3417": "}}",
  "3418": " CON",
  "3419": "-in",
  "3420": "allback",
  "3421": " cover",
  "3422": "\\\\",
  "3423": "color",
  "3424": " IS",
  "3425": " whether",
  "3426": "imate",
  "3427": "isc",
  "3428": "Bar",
  "3429": " div",
  "3430": "Be",
  "3431": "ourn",
  "3432": " having",
  "3433": "lem",
  "3434": "player",
  "3435": "abs",
  "3436": "amera",
  "3437": "ney",
  "3438": " exc",
  "3439": "gether",
  "3440": "plied",
  "3441": "ao",
  "3442": "[$",
  "3443": " ++",
  "3444": "ipe",
  "3445": "show",
  "3446": "/d",
  "3447": "[:",
  "3448": "agement",
  "3449": "lev",
  "3450": "_ID",
  "3451": "rary",
  "3452": "ades",
  "3453": "_se",
  "3454": "ause",
  "3455": " employ",
  "3456": " */\r\n",
  "3457": " fre",
  "3458": " '@",
  "3459": " complet",
  "3460": " large",
  "3461": "ral",
  "3462": "\\x",
  "3463": " fac",
  "3464": "<String",
  "3465": " created",
  "3466": "uper",
  "3467": ".state",
  "3468": " host",
  "3469": "eneric",
  "3470": "/b",
  "3471": "(!",
  "3472": "while",
  "3473": "ias",
  "3474": "BUG",
  "3475": " );\n\n",
  "3476": " role",
  "3477": "Reg",
  "3478": " Color",
  "3479": "Start",
  "3480": " porn",
  "3481": "top",
  "3482": " web",
  "3483": " dev",
  "3484": " deal",
  "3485": "++)\n",
  "3486": "Integer",
  "3487": "position",
  "3488": ".on",
  "3489": " (\"",
  "3490": "�",
  "3491": " problem",
  "3492": "sv",
  "3493": " press",
  "3494": "ABLE",
  "3495": "ATION",
  "3496": " See",
  "3497": "anch",
  "3498": " though",
  "3499": "leep",
  "3500": " <!--",
  "3501": " points",
  "3502": "                         ",
  "3503": ".J",
  "3504": " ::",
  "3505": "ptr",
  "3506": "DB",
  "3507": "++;\n",
  "3508": ".png",
  "3509": "node",
  "3510": "soft",
  "3511": "pond",
  "3512": " ever",
  "3513": "----------------------------------------------------------------",
  "3514": "Menu",
  "3515": "('#",
  "3516": " services",
  "3517": "pg",
  "3518": "})\n",
  "3519": "params",
  "3520": " actually",
  "3521": " \"/",
  "3522": "Empty",
  "3523": "Method",
  "3524": " ident",
  "3525": "unic",
  "3526": " million",
  "3527": " aff",
  "3528": "style",
  "3529": " conc",
  "3530": "ios",
  "3531": "ignment",
  "3532": "ULT",
  "3533": "Pr",
  "3534": "\";\r\n",
  "3535": " understand",
  "3536": "uary",
  "3537": " happen",
  "3538": " server",
  "3539": " Co",
  "3540": "SC",
  "3541": " les",
  "3542": " files",
  "3543": "Grid",
  "3544": "sql",
  "3545": " often",
  "3546": " info",
  "3547": "_tr",
  "3548": "src",
  "3549": "ony",
  "3550": " space",
  "3551": "umb",
  "3552": " password",
  "3553": " store",
  "3554": ",\n\n",
  "3555": " What",
  "3556": "ged",
  "3557": " False",
  "3558": "Us",
  "3559": "swer",
  "3560": "_index",
  "3561": " format",
  "3562": "most",
  "3563": "sm",
  "3564": "New",
  "3565": " details",
  "3566": " prob",
  "3567": " AND",
  "3568": "()\r\n",
  "3569": "ilar",
  "3570": " ${",
  "3571": "rypt",
  "3572": ".Collections",
  "3573": "$this",
  "3574": " Free",
  "3575": "_of",
  "3576": "(false",
  "3577": "dated",
  "3578": " >>",
  "3579": " face",
  "3580": "CTION",
  "3581": " save",
  "3582": " typ",
  "3583": "dev",
  "3584": "(\"#",
  "3585": "AGE",
  "3586": "container",
  "3587": "edit",
  "3588": "QL",
  "3589": " items",
  "3590": " social",
  "3591": "ien",
  "3592": " React",
  "3593": ").\n\n",
  "3594": " mar",
  "3595": " redu",
  "3596": " RE",
  "3597": ".put",
  "3598": " major",
  "3599": "Cell",
  "3600": "next",
  "3601": " expected",
  "3602": " yet",
  "3603": " indiv",
  "3604": "tributes",
  "3605": "atis",
  "3606": "amed",
  "3607": " food",
  "3608": "Source",
  "3609": "(string",
  "3610": " +\n",
  "3611": "ites",
  "3612": "dr",
  "3613": " members",
  "3614": " comb",
  "3615": "items",
  "3616": " Per",
  "3617": "TH",
  "3618": "=True",
  "3619": " bar",
  "3620": "_SE",
  "3621": "comm",
  "3622": "(w",
  "3623": ")\n\n\n",
  "3624": " send",
  "3625": " inc",
  "3626": "unsigned",
  "3627": "FA",
  "3628": " params",
  "3629": "apping",
  "3630": "ros",
  "3631": "ugin",
  "3632": "fa",
  "3633": " connection",
  "3634": " };\n\n",
  "3635": " become",
  "3636": "Mode",
  "3637": " ev",
  "3638": " diff",
  "3639": " United",
  "3640": "Height",
  "3641": "fully",
  "3642": "images",
  "3643": " makes",
  "3644": " global",
  "3645": " contact",
  "3646": "':\n",
  "3647": " abs",
  "3648": "а�",
  "3649": "float",
  "3650": " except",
  "3651": " Pol",
  "3652": "Child",
  "3653": "typ",
  "3654": " certain",
  "3655": "ión",
  "3656": "OUT",
  "3657": " impro",
  "3658": "iles",
  "3659": " -->\n",
  "3660": " Part",
  "3661": "values",
  "3662": "oss",
  "3663": "/**",
  "3664": "ilit",
  "3665": " Event",
  "3666": "curity",
  "3667": "ster",
  "3668": " character",
  "3669": " news",
  "3670": " \",",
  "3671": " device",
  "3672": "cel",
  "3673": "login",
  "3674": "heet",
  "3675": "Default",
  "3676": "@\"",
  "3677": "\t ",
  "3678": "click",
  "3679": "(value",
  "3680": " Ab",
  "3681": " previous",
  "3682": "ERROR",
  "3683": "ocal",
  "3684": " material",
  "3685": " below",
  "3686": " Christ",
  "3687": " media",
  "3688": "cover",
  "3689": " UI",
  "3690": " fail",
  "3691": " black",
  "3692": " component",
  "3693": " American",
  "3694": " added",
  "3695": " buy",
  "3696": "stit",
  "3697": " came",
  "3698": " delete",
  "3699": "property",
  "3700": "oding",
  "3701": " card",
  "3702": "rops",
  "3703": " https",
  "3704": " root",
  "3705": " handle",
  "3706": "CC",
  "3707": "Back",
  "3708": "emplate",
  "3709": " getting",
  "3710": "_by",
  "3711": "mail",
  "3712": "_sh",
  "3713": ".assert",
  "3714": " Dec",
  "3715": "(true",
  "3716": " comput",
  "3717": " claim",
  "3718": "'=>",
  "3719": " Sub",
  "3720": " air",
  "3721": "ops",
  "3722": "nav",
  "3723": "ements",
  "3724": "(id",
  "3725": " enter",
  "3726": "anged",
  "3727": "End",
  "3728": " location",
  "3729": " night",
  "3730": " doing",
  "3731": " Red",
  "3732": "lin",
  "3733": "}\n\n\n",
  "3734": "vider",
  "3735": " pick",
  "3736": " watch",
  "3737": "essages",
  "3738": " human",
  "3739": " dam",
  "3740": "pend",
  "3741": "dir",
  "3742": " tax",
  "3743": " girl",
  "3744": "reet",
  "3745": " box",
  "3746": " strong",
  "3747": "(v",
  "3748": "rel",
  "3749": " interface",
  "3750": " msg",
  "3751": "fect",
  "3752": "_at",
  "3753": " house",
  "3754": " track",
  "3755": "');\n\n",
  "3756": "je",
  "3757": " John",
  "3758": "istr",
  "3759": "(S",
  "3760": "ube",
  "3761": " ce",
  "3762": "itted",
  "3763": "VER",
  "3764": "*)",
  "3765": "parent",
  "3766": " application",
  "3767": "any",
  "3768": ".swing",
  "3769": " pack",
  "3770": "\\u",
  "3771": " pract",
  "3772": " section",
  "3773": "ctx",
  "3774": " unsigned",
  "3775": ".Point",
  "3776": " One",
  "3777": "ı",
  "3778": "iple",
  "3779": "aid",
  "3780": "у",
  "3781": "Vector",
  "3782": "byte",
  "3783": " wait",
  "3784": " à",
  "3785": "å",
  "3786": " together",
  "3787": " throws",
  "3788": "FO",
  "3789": "'))",
  "3790": "host",
  "3791": "ising",
  "3792": ".view",
  "3793": " terms",
  "3794": "framework",
  "3795": "-r",
  "3796": " apply",
  "3797": " session",
  "3798": "Options",
  "3799": "uggest",
  "3800": " others",
  "3801": "witter",
  "3802": " fund",
  "3803": "Init",
  "3804": "__(",
  "3805": "ensor",
  "3806": "GET",
  "3807": " several",
  "3808": "ii",
  "3809": "[j",
  "3810": "IO",
  "3811": " template",
  "3812": "Position",
  "3813": " econ",
  "3814": "achine",
  "3815": " il",
  "3816": ".spring",
  "3817": "main",
  "3818": "elt",
  "3819": "iment",
  "3820": "Rec",
  "3821": "mm",
  "3822": " University",
  "3823": "ursor",
  "3824": "                    ",
  "3825": "GL",
  "3826": "icture",
  "3827": "ithub",
  "3828": "cer",
  "3829": "cast",
  "3830": "From",
  "3831": "ales",
  "3832": " subject",
  "3833": "password",
  "3834": "ny",
  "3835": " esc",
  "3836": ".write",
  "3837": "，",
  "3838": "What",
  "3839": ".H",
  "3840": " history",
  "3841": " Fe",
  "3842": " individual",
  "3843": "unit",
  "3844": " -->",
  "3845": " du",
  "3846": "IST",
  "3847": " users",
  "3848": "fs",
  "3849": "false",
  "3850": "unt",
  "3851": "Title",
  "3852": " mot",
  "3853": " future",
  "3854": "ached",
  "3855": " started",
  "3856": " mode",
  "3857": " '<",
  "3858": "_array",
  "3859": " ax",
  "3860": "'];\n",
  "3861": "ires",
  "3862": "There",
  "3863": "ught",
  "3864": "tml",
  "3865": "posed",
  "3866": "icult",
  "3867": " took",
  "3868": " games",
  "3869": " }}",
  "3870": " ?>\n",
  "3871": " products",
  "3872": "Is",
  "3873": " bad",
  "3874": " Des",
  "3875": ".path",
  "3876": "'\n\n",
  "3877": " Post",
  "3878": "avel",
  "3879": "(:",
  "3880": " needs",
  "3881": " known",
  "3882": "Fl",
  "3883": " exec",
  "3884": " seen",
  "3885": "ume",
  "3886": " border",
  "3887": " live",
  "3888": "temp",
  "3889": "Per",
  "3890": " variable",
  "3891": "iet",
  "3892": " Def",
  "3893": " ge",
  "3894": "eme",
  "3895": "_back",
  "3896": "first",
  "3897": " provided",
  "3898": "////////////////////////////////",
  "3899": " filename",
  "3900": " hope",
  "3901": "uly",
  "3902": "auto",
  "3903": "find",
  "3904": "_string",
  "3905": "btn",
  "3906": "itude",
  "3907": "Attribute",
  "3908": " young",
  "3909": ".txt",
  "3910": " website",
  "3911": " Prop",
  "3912": " ey",
  "3913": ">();\n",
  "3914": "ional",
  "3915": "ARR",
  "3916": "ictionary",
  "3917": "urther",
  "3918": ".</",
  "3919": "ALL",
  "3920": " study",
  "3921": "ili",
  "3922": " network",
  "3923": "yl",
  "3924": "istance",
  "3925": "OK",
  "3926": "NU",
  "3927": "rest",
  "3928": " ST",
  "3929": "icrosoft",
  "3930": " limit",
  "3931": " cut",
  "3932": "():\n",
  "3933": " cou",
  "3934": "ogn",
  "3935": " sizeof",
  "3936": "ival",
  "3937": " went",
  "3938": ".z",
  "3939": "Link",
  "3940": " fire",
  "3941": " across",
  "3942": " community",
  "3943": "region",
  "3944": "NE",
  "3945": "Ref",
  "3946": " official",
  "3947": " visit",
  "3948": "olve",
  "3949": " received",
  "3950": " token",
  "3951": " months",
  "3952": " anim",
  "3953": " particular",
  "3954": "styles",
  "3955": "ico",
  "3956": " ess",
  "3957": ".Control",
  "3958": " é",
  "3959": "ball",
  "3960": " learn",
  "3961": "inding",
  "3962": "Var",
  "3963": " decl",
  "3964": "(err",
  "3965": "LECT",
  "3966": "One",
  "3967": "pha",
  "3968": " ~",
  "3969": "fort",
  "3970": "asure",
  "3971": " mind",
  "3972": " End",
  "3973": "Check",
  "3974": " quick",
  "3975": "\"),",
  "3976": "AND",
  "3977": "utions",
  "3978": "Base",
  "3979": "________",
  "3980": " comment",
  "3981": "INE",
  "3982": "’ve",
  "3983": "But",
  "3984": " El",
  "3985": " Us",
  "3986": " admin",
  "3987": "mark",
  "3988": " Name",
  "3989": "`\n",
  "3990": " Type",
  "3991": "amic",
  "3992": "pc",
  "3993": "loor",
  "3994": "FT",
  "3995": " opp",
  "3996": "cket",
  "3997": ")->",
  "3998": "tx",
  "3999": " pur",
  "4000": "uel",
  "4001": "ymbol",
  "4002": "uation",
  "4003": "anger",
  "4004": " background",
  "4005": "ecess",
  "4006": "efined",
  "4007": "........",
  "4008": " description",
  "4009": " represent",
  "4010": "\"));\n",
  "4011": "pression",
  "4012": "rowser",
  "4013": " series",
  "4014": "wards",
  "4015": "($_",
  "4016": "aise",
  "4017": " hot",
  "4018": "acity",
  "4019": "ries",
  "4020": "actions",
  "4021": "Create",
  "4022": "adio",
  "4023": "amples",
  "4024": " original",
  "4025": "ensive",
  "4026": "font",
  "4027": "stream",
  "4028": "﻿using",
  "4029": ".springframework",
  "4030": "server",
  "4031": " bill",
  "4032": "ACK",
  "4033": "ilename",
  "4034": " frame",
  "4035": " =\n",
  "4036": "Edit",
  "4037": "adius",
  "4038": " draw",
  "4039": "anks",
  "4040": " deter",
  "4041": " comes",
  "4042": "_int",
  "4043": " foreach",
  "4044": "angle",
  "4045": " elect",
  "4046": "pected",
  "4047": "Header",
  "4048": "istration",
  "4049": "False",
  "4050": " Game",
  "4051": " filter",
  "4052": "Activity",
  "4053": " larg",
  "4054": "inition",
  "4055": " \"<",
  "4056": "ised",
  "4057": " remove",
  "4058": " Trans",
  "4059": "met",
  "4060": "see",
  "4061": "Format",
  "4062": "Command",
  "4063": " EX",
  "4064": "None",
  "4065": " front",
  "4066": "ASE",
  "4067": " Rec",
  "4068": "oundation",
  "4069": " vo",
  "4070": "=\\\"",
  "4071": "(*",
  "4072": "Change",
  "4073": ".Write",
  "4074": "group",
  "4075": "ients",
  "4076": "uy",
  "4077": "****************************************************************",
  "4078": " dig",
  "4079": "hr",
  "4080": "(-",
  "4081": " gen",
  "4082": "number",
  "4083": "vec",
  "4084": "urope",
  "4085": "entry",
  "4086": "LL",
  "4087": " ste",
  "4088": "Valid",
  "4089": "'],",
  "4090": "_param",
  "4091": " selected",
  "4092": " according",
  "4093": " Dis",
  "4094": " util",
  "4095": "Buffer",
  "4096": "_error",
  "4097": " associ",
  "4098": "_SIZE",
  "4099": " wor",
  "4100": " printf",
  "4101": "rag",
  "4102": " ",
  "4103": "DD",
  "4104": " Val",
  "4105": " activ",
  "4106": "Eng",
  "4107": "etime",
  "4108": " virtual",
  "4109": "aign",
  "4110": "aur",
  "4111": " Pres",
  "4112": " Exception",
  "4113": " anything",
  "4114": " Off",
  "4115": " hours",
  "4116": " war",
  "4117": "Args",
  "4118": "aging",
  "4119": " models",
  "4120": " Time",
  "4121": "Ob",
  "4122": "ams",
  "4123": "joy",
  "4124": " early",
  "4125": ".read",
  "4126": " center",
  "4127": " Initial",
  "4128": " language",
  "4129": "length",
  "4130": "xy",
  "4131": " sn",
  "4132": " inf",
  "4133": "Post",
  "4134": " ago",
  "4135": " easy",
  "4136": "_code",
  "4137": " ANY",
  "4138": "_ch",
  "4139": " download",
  "4140": "(T",
  "4141": "aved",
  "4142": "–",
  "4143": " students",
  "4144": " fig",
  "4145": "light",
  "4146": "xx",
  "4147": " buffer",
  "4148": " Dep",
  "4149": " Math",
  "4150": "ITH",
  "4151": " vari",
  "4152": " due",
  "4153": "Factory",
  "4154": " por",
  "4155": " ep",
  "4156": "otype",
  "4157": " cannot",
  "4158": " white",
  "4159": "<int",
  "4160": "tern",
  "4161": " register",
  "4162": " pred",
  "4163": "clus",
  "4164": "_date",
  "4165": " /**",
  "4166": " auth",
  "4167": " []\n",
  "4168": " period",
  "4169": "nown",
  "4170": " vot",
  "4171": " screen",
  "4172": "'d",
  "4173": "Types",
  "4174": " tmp",
  "4175": "е�",
  "4176": "ural",
  "4177": " benef",
  "4178": "_y",
  "4179": " net",
  "4180": " States",
  "4181": "']['",
  "4182": " Ne",
  "4183": " NOT",
  "4184": " neg",
  "4185": " common",
  "4186": "scope",
  "4187": " cred",
  "4188": "ges",
  "4189": "_TYPE",
  "4190": " suggest",
  "4191": "oom",
  "4192": ".\n\n\n",
  "4193": " accept",
  "4194": " random",
  "4195": "erm",
  "4196": " Vector",
  "4197": "with",
  "4198": "TER",
  "4199": "(str",
  "4200": " respons",
  "4201": " hit",
  "4202": ".Set",
  "4203": "grid",
  "4204": "ria",
  "4205": " click",
  "4206": "undle",
  "4207": "Case",
  "4208": "insert",
  "4209": "Utils",
  "4210": " \"\"\"",
  "4211": " implement",
  "4212": "atal",
  "4213": "tempt",
  "4214": "template",
  "4215": "ocr",
  "4216": "returns",
  "4217": " players",
  "4218": "users",
  "4219": "edef",
  "4220": " These",
  "4221": " among",
  "4222": " deb",
  "4223": "ha",
  "4224": ".getElement",
  "4225": " circ",
  "4226": " answer",
  "4227": " walk",
  "4228": " treat",
  "4229": " Ge",
  "4230": " Create",
  "4231": " age",
  "4232": " req",
  "4233": "OST",
  "4234": "angular",
  "4235": "я",
  "4236": " five",
  "4237": " distributed",
  "4238": " friend",
  "4239": "TP",
  "4240": " clean",
  "4241": "ows",
  "4242": ".Controls",
  "4243": "dis",
  "4244": " words",
  "4245": ".io",
  "4246": "zy",
  "4247": " header",
  "4248": " Check",
  "4249": "’m",
  "4250": "just",
  "4251": "holder",
  "4252": "=\"<?",
  "4253": " GNU",
  "4254": " Col",
  "4255": "imest",
  "4256": "entic",
  "4257": "{\n\n",
  "4258": " tre",
  "4259": "last",
  "4260": "la",
  "4261": " York",
  "4262": "Lo",
  "4263": " discuss",
  "4264": " God",
  "4265": " issue",
  "4266": "rew",
  "4267": "Window",
  "4268": " land",
  "4269": " stream",
  "4270": " Par",
  "4271": " quality",
  "4272": "Par",
  "4273": "_num",
  "4274": " sal",
  "4275": "elves",
  "4276": "ORD",
  "4277": "(user",
  "4278": " works",
  "4279": " half",
  "4280": "enses",
  "4281": "vas",
  "4282": " police",
  "4283": "(\"/",
  "4284": "ua",
  "4285": " simple",
  "4286": "Address",
  "4287": " empty",
  "4288": "esh",
  "4289": "Update",
  "4290": " Created",
  "4291": "('.",
  "4292": ").\n",
  "4293": "                  ",
  "4294": " agre",
  "4295": " FROM",
  "4296": " cook",
  "4297": " everything",
  "4298": "ilities",
  "4299": ".status",
  "4300": " relations",
  "4301": "extern",
  "4302": " nothing",
  "4303": " running",
  "4304": "\tvoid",
  "4305": "RI",
  "4306": "_a",
  "4307": "_CON",
  "4308": "por",
  "4309": ".sub",
  "4310": "require",
  "4311": " City",
  "4312": " West",
  "4313": " mor",
  "4314": "store",
  "4315": "Equals",
  "4316": "oder",
  "4317": " na",
  "4318": " [[",
  "4319": " ('",
  "4320": " Don",
  "4321": "ERS",
  "4322": "/p",
  "4323": ".json",
  "4324": "abor",
  "4325": " someone",
  "4326": "_text",
  "4327": ".css",
  "4328": ".Tab",
  "4329": " Some",
  "4330": "ato",
  "4331": "double",
  "4332": " share",
  "4333": "(void",
  "4334": "_dir",
  "4335": " ur",
  "4336": "Stack",
  "4337": " World",
  "4338": ".X",
  "4339": "stract",
  "4340": "How",
  "4341": ".Generic",
  "4342": "icles",
  "4343": " entry",
  "4344": " changes",
  "4345": " personal",
  "4346": "(A",
  "4347": " offset",
  "4348": "_ptr",
  "4349": " pie",
  "4350": " Jan",
  "4351": "-group",
  "4352": "module",
  "4353": "Items",
  "4354": " However",
  "4355": "verage",
  "4356": ".Font",
  "4357": " events",
  "4358": ".min",
  "4359": " invol",
  "4360": "za",
  "4361": " whole",
  "4362": " needed",
  "4363": " likely",
  "4364": "rief",
  "4365": "ORM",
  "4366": "version",
  "4367": " fight",
  "4368": " ein",
  "4369": "Frame",
  "4370": "gen",
  "4371": " Out",
  "4372": "avigation",
  "4373": "Length",
  "4374": "illed",
  "4375": "quence",
  "4376": " !==",
  "4377": " Software",
  "4378": " writing",
  "4379": " rate",
  "4380": "'],\n",
  "4381": "Panel",
  "4382": "inner",
  "4383": " [\"",
  "4384": " tw",
  "4385": "cd",
  "4386": " ;\n",
  "4387": "_state",
  "4388": " Sm",
  "4389": " Mark",
  "4390": "))\n\n",
  "4391": "prot",
  "4392": " Mr",
  "4393": "method",
  "4394": "ustomer",
  "4395": "Icon",
  "4396": " correct",
  "4397": "(object",
  "4398": " More",
  "4399": " fall",
  "4400": " vol",
  "4401": " development",
  "4402": "ently",
  "4403": " si",
  "4404": "medi",
  "4405": "ving",
  "4406": "PP",
  "4407": "aker",
  "4408": " indu",
  "4409": " elif",
  "4410": " pret",
  "4411": " believe",
  "4412": "ns",
  "4413": "omet",
  "4414": " Intern",
  "4415": "Rect",
  "4416": "So",
  "4417": ".error",
  "4418": "Read",
  "4419": " features",
  "4420": " minutes",
  "4421": "---",
  "4422": "asing",
  "4423": "cret",
  "4424": "\">\r\n",
  "4425": ".annot",
  "4426": " collection",
  "4427": "'.",
  "4428": " similar",
  "4429": " taken",
  "4430": "(\"%",
  "4431": "Order",
  "4432": "']\n",
  "4433": "-md",
  "4434": " TH",
  "4435": "aced",
  "4436": " isn",
  "4437": "/j",
  "4438": " son",
  "4439": "graph",
  "4440": " Integer",
  "4441": " necess",
  "4442": "reen",
  "4443": " um",
  "4444": " \\<",
  "4445": " moment",
  "4446": " bring",
  "4447": " indic",
  "4448": "ysis",
  "4449": "Level",
  "4450": "verse",
  "4451": "urrenc",
  "4452": "_test",
  "4453": " entire",
  "4454": "Down",
  "4455": " }\n\n\n",
  "4456": "(result",
  "4457": " Read",
  "4458": "è",
  "4459": "Mod",
  "4460": " trying",
  "4461": "\"),\n",
  "4462": " member",
  "4463": " Cor",
  "4464": "ODO",
  "4465": "-control",
  "4466": "untime",
  "4467": " Sim",
  "4468": "Dialog",
  "4469": "plot",
  "4470": "_on",
  "4471": " phys",
  "4472": "}/",
  "4473": " namespace",
  "4474": "\t\r\n",
  "4475": "acc",
  "4476": "Player",
  "4477": "ARE",
  "4478": " foot",
  "4479": " board",
  "4480": "part",
  "4481": " sus",
  "4482": "wise",
  "4483": " Mc",
  "4484": " push",
  "4485": "ATA",
  "4486": " please",
  "4487": "ried",
  "4488": "weet",
  "4489": "bit",
  "4490": "ided",
  "4491": "VE",
  "4492": " Sw",
  "4493": "UB",
  "4494": " types",
  "4495": "edia",
  "4496": " clos",
  "4497": "acebook",
  "4498": "When",
  "4499": " edit",
  "4500": "igger",
  "4501": " energ",
  "4502": "Container",
  "4503": " phot",
  "4504": " Count",
  "4505": " Europe",
  "4506": ".Is",
  "4507": " Russ",
  "4508": "peed",
  "4509": " Str",
  "4510": " py",
  "4511": " cult",
  "4512": " defined",
  "4513": "ccount",
  "4514": " obt",
  "4515": ".Location",
  "4516": " thread",
  "4517": "ille",
  "4518": " instead",
  "4519": "strong",
  "4520": " Sec",
  "4521": "URE",
  "4522": " idea",
  "4523": ".se",
  "4524": "emy",
  "4525": "selected",
  "4526": "Connection",
  "4527": "acing",
  "4528": "thread",
  "4529": ".next",
  "4530": " coll",
  "4531": " film",
  "4532": "istic",
  "4533": " compet",
  "4534": " conn",
  "4535": "though",
  "4536": " compan",
  "4537": "ocket",
  "4538": " teach",
  "4539": "=(",
  "4540": " phone",
  "4541": " active",
  "4542": "delete",
  "4543": "tries",
  "4544": " mo",
  "4545": " death",
  "4546": "});\n\n",
  "4547": "ocol",
  "4548": "Widget",
  "4549": " article",
  "4550": "rodu",
  "4551": "andid",
  "4552": "ы",
  "4553": " Cr",
  "4554": "ka",
  "4555": "():",
  "4556": "lood",
  "4557": "\t\t\t\n",
  "4558": " almost",
  "4559": " sell",
  "4560": "ervlet",
  "4561": "rip",
  "4562": "Unit",
  "4563": " applic",
  "4564": " connect",
  "4565": " feature",
  "4566": " via",
  "4567": "'),",
  "4568": " lim",
  "4569": "                                               ",
  "4570": " Gu",
  "4571": "Engine",
  "4572": " ens",
  "4573": " environment",
  "4574": "block",
  "4575": "HERE",
  "4576": "NULL",
  "4577": "gy",
  "4578": "tag",
  "4579": ")).",
  "4580": "exp",
  "4581": " compl",
  "4582": " install",
  "4583": " complete",
  "4584": "queue",
  "4585": "atural",
  "4586": " general",
  "4587": "thon",
  "4588": " asked",
  "4589": "ores",
  "4590": "(res",
  "4591": " reserved",
  "4592": "SP",
  "4593": " …",
  "4594": "ł",
  "4595": " signific",
  "4596": "Off",
  "4597": "                             ",
  "4598": " Ag",
  "4599": " Just",
  "4600": " Error",
  "4601": " infl",
  "4602": "adata",
  "4603": " icon",
  "4604": "asks",
  "4605": "''",
  "4606": "_LO",
  "4607": "?.",
  "4608": "account",
  "4609": " (*",
  "4610": "')\n\n",
  "4611": "rap",
  "4612": "_var",
  "4613": " FOR",
  "4614": " party",
  "4615": " Your",
  "4616": "cat",
  "4617": "stry",
  "4618": ".new",
  "4619": "boot",
  "4620": " Nov",
  "4621": " vector",
  "4622": " normal",
  "4623": " further",
  "4624": "Repository",
  "4625": " database",
  "4626": "attle",
  "4627": " music",
  "4628": " speed",
  "4629": " doc",
  "4630": "process",
  "4631": "IGHT",
  "4632": ".parse",
  "4633": " taking",
  "4634": " viol",
  "4635": "ceed",
  "4636": " After",
  "4637": " forward",
  "4638": " crit",
  "4639": "\"/>\n",
  "4640": "rot",
  "4641": " failed",
  "4642": "efore",
  "4643": " concern",
  "4644": "oe",
  "4645": "ba",
  "4646": " sender",
  "4647": " term",
  "4648": "has",
  "4649": "=\"#",
  "4650": " potential",
  "4651": "Num",
  "4652": " published",
  "4653": ".close",
  "4654": " Image",
  "4655": "straint",
  "4656": "UD",
  "4657": " Ob",
  "4658": " probably",
  "4659": "lim",
  "4660": "\":\n",
  "4661": "olume",
  "4662": " consum",
  "4663": "ague",
  "4664": "ensions",
  "4665": " investig",
  "4666": "-year",
  "4667": "');",
  "4668": "-sm",
  "4669": " enjoy",
  "4670": "orig",
  "4671": "ering",
  "4672": "cp",
  "4673": "leased",
  "4674": "plements",
  "4675": " returns",
  "4676": "pat",
  "4677": "BO",
  "4678": " House",
  "4679": ".Label",
  "4680": " weight",
  "4681": "ighb",
  "4682": " conditions",
  "4683": " exception",
  "4684": "description",
  "4685": " trad",
  "4686": "-to",
  "4687": " {}",
  "4688": " module",
  "4689": "END",
  "4690": ".ap",
  "4691": ".props",
  "4692": " constructor",
  "4693": "aves",
  "4694": " favor",
  "4695": " Now",
  "4696": ";i",
  "4697": " Main",
  "4698": "_k",
  "4699": "eries",
  "4700": "’ll",
  "4701": "transform",
  "4702": "imestamp",
  "4703": "Pre",
  "4704": " mer",
  "4705": ".res",
  "4706": "stant",
  "4707": "Location",
  "4708": "_NAME",
  "4709": " loss",
  "4710": " \n\n",
  "4711": "net",
  "4712": " engine",
  "4713": "Block",
  "4714": " issues",
  "4715": " parse",
  "4716": " Bar",
  "4717": " stay",
  "4718": " JSON",
  "4719": " dom",
  "4720": "airs",
  "4721": "wner",
  "4722": " lower",
  "4723": "\",\r\n",
  "4724": " Dem",
  "4725": "ufact",
  "4726": " ps",
  "4727": " perfect",
  "4728": "RL",
  "4729": " educ",
  "4730": "ls",
  "4731": "emory",
  "4732": "ARRANT",
  "4733": "uge",
  "4734": " exact",
  "4735": ".key",
  "4736": "alled",
  "4737": "ech",
  "4738": "ief",
  "4739": "\\/",
  "4740": "oke",
  "4741": " former",
  "4742": "alloc",
  "4743": " six",
  "4744": "ida",
  "4745": " margin",
  "4746": " heart",
  "4747": "ald",
  "4748": "pack",
  "4749": ".getElementById",
  "4750": " WARRANT",
  "4751": " rather",
  "4752": " building",
  "4753": "erman",
  "4754": "lice",
  "4755": " questions",
  "4756": "izes",
  "4757": "lege",
  "4758": "irectory",
  "4759": " je",
  "4760": " cas",
  "4761": "props",
  "4762": "utf",
  "4763": " security",
  "4764": " however",
  "4765": "weight",
  "4766": " inside",
  "4767": " president",
  "4768": "Char",
  "4769": " WITH",
  "4770": ".map",
  "4771": " graph",
  "4772": " tag",
  "4773": "_status",
  "4774": " attempt",
  "4775": "opp",
  "4776": "uses",
  "4777": "\tconst",
  "4778": " round",
  "4779": ",$",
  "4780": " friends",
  "4781": "Email",
  "4782": "?>",
  "4783": "Resource",
  "4784": "KEY",
  "4785": "osp",
  "4786": ".query",
  "4787": " North",
  "4788": "ables",
  "4789": "istrib",
  "4790": "_class",
  "4791": "ello",
  "4792": "That",
  "4793": "к",
  "4794": "pecially",
  "4795": " President",
  "4796": " campaign",
  "4797": " alt",
  "4798": "area",
  "4799": " chall",
  "4800": " opport",
  "4801": ".Con",
  "4802": " energy",
  "4803": "like",
  "4804": ".string",
  "4805": "ington",
  "4806": ")*",
  "4807": "yy",
  "4808": " profession",
  "4809": "irth",
  "4810": " seg",
  "4811": "�",
  "4812": " hor",
  "4813": "iers",
  "4814": "can",
  "4815": " behind",
  "4816": "Product",
  "4817": "fg",
  "4818": " Sk",
  "4819": ".jpg",
  "4820": "?:",
  "4821": "];\n\n",
  "4822": " callback",
  "4823": " Http",
  "4824": "ь",
  "4825": "long",
  "4826": "MS",
  "4827": "ATH",
  "4828": " raise",
  "4829": " wanted",
  "4830": "rown",
  "4831": "utor",
  "4832": "lt",
  "4833": "]=",
  "4834": "eline",
  "4835": "MA",
  "4836": " separ",
  "4837": "cs",
  "4838": "semb",
  "4839": "Dis",
  "4840": "bserv",
  "4841": " Will",
  "4842": " policy",
  "4843": " third",
  "4844": "phone",
  "4845": " bed",
  "4846": "/g",
  "4847": ".__",
  "4848": " Inc",
  "4849": "izing",
  "4850": ".remove",
  "4851": "instance",
  "4852": ".type",
  "4853": " serv",
  "4854": "Each",
  "4855": " har",
  "4856": " Message",
  "4857": "(key",
  "4858": "SELECT",
  "4859": "Pos",
  "4860": "));\r\n",
  "4861": " recomm",
  "4862": " training",
  "4863": " Ent",
  "4864": " Char",
  "4865": "icht",
  "4866": "(file",
  "4867": " prior",
  "4868": "Game",
  "4869": " exit",
  "4870": "Params",
  "4871": ".core",
  "4872": "PC",
  "4873": "nes",
  "4874": "anced",
  "4875": "(request",
  "4876": "Password",
  "4877": "}>\n",
  "4878": " mag",
  "4879": " release",
  "4880": " shall",
  "4881": "udent",
  "4882": " South",
  "4883": "ando",
  "4884": ":'",
  "4885": ".TabIndex",
  "4886": "sk",
  "4887": "anner",
  "4888": "isset",
  "4889": " outside",
  "4890": "ledge",
  "4891": " �",
  "4892": " Rob",
  "4893": " imm",
  "4894": "!\n",
  "4895": " Web",
  "4896": "Des",
  "4897": "BC",
  "4898": "ancial",
  "4899": "Route",
  "4900": "Dec",
  "4901": "ferences",
  "4902": " purch",
  "4903": " Model",
  "4904": "ctor",
  "4905": "gn",
  "4906": "_start",
  "4907": "_un",
  "4908": ".*",
  "4909": "ises",
  "4910": " ground",
  "4911": " unique",
  "4912": " beaut",
  "4913": "{\"",
  "4914": " pour",
  "4915": " Oct",
  "4916": " tree",
  "4917": "sets",
  "4918": "_res",
  "4919": "')->",
  "4920": "_reg",
  "4921": "(\"\\",
  "4922": " byte",
  "4923": "Bl",
  "4924": " dating",
  "4925": " matter",
  "4926": " Rem",
  "4927": " '../",
  "4928": " Aug",
  "4929": " La",
  "4930": " $(",
  "4931": "ournal",
  "4932": "iam",
  "4933": " shows",
  "4934": "write",
  "4935": " ball",
  "4936": " simply",
  "4937": " fast",
  "4938": " memory",
  "4939": "ASS",
  "4940": " Of",
  "4941": "oved",
  "4942": "ante",
  "4943": "aul",
  "4944": "istry",
  "4945": ")));\n",
  "4946": " fit",
  "4947": "<string",
  "4948": " political",
  "4949": "ancel",
  "4950": "_.",
  "4951": "card",
  "4952": ".current",
  "4953": "och",
  "4954": "_image",
  "4955": "\\t",
  "4956": "#\n",
  "4957": "(L",
  "4958": " industry",
  "4959": "coming",
  "4960": " extra",
  "4961": " reported",
  "4962": ".start",
  "4963": " resources",
  "4964": " img",
  "4965": "flow",
  "4966": "_EX",
  "4967": "(null",
  "4968": " Pre",
  "4969": " wrong",
  "4970": "interface",
  "4971": "Parameter",
  "4972": "ners",
  "4973": "�",
  "4974": "ture",
  "4975": "ersist",
  "4976": "ountry",
  "4977": " seems",
  "4978": "alance",
  "4979": "dest",
  "4980": "\tString",
  "4981": " maint",
  "4982": " unit",
  "4983": "acters",
  "4984": " TR",
  "4985": "iful",
  "4986": "exports",
  "4987": "project",
  "4988": "Application",
  "4989": "legate",
  "4990": " takes",
  "4991": "term",
  "4992": " etc",
  "4993": "uster",
  "4994": " appear",
  "4995": "address",
  "4996": " fem",
  "4997": "hs",
  "4998": " hom",
  "4999": ",-",
  "5000": " difficult",
  "5001": " coming",
  "5002": "Open",
  "5003": " settings",
  "5004": " War",
  "5005": " Then",
  "5006": " autom",
  "5007": " Foundation",
  "5008": " quite",
  "5009": "Description",
  "5010": " blog",
  "5011": "iqu",
  "5012": "PS",
  "5013": "_field",
  "5014": "Json",
  "5015": "SSION",
  "5016": " Sch",
  "5017": " LO",
  "5018": " descri",
  "5019": " everyone",
  "5020": " pretty",
  "5021": " longer",
  "5022": " menu",
  "5023": " currently",
  "5024": "sec",
  "5025": " relationship",
  "5026": "################################",
  "5027": " Map",
  "5028": "aset",
  "5029": " parameters",
  "5030": " crush",
  "5031": "\"\r\n",
  "5032": "ILITY",
  "5033": "igration",
  "5034": " cout",
  "5035": "total",
  "5036": " names",
  "5037": "ndef",
  "5038": "\");",
  "5039": "riend",
  "5040": "ynamic",
  "5041": " effort",
  "5042": " actual",
  "5043": " fields",
  "5044": "OUN",
  "5045": "ters",
  "5046": " fix",
  "5047": "_model",
  "5048": " cases",
  "5049": "CA",
  "5050": "My",
  "5051": "Interface",
  "5052": " SE",
  "5053": "]]",
  "5054": "alle",
  "5055": " National",
  "5056": " ArrayList",
  "5057": "inline",
  "5058": ".V",
  "5059": "ara",
  "5060": "refix",
  "5061": "asc",
  "5062": "Reader",
  "5063": " п",
  "5064": "astic",
  "5065": "(()",
  "5066": "Cl",
  "5067": ".annotation",
  "5068": " performance",
  "5069": "aily",
  "5070": ".toString",
  "5071": ".net",
  "5072": "views",
  "5073": ".end",
  "5074": "ayers",
  "5075": "late",
  "5076": " Apr",
  "5077": "ederal",
  "5078": "'])",
  "5079": ".body",
  "5080": " higher",
  "5081": "_fl",
  "5082": "cr",
  "5083": "alert",
  "5084": "_node",
  "5085": " Google",
  "5086": " itself",
  "5087": "Auth",
  "5088": "urrency",
  "5089": " significant",
  "5090": "append",
  "5091": " respect",
  "5092": "strap",
  "5093": " una",
  "5094": "riteria",
  "5095": "PORT",
  "5096": ".apache",
  "5097": "Output",
  "5098": " progress",
  "5099": " mid",
  "5100": " Microsoft",
  "5101": " resource",
  "5102": "ablish",
  "5103": " dim",
  "5104": ".load",
  "5105": ".App",
  "5106": " direction",
  "5107": " additional",
  "5108": "                        ",
  "5109": " numbers",
  "5110": " companies",
  "5111": ".Th",
  "5112": " sound",
  "5113": "username",
  "5114": " statement",
  "5115": " alert",
  "5116": " contract",
  "5117": "home",
  "5118": "_length",
  "5119": ".Component",
  "5120": "ev",
  "5121": ".Ex",
  "5122": "：",
  "5123": "\";",
  "5124": " High",
  "5125": " )\n\n",
  "5126": " Point",
  "5127": "oph",
  "5128": " lines",
  "5129": "->_",
  "5130": "\")\n\n",
  "5131": "ox",
  "5132": "application",
  "5133": " ]\n",
  "5134": "\n\n\n\n\n\n",
  "5135": " soon",
  "5136": "ctions",
  "5137": "inger",
  "5138": " join",
  "5139": " Pe",
  "5140": " �",
  "5141": " las",
  "5142": ".E",
  "5143": "css",
  "5144": "/or",
  "5145": " Start",
  "5146": " TO",
  "5147": " subs",
  "5148": "conn",
  "5149": "components",
  "5150": "DEBUG",
  "5151": "quare",
  "5152": "Function",
  "5153": "endar",
  "5154": ".index",
  "5155": " fill",
  "5156": "ę",
  "5157": " choose",
  "5158": "how",
  "5159": " America",
  "5160": "assets",
  "5161": "------------",
  "5162": " Value",
  "5163": " office",
  "5164": " veh",
  "5165": " transform",
  "5166": " Art",
  "5167": " inde",
  "5168": " fn",
  "5169": " implements",
  "5170": "ango",
  "5171": "plete",
  "5172": "+\"",
  "5173": "tmp",
  "5174": "amily",
  "5175": " hash",
  "5176": "missions",
  "5177": "EST",
  "5178": "gt",
  "5179": "Provider",
  "5180": "                      ",
  "5181": " flag",
  "5182": " particip",
  "5183": "den",
  "5184": " Returns",
  "5185": " note",
  "5186": "ür",
  "5187": "pm",
  "5188": "ideos",
  "5189": " specified",
  "5190": " EN",
  "5191": "ester",
  "5192": "olid",
  "5193": " upon",
  "5194": "(std",
  "5195": "\tv",
  "5196": " '\\",
  "5197": "uz",
  "5198": " vert",
  "5199": " vict",
  "5200": "\tself",
  "5201": " \"$",
  "5202": ".k",
  "5203": " groups",
  "5204": "github",
  "5205": "lang",
  "5206": " mut",
  "5207": "TO",
  "5208": " ve",
  "5209": " Please",
  "5210": ";\n\n\n",
  "5211": "access",
  "5212": " {\"",
  "5213": "rea",
  "5214": " risk",
  "5215": "icker",
  "5216": "oggle",
  "5217": "\twhile",
  "5218": "ANG",
  "5219": ".send",
  "5220": " woman",
  "5221": " gets",
  "5222": " ign",
  "5223": " Id",
  "5224": "_log",
  "5225": "ONE",
  "5226": " evid",
  "5227": " Har",
  "5228": "_sub",
  "5229": " endl",
  "5230": " included",
  "5231": "());\n\n",
  "5232": " Ap",
  "5233": "igr",
  "5234": " sem",
  "5235": " Black",
  "5236": "doc",
  "5237": "_table",
  "5238": "                                                                ",
  "5239": "-up",
  "5240": " cause",
  "5241": " ..",
  "5242": " van",
  "5243": "_dict",
  "5244": " focus",
  "5245": "IND",
  "5246": "CESS",
  "5247": ".Log",
  "5248": " multiple",
  "5249": "ido",
  "5250": " regard",
  "5251": "-M",
  "5252": "andler",
  "5253": "ourse",
  "5254": " deg",
  "5255": ".U",
  "5256": " addition",
  "5257": " various",
  "5258": " receive",
  "5259": "ен",
  "5260": " HT",
  "5261": "Obj",
  "5262": "DF",
  "5263": " increase",
  "5264": " Open",
  "5265": "];",
  "5266": " commit",
  "5267": "?\n",
  "5268": "ategories",
  "5269": "atory",
  "5270": "ship",
  "5271": " Mich",
  "5272": " html",
  "5273": "romise",
  "5274": " leave",
  "5275": " strateg",
  "5276": "aven",
  "5277": " Console",
  "5278": "known",
  "5279": "-n",
  "5280": "_LE",
  "5281": ".component",
  "5282": " bre",
  "5283": "Session",
  "5284": "iance",
  "5285": " align",
  "5286": "typedef",
  "5287": "_result",
  "5288": " WHERE",
  "5289": ".split",
  "5290": " reading",
  "5291": "FAULT",
  "5292": " clo",
  "5293": " notice",
  "5294": "_pr",
  "5295": "arter",
  "5296": " lock",
  "5297": " standard",
  "5298": "etic",
  "5299": "ellow",
  "5300": " padding",
  "5301": " His",
  "5302": " states",
  "5303": "_cast",
  "5304": "(P",
  "5305": "aa",
  "5306": " internal",
  "5307": "ean",
  "5308": " PRO",
  "5309": " Key",
  "5310": " especially",
  "5311": "ming",
  "5312": " cross",
  "5313": " national",
  "5314": "_object",
  "5315": "filter",
  "5316": " script",
  "5317": ".update",
  "5318": "_i",
  "5319": " Assert",
  "5320": "/core",
  "5321": "%%%%",
  "5322": " problems",
  "5323": "istor",
  "5324": " .=",
  "5325": " arch",
  "5326": " written",
  "5327": " milit",
  "5328": "MENT",
  "5329": ".ch",
  "5330": "cape",
  "5331": " Mus",
  "5332": "_config",
  "5333": " API",
  "5334": "foot",
  "5335": " images",
  "5336": "endl",
  "5337": ".In",
  "5338": "First",
  "5339": " platform",
  "5340": ".prot",
  "5341": "Option",
  "5342": "ste",
  "5343": " TODO",
  "5344": " force",
  "5345": ".cont",
  "5346": "\techo",
  "5347": " Dav",
  "5348": "Ptr",
  "5349": "(B",
  "5350": "RT",
  "5351": " Base",
  "5352": "]['",
  "5353": " announc",
  "5354": "console",
  "5355": " Py",
  "5356": "ds",
  "5357": ".as",
  "5358": " prevent",
  "5359": "apan",
  "5360": " {'",
  "5361": "}</",
  "5362": " Service",
  "5363": " Sen",
  "5364": "ador",
  "5365": "profile",
  "5366": "Top",
  "5367": " iter",
  "5368": "po",
  "5369": "IES",
  "5370": "JSON",
  "5371": "IE",
  "5372": "iant",
  "5373": "、",
  "5374": "_j",
  "5375": " Sept",
  "5376": "_map",
  "5377": "bum",
  "5378": "(context",
  "5379": " Home",
  "5380": "ians",
  "5381": "GB",
  "5382": " living",
  "5383": " pattern",
  "5384": "(input",
  "5385": "icient",
  "5386": "Core",
  "5387": " entity",
  "5388": " integ",
  "5389": "Changed",
  "5390": " useful",
  "5391": ".info",
  "5392": " tool",
  "5393": "(item",
  "5394": " ok",
  "5395": " feed",
  "5396": "IX",
  "5397": "és",
  "5398": " News",
  "5399": "remove",
  "5400": "erry",
  "5401": "\t\t\t\t\t\t\t\t\t",
  "5402": "ipment",
  "5403": "ares",
  "5404": "Do",
  "5405": "Current",
  "5406": ".content",
  "5407": ".Group",
  "5408": "ustral",
  "5409": " с",
  "5410": "})",
  "5411": " popular",
  "5412": " stre",
  "5413": " methods",
  "5414": "_ERROR",
  "5415": "Left",
  "5416": "cal",
  "5417": "bsp",
  "5418": ".ToString",
  "5419": " dir",
  "5420": " allowed",
  "5421": " impact",
  "5422": "\")]\n",
  "5423": ".config",
  "5424": " elements",
  "5425": " prote",
  "5426": " train",
  "5427": ".tr",
  "5428": "rs",
  "5429": " Republic",
  "5430": " Task",
  "5431": "aries",
  "5432": "(D",
  "5433": "(get",
  "5434": "…\n\n",
  "5435": " related",
  "5436": " vers",
  "5437": " sil",
  "5438": " \"\";\n",
  "5439": " cmd",
  "5440": " technology",
  "5441": ".width",
  "5442": "Float",
  "5443": " Use",
  "5444": "Body",
  "5445": "should",
  "5446": ".join",
  "5447": "Font",
  "5448": "llum",
  "5449": "ycle",
  "5450": " Brit",
  "5451": " mit",
  "5452": " scale",
  "5453": " (_",
  "5454": "ernel",
  "5455": "\"))\n",
  "5456": " score",
  "5457": "/v",
  "5458": " student",
  "5459": "UC",
  "5460": ".show",
  "5461": " average",
  "5462": "Enabled",
  "5463": "(ex",
  "5464": "common",
  "5465": "imation",
  "5466": ":@\"",
  "5467": "chie",
  "5468": " ...\n\n",
  "5469": "river",
  "5470": " March",
  "5471": "category",
  "5472": "fin",
  "5473": " court",
  "5474": "в",
  "5475": "Server",
  "5476": " container",
  "5477": "-st",
  "5478": "_for",
  "5479": " parts",
  "5480": " decision",
  "5481": "obs",
  "5482": "oub",
  "5483": "mitted",
  "5484": " $('#",
  "5485": " saw",
  "5486": " approach",
  "5487": "ICE",
  "5488": " saying",
  "5489": " anyone",
  "5490": "meta",
  "5491": "SD",
  "5492": " song",
  "5493": "display",
  "5494": "Oper",
  "5495": "outes",
  "5496": " channel",
  "5497": " changed",
  "5498": "ê",
  "5499": " finally",
  "5500": "_number",
  "5501": "Please",
  "5502": "�",
  "5503": "oring",
  "5504": "-re",
  "5505": " kill",
  "5506": " drug",
  "5507": "window",
  "5508": " convert",
  "5509": "ombre",
  "5510": " ways",
  "5511": "Helper",
  "5512": " First",
  "5513": "(__",
  "5514": "urity",
  "5515": " Windows",
  "5516": "ees",
  "5517": " mat",
  "5518": "rapper",
  "5519": " plus",
  "5520": "anges",
  "5521": "\"].",
  "5522": "azon",
  "5523": "/t",
  "5524": "lat",
  "5525": "aste",
  "5526": " profile",
  "5527": " ready",
  "5528": "#ifndef",
  "5529": "rote",
  "5530": " sense",
  "5531": "Gener",
  "5532": " Config",
  "5533": "omy",
  "5534": " June",
  "5535": " latest",
  "5536": " saf",
  "5537": " region",
  "5538": " deep",
  "5539": "witch",
  "5540": " Park",
  "5541": "}`",
  "5542": " From",
  "5543": "II",
  "5544": " cv",
  "5545": " reach",
  "5546": " counter",
  "5547": " Work",
  "5548": " URL",
  "5549": " Update",
  "5550": "',\r\n",
  "5551": " immedi",
  "5552": "close",
  "5553": "ados",
  "5554": "ferred",
  "5555": " weeks",
  "5556": "urg",
  "5557": " damage",
  "5558": " lost",
  "5559": "ani",
  "5560": "_lo",
  "5561": " himself",
  "5562": " dog",
  "5563": ")]\n",
  "5564": "�",
  "5565": "pir",
  "5566": "tt",
  "5567": " paper",
  "5568": " thems",
  "5569": "second",
  "5570": " staff",
  "5571": " Input",
  "5572": "\"+",
  "5573": " Facebook",
  "5574": " alloc",
  "5575": " sched",
  "5576": "ACE",
  "5577": " themselves",
  "5578": " Component",
  "5579": " driver",
  "5580": "ja",
  "5581": "(path",
  "5582": " category",
  "5583": "alls",
  "5584": "pu",
  "5585": "lluminate",
  "5586": " Action",
  "5587": ".button",
  "5588": " GL",
  "5589": "istics",
  "5590": " oil",
  "5591": " stock",
  "5592": ">'",
  "5593": " dead",
  "5594": "VAL",
  "5595": "QUE",
  "5596": "************************************************************************",
  "5597": " charg",
  "5598": "Return",
  "5599": " ful",
  "5600": "dom",
  "5601": " rules",
  "5602": " modify",
  "5603": " eval",
  "5604": "ham",
  "5605": "atement",
  "5606": "\\<",
  "5607": "ula",
  "5608": "=False",
  "5609": "RA",
  "5610": " contains",
  "5611": " stack",
  "5612": "mar",
  "5613": " {}\n",
  "5614": " undefined",
  "5615": "Ass",
  "5616": " China",
  "5617": "vey",
  "5618": "*\n",
  "5619": " playing",
  "5620": ")/",
  "5621": "actor",
  "5622": " bottom",
  "5623": "lier",
  "5624": " Number",
  "5625": " couple",
  "5626": "DC",
  "5627": " SO",
  "5628": "gor",
  "5629": ".setText",
  "5630": "success",
  "5631": "command",
  "5632": "Filter",
  "5633": " Our",
  "5634": "_item",
  "5635": " ctx",
  "5636": " road",
  "5637": "Version",
  "5638": "case",
  "5639": "urt",
  "5640": "avior",
  "5641": "ych",
  "5642": "sembly",
  "5643": " Product",
  "5644": " held",
  "5645": "afe",
  "5646": " includes",
  "5647": "<quote",
  "5648": " avoid",
  "5649": " Fin",
  "5650": " Mod",
  "5651": " tab",
  "5652": "ano",
  "5653": "ñ",
  "5654": "ipping",
  "5655": "-e",
  "5656": " insert",
  "5657": "target",
  "5658": "chan",
  "5659": ".Model",
  "5660": "IME",
  "5661": "\\\n",
  "5662": " machine",
  "5663": "avy",
  "5664": " NO",
  "5665": " Inter",
  "5666": " operation",
  "5667": "modal",
  "5668": "Tag",
  "5669": "]:",
  "5670": " production",
  "5671": " areas",
  "5672": " ren",
  "5673": "_from",
  "5674": "nbsp",
  "5675": " operator",
  "5676": "men",
  "5677": "apped",
  "5678": "_per",
  "5679": "zen",
  "5680": "(\".",
  "5681": ".save",
  "5682": "=\"{{",
  "5683": " tor",
  "5684": "(response",
  "5685": " candid",
  "5686": " conv",
  "5687": "ailed",
  "5688": " Lib",
  "5689": "comp",
  "5690": "ura",
  "5691": "�",
  "5692": " Here",
  "5693": " argument",
  "5694": "hood",
  "5695": " establish",
  "5696": "ography",
  "5697": " onClick",
  "5698": "ambda",
  "5699": " sch",
  "5700": " movie",
  "5701": " sec",
  "5702": " activity",
  "5703": "ا",
  "5704": " sql",
  "5705": "_all",
  "5706": "incip",
  "5707": " provides",
  "5708": " sys",
  "5709": "acket",
  "5710": " wasn",
  "5711": " uses",
  "5712": " Function",
  "5713": ".google",
  "5714": " Result",
  "5715": "Visible",
  "5716": "agma",
  "5717": "elcome",
  "5718": " Sy",
  "5719": " Cent",
  "5720": "ALSE",
  "5721": "ación",
  "5722": "EXT",
  "5723": " license",
  "5724": " Long",
  "5725": " accom",
  "5726": " ability",
  "5727": ".height",
  "5728": "Active",
  "5729": "ological",
  "5730": "oly",
  "5731": ")),",
  "5732": ".Se",
  "5733": " parameter",
  "5734": "prite",
  "5735": "ABILITY",
  "5736": ".service",
  "5737": " Group",
  "5738": "_query",
  "5739": " Item",
  "5740": "ining",
  "5741": " jud",
  "5742": "ims",
  "5743": "fix",
  "5744": "inder",
  "5745": "agram",
  "5746": " functions",
  "5747": " experi",
  "5748": " Em",
  "5749": " rot",
  "5750": " pen",
  "5751": ".btn",
  "5752": " AS",
  "5753": "#ifdef",
  "5754": " choice",
  "5755": " Page",
  "5756": "_PRO",
  "5757": "QU",
  "5758": "�",
  "5759": "antity",
  "5760": "­",
  "5761": "words",
  "5762": " readonly",
  "5763": " flex",
  "5764": "protected",
  "5765": " Any",
  "5766": " characters",
  "5767": "enced",
  "5768": " July",
  "5769": "iler",
  "5770": "Card",
  "5771": "urance",
  "5772": " rev",
  "5773": ".event",
  "5774": "aly",
  "5775": " wonder",
  "5776": " Port",
  "5777": " legal",
  "5778": "role",
  "5779": " ten",
  "5780": " goes",
  "5781": "MP",
  "5782": "white",
  "5783": "):\r\n",
  "5784": "))\r\n",
  "5785": " reference",
  "5786": " mis",
  "5787": " Project",
  "5788": "icks",
  "5789": ">&",
  "5790": "CON",
  "5791": " repl",
  "5792": " regular",
  "5793": "Storage",
  "5794": "ramework",
  "5795": " goal",
  "5796": " touch",
  "5797": ".widget",
  "5798": " built",
  "5799": "des",
  "5800": "Part",
  "5801": "(re",
  "5802": " worth",
  "5803": "hib",
  "5804": "game",
  "5805": " в",
  "5806": "acion",
  "5807": " White",
  "5808": "(type",
  "5809": "(`",
  "5810": " natural",
  "5811": " inj",
  "5812": " calcul",
  "5813": " April",
  "5814": ".List",
  "5815": " associated",
  "5816": "\tSystem",
  "5817": "~~",
  "5818": "=[",
  "5819": " storage",
  "5820": " bytes",
  "5821": " travel",
  "5822": " sou",
  "5823": " passed",
  "5824": "!=",
  "5825": "ascript",
  "5826": ".open",
  "5827": " grid",
  "5828": " bus",
  "5829": " recogn",
  "5830": "Ab",
  "5831": " hon",
  "5832": " Center",
  "5833": " prec",
  "5834": "build",
  "5835": "HTML",
  "5836": " San",
  "5837": " countries",
  "5838": "aled",
  "5839": "token",
  "5840": "kt",
  "5841": " qual",
  "5842": "Last",
  "5843": "adow",
  "5844": " manufact",
  "5845": "idad",
  "5846": "jango",
  "5847": "Next",
  "5848": "xf",
  "5849": ".a",
  "5850": " porno",
  "5851": " PM",
  "5852": "erve",
  "5853": "iting",
  "5854": "_th",
  "5855": "ci",
  "5856": "=None",
  "5857": "gs",
  "5858": " login",
  "5859": "atives",
  "5860": "']);\n",
  "5861": "ą",
  "5862": " ill",
  "5863": "IA",
  "5864": "children",
  "5865": "DO",
  "5866": " levels",
  "5867": " {{",
  "5868": " looks",
  "5869": " \"#",
  "5870": "ToString",
  "5871": " necessary",
  "5872": "   \n",
  "5873": "cell",
  "5874": "Entry",
  "5875": " '#",
  "5876": " extrem",
  "5877": "Selector",
  "5878": " placeholder",
  "5879": "Load",
  "5880": " released",
  "5881": "ORE",
  "5882": "Enumer",
  "5883": " TV",
  "5884": "SET",
  "5885": "inq",
  "5886": "Press",
  "5887": " Department",
  "5888": " properties",
  "5889": " respond",
  "5890": "Search",
  "5891": "ael",
  "5892": " requ",
  "5893": " Book",
  "5894": "/\n",
  "5895": "(st",
  "5896": " financial",
  "5897": "icket",
  "5898": "_input",
  "5899": " threat",
  "5900": "(in",
  "5901": "Strip",
  "5902": "�",
  "5903": "ção",
  "5904": " evidence",
  "5905": "));",
  "5906": " Bro",
  "5907": " [];\n",
  "5908": " ou",
  "5909": "buf",
  "5910": "Script",
  "5911": "dat",
  "5912": " rule",
  "5913": "#import",
  "5914": "=\"/",
  "5915": "Serial",
  "5916": " starting",
  "5917": "[index",
  "5918": "ae",
  "5919": " contrib",
  "5920": "session",
  "5921": "_new",
  "5922": "utable",
  "5923": "ober",
  "5924": " \"./",
  "5925": " logger",
  "5926": " recently",
  "5927": " returned",
  "5928": "\r\r\n",
  "5929": ")))\n",
  "5930": "itions",
  "5931": " seek",
  "5932": " communic",
  "5933": " \".",
  "5934": " username",
  "5935": "ECT",
  "5936": "DS",
  "5937": " otherwise",
  "5938": " German",
  "5939": ".aw",
  "5940": "Adapter",
  "5941": "ixel",
  "5942": " systems",
  "5943": " drop",
  "5944": " structure",
  "5945": " $(\"#",
  "5946": "encies",
  "5947": "anning",
  "5948": " Link",
  "5949": " Response",
  "5950": " stri",
  "5951": "ż",
  "5952": " DB",
  "5953": "�",
  "5954": "android",
  "5955": "submit",
  "5956": "otion",
  "5957": "(@",
  "5958": ".test",
  "5959": "\n\n\n\n\n\n\n\n",
  "5960": "];\r\n",
  "5961": " directly",
  "5962": " \"%",
  "5963": "ris",
  "5964": "elta",
  "5965": "AIL",
  "5966": "){\r\n",
  "5967": "mine",
  "5968": "                          ",
  "5969": "(k",
  "5970": "bon",
  "5971": "asic",
  "5972": "pite",
  "5973": "___",
  "5974": "Max",
  "5975": " errors",
  "5976": " While",
  "5977": " arguments",
  "5978": " ensure",
  "5979": "Right",
  "5980": "-based",
  "5981": "Web",
  "5982": " -=",
  "5983": " introdu",
  "5984": " Inst",
  "5985": " Wash",
  "5986": "ordin",
  "5987": "join",
  "5988": "Database",
  "5989": " grad",
  "5990": " usually",
  "5991": "ITE",
  "5992": "Props",
  "5993": "?>\n",
  "5994": " Go",
  "5995": "@Override",
  "5996": "REF",
  "5997": " ip",
  "5998": " Austral",
  "5999": " ist",
  "6000": "ViewById",
  "6001": " serious",
  "6002": " customer",
  "6003": ".prototype",
  "6004": "odo",
  "6005": "cor",
  "6006": " door",
  "6007": " WITHOUT",
  "6008": " plant",
  "6009": " began",
  "6010": " distance",
  "6011": "()).",
  "6012": " chance",
  "6013": " ord",
  "6014": "came",
  "6015": "pragma",
  "6016": " protect",
  "6017": "ragment",
  "6018": " Node",
  "6019": "ening",
  "6020": "ч",
  "6021": " route",
  "6022": " School",
  "6023": "hi",
  "6024": " neighb",
  "6025": "After",
  "6026": "licit",
  "6027": " contr",
  "6028": " primary",
  "6029": "AA",
  "6030": ".WriteLine",
  "6031": "utils",
  "6032": " bi",
  "6033": "Red",
  "6034": ".Linq",
  "6035": ".object",
  "6036": " leaders",
  "6037": "unities",
  "6038": " gun",
  "6039": "onth",
  "6040": " Dev",
  "6041": "FILE",
  "6042": " comments",
  "6043": "_len",
  "6044": "arrow",
  "6045": "amount",
  "6046": "Range",
  "6047": "sert",
  "6048": "GridView",
  "6049": " updated",
  "6050": " Mo",
  "6051": " inform",
  "6052": "ociety",
  "6053": "ala",
  "6054": "Access",
  "6055": " hab",
  "6056": " creat",
  "6057": "_arg",
  "6058": " January",
  "6059": " Day",
  "6060": "\")\r\n",
  "6061": "uple",
  "6062": "document",
  "6063": "gorith",
  "6064": "menu",
  "6065": " Over",
  "6066": "bb",
  "6067": ".title",
  "6068": "_out",
  "6069": " led",
  "6070": "uri",
  "6071": " ?></",
  "6072": "gl",
  "6073": " bank",
  "6074": "ayment",
  "6075": "\tprintf",
  "6076": "MD",
  "6077": " sample",
  "6078": " hands",
  "6079": " Version",
  "6080": "uario",
  "6081": " offers",
  "6082": "ityEngine",
  "6083": " shape",
  "6084": " sleep",
  "6085": "_point",
  "6086": "Settings",
  "6087": " achie",
  "6088": " sold",
  "6089": "ota",
  "6090": ".bind",
  "6091": "Am",
  "6092": " safe",
  "6093": "Store",
  "6094": " shared",
  "6095": " priv",
  "6096": "_VAL",
  "6097": " sens",
  "6098": "){",
  "6099": " remember",
  "6100": "shared",
  "6101": "element",
  "6102": " shoot",
  "6103": "Vert",
  "6104": "cout",
  "6105": " env",
  "6106": "_label",
  "6107": " >\n",
  "6108": "run",
  "6109": " scene",
  "6110": "(array",
  "6111": "device",
  "6112": "_title",
  "6113": "agon",
  "6114": "]\r\n",
  "6115": "aby",
  "6116": " became",
  "6117": "boolean",
  "6118": " park",
  "6119": " Code",
  "6120": "upload",
  "6121": "riday",
  "6122": " September",
  "6123": "Fe",
  "6124": " sen",
  "6125": "cing",
  "6126": "FL",
  "6127": "Col",
  "6128": "uts",
  "6129": "_page",
  "6130": "inn",
  "6131": " implied",
  "6132": "aling",
  "6133": " yourself",
  "6134": ".Count",
  "6135": "conf",
  "6136": " aud",
  "6137": "_init",
  "6138": ".)",
  "6139": " wrote",
  "6140": "NG",
  "6141": ".Error",
  "6142": "�",
  "6143": ".for",
  "6144": " equal",
  "6145": " Request",
  "6146": " serial",
  "6147": " allows",
  "6148": "XX",
  "6149": " middle",
  "6150": "chor",
  "6151": "ø",
  "6152": "erval",
  "6153": ".Column",
  "6154": "reading",
  "6155": " escort",
  "6156": " August",
  "6157": " quickly",
  "6158": " weap",
  "6159": " CG",
  "6160": "ropri",
  "6161": "ho",
  "6162": " cop",
  "6163": "(struct",
  "6164": " Big",
  "6165": " vs",
  "6166": " frequ",
  "6167": ".Value",
  "6168": " actions",
  "6169": " proper",
  "6170": " inn",
  "6171": " objects",
  "6172": " matrix",
  "6173": "avascript",
  "6174": " ones",
  "6175": ".group",
  "6176": " green",
  "6177": " paint",
  "6178": "ools",
  "6179": "ycl",
  "6180": "encode",
  "6181": "olt",
  "6182": "comment",
  "6183": ".api",
  "6184": "Dir",
  "6185": " une",
  "6186": "izont",
  "6187": ".position",
  "6188": " designed",
  "6189": "_val",
  "6190": "avi",
  "6191": "iring",
  "6192": "tab",
  "6193": " layer",
  "6194": " views",
  "6195": " reve",
  "6196": "rael",
  "6197": " ON",
  "6198": "rics",
  "6199": "np",
  "6200": " core",
  "6201": "());\r\n",
  "6202": "Main",
  "6203": " expert",
  "6204": "\t\t\r\n",
  "6205": "_en",
  "6206": " />",
  "6207": "utter",
  "6208": "IAL",
  "6209": "ails",
  "6210": " King",
  "6211": "*/\n\n",
  "6212": " Met",
  "6213": "_end",
  "6214": "addr",
  "6215": "ora",
  "6216": " ir",
  "6217": "Min",
  "6218": " surpr",
  "6219": " repe",
  "6220": " directory",
  "6221": "PUT",
  "6222": "-S",
  "6223": " election",
  "6224": "haps",
  "6225": ".pre",
  "6226": "cm",
  "6227": "Values",
  "6228": " \"\n",
  "6229": "column",
  "6230": "ivil",
  "6231": "Login",
  "6232": "inue",
  "6233": " beautiful",
  "6234": " secret",
  "6235": "(event",
  "6236": " chat",
  "6237": "ums",
  "6238": " origin",
  "6239": " effects",
  "6240": " management",
  "6241": "illa",
  "6242": "tk",
  "6243": " setting",
  "6244": " Cour",
  "6245": " massage",
  "6246": "\tend",
  "6247": " happy",
  "6248": " finish",
  "6249": " camera",
  "6250": " Ver",
  "6251": " Democr",
  "6252": " Her",
  "6253": "(Q",
  "6254": "cons",
  "6255": "ita",
  "6256": " '.",
  "6257": "{}",
  "6258": "\tC",
  "6259": " stuff",
  "6260": " :\n",
  "6261": " AR",
  "6262": "Task",
  "6263": "hidden",
  "6264": "eros",
  "6265": "IGN",
  "6266": "atio",
  "6267": " Health",
  "6268": "olute",
  "6269": "Enter",
  "6270": "'>",
  "6271": " Twitter",
  "6272": " County",
  "6273": "scribe",
  "6274": " =>\n",
  "6275": " hy",
  "6276": "fit",
  "6277": " military",
  "6278": " sale",
  "6279": "required",
  "6280": "non",
  "6281": "bootstrap",
  "6282": "hold",
  "6283": "rim",
  "6284": "-old",
  "6285": " Down",
  "6286": " mention",
  "6287": "contact",
  "6288": "_group",
  "6289": "oday",
  "6290": " town",
  "6291": " solution",
  "6292": "uate",
  "6293": "elling",
  "6294": "]->",
  "6295": "otes",
  "6296": "ental",
  "6297": "omen",
  "6298": "ospital",
  "6299": " Sup",
  "6300": "_EN",
  "6301": " slow",
  "6302": "SESSION",
  "6303": " blue",
  "6304": "ago",
  "6305": " lives",
  "6306": " ^",
  "6307": ".un",
  "6308": "inst",
  "6309": "enge",
  "6310": " customers",
  "6311": " cast",
  "6312": "udget",
  "6313": "！",
  "6314": "icens",
  "6315": " determin",
  "6316": "Selected",
  "6317": "_pl",
  "6318": "ueue",
  "6319": " dark",
  "6320": "//\n\n",
  "6321": "si",
  "6322": "thern",
  "6323": " Japan",
  "6324": "/w",
  "6325": "PU",
  "6326": " East",
  "6327": "ovie",
  "6328": " package",
  "6329": " nor",
  "6330": " api",
  "6331": "bot",
  "6332": "\"];\n",
  "6333": "_post",
  "6334": "ulate",
  "6335": " club",
  "6336": "'));\n",
  "6337": " loop",
  "6338": "PIO",
  "6339": "ione",
  "6340": "shot",
  "6341": "Initial",
  "6342": " played",
  "6343": "register",
  "6344": "rought",
  "6345": "_max",
  "6346": "acement",
  "6347": "match",
  "6348": "raphics",
  "6349": "AST",
  "6350": " existing",
  "6351": " complex",
  "6352": "DA",
  "6353": ".Ch",
  "6354": ".common",
  "6355": "mo",
  "6356": " '../../",
  "6357": "ito",
  "6358": " analysis",
  "6359": " deliver",
  "6360": "                \n",
  "6361": "idx",
  "6362": "à",
  "6363": "ongo",
  "6364": " English",
  "6365": "<!--",
  "6366": " computer",
  "6367": "ENSE",
  "6368": " pas",
  "6369": " rais",
  "6370": "Hash",
  "6371": " mobile",
  "6372": " owner",
  "6373": "FIG",
  "6374": "                                                   ",
  "6375": "thes",
  "6376": " attr",
  "6377": "wd",
  "6378": ".time",
  "6379": "awn",
  "6380": " treatment",
  "6381": " Ac",
  "6382": ".View",
  "6383": "impl",
  "6384": "more",
  "6385": "pass",
  "6386": " ha",
  "6387": ".from",
  "6388": " leading",
  "6389": "FFFF",
  "6390": "(error",
  "6391": ".ui",
  "6392": "atar",
  "6393": "aders",
  "6394": "dates",
  "6395": " zu",
  "6396": " flow",
  "6397": "Target",
  "6398": " involved",
  "6399": " io",
  "6400": "parse",
  "6401": "$_",
  "6402": "hest",
  "6403": ".int",
  "6404": "-item",
  "6405": "asy",
  "6406": "Sp",
  "6407": " shift",
  "6408": "NT",
  "6409": " tf",
  "6410": "_TR",
  "6411": ".web",
  "6412": "CS",
  "6413": " })",
  "6414": " eyes",
  "6415": "_z",
  "6416": "');\r\n",
  "6417": "iforn",
  "6418": " {@",
  "6419": " nice",
  "6420": ".list",
  "6421": "    \r\n",
  "6422": " floor",
  "6423": " redirect",
  "6424": " UK",
  "6425": "(['",
  "6426": " wish",
  "6427": " capt",
  "6428": "legal",
  "6429": " IO",
  "6430": " stage",
  "6431": ".String",
  "6432": " Afr",
  "6433": "igen",
  "6434": " SH",
  "6435": "Delete",
  "6436": "ells",
  "6437": " solid",
  "6438": " meeting",
  "6439": " worked",
  "6440": " editor",
  "6441": "iny",
  "6442": "м",
  "6443": "_read",
  "6444": ".Id",
  "6445": "eff",
  "6446": "Offset",
  "6447": "cha",
  "6448": "USER",
  "6449": "\t\t   ",
  "6450": "ipped",
  "6451": " dict",
  "6452": " Run",
  "6453": ".hpp",
  "6454": " ang",
  "6455": "xml",
  "6456": "imple",
  "6457": " medical",
  "6458": "_token",
  "6459": "connect",
  "6460": " hour",
  "6461": " controller",
  "6462": "_message",
  "6463": "UID",
  "6464": "Gr",
  "6465": "anded",
  "6466": "_CH",
  "6467": " books",
  "6468": " speak",
  "6469": "aming",
  "6470": " mount",
  "6471": "Record",
  "6472": "\tstruct",
  "6473": ".Web",
  "6474": "ondon",
  "6475": " //\n",
  "6476": " felt",
  "6477": ".Auto",
  "6478": "idge",
  "6479": "_pos",
  "6480": "PR",
  "6481": " modern",
  "6482": "Collection",
  "6483": "_msg",
  "6484": "CD",
  "6485": " Lo",
  "6486": " seconds",
  "6487": "ibly",
  "6488": ".equals",
  "6489": " international",
  "6490": "#pragma",
  "6491": "ooth",
  "6492": "Writer",
  "6493": "iate",
  "6494": " cele",
  "6495": " Bit",
  "6496": "ivo",
  "6497": "ivery",
  "6498": "rd",
  "6499": "HECK",
  "6500": " cache",
  "6501": ".count",
  "6502": " roll",
  "6503": ".Read",
  "6504": "RED",
  "6505": " setup",
  "6506": "izontal",
  "6507": "models",
  "6508": "argv",
  "6509": " considered",
  "6510": "=\"../",
  "6511": "settings",
  "6512": " Rel",
  "6513": " growth",
  "6514": " mix",
  "6515": " Washington",
  "6516": " plt",
  "6517": " IM",
  "6518": "�",
  "6519": " turned",
  "6520": " DateTime",
  "6521": " Wed",
  "6522": "(url",
  "6523": " \"-",
  "6524": " letter",
  "6525": "Async",
  "6526": "                            ",
  "6527": " October",
  "6528": "_line",
  "6529": " attention",
  "6530": " collect",
  "6531": " Hash",
  "6532": " imag",
  "6533": "Tree",
  "6534": " situation",
  "6535": "ette",
  "6536": "_no",
  "6537": "IVE",
  "6538": " von",
  "6539": ".target",
  "6540": " knowledge",
  "6541": " drive",
  "6542": ".post",
  "6543": " blood",
  "6544": " cit",
  "6545": "primary",
  "6546": " configuration",
  "6547": "tee",
  "6548": " photo",
  "6549": "isode",
  "6550": "Trace",
  "6551": " gave",
  "6552": " shot",
  "6553": " Air",
  "6554": " mother",
  "6555": "price",
  "6556": " morning",
  "6557": ")){\n",
  "6558": "-x",
  "6559": " trade",
  "6560": " desc",
  "6561": " &&\n",
  "6562": " parents",
  "6563": "Api",
  "6564": "�",
  "6565": "ted",
  "6566": "wer",
  "6567": " �",
  "6568": " sy",
  "6569": " Ke",
  "6570": "Parser",
  "6571": "�",
  "6572": "ancy",
  "6573": " piece",
  "6574": "ifornia",
  "6575": "toString",
  "6576": "ran",
  "6577": "iding",
  "6578": "PTION",
  "6579": "comes",
  "6580": "/lic",
  "6581": ".client",
  "6582": "El",
  "6583": "Long",
  "6584": " professional",
  "6585": "rupt",
  "6586": "va",
  "6587": " completely",
  "6588": " practice",
  "6589": " selection",
  "6590": "Rem",
  "6591": "ini",
  "6592": " cam",
  "6593": "REE",
  "6594": " sites",
  "6595": "pa",
  "6596": "ATUS",
  "6597": "ст",
  "6598": "arrant",
  "6599": "*(",
  "6600": "_KEY",
  "6601": " Button",
  "6602": " Friday",
  "6603": "sequ",
  "6604": " reader",
  "6605": " messages",
  "6606": "�",
  "6607": " buf",
  "6608": "Ke",
  "6609": " nov",
  "6610": "HP",
  "6611": "Msg",
  "6612": "align",
  "6613": "arily",
  "6614": " ',",
  "6615": "_with",
  "6616": " das",
  "6617": " heard",
  "6618": "atomic",
  "6619": "rial",
  "6620": ")[",
  "6621": " dise",
  "6622": "@end",
  "6623": " gold",
  "6624": " fair",
  "6625": " sales",
  "6626": ".Button",
  "6627": "strict",
  "6628": "save",
  "6629": " measure",
  "6630": " \"+",
  "6631": "ecause",
  "6632": "ViewController",
  "6633": " Table",
  "6634": ".param",
  "6635": " decided",
  "6636": "(((",
  "6637": "INFO",
  "6638": " opportunity",
  "6639": "Te",
  "6640": "ICENSE",
  "6641": "ccording",
  "6642": "ki",
  "6643": " UN",
  "6644": " contain",
  "6645": " manager",
  "6646": " pain",
  "6647": " Fire",
  "6648": "rome",
  "6649": " plans",
  "6650": "Found",
  "6651": "lay",
  "6652": " December",
  "6653": " influ",
  "6654": "ú",
  "6655": "rench",
  "6656": "                                 ",
  "6657": "azing",
  "6658": "brief",
  "6659": "call",
  "6660": "wood",
  "6661": " loaded",
  "6662": " grand",
  "6663": "/f",
  "6664": "imp",
  "6665": "_U",
  "6666": "STR",
  "6667": "•",
  "6668": " credit",
  "6669": ".Color",
  "6670": "orge",
  "6671": "QUEST",
  "6672": " difference",
  "6673": " PC",
  "6674": "wargs",
  "6675": " pub",
  "6676": "unday",
  "6677": " fra",
  "6678": ".max",
  "6679": " tried",
  "6680": "annels",
  "6681": "send",
  "6682": " reports",
  "6683": " adult",
  "6684": "�",
  "6685": " consist",
  "6686": " Street",
  "6687": " Program",
  "6688": "SQL",
  "6689": "Matrix",
  "6690": "ouncil",
  "6691": "-A",
  "6692": "\tw",
  "6693": " whose",
  "6694": " relig",
  "6695": " Sex",
  "6696": " gives",
  "6697": "none",
  "6698": ".message",
  "6699": "(G",
  "6700": ".awt",
  "6701": "-right",
  "6702": " November",
  "6703": "ellig",
  "6704": "utive",
  "6705": "ă",
  "6706": "overn",
  "6707": " easily",
  "6708": " ideas",
  "6709": " н",
  "6710": "/css",
  "6711": "lying",
  "6712": "elle",
  "6713": "Can",
  "6714": "_color",
  "6715": "ов",
  "6716": " pair",
  "6717": "ngth",
  "6718": " split",
  "6719": "drop",
  "6720": "arty",
  "6721": "ona",
  "6722": " capital",
  "6723": " hear",
  "6724": " exists",
  "6725": "\tlog",
  "6726": "emo",
  "6727": "Run",
  "6728": "oi",
  "6729": " parser",
  "6730": " Method",
  "6731": " education",
  "6732": "[k",
  "6733": " library",
  "6734": ">\";\n",
  "6735": "_UN",
  "6736": "\tstd",
  "6737": "oded",
  "6738": " calls",
  "6739": "here",
  "6740": "Rel",
  "6741": " brand",
  "6742": "background",
  "6743": "ga",
  "6744": "_address",
  "6745": "_params",
  "6746": "Category",
  "6747": " India",
  "6748": "_event",
  "6749": " ing",
  "6750": "Render",
  "6751": ".cl",
  "6752": "umpy",
  "6753": " pet",
  "6754": "FC",
  "6755": " Ant",
  "6756": "Ext",
  "6757": " charge",
  "6758": "ened",
  "6759": "grad",
  "6760": "EO",
  "6761": " depend",
  "6762": " .\n\n",
  "6763": "frame",
  "6764": " df",
  "6765": " huge",
  "6766": " PART",
  "6767": "eds",
  "6768": ";;",
  "6769": " AM",
  "6770": " basic",
  "6771": " Let",
  "6772": "lich",
  "6773": " arm",
  "6774": " star",
  "6775": " federal",
  "6776": "Work",
  "6777": " carry",
  "6778": " Israel",
  "6779": "(obj",
  "6780": "={{",
  "6781": " saved",
  "6782": " syn",
  "6783": " constant",
  "6784": "VENT",
  "6785": " positive",
  "6786": " conduct",
  "6787": " skin",
  "6788": " earlier",
  "6789": " layout",
  "6790": " IP",
  "6791": "OUR",
  "6792": " tim",
  "6793": "stylesheet",
  "6794": "_cl",
  "6795": " Card",
  "6796": "++){\n",
  "6797": " temper",
  "6798": " David",
  "6799": "\ttry",
  "6800": ".dart",
  "6801": " wants",
  "6802": " picture",
  "6803": " videos",
  "6804": " Comm",
  "6805": "isions",
  "6806": "_MAX",
  "6807": "Mapping",
  "6808": "-content",
  "6809": " Ear",
  "6810": "-de",
  "6811": " prem",
  "6812": "bruary",
  "6813": " components",
  "6814": " throughout",
  "6815": " pull",
  "6816": " pages",
  "6817": "ente",
  "6818": "respond",
  "6819": " gas",
  "6820": "criptor",
  "6821": " edge",
  "6822": " bound",
  "6823": "ACT",
  "6824": "******",
  "6825": " creating",
  "6826": " CH",
  "6827": " nullptr",
  "6828": "Br",
  "6829": "+'",
  "6830": ".co",
  "6831": ">::",
  "6832": " learning",
  "6833": ".Length",
  "6834": "_SH",
  "6835": " patients",
  "6836": "AIN",
  "6837": " kids",
  "6838": " comfort",
  "6839": " shown",
  "6840": "ugins",
  "6841": " Back",
  "6842": "ella",
  "6843": "_CL",
  "6844": " lat",
  "6845": " dispatch",
  "6846": " classes",
  "6847": ".at",
  "6848": ".begin",
  "6849": " successful",
  "6850": "ban",
  "6851": " obtain",
  "6852": " Sl",
  "6853": " lack",
  "6854": "iterator",
  "6855": "Thread",
  "6856": "(size",
  "6857": " none",
  "6858": ".has",
  "6859": "_X",
  "6860": "sort",
  "6861": "nap",
  "6862": "pet",
  "6863": "bin",
  "6864": " Canada",
  "6865": "They",
  "6866": " dans",
  "6867": " Mat",
  "6868": "<td",
  "6869": " hair",
  "6870": " '',\n",
  "6871": " cu",
  "6872": " laws",
  "6873": "leted",
  "6874": "ped",
  "6875": " pow",
  "6876": " knew",
  "6877": "_COM",
  "6878": "_,",
  "6879": " Mag",
  "6880": "idents",
  "6881": "(req",
  "6882": " ),",
  "6883": "-center",
  "6884": " wide",
  "6885": " Author",
  "6886": "stants",
  "6887": " jobs",
  "6888": " math",
  "6889": "etimes",
  "6890": "Boolean",
  "6891": " scope",
  "6892": "_is",
  "6893": " meas",
  "6894": " keys",
  "6895": "elay",
  "6896": " exactly",
  "6897": "'=>'",
  "6898": " Paul",
  "6899": "mas",
  "6900": "\tprint",
  "6901": "(len",
  "6902": "fd",
  "6903": " );",
  "6904": ".Event",
  "6905": "qli",
  "6906": "irit",
  "6907": "ields",
  "6908": "oman",
  "6909": " Top",
  "6910": " vote",
  "6911": " mask",
  "6912": " theme",
  "6913": "-\n",
  "6914": " props",
  "6915": " fine",
  "6916": " writer",
  "6917": "_offset",
  "6918": "car",
  "6919": " altern",
  "6920": " copyright",
  "6921": " destroy",
  "6922": "pper",
  "6923": " generate",
  "6924": "pped",
  "6925": "’d",
  "6926": "      \n",
  "6927": "make",
  "6928": " Show",
  "6929": " browser",
  "6930": " favorite",
  "6931": " career",
  "6932": " happened",
  "6933": "(char",
  "6934": " recommend",
  "6935": " liter",
  "6936": ".filter",
  "6937": "grade",
  "6938": " £",
  "6939": "Phone",
  "6940": "oms",
  "6941": " named",
  "6942": "-label",
  "6943": "ipo",
  "6944": " Other",
  "6945": " panel",
  "6946": " rock",
  "6947": "Scale",
  "6948": "\tassert",
  "6949": "д",
  "6950": " trust",
  "6951": "front",
  "6952": " demon",
  "6953": "Ar",
  "6954": "Net",
  "6955": " economic",
  "6956": "footer",
  "6957": " race",
  "6958": "(node",
  "6959": " Option",
  "6960": "split",
  "6961": " physical",
  "6962": "ifest",
  "6963": " removed",
  "6964": ".http",
  "6965": ")),\n",
  "6966": " looked",
  "6967": "';",
  "6968": "ding",
  "6969": "gest",
  "6970": "aturday",
  "6971": "/licenses",
  "6972": "Price",
  "6973": " dro",
  "6974": " towards",
  "6975": " uns",
  "6976": " CL",
  "6977": "\tstatic",
  "6978": " rows",
  "6979": " define",
  "6980": ".replace",
  "6981": " father",
  "6982": " Design",
  "6983": "assign",
  "6984": "mut",
  "6985": "Device",
  "6986": "Did",
  "6987": "'))\n",
  "6988": "ometry",
  "6989": "ayload",
  "6990": " histor",
  "6991": " Param",
  "6992": " Boolean",
  "6993": " nature",
  "6994": " js",
  "6995": " nation",
  "6996": "ih",
  "6997": " discover",
  "6998": "sem",
  "6999": "Handle",
  "7000": "\tr",
  "7001": " Techn",
  "7002": " wall",
  "7003": "{$",
  "7004": "@property",
  "7005": " \"../",
  "7006": " exam",
  "7007": ".draw",
  "7008": "opping",
  "7009": " nearly",
  "7010": " cool",
  "7011": " independ",
  "7012": "RES",
  "7013": " handler",
  "7014": " Monday",
  "7015": " sun",
  "7016": "Styles",
  "7017": "ously",
  "7018": " \t",
  "7019": "vest",
  "7020": "Display",
  "7021": "(y",
  "7022": "atically",
  "7023": " predict",
  "7024": "ying",
  "7025": " sometimes",
  "7026": "\"]\n",
  "7027": " drink",
  "7028": " bul",
  "7029": "ifications",
  "7030": ".insert",
  "7031": ".reg",
  "7032": " tests",
  "7033": "Alignment",
  "7034": " alleg",
  "7035": " attribute",
  "7036": " Note",
  "7037": " myself",
  "7038": "arts",
  "7039": "Now",
  "7040": " interesting",
  "7041": "lients",
  "7042": " population",
  "7043": " California",
  "7044": "\"I",
  "7045": "�",
  "7046": " greater",
  "7047": "uesday",
  "7048": " thous",
  "7049": " costs",
  "7050": " launch",
  "7051": "\\Http",
  "7052": "ker",
  "7053": "band",
  "7054": " Play",
  "7055": " band",
  "7056": ".shape",
  "7057": "esome",
  "7058": "article",
  "7059": ".rf",
  "7060": " wer",
  "7061": "ás",
  "7062": "embers",
  "7063": "usr",
  "7064": "BA",
  "7065": "ican",
  "7066": "ett",
  "7067": "validate",
  "7068": "ulti",
  "7069": " immediately",
  "7070": "zer",
  "7071": " figure",
  "7072": "oes",
  "7073": "eller",
  "7074": "ircle",
  "7075": " Sign",
  "7076": ".db",
  "7077": " rank",
  "7078": "Bytes",
  "7079": " projects",
  "7080": "_rec",
  "7081": "ULAR",
  "7082": "API",
  "7083": " Line",
  "7084": "Port",
  "7085": " poll",
  "7086": " giving",
  "7087": "idence",
  "7088": "--\n",
  "7089": " plot",
  "7090": "icial",
  "7091": " warrant",
  "7092": "ITION",
  "7093": " Double",
  "7094": " billion",
  "7095": "gorithm",
  "7096": " equipment",
  "7097": "DATE",
  "7098": " @\"",
  "7099": "EE",
  "7100": " ple",
  "7101": "iation",
  "7102": " headers",
  "7103": " proced",
  "7104": ".ComponentModel",
  "7105": " Obama",
  "7106": " pa",
  "7107": " Best",
  "7108": "imately",
  "7109": ".getString",
  "7110": ".\\",
  "7111": "mploy",
  "7112": " raw",
  "7113": "_block",
  "7114": "undred",
  "7115": "\"},\n",
  "7116": ".GroupLayout",
  "7117": " brought",
  "7118": "NSString",
  "7119": "throw",
  "7120": "created",
  "7121": ".New",
  "7122": "_view",
  "7123": "CP",
  "7124": "eps",
  "7125": "Op",
  "7126": " gratis",
  "7127": " '\"",
  "7128": " interview",
  "7129": "\"\"\"\n",
  "7130": " partial",
  "7131": " aria",
  "7132": "bing",
  "7133": "Author",
  "7134": "Book",
  "7135": " Pat",
  "7136": "uman",
  "7137": "Users",
  "7138": "plus",
  "7139": " Direct",
  "7140": "venue",
  "7141": "alpha",
  "7142": "UCCESS",
  "7143": " Call",
  "7144": " );\r\n",
  "7145": "imated",
  "7146": " remain",
  "7147": " anti",
  "7148": " London",
  "7149": " safety",
  "7150": "POSE",
  "7151": "oles",
  "7152": "controller",
  "7153": "Byte",
  "7154": " Court",
  "7155": " Phil",
  "7156": " Associ",
  "7157": "ena",
  "7158": "�",
  "7159": "_STR",
  "7160": "coin",
  "7161": "reshold",
  "7162": " batch",
  "7163": "_Click",
  "7164": "entication",
  "7165": ">';\n",
  "7166": "enty",
  "7167": " beginning",
  "7168": " zero",
  "7169": " Convert",
  "7170": " terr",
  "7171": " paid",
  "7172": " increased",
  "7173": "catch",
  "7174": "-size",
  "7175": "activity",
  "7176": "equals",
  "7177": " queue",
  "7178": " \"'",
  "7179": " International",
  "7180": " für",
  "7181": "ursday",
  "7182": " scient",
  "7183": "allow",
  "7184": "axis",
  "7185": " appropri",
  "7186": "edge",
  "7187": " idx",
  "7188": "Success",
  "7189": "entifier",
  "7190": ":\\",
  "7191": "xis",
  "7192": " maximum",
  "7193": "arks",
  "7194": " birth",
  "7195": "(index",
  "7196": " maybe",
  "7197": ".py",
  "7198": "files",
  "7199": " limited",
  "7200": "_check",
  "7201": "look",
  "7202": "plies",
  "7203": " movement",
  "7204": "'].",
  "7205": " broad",
  "7206": " BE",
  "7207": " UnityEngine",
  "7208": ".cpp",
  "7209": " Every",
  "7210": "Admin",
  "7211": " fans",
  "7212": "pared",
  "7213": "\n    \n",
  "7214": " foreign",
  "7215": " pan",
  "7216": " tour",
  "7217": " Order",
  "7218": " moving",
  "7219": " auf",
  "7220": "Call",
  "7221": "cb",
  "7222": "ş",
  "7223": "ventory",
  "7224": " Sql",
  "7225": " fully",
  "7226": "ClickListener",
  "7227": "WORD",
  "7228": " announced",
  "7229": ")\r\n\r\n",
  "7230": " agreed",
  "7231": "rie",
  "7232": " earn",
  "7233": "_link",
  "7234": ".array",
  "7235": "(text",
  "7236": " materials",
  "7237": ",p",
  "7238": "ffff",
  "7239": "vg",
  "7240": " ©",
  "7241": " unless",
  "7242": "ajax",
  "7243": "LOG",
  "7244": " sexual",
  "7245": " \\\"",
  "7246": "-time",
  "7247": " coach",
  "7248": " supported",
  "7249": " photos",
  "7250": "iform",
  "7251": ".Create",
  "7252": ")]",
  "7253": "rier",
  "7254": " dialog",
  "7255": "aver",
  "7256": "ige",
  "7257": ")+",
  "7258": "_idx",
  "7259": ":[",
  "7260": "_min",
  "7261": " Cong",
  "7262": " pressure",
  "7263": " teams",
  "7264": "Sign",
  "7265": "begin",
  "7266": "rian",
  "7267": "NESS",
  "7268": "LS",
  "7269": " improve",
  "7270": " Sunday",
  "7271": " definition",
  "7272": "iger",
  "7273": "rollers",
  "7274": " thinking",
  "7275": "Template",
  "7276": "-F",
  "7277": " emerg",
  "7278": "plates",
  "7279": " USA",
  "7280": ".setState",
  "7281": " Also",
  "7282": "rev",
  "7283": " enable",
  "7284": " CO",
  "7285": "PECT",
  "7286": " concept",
  "7287": ")-",
  "7288": " •",
  "7289": " sets",
  "7290": " meaning",
  "7291": "emon",
  "7292": " Cons",
  "7293": "cmp",
  "7294": "eder",
  "7295": "anned",
  "7296": "icensed",
  "7297": " Super",
  "7298": " daily",
  "7299": " multi",
  "7300": "_u",
  "7301": " challeng",
  "7302": "_mode",
  "7303": " Promise",
  "7304": " strict",
  "7305": "jo",
  "7306": "inton",
  "7307": "(list",
  "7308": "Only",
  "7309": ">{",
  "7310": " vehicle",
  "7311": "�",
  "7312": " Player",
  "7313": " Del",
  "7314": " pool",
  "7315": ".url",
  "7316": "nesday",
  "7317": "();\r\n\r\n",
  "7318": " \");\n",
  "7319": "Local",
  "7320": ".\");\n",
  "7321": " organization",
  "7322": "render",
  "7323": " Application",
  "7324": " summer",
  "7325": "expected",
  "7326": "NA",
  "7327": " rap",
  "7328": "_obj",
  "7329": " surface",
  "7330": " PUR",
  "7331": " },\n\n",
  "7332": " variables",
  "7333": "(message",
  "7334": " opin",
  "7335": ".back",
  "7336": "ан",
  "7337": " workers",
  "7338": "vm",
  "7339": "Co",
  "7340": "ughter",
  "7341": " master",
  "7342": " \"\",",
  "7343": " stories",
  "7344": ".User",
  "7345": " celebr",
  "7346": "inese",
  "7347": "BS",
  "7348": " Command",
  "7349": "ashboard",
  "7350": " og",
  "7351": "kg",
  "7352": ".image",
  "7353": ".style",
  "7354": " steps",
  "7355": " Ben",
  "7356": "(args",
  "7357": " Person",
  "7358": ",y",
  "7359": " officials",
  "7360": "|\n",
  "7361": " skills",
  "7362": "vc",
  "7363": " builder",
  "7364": " gar",
  "7365": "Account",
  "7366": " Auth",
  "7367": "�",
  "7368": "'])\n",
  "7369": " AT",
  "7370": "nn",
  "7371": ".Int",
  "7372": "SSERT",
  "7373": " effective",
  "7374": "LETE",
  "7375": " tools",
  "7376": "ARD",
  "7377": " digital",
  "7378": "Double",
  "7379": " Find",
  "7380": "RC",
  "7381": " inline",
  "7382": "/r",
  "7383": "ARAM",
  "7384": "ASK",
  "7385": " intent",
  "7386": "aight",
  "7387": "_addr",
  "7388": " requests",
  "7389": ".first",
  "7390": " debug",
  "7391": " spent",
  "7392": "()));\n",
  "7393": "ś",
  "7394": " princip",
  "7395": "Logger",
  "7396": "cludes",
  "7397": ".use",
  "7398": " surv",
  "7399": "media",
  "7400": " February",
  "7401": " Mac",
  "7402": " missing",
  "7403": " wife",
  "7404": " talking",
  "7405": " Make",
  "7406": " cart",
  "7407": " located",
  "7408": "Enc",
  "7409": "-a",
  "7410": "chron",
  "7411": " cards",
  "7412": " guy",
  "7413": " pers",
  "7414": " Yes",
  "7415": "atever",
  "7416": " Ang",
  "7417": "olar",
  "7418": " Even",
  "7419": " accur",
  "7420": " Power",
  "7421": " Gold",
  "7422": "clear",
  "7423": "Process",
  "7424": " records",
  "7425": " killed",
  "7426": ".clear",
  "7427": " WARRANTIES",
  "7428": " purpose",
  "7429": "panel",
  "7430": "JECT",
  "7431": "ía",
  "7432": " exerc",
  "7433": "WS",
  "7434": "/L",
  "7435": ".exports",
  "7436": " ___",
  "7437": " sin",
  "7438": "Servlet",
  "7439": " dé",
  "7440": ".delete",
  "7441": "roke",
  "7442": "Sl",
  "7443": "ugh",
  "7444": "ears",
  "7445": " pointer",
  "7446": " hop",
  "7447": "allery",
  "7448": " obs",
  "7449": "covery",
  "7450": "\tchar",
  "7451": "\t\t\t\t\t\t\t\t\t\t",
  "7452": "\tdef",
  "7453": "ocity",
  "7454": "itchen",
  "7455": "ulations",
  "7456": " FIT",
  "7457": " ).",
  "7458": "straints",
  "7459": "vention",
  "7460": " requires",
  "7461": " Oper",
  "7462": "ME",
  "7463": "OUNT",
  "7464": "allet",
  "7465": " norm",
  "7466": "IRE",
  "7467": "exas",
  "7468": " programs",
  "7469": " weak",
  "7470": "'.$",
  "7471": "uing",
  "7472": "\t       ",
  "7473": " mil",
  "7474": " firm",
  "7475": "initely",
  "7476": "_VALUE",
  "7477": "apse",
  "7478": "atisf",
  "7479": " demand",
  "7480": "_mod",
  "7481": " described",
  "7482": " places",
  "7483": "VID",
  "7484": " alone",
  "7485": " export",
  "7486": " vec",
  "7487": " Max",
  "7488": " activities",
  "7489": "ictures",
  "7490": "gener",
  "7491": " ma",
  "7492": "��",
  "7493": " expression",
  "7494": "Callback",
  "7495": "_content",
  "7496": " Most",
  "7497": " testing",
  "7498": "EC",
  "7499": "CHANT",
  "7500": " adjust",
  "7501": ".Threading",
  "7502": "(ctx",
  "7503": " agree",
  "7504": "ighest",
  "7505": " ui",
  "7506": " Law",
  "7507": ".Y",
  "7508": "><?",
  "7509": " pod",
  "7510": "-lg",
  "7511": "”\n\n",
  "7512": " describe",
  "7513": " European",
  "7514": "-sh",
  "7515": " PURPOSE",
  "7516": "ORY",
  "7517": " convers",
  "7518": " Illuminate",
  "7519": " Av",
  "7520": "(ch",
  "7521": "?\"",
  "7522": "chen",
  "7523": "ima",
  "7524": "Document",
  "7525": " operations",
  "7526": "win",
  "7527": "\tfunction",
  "7528": ".Image",
  "7529": " scen",
  "7530": "/h",
  "7531": " SC",
  "7532": " explo",
  "7533": ":%",
  "7534": "/**\r\n",
  "7535": "NAME",
  "7536": "�",
  "7537": "(var",
  "7538": " director",
  "7539": "ONG",
  "7540": " yield",
  "7541": " feet",
  "7542": " Search",
  "7543": " Il",
  "7544": " restaur",
  "7545": "duc",
  "7546": " integer",
  "7547": " '';\n",
  "7548": " highly",
  "7549": "checked",
  "7550": " PARTIC",
  "7551": "ERCHANT",
  "7552": "）",
  "7553": " optim",
  "7554": "Queue",
  "7555": " LI",
  "7556": "itation",
  "7557": " transport",
  "7558": "ission",
  "7559": "fill",
  "7560": "usion",
  "7561": "                              ",
  "7562": "\tbool",
  "7563": "-th",
  "7564": "upt",
  "7565": " essential",
  "7566": "anted",
  "7567": " benefits",
  "7568": "\tS",
  "7569": "';\r\n",
  "7570": "iki",
  "7571": " girls",
  "7572": "iced",
  "7573": "buffer",
  "7574": "]+",
  "7575": " socket",
  "7576": " prices",
  "7577": " Fre",
  "7578": " sat",
  "7579": " wood",
  "7580": "MenuItem",
  "7581": "ARG",
  "7582": " Admin",
  "7583": "OWN",
  "7584": "dk",
  "7585": " reset",
  "7586": " forms",
  "7587": " и",
  "7588": "�",
  "7589": " Tuesday",
  "7590": " Initialized",
  "7591": "_train",
  "7592": "orary",
  "7593": "ategor",
  "7594": " dt",
  "7595": "Total",
  "7596": "construct",
  "7597": "ilies",
  "7598": " guys",
  "7599": "ер",
  "7600": " instruction",
  "7601": "yled",
  "7602": " internet",
  "7603": "etadata",
  "7604": "ady",
  "7605": "faces",
  "7606": "jection",
  "7607": " Jack",
  "7608": " rect",
  "7609": "[-",
  "7610": " Leg",
  "7611": " devices",
  "7612": "OC",
  "7613": " *\r\n",
  "7614": "oration",
  "7615": "ertain",
  "7616": " guard",
  "7617": "ostream",
  "7618": " enum",
  "7619": ".layout",
  "7620": " \";\n",
  "7621": "voke",
  "7622": " Ok",
  "7623": "Home",
  "7624": "(tr",
  "7625": "ETH",
  "7626": " delay",
  "7627": " purchase",
  "7628": "dc",
  "7629": " aren",
  "7630": "_once",
  "7631": "\t\t\t\t\n",
  "7632": "ror",
  "7633": "draw",
  "7634": ".run",
  "7635": "(model",
  "7636": "Timeout",
  "7637": "lik",
  "7638": " Arg",
  "7639": ".en",
  "7640": " fish",
  "7641": "cpy",
  "7642": "_fe",
  "7643": "ERCHANTABILITY",
  "7644": "(X",
  "7645": "_output",
  "7646": "??",
  "7647": " jo",
  "7648": "andard",
  "7649": " doll",
  "7650": "errors",
  "7651": "_base",
  "7652": " PARTICULAR",
  "7653": " leader",
  "7654": " compar",
  "7655": " doub",
  "7656": " Vis",
  "7657": "StackTrace",
  "7658": "-C",
  "7659": " Stud",
  "7660": "stitute",
  "7661": "More",
  "7662": " Description",
  "7663": "WARE",
  "7664": "ads",
  "7665": " к",
  "7666": "bind",
  "7667": "=self",
  "7668": "employ",
  "7669": "[n",
  "7670": ".all",
  "7671": "-B",
  "7672": "&&",
  "7673": "alm",
  "7674": " culture",
  "7675": "house",
  "7676": " suffer",
  "7677": " '%",
  "7678": " straight",
  "7679": " Star",
  "7680": "udo",
  "7681": " ded",
  "7682": " COM",
  "7683": " confirm",
  "7684": " Good",
  "7685": ".sc",
  "7686": "________________",
  "7687": "DR",
  "7688": "Configuration",
  "7689": "DateTime",
  "7690": " advert",
  "7691": " couldn",
  "7692": "async",
  "7693": "stack",
  "7694": "')\r\n",
  "7695": "Kit",
  "7696": " hous",
  "7697": " mechan",
  "7698": "rate",
  "7699": " audio",
  "7700": "\tcout",
  "7701": "cores",
  "7702": " spot",
  "7703": " increasing",
  "7704": " ##",
  "7705": ")))",
  "7706": "points",
  "7707": " compared",
  "7708": "lig",
  "7709": " behavior",
  "7710": " BY",
  "7711": " Att",
  "7712": "craft",
  "7713": "headers",
  "7714": "ete",
  "7715": "endregion",
  "7716": " detail",
  "7717": "ULE",
  "7718": " Common",
  "7719": "\tprotected",
  "7720": "ston",
  "7721": " FITNESS",
  "7722": " fresh",
  "7723": "\">\n\n",
  "7724": ".example",
  "7725": "berg",
  "7726": " moved",
  "7727": "\te",
  "7728": " Saturday",
  "7729": " payload",
  "7730": "ć",
  "7731": "):\n\n",
  "7732": " bey",
  "7733": "urer",
  "7734": "<script",
  "7735": " symbol",
  "7736": " assum",
  "7737": " pul",
  "7738": "Effect",
  "7739": " hundred",
  "7740": "Tool",
  "7741": "aked",
  "7742": "connection",
  "7743": " voice",
  "7744": " pd",
  "7745": " transaction",
  "7746": " links",
  "7747": "Err",
  "7748": " Indian",
  "7749": "TC",
  "7750": "atalog",
  "7751": "ni",
  "7752": "sign",
  "7753": "<<\"",
  "7754": "ji",
  "7755": "ya",
  "7756": " demonstr",
  "7757": "ulated",
  "7758": ".St",
  "7759": " instit",
  "7760": " boost",
  "7761": " cells",
  "7762": "olic",
  "7763": ".Pro",
  "7764": ":</",
  "7765": "EventListener",
  "7766": "ifying",
  "7767": " Di",
  "7768": "orrow",
  "7769": ".execute",
  "7770": " college",
  "7771": "Your",
  "7772": " largest",
  "7773": ".dis",
  "7774": " qui",
  "7775": " individuals",
  "7776": "_buffer",
  "7777": " ng",
  "7778": "SA",
  "7779": " Control",
  "7780": " sing",
  "7781": " suit",
  "7782": "    \t",
  "7783": "SG",
  "7784": " jump",
  "7785": " smart",
  "7786": "oma",
  "7787": " Exp",
  "7788": " '-",
  "7789": " assist",
  "7790": " successfully",
  "7791": "sys",
  "7792": " Cre",
  "7793": "_ref",
  "7794": " Thursday",
  "7795": " bur",
  "7796": " д",
  "7797": " beyond",
  "7798": " nodes",
  "7799": "Details",
  "7800": "inct",
  "7801": " James",
  "7802": " affect",
  "7803": "exception",
  "7804": " typeof",
  "7805": "(\r\n",
  "7806": "-se",
  "7807": " fetch",
  "7808": "`,",
  "7809": " crusher",
  "7810": "}.",
  "7811": " BO",
  "7812": "Show",
  "7813": " rates",
  "7814": " bon",
  "7815": "-icon",
  "7816": " Media",
  "7817": "RESS",
  "7818": " Valid",
  "7819": "ол",
  "7820": " fuck",
  "7821": "acks",
  "7822": " studies",
  "7823": "Me",
  "7824": " owners",
  "7825": "}else",
  "7826": " growing",
  "7827": "Variable",
  "7828": " Bel",
  "7829": ".random",
  "7830": "vement",
  "7831": "onym",
  "7832": "(F",
  "7833": " FALSE",
  "7834": " torch",
  "7835": "(row",
  "7836": "igo",
  "7837": "structure",
  "7838": " certainly",
  "7839": "Dep",
  "7840": " Green",
  "7841": "question",
  "7842": " adding",
  "7843": " Develop",
  "7844": "_def",
  "7845": " mach",
  "7846": "=%",
  "7847": "\t\t ",
  "7848": "conds",
  "7849": "Project",
  "7850": " reject",
  "7851": " �",
  "7852": " poor",
  "7853": " aware",
  "7854": " Build",
  "7855": " British",
  "7856": " NE",
  "7857": " numer",
  "7858": "rees",
  "7859": "claim",
  "7860": " mock",
  "7861": " om",
  "7862": " scre",
  "7863": "OLD",
  "7864": ".pl",
  "7865": "eler",
  "7866": " correspond",
  "7867": "_HE",
  "7868": " binary",
  "7869": "_order",
  "7870": " SQL",
  "7871": " advant",
  "7872": " prev",
  "7873": ".[",
  "7874": ".assertEqual",
  "7875": "plier",
  "7876": "arp",
  "7877": " closed",
  "7878": " encour",
  "7879": " QString",
  "7880": "aud",
  "7881": " developed",
  "7882": " permission",
  "7883": ".debug",
  "7884": "operator",
  "7885": " '\n",
  "7886": " sym",
  "7887": "atively",
  "7888": "ée",
  "7889": "-color",
  "7890": " GET",
  "7891": "ky",
  "7892": " although",
  "7893": "_request",
  "7894": "_element",
  "7895": "................",
  "7896": "_DATA",
  "7897": " amazing",
  "7898": " sb",
  "7899": " Default",
  "7900": "Events",
  "7901": " failure",
  "7902": "acle",
  "7903": "Properties",
  "7904": " dream",
  "7905": " distr",
  "7906": " au",
  "7907": " generated",
  "7908": "�",
  "7909": " Team",
  "7910": "USE",
  "7911": " income",
  "7912": " eye",
  "7913": "_not",
  "7914": "\"],",
  "7915": "_form",
  "7916": "Support",
  "7917": "orders",
  "7918": ".Print",
  "7919": "ville",
  "7920": " Wednesday",
  "7921": "olver",
  "7922": " oppos",
  "7923": "isation",
  "7924": "ola",
  "7925": "Close",
  "7926": "<p",
  "7927": "_width",
  "7928": "Invalid",
  "7929": "xb",
  "7930": " strugg",
  "7931": "_action",
  "7932": " txt",
  "7933": " Path",
  "7934": "alar",
  "7935": " MERCHANTABILITY",
  "7936": "service",
  "7937": " Michael",
  "7938": "ableView",
  "7939": "Debug",
  "7940": "okes",
  "7941": "She",
  "7942": " guess",
  "7943": " Java",
  "7944": "_PATH",
  "7945": " particularly",
  "7946": " II",
  "7947": " domain",
  "7948": " reduce",
  "7949": "-left",
  "7950": "real",
  "7951": " appears",
  "7952": " como",
  "7953": " Unit",
  "7954": " Govern",
  "7955": "ali",
  "7956": "allel",
  "7957": " Jew",
  "7958": "_I",
  "7959": " cos",
  "7960": ".color",
  "7961": " Global",
  "7962": " tele",
  "7963": "ben",
  "7964": "_trans",
  "7965": " reasons",
  "7966": " emb",
  "7967": "ensity",
  "7968": "lines",
  "7969": "omin",
  "7970": "Screen",
  "7971": "ат",
  "7972": "pects",
  "7973": "clip",
  "7974": "foo",
  "7975": "rent",
  "7976": " af",
  "7977": " danger",
  "7978": "iling",
  "7979": "Names",
  "7980": "Our",
  "7981": " distribution",
  "7982": "While",
  "7983": "SL",
  "7984": "Write",
  "7985": " goto",
  "7986": " colors",
  "7987": " powerful",
  "7988": "kin",
  "7989": " depth",
  "7990": "ercial",
  "7991": " Congress",
  "7992": " Market",
  "7993": "Db",
  "7994": "under",
  "7995": " Last",
  "7996": "ß",
  "7997": "greg",
  "7998": " posts",
  "7999": "_URL",
  "8000": "otos",
  "8001": "Don",
  "8002": " micro",
  "8003": " arrest",
  "8004": "п",
  "8005": " (@",
  "8006": " Hot",
  "8007": " Index",
  "8008": ";&",
  "8009": "#!",
  "8010": " Nor",
  "8011": " Cap",
  "8012": "-(",
  "8013": " interested",
  "8014": "pear",
  "8015": " rent",
  "8016": " album",
  "8017": "olicy",
  "8018": ".lang",
  "8019": ".trans",
  "8020": ".format",
  "8021": " {\r\n\r\n",
  "8022": "phere",
  "8023": " axis",
  "8024": " Business",
  "8025": "ersistence",
  "8026": "urr",
  "8027": " minimum",
  "8028": "endor",
  "8029": " SD",
  "8030": " Internet",
  "8031": "�",
  "8032": "Exp",
  "8033": "iverse",
  "8034": "MM",
  "8035": " obvious",
  "8036": " basis",
  "8037": " science",
  "8038": " budget",
  "8039": "izations",
  "8040": "PA",
  "8041": " flags",
  "8042": "pret",
  "8043": "LOCK",
  "8044": " variety",
  "8045": " truth",
  "8046": "dt",
  "8047": " gone",
  "8048": " battle",
  "8049": "<std",
  "8050": " Sil",
  "8051": "rf",
  "8052": "uda",
  "8053": " erot",
  "8054": " Cam",
  "8055": " station",
  "8056": " '</",
  "8057": "cheme",
  "8058": " Sun",
  "8059": " finished",
  "8060": " shop",
  "8061": " Kore",
  "8062": " eight",
  "8063": "_REG",
  "8064": "ND",
  "8065": ">,",
  "8066": "\"><?",
  "8067": "(num",
  "8068": "\tinline",
  "8069": "Transaction",
  "8070": ".On",
  "8071": " mail",
  "8072": "rey",
  "8073": "results",
  "8074": " nav",
  "8075": "IMIT",
  "8076": "_ids",
  "8077": "Make",
  "8078": "�",
  "8079": "Modal",
  "8080": " LOG",
  "8081": " Sur",
  "8082": " instanceof",
  "8083": " overall",
  "8084": " Information",
  "8085": " construction",
  "8086": "_FILE",
  "8087": "but",
  "8088": " medic",
  "8089": " duration",
  "8090": "itness",
  "8091": "agent",
  "8092": "AV",
  "8093": " seven",
  "8094": "olf",
  "8095": " }}\n",
  "8096": "\"],\n",
  "8097": " calling",
  "8098": " ans",
  "8099": "throws",
  "8100": "orizontal",
  "8101": " useState",
  "8102": ".fl",
  "8103": " Status",
  "8104": " Online",
  "8105": "RR",
  "8106": " Rich",
  "8107": " Hill",
  "8108": " brain",
  "8109": " followed",
  "8110": "emic",
  "8111": " slight",
  "8112": " insurance",
  "8113": ".Array",
  "8114": " abstract",
  "8115": " Sum",
  "8116": "redirect",
  "8117": "owner",
  "8118": "(msg",
  "8119": " Clinton",
  "8120": "Non",
  "8121": "\tex",
  "8122": " volume",
  "8123": " EventArgs",
  "8124": "-L",
  "8125": " Dim",
  "8126": " Mart",
  "8127": " cursor",
  "8128": " implementation",
  "8129": "urred",
  "8130": " larger",
  "8131": ");\n\n\n",
  "8132": "'+",
  "8133": ".transform",
  "8134": " upload",
  "8135": "                                                       ",
  "8136": "Draw",
  "8137": "nel",
  "8138": "\tfloat",
  "8139": "qrt",
  "8140": " Network",
  "8141": " tit",
  "8142": "Axis",
  "8143": ".android",
  "8144": " completed",
  "8145": " mur",
  "8146": " columns",
  "8147": "xc",
  "8148": " supply",
  "8149": "iminal",
  "8150": " spr",
  "8151": "================================================================",
  "8152": " units",
  "8153": "(u",
  "8154": "mi",
  "8155": "replace",
  "8156": "[key",
  "8157": "�",
  "8158": "antic",
  "8159": " payment",
  "8160": ",B",
  "8161": " Apple",
  "8162": "gin",
  "8163": "Required",
  "8164": "#+",
  "8165": "lands",
  "8166": " squ",
  "8167": " factor",
  "8168": "dec",
  "8169": " strength",
  "8170": " boy",
  "8171": " balance",
  "8172": " sources",
  "8173": "screen",
  "8174": "-top",
  "8175": " Amazon",
  "8176": " hidden",
  "8177": "ет",
  "8178": "_client",
  "8179": " eat",
  "8180": ".display",
  "8181": " »",
  "8182": " trigger",
  "8183": "anager",
  "8184": " tro",
  "8185": " claims",
  "8186": "ford",
  "8187": " Company",
  "8188": " gift",
  "8189": ",:",
  "8190": "_app",
  "8191": "handle",
  "8192": " produce",
  "8193": "/lib",
  "8194": " -*",
  "8195": "\tset",
  "8196": "'];",
  "8197": "arc",
  "8198": "ander",
  "8199": " Engine",
  "8200": " attributes",
  "8201": "task",
  "8202": "<=",
  "8203": "(N",
  "8204": " warm",
  "8205": "which",
  "8206": " Fore",
  "8207": "agnost",
  "8208": "mys",
  "8209": " tal",
  "8210": " Sal",
  "8211": "gi",
  "8212": " Print",
  "8213": " TRUE",
  "8214": " о",
  "8215": ".UI",
  "8216": " flash",
  "8217": "roperty",
  "8218": ".location",
  "8219": " Mill",
  "8220": "bi",
  "8221": "contr",
  "8222": ".request",
  "8223": " Sam",
  "8224": " negative",
  "8225": "kit",
  "8226": " sett",
  "8227": ".printStackTrace",
  "8228": "abe",
  "8229": "\ti",
  "8230": " burn",
  "8231": " society",
  "8232": "Cache",
  "8233": " Security",
  "8234": ".models",
  "8235": " WARRANTY",
  "8236": "_up",
  "8237": "ceive",
  "8238": " clients",
  "8239": ".Tr",
  "8240": " providing",
  "8241": " rout",
  "8242": "material",
  "8243": " ||\n",
  "8244": " Ser",
  "8245": " Office",
  "8246": "FTWARE",
  "8247": " '$",
  "8248": " foc",
  "8249": " excell",
  "8250": " cat",
  "8251": "normal",
  "8252": " determine",
  "8253": "\tuint",
  "8254": "Pane",
  "8255": " employees",
  "8256": " Texas",
  "8257": " traff",
  "8258": " Report",
  "8259": "anta",
  "8260": " Box",
  "8261": " django",
  "8262": " partner",
  "8263": "EB",
  "8264": "LINE",
  "8265": " feeling",
  "8266": " civil",
  "8267": "(float",
  "8268": "Sql",
  "8269": " wouldn",
  "8270": ".init",
  "8271": ".left",
  "8272": "-v",
  "8273": "_level",
  "8274": "'}",
  "8275": "AF",
  "8276": " loading",
  "8277": " Only",
  "8278": " cookies",
  "8279": " Gl",
  "8280": "CO",
  "8281": " strategy",
  "8282": "('./",
  "8283": " ship",
  "8284": "poses",
  "8285": " signal",
  "8286": " alpha",
  "8287": ".pop",
  "8288": "Radius",
  "8289": " replace",
  "8290": "_DIR",
  "8291": "counter",
  "8292": "bservable",
  "8293": "ela",
  "8294": "Weight",
  "8295": "hash",
  "8296": "bose",
  "8297": "fx",
  "8298": " Email",
  "8299": " refer",
  "8300": "localhost",
  "8301": "_RO",
  "8302": "iques",
  "8303": "Step",
  "8304": " ahead",
  "8305": "(View",
  "8306": " Services",
  "8307": " Json",
  "8308": "essor",
  "8309": " pun",
  "8310": " appropriate",
  "8311": "akers",
  "8312": "osen",
  "8313": "posing",
  "8314": " agent",
  "8315": "fc",
  "8316": " transfer",
  "8317": " invalid",
  "8318": " Research",
  "8319": "Vertex",
  "8320": " gay",
  "8321": " journal",
  "8322": "[x",
  "8323": " \"\",\n",
  "8324": " Well",
  "8325": ".Tasks",
  "8326": "Spec",
  "8327": " ol",
  "8328": " spend",
  "8329": " Australia",
  "8330": "Match",
  "8331": ".junit",
  "8332": "                                     ",
  "8333": " MAX",
  "8334": "izable",
  "8335": "clusive",
  "8336": "_valid",
  "8337": " quarter",
  "8338": "yan",
  "8339": " Edit",
  "8340": "arden",
  "8341": "=new",
  "8342": " frag",
  "8343": "Bit",
  "8344": "zi",
  "8345": "aine",
  "8346": "udd",
  "8347": ".Object",
  "8348": "debug",
  "8349": " cash",
  "8350": "_IM",
  "8351": " een",
  "8352": " commercial",
  "8353": " Video",
  "8354": "loader",
  "8355": " fixed",
  "8356": " applications",
  "8357": " _,",
  "8358": " Russia",
  "8359": "itect",
  "8360": "_(",
  "8361": " Block",
  "8362": " san",
  "8363": " Tom",
  "8364": " perhaps",
  "8365": " sig",
  "8366": "levant",
  "8367": " corpor",
  "8368": "ataset",
  "8369": "ronic",
  "8370": "xe",
  "8371": " eth",
  "8372": "Some",
  "8373": "pop",
  "8374": "_OK",
  "8375": " tend",
  "8376": ".Res",
  "8377": "_and",
  "8378": " reviews",
  "8379": " wild",
  "8380": " degree",
  "8381": ".O",
  "8382": ".objects",
  "8383": "_args",
  "8384": "nil",
  "8385": " disabled",
  "8386": "Parent",
  "8387": " notes",
  "8388": " \"\"\n",
  "8389": "(state",
  "8390": "istrict",
  "8391": " logging",
  "8392": ".IO",
  "8393": " Mal",
  "8394": "DM",
  "8395": " xml",
  "8396": " Robert",
  "8397": "elen",
  "8398": "layout",
  "8399": "fol",
  "8400": "']))",
  "8401": ",b",
  "8402": " Jer",
  "8403": "filename",
  "8404": " fan",
  "8405": " Custom",
  "8406": "=\"\"",
  "8407": " Die",
  "8408": "Bundle",
  "8409": ".utils",
  "8410": " trip",
  "8411": "MB",
  "8412": " soft",
  "8413": "_MODE",
  "8414": " applicable",
  "8415": " upper",
  "8416": "ERVER",
  "8417": "_al",
  "8418": "_LOG",
  "8419": "Here",
  "8420": "wp",
  "8421": " Server",
  "8422": " Client",
  "8423": " chem",
  "8424": "Scroll",
  "8425": " highest",
  "8426": " Select",
  "8427": " \"@",
  "8428": " Why",
  "8429": "Sec",
  "8430": "heel",
  "8431": "Operation",
  "8432": " connected",
  "8433": "irmed",
  "8434": " citiz",
  "8435": " Che",
  "8436": " forces",
  "8437": " www",
  "8438": "Root",
  "8439": "ANCE",
  "8440": "Many",
  "8441": "icip",
  "8442": "rgan",
  "8443": " Tor",
  "8444": " Press",
  "8445": " Mor",
  "8446": "-line",
  "8447": "uled",
  "8448": ">\\",
  "8449": " thus",
  "8450": " Register",
  "8451": "hol",
  "8452": " Chinese",
  "8453": " posted",
  "8454": " magn",
  "8455": "abilities",
  "8456": " disease",
  "8457": " remains",
  "8458": " Prof",
  "8459": "-form",
  "8460": " cin",
  "8461": "organ",
  "8462": "icate",
  "8463": " stress",
  "8464": "]*",
  "8465": " ----------------------------------------------------------------",
  "8466": "_context",
  "8467": "orry",
  "8468": " died",
  "8469": "mat",
  "8470": " starts",
  "8471": ".Message",
  "8472": " runs",
  "8473": " guide",
  "8474": " warranty",
  "8475": "entials",
  "8476": "dict",
  "8477": " Size",
  "8478": "uler",
  "8479": " responsible",
  "8480": "_SET",
  "8481": " containing",
  "8482": " Price",
  "8483": "||",
  "8484": "FS",
  "8485": " emp",
  "8486": "_button",
  "8487": "(uint",
  "8488": " suff",
  "8489": "pth",
  "8490": " definitely",
  "8491": "pute",
  "8492": " marketing",
  "8493": " WH",
  "8494": " Sie",
  "8495": "+=",
  "8496": "OLOR",
  "8497": " consult",
  "8498": " signed",
  "8499": " sequence",
  "8500": "lee",
  "8501": " requirements",
  "8502": "hy",
  "8503": "Express",
  "8504": "MT",
  "8505": "sey",
  "8506": " ult",
  "8507": "�",
  "8508": "elligence",
  "8509": " analy",
  "8510": " dress",
  "8511": "engine",
  "8512": " Great",
  "8513": " Android",
  "8514": " Alex",
  "8515": "mode",
  "8516": "Dictionary",
  "8517": ".Date",
  "8518": "�",
  "8519": "VICE",
  "8520": " families",
  "8521": " Russian",
  "8522": " Times",
  "8523": ".call",
  "8524": "$(",
  "8525": "Profile",
  "8526": " folder",
  "8527": "ches",
  "8528": " legis",
  "8529": "_row",
  "8530": "unes",
  "8531": "ل",
  "8532": " }).",
  "8533": "Assert",
  "8534": "agen",
  "8535": " Hand",
  "8536": "Iter",
  "8537": " biggest",
  "8538": "oreach",
  "8539": " polic",
  "8540": " permissions",
  "8541": " showed",
  "8542": " Element",
  "8543": " topic",
  "8544": "——",
  "8545": "road",
  "8546": " Bank",
  "8547": "record",
  "8548": " partners",
  "8549": " Ref",
  "8550": "essions",
  "8551": " assess",
  "8552": "UST",
  "8553": " Party",
  "8554": "produ",
  "8555": "LC",
  "8556": " ul",
  "8557": ".form",
  "8558": "hide",
  "8559": "copy",
  "8560": "UTF",
  "8561": " SOFTWARE",
  "8562": "\r\n\r\n\r\n",
  "8563": " Lin",
  "8564": "una",
  "8565": "ugar",
  "8566": " administration",
  "8567": " opening",
  "8568": " scan",
  "8569": " continued",
  "8570": "component",
  "8571": ".sp",
  "8572": " happens",
  "8573": "ummy",
  "8574": " PR",
  "8575": ".File",
  "8576": " Download",
  "8577": "Loading",
  "8578": "di",
  "8579": " waiting",
  "8580": "_ADD",
  "8581": "Tab",
  "8582": ".querySelector",
  "8583": " economy",
  "8584": " French",
  "8585": "txt",
  "8586": " fant",
  "8587": "_;\n",
  "8588": "Holder",
  "8589": "SH",
  "8590": " numpy",
  "8591": " street",
  "8592": " male",
  "8593": "\\Model",
  "8594": "anging",
  "8595": " Bill",
  "8596": " previously",
  "8597": "BI",
  "8598": " Secret",
  "8599": " mist",
  "8600": " Field",
  "8601": "ups",
  "8602": " Process",
  "8603": " kept",
  "8604": " OT",
  "8605": " traditional",
  "8606": ".i",
  "8607": "amin",
  "8608": " helps",
  "8609": "Any",
  "8610": "origin",
  "8611": "ilters",
  "8612": "ju",
  "8613": "desc",
  "8614": " Account",
  "8615": " )\r\n",
  "8616": "ktop",
  "8617": "olly",
  "8618": " fs",
  "8619": " �",
  "8620": " ut",
  "8621": " central",
  "8622": "(test",
  "8623": ".An",
  "8624": " satisf",
  "8625": "GR",
  "8626": " Full",
  "8627": " heat",
  "8628": "iber",
  "8629": " onto",
  "8630": "mos",
  "8631": "Schema",
  "8632": " factory",
  "8633": "\".$",
  "8634": "aws",
  "8635": "Statement",
  "8636": "(target",
  "8637": "\tnew",
  "8638": ".be",
  "8639": " guest",
  "8640": " mal",
  "8641": "ARY",
  "8642": " reached",
  "8643": " mouse",
  "8644": " challenge",
  "8645": "\tdouble",
  "8646": " Tem",
  "8647": " terror",
  "8648": " extract",
  "8649": "_TO",
  "8650": " separate",
  "8651": " mir",
  "8652": "help",
  "8653": " capacity",
  "8654": " Property",
  "8655": "kan",
  "8656": "_create",
  "8657": " Light",
  "8658": ".parent",
  "8659": " understanding",
  "8660": " easier",
  "8661": " |=",
  "8662": " enh",
  "8663": " fat",
  "8664": " protest",
  "8665": "amm",
  "8666": "_AT",
  "8667": "-of",
  "8668": "ils",
  "8669": " Oh",
  "8670": " psych",
  "8671": " $.",
  "8672": "inds",
  "8673": " relative",
  "8674": "shop",
  "8675": "short",
  "8676": " Sand",
  "8677": "uestion",
  "8678": " fear",
  "8679": "/\n\n",
  "8680": ".context",
  "8681": " schools",
  "8682": " serve",
  "8683": "zone",
  "8684": "_db",
  "8685": " majority",
  "8686": "example",
  "8687": " lang",
  "8688": "\t  ",
  "8689": "Register",
  "8690": "endo",
  "8691": " processing",
  "8692": "_template",
  "8693": "-user",
  "8694": " eg",
  "8695": "COM",
  "8696": " Blue",
  "8697": "iro",
  "8698": " remote",
  "8699": " IT",
  "8700": "#!/",
  "8701": " redistrib",
  "8702": "raz",
  "8703": " Since",
  "8704": " Tur",
  "8705": "Background",
  "8706": "===",
  "8707": " reflect",
  "8708": " pros",
  "8709": "cmd",
  "8710": " whom",
  "8711": "Compat",
  "8712": " Are",
  "8713": "Identifier",
  "8714": " Thom",
  "8715": "_port",
  "8716": "gu",
  "8717": " monitor",
  "8718": "rm",
  "8719": " patient",
  "8720": "verter",
  "8721": " gain",
  "8722": "-ui",
  "8723": "Inst",
  "8724": " dies",
  "8725": "Area",
  "8726": "_filter",
  "8727": " grat",
  "8728": " reality",
  "8729": "ordinate",
  "8730": "olved",
  "8731": "Contact",
  "8732": " compliance",
  "8733": "_or",
  "8734": " Var",
  "8735": "dl",
  "8736": " append",
  "8737": "GER",
  "8738": "(max",
  "8739": ".render",
  "8740": " dynamic",
  "8741": "ordinates",
  "8742": "_options",
  "8743": "_column",
  "8744": " batter",
  "8745": "space",
  "8746": "La",
  "8747": " Source",
  "8748": "/bin",
  "8749": " dos",
  "8750": " Board",
  "8751": " Thread",
  "8752": " AL",
  "8753": "(config",
  "8754": " Mer",
  "8755": " miles",
  "8756": "_header",
  "8757": "ETHOD",
  "8758": "izz",
  "8759": " benefit",
  "8760": " integr",
  "8761": "(current",
  "8762": "ulo",
  "8763": ".default",
  "8764": " Div",
  "8765": " ton",
  "8766": "oth",
  "8767": "ervation",
  "8768": "edom",
  "8769": " baby",
  "8770": "ceived",
  "8771": ".top",
  "8772": "riority",
  "8773": " Local",
  "8774": "riage",
  "8775": " attacks",
  "8776": " hospital",
  "8777": " female",
  "8778": " Login",
  "8779": " Flor",
  "8780": " chain",
  "8781": "ashion",
  "8782": "Texture",
  "8783": "Save",
  "8784": " farm",
  "8785": ".contains",
  "8786": ".Test",
  "8787": " knows",
  "8788": " generally",
  "8789": "ipeline",
  "8790": " meant",
  "8791": "encia",
  "8792": " nicht",
  "8793": " contents",
  "8794": "PM",
  "8795": "chedule",
  "8796": "(line",
  "8797": "CG",
  "8798": "job",
  "8799": " Real",
  "8800": "uer",
  "8801": "firm",
  "8802": " �",
  "8803": "etro",
  "8804": "\"`\n",
  "8805": " speech",
  "8806": " thr",
  "8807": "foreach",
  "8808": " warn",
  "8809": "\tl",
  "8810": " heavy",
  "8811": "<li",
  "8812": "Ne",
  "8813": " investigation",
  "8814": "Math",
  "8815": "-title",
  "8816": " church",
  "8817": " despite",
  "8818": "chain",
  "8819": " whatever",
  "8820": "arian",
  "8821": "fn",
  "8822": " meta",
  "8823": "})\n\n",
  "8824": "UFF",
  "8825": " regarding",
  "8826": "_SUCCESS",
  "8827": "mes",
  "8828": " Intent",
  "8829": " resolve",
  "8830": "poss",
  "8831": "ira",
  "8832": "force",
  "8833": "oice",
  "8834": "â",
  "8835": " pm",
  "8836": " updates",
  "8837": "Arr",
  "8838": " �",
  "8839": "testing",
  "8840": " toward",
  "8841": "ntax",
  "8842": "�",
  "8843": " listen",
  "8844": " goals",
  "8845": "InstanceState",
  "8846": "Dr",
  "8847": " rare",
  "8848": " trail",
  "8849": "Keys",
  "8850": "Cal",
  "8851": "Car",
  "8852": " People",
  "8853": "\tlocal",
  "8854": "classes",
  "8855": "Reference",
  "8856": ".forEach",
  "8857": "emb",
  "8858": "activ",
  "8859": " prim",
  "8860": "redict",
  "8861": " rad",
  "8862": ".Back",
  "8863": " spread",
  "8864": " clock",
  "8865": " vir",
  "8866": "editor",
  "8867": " efforts",
  "8868": " branch",
  "8869": " indust",
  "8870": " motor",
  "8871": " amb",
  "8872": " datetime",
  "8873": " rencont",
  "8874": " Christian",
  "8875": " Americans",
  "8876": "full",
  "8877": " fmt",
  "8878": ".main",
  "8879": " caused",
  "8880": "_update",
  "8881": " Content",
  "8882": "ATCH",
  "8883": " bath",
  "8884": " Each",
  "8885": " radio",
  "8886": "achment",
  "8887": "uzz",
  "8888": "Submit",
  "8889": " restrict",
  "8890": "abin",
  "8891": " Load",
  "8892": " extension",
  "8893": " essay",
  "8894": " hat",
  "8895": "aviour",
  "8896": "toBe",
  "8897": "\":[",
  "8898": " offered",
  "8899": " vill",
  "8900": "(double",
  "8901": "bc",
  "8902": "_free",
  "8903": " Miss",
  "8904": " Ber",
  "8905": " �",
  "8906": " Like",
  "8907": " helped",
  "8908": ".getName",
  "8909": "_AL",
  "8910": " spirit",
  "8911": " Apache",
  "8912": "ws",
  "8913": " therefore",
  "8914": "(params",
  "8915": "_img",
  "8916": " peace",
  "8917": " incor",
  "8918": " EXPECT",
  "8919": " minor",
  "8920": "ipes",
  "8921": "\tdata",
  "8922": "selector",
  "8923": "city",
  "8924": "trie",
  "8925": ".base",
  "8926": "_frame",
  "8927": " opened",
  "8928": "/json",
  "8929": "LY",
  "8930": "nu",
  "8931": ".De",
  "8932": "tf",
  "8933": "margin",
  "8934": ".Parse",
  "8935": " pi",
  "8936": " eq",
  "8937": "bd",
  "8938": "Fields",
  "8939": " Tree",
  "8940": " ban",
  "8941": "istan",
  "8942": "\n        \n",
  "8943": "\tgl",
  "8944": " produced",
  "8945": "system",
  "8946": "Mark",
  "8947": "_hash",
  "8948": " bg",
  "8949": " constit",
  "8950": " League",
  "8951": " mission",
  "8952": "_format",
  "8953": "([\n",
  "8954": "clusion",
  "8955": "!\"",
  "8956": "з",
  "8957": "break",
  "8958": "\tswitch",
  "8959": " ther",
  "8960": "Transform",
  "8961": " football",
  "8962": "-link",
  "8963": "route",
  "8964": ".auth",
  "8965": " bag",
  "8966": "overs",
  "8967": " enabled",
  "8968": " rac",
  "8969": "(I",
  "8970": "CR",
  "8971": "ancing",
  "8972": " managed",
  "8973": "_q",
  "8974": "NGTH",
  "8975": " mac",
  "8976": " Auto",
  "8977": "amente",
  "8978": " '',",
  "8979": ".Append",
  "8980": " pin",
  "8981": ".item",
  "8982": "acking",
  "8983": " occas",
  "8984": "person",
  "8985": " ti",
  "8986": ".Reg",
  "8987": " haven",
  "8988": " glass",
  "8989": " \"</",
  "8990": " Simple",
  "8991": "Print",
  "8992": " surround",
  "8993": "NO",
  "8994": "。\n",
  "8995": "        \r\n",
  "8996": " Many",
  "8997": " \"_",
  "8998": " weekend",
  "8999": " somew",
  "9000": ".params",
  "9001": "small",
  "9002": "ATED",
  "9003": " plugin",
  "9004": "fields",
  "9005": " Initialize",
  "9006": "oon",
  "9007": "atile",
  "9008": "ye",
  "9009": " vous",
  "9010": "LAG",
  "9011": " older",
  "9012": " gam",
  "9013": " extremely",
  "9014": " het",
  "9015": "enum",
  "9016": " SET",
  "9017": "xff",
  "9018": " timer",
  "9019": "/index",
  "9020": " critical",
  "9021": "Rows",
  "9022": "_argument",
  "9023": " execute",
  "9024": " showing",
  "9025": ".xml",
  "9026": "-list",
  "9027": "Role",
  "9028": "typename",
  "9029": "_method",
  "9030": "that",
  "9031": "cher",
  "9032": " �",
  "9033": "XT",
  "9034": " thousands",
  "9035": "\tn",
  "9036": " resp",
  "9037": "_price",
  "9038": "olut",
  "9039": "Ag",
  "9040": " Two",
  "9041": " becomes",
  "9042": " hus",
  "9043": ".Use",
  "9044": "theme",
  "9045": "urb",
  "9046": " /*\n",
  "9047": "erialize",
  "9048": "ARN",
  "9049": " lose",
  "9050": "Lower",
  "9051": " vel",
  "9052": " defense",
  "9053": "condition",
  "9054": " bes",
  "9055": " dry",
  "9056": " scroll",
  "9057": ".Show",
  "9058": "IEL",
  "9059": "ор",
  "9060": " Rest",
  "9061": "Where",
  "9062": "oods",
  "9063": " Jes",
  "9064": " wire",
  "9065": "_INFO",
  "9066": " strings",
  "9067": "gment",
  "9068": " matches",
  "9069": " electric",
  "9070": " excellent",
  "9071": " Council",
  "9072": "idade",
  "9073": " wx",
  "9074": "push",
  "9075": "_entry",
  "9076": " tasks",
  "9077": " rich",
  "9078": "sa",
  "9079": " Smith",
  "9080": "UNCTION",
  "9081": "Pointer",
  "9082": "pective",
  "9083": " widget",
  "9084": "ista",
  "9085": " agency",
  "9086": " sich",
  "9087": "ologies",
  "9088": " trial",
  "9089": "alysis",
  "9090": ".check",
  "9091": "ARK",
  "9092": " onChange",
  "9093": "about",
  "9094": "',$",
  "9095": "(val",
  "9096": " placed",
  "9097": "_NO",
  "9098": " dan",
  "9099": ".equal",
  "9100": "\t     ",
  "9101": " weather",
  "9102": ".game",
  "9103": " destination",
  "9104": "_USER",
  "9105": "iece",
  "9106": " provider",
  "9107": ".last",
  "9108": "plex",
  "9109": "Note",
  "9110": "/js",
  "9111": " på",
  "9112": " planning",
  "9113": "attribute",
  "9114": "PRO",
  "9115": "atches",
  "9116": " <-",
  "9117": " seeing",
  "9118": " cancel",
  "9119": "_ind",
  "9120": ".keys",
  "9121": " visual",
  "9122": " Current",
  "9123": " College",
  "9124": " Rock",
  "9125": " agreement",
  "9126": " Store",
  "9127": "oving",
  "9128": " corner",
  "9129": "ampions",
  "9130": "ISE",
  "9131": "Fin",
  "9132": " protection",
  "9133": " fi",
  "9134": "Play",
  "9135": "plugin",
  "9136": ")}",
  "9137": ".frame",
  "9138": "-z",
  "9139": " transition",
  "9140": "igin",
  "9141": " candidate",
  "9142": " Union",
  "9143": "_values",
  "9144": "(map",
  "9145": "cle",
  "9146": " trend",
  "9147": "wide",
  "9148": "aren",
  "9149": "Loc",
  "9150": "UTH",
  "9151": " Bay",
  "9152": " smaller",
  "9153": "ius",
  "9154": "well",
  "9155": " criminal",
  "9156": " conflic",
  "9157": "bert",
  "9158": "_INT",
  "9159": " investment",
  "9160": "custom",
  "9161": " Session",
  "9162": "_write",
  "9163": "ania",
  "9164": " Mass",
  "9165": "_EQ",
  "9166": "_NOT",
  "9167": " violence",
  "9168": "Argument",
  "9169": "_email",
  "9170": " belong",
  "9171": "_function",
  "9172": " enemy",
  "9173": "ema",
  "9174": " Address",
  "9175": ".empty",
  "9176": " inner",
  "9177": " Contact",
  "9178": "Loader",
  "9179": "<input",
  "9180": " CA",
  "9181": "lot",
  "9182": " pictures",
  "9183": " Support",
  "9184": "_names",
  "9185": "Layer",
  "9186": " Click",
  "9187": "Sum",
  "9188": "æ",
  "9189": " Look",
  "9190": "uous",
  "9191": "Lib",
  "9192": "Flags",
  "9193": "team",
  "9194": "EP",
  "9195": "hat",
  "9196": "override",
  "9197": "apsed",
  "9198": " labels",
  "9199": "quis",
  "9200": " Stream",
  "9201": "_device",
  "9202": " Commit",
  "9203": "(root",
  "9204": "\"}",
  "9205": ".isEmpty",
  "9206": "\tM",
  "9207": " angle",
  "9208": " Because",
  "9209": "%%%%%%%%",
  "9210": " aim",
  "9211": " stick",
  "9212": "stmt",
  "9213": "agraph",
  "9214": "answer",
  "9215": " clin",
  "9216": " Isl",
  "9217": ".ext",
  "9218": " INT",
  "9219": " styles",
  "9220": " born",
  "9221": " scr",
  "9222": " expand",
  "9223": " raised",
  "9224": "TextBox",
  "9225": "ILL",
  "9226": "------------------------------------------------",
  "9227": "HTTP",
  "9228": ">)",
  "9229": "_char",
  "9230": "resource",
  "9231": " episode",
  "9232": " '_",
  "9233": " Es",
  "9234": " Earth",
  "9235": "  ",
  "9236": "UPDATE",
  "9237": " Sou",
  "9238": "uis",
  "9239": "types",
  "9240": " mas",
  "9241": " fav",
  "9242": " construct",
  "9243": "_rate",
  "9244": "eras",
  "9245": " |\n",
  "9246": "roperties",
  "9247": " external",
  "9248": " applied",
  "9249": " prefix",
  "9250": "oted",
  "9251": "lers",
  "9252": " cold",
  "9253": " SP",
  "9254": " Church",
  "9255": " Output",
  "9256": "losed",
  "9257": "�",
  "9258": "ificate",
  "9259": "operation",
  "9260": "herit",
  "9261": "xFF",
  "9262": ".env",
  "9263": "_err",
  "9264": "osh",
  "9265": "Direction",
  "9266": "Cancel",
  "9267": " Frank",
  "9268": " finding",
  "9269": ".)\n\n",
  "9270": " router",
  "9271": "・",
  "9272": "ses",
  "9273": " crow",
  "9274": "=='",
  "9275": " sand",
  "9276": " rid",
  "9277": "iture",
  "9278": " entre",
  "9279": " observ",
  "9280": " vac",
  "9281": "�",
  "9282": "-T",
  "9283": "Art",
  "9284": "night",
  "9285": ".search",
  "9286": " exchange",
  "9287": " district",
  "9288": ".os",
  "9289": " department",
  "9290": " documents",
  "9291": " century",
  "9292": " Next",
  "9293": "Host",
  "9294": " KIND",
  "9295": " susp",
  "9296": "-P",
  "9297": "rend",
  "9298": ".em",
  "9299": "uite",
  "9300": "isters",
  "9301": "(json",
  "9302": " Ann",
  "9303": "wt",
  "9304": "ati",
  "9305": " HTML",
  "9306": "when",
  "9307": "Directory",
  "9308": " shut",
  "9309": "<a",
  "9310": "edy",
  "9311": " healthy",
  "9312": " temperature",
  "9313": " Gen",
  "9314": " metal",
  "9315": " submit",
  "9316": " DO",
  "9317": " attract",
  "9318": " {};\n",
  "9319": " Word",
  "9320": " ll",
  "9321": " seemed",
  "9322": "ko",
  "9323": "IED",
  "9324": " labor",
  "9325": ".Context",
  "9326": " asset",
  "9327": "you",
  "9328": " cars",
  "9329": " Column",
  "9330": " ré",
  "9331": " square",
  "9332": " NSString",
  "9333": "”,",
  "9334": "apes",
  "9335": "...\n",
  "9336": " thanks",
  "9337": "(props",
  "9338": " tick",
  "9339": " experiment",
  "9340": " prison",
  "9341": "tree",
  "9342": "-text",
  "9343": " IOException",
  "9344": "-width",
  "9345": "_STATUS",
  "9346": "fast",
  "9347": "-body",
  "9348": "-header",
  "9349": " guar",
  "9350": "crete",
  "9351": " Tim",
  "9352": " clearly",
  "9353": " Republican",
  "9354": " justify",
  "9355": "ит",
  "9356": "\t    ",
  "9357": "cache",
  "9358": ";//",
  "9359": " presence",
  "9360": " factors",
  "9361": " employee",
  "9362": "]))",
  "9363": "Member",
  "9364": " selector",
  "9365": "bor",
  "9366": " Mex",
  "9367": "utex",
  "9368": "_tag",
  "9369": "ailure",
  "9370": " Net",
  "9371": " reli",
  "9372": "EG",
  "9373": " fprintf",
  "9374": " teen",
  "9375": "loss",
  "9376": " leaving",
  "9377": "Delegate",
  "9378": " beat",
  "9379": " minute",
  "9380": "subscribe",
  "9381": " redistribute",
  "9382": "Constants",
  "9383": " cancer",
  "9384": "/{",
  "9385": "BL",
  "9386": " span",
  "9387": " Child",
  "9388": "Center",
  "9389": " earth",
  "9390": "YS",
  "9391": " Level",
  "9392": " sea",
  "9393": ".support",
  "9394": ".inner",
  "9395": ".Item",
  "9396": "illing",
  "9397": "    \n    \n",
  "9398": " Label",
  "9399": " Est",
  "9400": "(arg",
  "9401": "boBox",
  "9402": "\tforeach",
  "9403": "cos",
  "9404": "Failed",
  "9405": "swers",
  "9406": "Editor",
  "9407": "ront",
  "9408": " MP",
  "9409": "expr",
  "9410": " Life",
  "9411": " ??",
  "9412": "ör",
  "9413": " attend",
  "9414": " Que",
  "9415": " species",
  "9416": "-D",
  "9417": " aus",
  "9418": "Struct",
  "9419": " advantage",
  "9420": "oston",
  "9421": "-block",
  "9422": "initial",
  "9423": "CRE",
  "9424": " truly",
  "9425": " compare",
  "9426": "orney",
  "9427": " spect",
  "9428": "Full",
  "9429": "bes",
  "9430": " visible",
  "9431": " mess",
  "9432": "stances",
  "9433": " cloud",
  "9434": "_version",
  "9435": " furn",
  "9436": "icago",
  "9437": "LOW",
  "9438": " traffic",
  "9439": " fol",
  "9440": "rypto",
  "9441": " declar",
  "9442": " slot",
  "9443": " Ext",
  "9444": " England",
  "9445": " Under",
  "9446": " ta",
  "9447": "letter",
  "9448": " officer",
  "9449": " Donald",
  "9450": "Yes",
  "9451": "_json",
  "9452": "ITableView",
  "9453": " USE",
  "9454": "mployee",
  "9455": " opinion",
  "9456": " Aut",
  "9457": "border",
  "9458": " advice",
  "9459": " automatically",
  "9460": "isco",
  "9461": " mm",
  "9462": ".vis",
  "9463": "aml",
  "9464": " initialize",
  "9465": " ({",
  "9466": " ;\n\n",
  "9467": " generation",
  "9468": " bits",
  "9469": "clipse",
  "9470": " unf",
  "9471": "utors",
  "9472": "plt",
  "9473": " delta",
  "9474": "estroy",
  "9475": "isis",
  "9476": "<br",
  "9477": " limitations",
  "9478": " ended",
  "9479": " Mad",
  "9480": "ilm",
  "9481": "These",
  "9482": " Minister",
  "9483": " chart",
  "9484": "Fragment",
  "9485": " independent",
  "9486": "Year",
  "9487": " instr",
  "9488": " tags",
  "9489": "AVE",
  "9490": " Arch",
  "9491": "stop",
  "9492": "Progress",
  "9493": " mi",
  "9494": " learned",
  "9495": "Ge",
  "9496": " hotel",
  "9497": "SM",
  "9498": "TYPE",
  "9499": " cy",
  "9500": "ERSION",
  "9501": "unately",
  "9502": "limit",
  "9503": "sel",
  "9504": " movies",
  "9505": " steel",
  "9506": "oz",
  "9507": "gb",
  "9508": " Camp",
  "9509": "site",
  "9510": " Logger",
  "9511": "PLE",
  "9512": "од",
  "9513": ".right",
  "9514": " Core",
  "9515": " mixed",
  "9516": "step",
  "9517": " puts",
  "9518": "super",
  "9519": "Router",
  "9520": ".Http",
  "9521": "lyph",
  "9522": " Colors",
  "9523": " androidx",
  "9524": ".str",
  "9525": " innov",
  "9526": " deck",
  "9527": "'>\n",
  "9528": "apers",
  "9529": "](",
  "9530": "continue",
  "9531": "spec",
  "9532": " Road",
  "9533": "ASH",
  "9534": "iliar",
  "9535": " continues",
  "9536": " appoint",
  "9537": " #\n",
  "9538": " Vir",
  "9539": " ?>\"",
  "9540": " bin",
  "9541": "}\",",
  "9542": "going",
  "9543": "each",
  "9544": "BD",
  "9545": " Access",
  "9546": "Doc",
  "9547": " Management",
  "9548": "BER",
  "9549": "asket",
  "9550": ".getInstance",
  "9551": " established",
  "9552": "socket",
  "9553": "INS",
  "9554": "\tvirtual",
  "9555": "\tresult",
  "9556": "READ",
  "9557": "_height",
  "9558": " Font",
  "9559": " ();\n",
  "9560": "_html",
  "9561": " neighbor",
  "9562": "lor",
  "9563": " gather",
  "9564": " })\n\n",
  "9565": " identity",
  "9566": " fab",
  "9567": "padding",
  "9568": " Route",
  "9569": "Enumerable",
  "9570": "ô",
  "9571": " forced",
  "9572": "/jquery",
  "9573": ".\n\n\n\n\n\n",
  "9574": "resents",
  "9575": "_left",
  "9576": ".Param",
  "9577": "\tthrow",
  "9578": " Ham",
  "9579": " eventually",
  "9580": "acer",
  "9581": "pub",
  "9582": " tra",
  "9583": "unique",
  "9584": "del",
  "9585": " Florida",
  "9586": " Clean",
  "9587": "xa",
  "9588": " ·",
  "9589": " validate",
  "9590": "Visual",
  "9591": "Expression",
  "9592": "_func",
  "9593": "member",
  "9594": "\th",
  "9595": "trl",
  "9596": "\tG",
  "9597": "napshot",
  "9598": " PropTypes",
  "9599": "vin",
  "9600": "])\n\n",
  "9601": "owl",
  "9602": "ifies",
  "9603": " $('.",
  "9604": " Context",
  "9605": " Toast",
  "9606": ".Key",
  "9607": " officers",
  "9608": "/n",
  "9609": "sn",
  "9610": "undefined",
  "9611": ".items",
  "9612": "utow",
  "9613": "amage",
  "9614": " accounts",
  "9615": "ookie",
  "9616": "Section",
  "9617": "icians",
  "9618": " advis",
  "9619": "(is",
  "9620": "[:,",
  "9621": " France",
  "9622": "Func",
  "9623": "icious",
  "9624": " tok",
  "9625": "Channel",
  "9626": " AD",
  "9627": "_NUM",
  "9628": " timeout",
  "9629": "lemma",
  "9630": "reme",
  "9631": "uj",
  "9632": ".Al",
  "9633": "uclear",
  "9634": "(os",
  "9635": "(\"<",
  "9636": "[\n",
  "9637": "fetch",
  "9638": " bal",
  "9639": " guid",
  "9640": "-align",
  "9641": " Write",
  "9642": " Once",
  "9643": "utowired",
  "9644": "ODULE",
  "9645": " pitch",
  "9646": "CF",
  "9647": "bytes",
  "9648": " Commission",
  "9649": " incred",
  "9650": "PER",
  "9651": "_response",
  "9652": " Los",
  "9653": "parser",
  "9654": " assume",
  "9655": ".Request",
  "9656": " Token",
  "9657": "_position",
  "9658": " nom",
  "9659": "-term",
  "9660": " remaining",
  "9661": "iostream",
  "9662": " pieces",
  "9663": "apy",
  "9664": " Less",
  "9665": "range",
  "9666": "umbn",
  "9667": "prise",
  "9668": "_option",
  "9669": "Impl",
  "9670": "kwargs",
  "9671": " businesses",
  "9672": "Alert",
  "9673": " parties",
  "9674": " Container",
  "9675": " Private",
  "9676": " Plan",
  "9677": " registered",
  "9678": " jour",
  "9679": "acker",
  "9680": "ени",
  "9681": "/>",
  "9682": "chat",
  "9683": "sect",
  "9684": " creation",
  "9685": "olutely",
  "9686": " instant",
  "9687": " delivery",
  "9688": "icken",
  "9689": "yes",
  "9690": " Franc",
  "9691": "bling",
  "9692": "enda",
  "9693": "[(",
  "9694": "_range",
  "9695": "                                  ",
  "9696": " schedule",
  "9697": "Conn",
  "9698": " thank",
  "9699": "xd",
  "9700": " hook",
  "9701": " documentation",
  "9702": "Parameters",
  "9703": "Hello",
  "9704": "vt",
  "9705": " articles",
  "9706": " west",
  "9707": "defined",
  "9708": ".select",
  "9709": "okens",
  "9710": " VAL",
  "9711": ".file",
  "9712": "reset",
  "9713": " mys",
  "9714": " MA",
  "9715": "]),",
  "9716": " cities",
  "9717": "related",
  "9718": "�",
  "9719": " appeared",
  "9720": " wid",
  "9721": ".panel",
  "9722": " Ins",
  "9723": ".entity",
  "9724": " decre",
  "9725": " Lou",
  "9726": "(time",
  "9727": " Thank",
  "9728": ".createElement",
  "9729": " mentioned",
  "9730": "ounce",
  "9731": " Try",
  "9732": " Wall",
  "9733": "/images",
  "9734": " Menu",
  "9735": "'\r\n",
  "9736": " Er",
  "9737": " critic",
  "9738": " Year",
  "9739": "(param",
  "9740": " flo",
  "9741": "NN",
  "9742": "ooter",
  "9743": " ];\n",
  "9744": " Aff",
  "9745": "\"github",
  "9746": "rooms",
  "9747": " hyp",
  "9748": "global",
  "9749": " avec",
  "9750": " completion",
  "9751": " cond",
  "9752": "onymous",
  "9753": "(temp",
  "9754": " stars",
  "9755": " relevant",
  "9756": " covered",
  "9757": " elim",
  "9758": "_types",
  "9759": "(bool",
  "9760": " tu",
  "9761": "_exists",
  "9762": " secure",
  "9763": " stored",
  "9764": "]/",
  "9765": "xF",
  "9766": " Controller",
  "9767": " migr",
  "9768": "MI",
  "9769": " Den",
  "9770": " annual",
  "9771": "UIL",
  "9772": "-and",
  "9773": " crime",
  "9774": "bel",
  "9775": " kitchen",
  "9776": "@g",
  "9777": "_ph",
  "9778": "ournament",
  "9779": " Social",
  "9780": " Special",
  "9781": "logger",
  "9782": " tail",
  "9783": " unknown",
  "9784": "ded",
  "9785": " apprec",
  "9786": "(db",
  "9787": "cf",
  "9788": " assign",
  "9789": "-out",
  "9790": " Mont",
  "9791": "dp",
  "9792": "widget",
  "9793": " stone",
  "9794": "-primary",
  "9795": ".grid",
  "9796": "Results",
  "9797": "azz",
  "9798": " daughter",
  "9799": " curr",
  "9800": " lin",
  "9801": " south",
  "9802": "forms",
  "9803": " OUT",
  "9804": "lette",
  "9805": "aks",
  "9806": "igure",
  "9807": " EU",
  "9808": "variable",
  "9809": " brief",
  "9810": " Scott",
  "9811": " conference",
  "9812": "anda",
  "9813": "_lock",
  "9814": "oral",
  "9815": " eine",
  "9816": "ORS",
  "9817": "////////////////////////////////////////////////////////////////",
  "9818": "esso",
  "9819": " ris",
  "9820": " gender",
  "9821": "estic",
  "9822": "License",
  "9823": "(out",
  "9824": " ms",
  "9825": "See",
  "9826": " willing",
  "9827": "aze",
  "9828": " sports",
  "9829": " yes",
  "9830": "lu",
  "9831": " purs",
  "9832": "/javascript",
  "9833": "-pro",
  "9834": "navbar",
  "9835": "_product",
  "9836": "/bootstrap",
  "9837": " driving",
  "9838": " �",
  "9839": " propos",
  "9840": "ultip",
  "9841": "uplic",
  "9842": ".email",
  "9843": " approx",
  "9844": "(cl",
  "9845": " wear",
  "9846": " reply",
  "9847": "asset",
  "9848": " ice",
  "9849": " tx",
  "9850": "kr",
  "9851": " Germany",
  "9852": " George",
  "9853": " cb",
  "9854": "\terr",
  "9855": "Move",
  "9856": " poly",
  "9857": "voice",
  "9858": "}\"",
  "9859": " animal",
  "9860": "Av",
  "9861": " Location",
  "9862": " native",
  "9863": "][\"",
  "9864": "<double",
  "9865": " mais",
  "9866": ",int",
  "9867": " prepar",
  "9868": " interval",
  "9869": "plementation",
  "9870": "_ERR",
  "9871": " bug",
  "9872": ">\"",
  "9873": "stat",
  "9874": " },\r\n",
  "9875": "<span",
  "9876": " faith",
  "9877": " rom",
  "9878": "prev",
  "9879": " Elect",
  "9880": "Find",
  "9881": " god",
  "9882": "otor",
  "9883": "//----------------------------------------------------------------",
  "9884": "original",
  "9885": "Cpp",
  "9886": " Senate",
  "9887": " positions",
  "9888": " weapons",
  "9889": " coff",
  "9890": " purposes",
  "9891": "pol",
  "9892": " impress",
  "9893": " animals",
  "9894": ".Entity",
  "9895": "(np",
  "9896": " murder",
  "9897": " ``",
  "9898": "flag",
  "9899": " solutions",
  "9900": " Active",
  "9901": " bright",
  "9902": ".date",
  "9903": " situ",
  "9904": "（",
  "9905": ".ID",
  "9906": " sie",
  "9907": "),\r\n",
  "9908": "akt",
  "9909": "Space",
  "9910": ".dat",
  "9911": ".indexOf",
  "9912": "han",
  "9913": "azine",
  "9914": " Ze",
  "9915": " crash",
  "9916": "(/",
  "9917": ">=",
  "9918": "б",
  "9919": "iva",
  "9920": ".AutoSize",
  "9921": " Lat",
  "9922": "_ext",
  "9923": "Initialize",
  "9924": ".register",
  "9925": "OPY",
  "9926": " reverse",
  "9927": "_dis",
  "9928": "'][",
  "9929": " prompt",
  "9930": "onto",
  "9931": " Journal",
  "9932": "router",
  "9933": " mysqli",
  "9934": "#else",
  "9935": ")\"",
  "9936": "-xs",
  "9937": "lets",
  "9938": "phan",
  "9939": ".LE",
  "9940": "Will",
  "9941": " afford",
  "9942": " skill",
  "9943": "-toggle",
  "9944": "NC",
  "9945": "Bind",
  "9946": "TS",
  "9947": "Just",
  "9948": "iteral",
  "9949": "YP",
  "9950": "\tunsigned",
  "9951": " wind",
  "9952": ")):\n",
  "9953": " warning",
  "9954": " Water",
  "9955": " draft",
  "9956": " cm",
  "9957": " sam",
  "9958": " holding",
  "9959": "zip",
  "9960": " Science",
  "9961": " supposed",
  "9962": "Gen",
  "9963": " diet",
  "9964": "<h",
  "9965": " Pass",
  "9966": "vi",
  "9967": " husband",
  "9968": "��",
  "9969": "note",
  "9970": " About",
  "9971": " Institute",
  "9972": " climate",
  "9973": ".Format",
  "9974": " nut",
  "9975": "ested",
  "9976": " apparent",
  "9977": " holds",
  "9978": "fi",
  "9979": "news",
  "9980": "CM",
  "9981": "video",
  "9982": "':'",
  "9983": "DITION",
  "9984": "ping",
  "9985": " senior",
  "9986": "wa",
  "9987": "-->\n",
  "9988": "_default",
  "9989": " Database",
  "9990": "rep",
  "9991": "ESS",
  "9992": "nergy",
  "9993": ".Find",
  "9994": "_mask",
  "9995": " rise",
  "9996": " kernel",
  "9997": "::$",
  "9998": ".Q",
  "9999": " offering",
  "10000": "decl",
  "10001": " CS",
  "10002": " listed",
  "10003": " mostly",
  "10004": "enger",
  "10005": " blocks",
  "10006": "olo",
  "10007": " governing",
  "10008": "\\F",
  "10009": " concent",
  "10010": ".getText",
  "10011": " mb",
  "10012": " occurred",
  "10013": " changing",
  "10014": "Scene",
  "10015": "_CODE",
  "10016": "Beh",
  "10017": "\"The",
  "10018": " tile",
  "10019": " Association",
  "10020": "\tP",
  "10021": "alty",
  "10022": "_ad",
  "10023": "odies",
  "10024": "iated",
  "10025": " prepared",
  "10026": "possible",
  "10027": " mort",
  "10028": "TEST",
  "10029": " ignore",
  "10030": " calc",
  "10031": " rs",
  "10032": " assertEquals",
  "10033": " sz",
  "10034": " THIS",
  "10035": ".\"\n",
  "10036": " canvas",
  "10037": "java",
  "10038": " dut",
  "10039": "VALID",
  "10040": ".sql",
  "10041": ".input",
  "10042": " aux",
  "10043": "Sup",
  "10044": " artist",
  "10045": "Vec",
  "10046": "_TIME",
  "10047": ".stringify",
  "10048": "etween",
  "10049": " Category",
  "10050": " [-",
  "10051": " DevExpress",
  "10052": " Jul",
  "10053": " ring",
  "10054": ".ed",
  "10055": "YY",
  "10056": "Let",
  "10057": "TextField",
  "10058": " flat",
  "10059": "_print",
  "10060": " OTHER",
  "10061": "adian",
  "10062": " checked",
  "10063": "ele",
  "10064": "Align",
  "10065": "standing",
  "10066": " [],",
  "10067": " lab",
  "10068": "ucky",
  "10069": " Christmas",
  "10070": "(image",
  "10071": ".module",
  "10072": " lots",
  "10073": " slightly",
  "10074": "(final",
  "10075": "erge",
  "10076": "�",
  "10077": " Police",
  "10078": " Right",
  "10079": " award",
  "10080": " OS",
  "10081": " {}\n\n",
  "10082": " ptr",
  "10083": "oves",
  "10084": "icated",
  "10085": "ем",
  "10086": " manage",
  "10087": "oliday",
  "10088": "Amount",
  "10089": "oolStrip",
  "10090": "tbody",
  "10091": "Nav",
  "10092": "wrap",
  "10093": "BB",
  "10094": " watching",
  "10095": "arios",
  "10096": " optional",
  "10097": "_K",
  "10098": " Licensed",
  "10099": ".Map",
  "10100": "Timer",
  "10101": " AP",
  "10102": " Rev",
  "10103": "(o",
  "10104": ",c",
  "10105": "umin",
  "10106": "etailed",
  "10107": " Hy",
  "10108": " blank",
  "10109": "agger",
  "10110": " Self",
  "10111": "()[",
  "10112": ".make",
  "10113": "earn",
  "10114": "channel",
  "10115": "<pre",
  "10116": "blem",
  "10117": "_password",
  "10118": "_sp",
  "10119": "icing",
  "10120": "ez",
  "10121": " theory",
  "10122": " Ter",
  "10123": ",n",
  "10124": "logo",
  "10125": " HTTP",
  "10126": "()))",
  "10127": ".handle",
  "10128": ">;\n",
  "10129": "World",
  "10130": " python",
  "10131": " lif",
  "10132": " trav",
  "10133": " conven",
  "10134": "company",
  "10135": " Club",
  "10136": "Ver",
  "10137": "Btn",
  "10138": " zone",
  "10139": "products",
  "10140": " Educ",
  "10141": " verify",
  "10142": " Mil",
  "10143": "ono",
  "10144": "]);\n\n",
  "10145": "ENCE",
  "10146": " packet",
  "10147": " cer",
  "10148": " enumer",
  "10149": " pars",
  "10150": "formed",
  "10151": " occup",
  "10152": "tre",
  "10153": " exercise",
  "10154": "Day",
  "10155": "_sum",
  "10156": " asking",
  "10157": "aption",
  "10158": " orders",
  "10159": " spending",
  "10160": " ERR",
  "10161": ".Dis",
  "10162": " Util",
  "10163": "“I",
  "10164": "\\'",
  "10165": "?)",
  "10166": "/>\n",
  "10167": " emot",
  "10168": " influence",
  "10169": " Africa",
  "10170": "atters",
  "10171": "م",
  "10172": ".session",
  "10173": " chief",
  "10174": "\t\t\t\t\t\t\t\t\t\t\t",
  "10175": " tom",
  "10176": "cluded",
  "10177": "serial",
  "10178": "_handler",
  "10179": ".Type",
  "10180": "aped",
  "10181": " policies",
  "10182": "-ex",
  "10183": "-tr",
  "10184": "blank",
  "10185": "merce",
  "10186": " coverage",
  "10187": " rc",
  "10188": "_matrix",
  "10189": "_box",
  "10190": " charges",
  "10191": " Boston",
  "10192": "Pe",
  "10193": " circum",
  "10194": " filled",
  "10195": " north",
  "10196": "ictureBox",
  "10197": "\tres",
  "10198": "�",
  "10199": " termin",
  "10200": " […",
  "10201": "IRECT",
  "10202": " ber",
  "10203": " \"../../",
  "10204": "retch",
  "10205": ".code",
  "10206": "_col",
  "10207": " Government",
  "10208": " argv",
  "10209": " Lord",
  "10210": "asi",
  "10211": "Exec",
  "10212": "\tlet",
  "10213": "vertis",
  "10214": " discussion",
  "10215": "enance",
  "10216": "outube",
  "10217": "typeof",
  "10218": " served",
  "10219": " Put",
  "10220": "\tx",
  "10221": " sweet",
  "10222": "Before",
  "10223": "ategy",
  "10224": ".of",
  "10225": " Material",
  "10226": "Sort",
  "10227": "ONT",
  "10228": "igital",
  "10229": "Why",
  "10230": " sust",
  "10231": " �",
  "10232": "abet",
  "10233": " segment",
  "10234": " [],\n",
  "10235": " Muslim",
  "10236": " findViewById",
  "10237": "cut",
  "10238": "_TEXT",
  "10239": " Mary",
  "10240": " loved",
  "10241": " lie",
  "10242": " JO",
  "10243": " isset",
  "10244": "month",
  "10245": " prime",
  "10246": "ti",
  "10247": " Carol",
  "10248": "Use",
  "10249": " Pop",
  "10250": " Save",
  "10251": "Interval",
  "10252": "execute",
  "10253": "dy",
  "10254": " Iran",
  "10255": "_cont",
  "10256": "\tT",
  "10257": " phase",
  "10258": "checkbox",
  "10259": "week",
  "10260": " hide",
  "10261": " til",
  "10262": " ju",
  "10263": "Custom",
  "10264": "burg",
  "10265": "/M",
  "10266": "TON",
  "10267": " quant",
  "10268": " rub",
  "10269": "ixels",
  "10270": " installed",
  "10271": " dump",
  "10272": " properly",
  "10273": "(List",
  "10274": " decide",
  "10275": "apply",
  "10276": "Has",
  "10277": " keeping",
  "10278": " citizens",
  "10279": " joint",
  "10280": "pool",
  "10281": "Socket",
  "10282": "_op",
  "10283": " weapon",
  "10284": "gnore",
  "10285": " Exec",
  "10286": "otten",
  "10287": " MS",
  "10288": " (-",
  "10289": " Review",
  "10290": " examples",
  "10291": " tight",
  "10292": "!(",
  "10293": "DP",
  "10294": " MessageBox",
  "10295": " photograph",
  "10296": "URI",
  "10297": "ét",
  "10298": "low",
  "10299": " Grand",
  "10300": ".persistence",
  "10301": " maintain",
  "10302": " nums",
  "10303": " zip",
  "10304": "ials",
  "10305": " Gets",
  "10306": "peg",
  "10307": " Buffer",
  "10308": "~~~~",
  "10309": "rastructure",
  "10310": " PL",
  "10311": "uen",
  "10312": "obby",
  "10313": "sizeof",
  "10314": " pic",
  "10315": " seed",
  "10316": " experienced",
  "10317": " odd",
  "10318": " kick",
  "10319": " procedure",
  "10320": "avigator",
  "10321": "-on",
  "10322": ",j",
  "10323": " Although",
  "10324": " userId",
  "10325": "accept",
  "10326": "Blue",
  "10327": "IColor",
  "10328": "layer",
  "10329": "available",
  "10330": " ends",
  "10331": ".table",
  "10332": " dataset",
  "10333": "bus",
  "10334": " explain",
  "10335": "(pro",
  "10336": " Committee",
  "10337": " noted",
  "10338": "]:\n",
  "10339": "Dim",
  "10340": "stdio",
  "10341": ".\",\n",
  "10342": "_source",
  "10343": " Week",
  "10344": " Edge",
  "10345": " operating",
  "10346": " este",
  "10347": "ipl",
  "10348": "agination",
  "10349": " proceed",
  "10350": " animation",
  "10351": ".Models",
  "10352": " Watch",
  "10353": "iat",
  "10354": " oppon",
  "10355": "/A",
  "10356": "Report",
  "10357": " sounds",
  "10358": "_buf",
  "10359": "IELD",
  "10360": " bund",
  "10361": "\tget",
  "10362": ".pr",
  "10363": "(tmp",
  "10364": " kid",
  "10365": ">\n\n\n",
  "10366": " yang",
  "10367": "NotFound",
  "10368": "ц",
  "10369": "math",
  "10370": "@gmail",
  "10371": " LIMIT",
  "10372": "redients",
  "10373": " vent",
  "10374": "avigate",
  "10375": "Look",
  "10376": " religious",
  "10377": " rand",
  "10378": "rio",
  "10379": "(GL",
  "10380": "_ip",
  "10381": "uan",
  "10382": "iciency",
  "10383": " Change",
  "10384": ">\r\n\r\n",
  "10385": " Entity",
  "10386": " rencontre",
  "10387": " Ret",
  "10388": "plan",
  "10389": "én",
  "10390": "BOOL",
  "10391": "uries",
  "10392": "train",
  "10393": "Definition",
  "10394": "============",
  "10395": "zz",
  "10396": "Animation",
  "10397": " OK",
  "10398": "_menu",
  "10399": ".bl",
  "10400": "_score",
  "10401": " acad",
  "10402": "(System",
  "10403": " refresh",
  "10404": "'=>$",
  "10405": ".Graphics",
  "10406": "amento",
  "10407": "pid",
  "10408": "tc",
  "10409": " tips",
  "10410": " homes",
  "10411": " fuel",
  "10412": "�",
  "10413": "_helper",
  "10414": "  \r\n",
  "10415": " Room",
  "10416": ".Close",
  "10417": "_attr",
  "10418": " Mount",
  "10419": " Ev",
  "10420": "arser",
  "10421": "_top",
  "10422": "eah",
  "10423": " Delete",
  "10424": "」",
  "10425": "uke",
  "10426": " usage",
  "10427": "aria",
  "10428": "_dev",
  "10429": " texture",
  "10430": " conversation",
  "10431": "eper",
  "10432": "Bean",
  "10433": "done",
  "10434": "nonatomic",
  "10435": " Second",
  "10436": " shooting",
  "10437": "_pre",
  "10438": "Components",
  "10439": " ]\n\n",
  "10440": "__,",
  "10441": "stitution",
  "10442": ".Char",
  "10443": ">();\n\n",
  "10444": " presented",
  "10445": " wa",
  "10446": "oker",
  "10447": "-\n\n",
  "10448": "iner",
  "10449": " becoming",
  "10450": " incident",
  "10451": "Att",
  "10452": " revealed",
  "10453": "forc",
  "10454": " boot",
  "10455": ".page",
  "10456": "Enumerator",
  "10457": "_->",
  "10458": "Photo",
  "10459": " spring",
  "10460": ".\",",
  "10461": " Dictionary",
  "10462": "BJECT",
  "10463": " locations",
  "10464": " samples",
  "10465": "InputStream",
  "10466": " Brown",
  "10467": " stats",
  "10468": "quality",
  "10469": "х",
  "10470": "-dis",
  "10471": " helping",
  "10472": " ped",
  "10473": "(se",
  "10474": " Who",
  "10475": "alian",
  "10476": "internal",
  "10477": " ft",
  "10478": ">().",
  "10479": "->{",
  "10480": " mine",
  "10481": " sector",
  "10482": " gro",
  "10483": " opportunities",
  "10484": " ü",
  "10485": " mp",
  "10486": " alleged",
  "10487": " doubt",
  "10488": "Mouse",
  "10489": "About",
  "10490": "_part",
  "10491": " chair",
  "10492": " stopped",
  "10493": "loop",
  "10494": "entities",
  "10495": " apps",
  "10496": "ansion",
  "10497": " mental",
  "10498": "                                         ",
  "10499": "FR",
  "10500": " defend",
  "10501": "care",
  "10502": " ideal",
  "10503": "/api",
  "10504": "urface",
  "10505": " ele",
  "10506": "ulator",
  "10507": " Rights",
  "10508": "anguages",
  "10509": " funds",
  "10510": " adapt",
  "10511": "Attributes",
  "10512": " deploy",
  "10513": "opts",
  "10514": " validation",
  "10515": " concerns",
  "10516": "uce",
  "10517": ".num",
  "10518": "ulture",
  "10519": "ila",
  "10520": " cup",
  "10521": " pure",
  "10522": ".Fore",
  "10523": " HashMap",
  "10524": ".valueOf",
  "10525": "asm",
  "10526": "MO",
  "10527": " cs",
  "10528": " stores",
  "10529": " ************************************************************************",
  "10530": " communication",
  "10531": "mem",
  "10532": ".EventHandler",
  "10533": ".Status",
  "10534": "_right",
  "10535": ".setOn",
  "10536": "Sheet",
  "10537": " identify",
  "10538": "enerated",
  "10539": "ordered",
  "10540": " \"[",
  "10541": " swe",
  "10542": "Condition",
  "10543": " According",
  "10544": " prepare",
  "10545": " rob",
  "10546": "Pool",
  "10547": " sport",
  "10548": "rv",
  "10549": " Router",
  "10550": " alternative",
  "10551": "([]",
  "10552": " Chicago",
  "10553": "ipher",
  "10554": "ische",
  "10555": " Director",
[...]
